▁प्रशासक
▁मुल
रे,रो,ता,ती,तू,त
हुन्नथ्यो
4%BF%E0%A4%9F
▁सार्वजानिक
▁अस्त्र
▁ओगटे
▁लुकाउन
▁संसदको
▁शृङ्खला
▁आन्दोलनको
बजाज
▁तिर्दै
▁यि
▁क्रोएशिया
妻
▁प्रअ
▁हिंड्न
▁प्रतिपादन
▁रोपे
किनेका
ju
▁इस्लाम
▁हक
▁रिपब्लिकन
▁भनौ
ेसी
▁कालान्तर
▁प्रणाली
▁बनाइराख्न
▁फुर्तिल
▁आवेदक
अनुशासित
▁सूर्योदय
恩
old
नु
횂
▁उसको
▁हेटौंडा
ुना
▁व्यवस्थापक
नाइन्टि
ran
▁छात्रावास
▁एकातिर
▁राडीपाखी
िला
▁गर्नुहुन्छ
妨
िएर
▁संरक्षित
▁कुस्ती
▁योजनाको
▁३
छैनौं।
▁अनुसन्धानका
▁सोध्ने
▁एक-अर्का
▁आश्वस्त
▁घटाउन
ϲ
▁सम्झिए
▁कामदारहरु
▁2018
▁डिप

档
▁मतदान
瞟
▁नारायण
役
▁चलिरहे
▁उल्ल
▁In
▁प्रहरी
▁७५
▁बताउनु
▁जनाए।
4%B9%E0%A
▁भइयो
艺
Ɋ

६१
वर्षअगाडि
▁निकालिएको
▁जेन
玗
▁राडार
ᤵ
▁समृद्ध
▁रेशम
▁राजस्व
许
格
छिन
दिन
▁बखान
ូ
बोलेका
राले
４
▁सुनको
▁रोग
्दैनन्
ल्भ
▁दीपावली
▁स्मृति
庁
0%A4%A5%E0%A4%BF
▁सिजन
4%BE%E0%A4%97
▁मानिरहे
▁जानुभयो
▁विकसित
war
न्दर
▁इमेल
वडा
६/७
(सीटीईभीटी)
▁साइ
्तु
▁मजबु
虑
सेल
67
उल्लेखित
▁जर्नल
▁मस्ट
▁पर्खिरहे
贈
▁जुर
▁युसुफ
▁गढीमाई
+bhan
▁सरकारले
प
्यै
▁डिस्प्ले
▁लक
रहयो
▁सेवाका
᤻
▁रंगमञ्च
▁राशी
▁परिस्थिति
▁नखाने
div
▁सिंहदरबारमा
▁एकजुट
▁रै'छ
cannot
를
रौतहट
▁pani
▁स्कोर
▁नेपाललाई
▁समितिका
सहाय
▁ड्रेन
२०३९
Love
虎
▁हुनुहुँदैन
भरपुर
ile
▁गोबिन्द
圈
▁शुभेच्छुक
▁बिर
ਾ
and
渔
net
▁खिल्ली
노
▁सकस
▁ज्याक
विप्लब
कर्मचारी
店
猜
ヶ
सोग्गी
▁पार्छ
씱
▁रोय
ुपर्छ।
▁जनतासँग
४४
४८
▁चट्टान
▁do
▁रक्तश्राव
▁भू–भाग
▁होहल्ला
▁मोदी
समक्ष
इमान्दारीपूर्वक
▁स्वस्तिक
▁पछय
▁सहमती
▁बुझेका
ち
vi
ⷂ
▁अस्विकार
▁पीएचडी
%2C+%E
О
ज्ञा
▁सताउन
+%E0%A4%A4%E0%A
स्वास्थ्य
5%8B%E0%A4%B8
▁योजनाहरू
▁जाँचपास
28/feed
▁अनुयायी
/content/
▁भैँसी
▁गेजुवा
भोज
▁पहिरो
▁किनार
л
▁ल्याउनुपर्छ
▁रास्ट्रपति
ǘ
▁जान्छौं
😀
▁पादुकोण
報
▁छक्का
▁आउँथ्यो
विदेश
▁दैलेख
闊
ह
नीय
▁अमेरिका
▁विरामी
.pdf
▁समात्न
nor
▁हवाई
 
4%B0%E0%A4%BE
किलोमिटर
ेण्ट
▁सुकुम्वासी
▁श्रृखंला
कवच
劲
24/feed
▁हर्कत
▁वर्षमान
परक
▁प्रतिशतसम्म
▁एल
0%A4%A4%E0%A5%8D
हम्मे
▁साधनस्रोत
▁पत्रकार
▁परिकार
▁छ।
▁लुके
त्यसबाहेक
▁कोठे
连
पद्धति
蔵
▁उपहार
▁गरिन्।
▁लगिएको
▁जगतमा
केश
/images/
▁जोडिएको
नुपर्ने
▁हेरेका
पालेर
खजाना
峰
▁कन्फ्रेन्स
नगरपालिका–९
घाट
▁?"
▁सँ
写
पर्यन्त
▁तुल
पेनाल्टीसुटआउट
杣
▁सधैं
▁पञ्चकन्या
▁पर्दैनन्
▁लोहनी
▁काइँला
▁किम्बदन्ती
왴
▁Bha
▁डिस्क
▁खेलमैदान
▁प्रधानसेनापति
▁वर्ण
सायी

त्यस
▁सप्तकोशी
▁अवकास
▁मर्जर
ﶲ
▁तपाईंलाई
/2018/07/69
դ
▁शहर
मुल
4%BE%E0%A4%AC
ც
▁तपाईँहरु
▁डोर्‍याए
▁विमलेन्द्र
▁खेलौना
▁भित्री
▁क्यार
評
▁श्राद्ध
▁गणेशमान
▁सुटिङ
們
▁पाएँ
▁रञ्जना
▁झर
側
▁विपी
♂
▁संघले
▁सिसडोल
rd
▁सक्दैनौं
▁अबस्था
0%A4%AC%E0%A4%BE
骗
संस्कृति
▁सिफारिस
▁डिभिजन
▁विकृत
मधेस
▁निर्धारण
扮
▁मर्यादाक्रम
वीच
▁फाइनल
▁बथनाहा
▁Dec
▁सम्मान
▁बर्मा
जीपी
▁मालपोत
▁अम्बिका
▁खानेपानी,
▁सार्वभौम
Singh
Ƌ
▁टुंग्याउने
football/11

▁वि.सं.
▁डेयरडेभिल्स
िनुपर्छ
▁सुकै
▁गैँडा
▁वेदना
+%E0%A4%9B
▁मिसावट
様
4%B0%E0%A
허
▁गइसके
▁चलाइए
గ
▁सम्झ
▁मनोनयन
▁बाध्यता
ɻ
ู
▁घच्घच
ਦ
4%BF%E0%A4%95
▁एन्
▁आत्मसात
comment-id="66
युत्त
▁धानबाली
▁नशा
▁किमाथांका
▁नहट
▁बढिरहेको
▁मनोमानी
4%BE%E0%A4%9C
▁पृथ्वीराजमार्ग
ुहुँदैन
😐
▁नमिल
▁बचाउन
यात्रा
4%BE%E0%A4%B0%E
▁निम्ति
▁बूढाबूढी
▁मच
ԭ
▁समाचारपत्र
▁सान्चेज
िँदो
▁इच्छुक
▁त्यसमा
बाद
▁गत
▁बहुराष्ट्रिय
▁दायित्व
months
▁मातृत्व
渍
▁प्रदान
पाल
▁हुसेन
▁निर्माणको
仅
▁जलवायु
▁डु
09/
熟
▁कम्पोज
▁म्यानपावर
ۥ
▁खेल्नेछन्
hana
▁kina
▁च्याम्पि
भेज
4%AD%E0%A5%88
▁बाहिरियो
▁वातावरणमा
▁बनाइनेछ
▁संझौता
▁लुटिए
▁घुमघाम
▁आए
▁थाप्न
श्रीमती
द्रा
▁निर्माण,
▁लखनउ
▁१९७०
▁ट्याङकर
͞
▁add
▁कति
▁लाग्न
▁९४
नाजुक
養
▁भाषिक
ؤ
▁राक्षस
梦
歧
▁कालि
▁मिनेट
▁बोलाउन
▁होडबाजी
▁जादै
टुबोर्ग
अभि
▁पथ
प्रधानन्यायाधीश
che
साउनदेखि
ʟ
फ्ट
▁'बा
▁पर्नेछ।
▁सुन
खशोग्
▁स्थायी
▁देउ
중
विश्वभरी
Ũ
▁कहिलेकाहीं
▁दिन
▁थालिहाल्
処
गाएर
0%A4%B5%E0%A5%8D
▁त्यस्ता
ुला
▁दुर्घटनाग्रस्त
䢩
▁मरिसके
±
▁मध्यपुरथिमि
▁मनीष
╟
▁सफलता
▁चोपडा
▁ग
▁संचालन
news/society/1

‰
रमण
2018/09/708
▁नदेखिए
▁ऊर्जामन्त्री
िदिनु
瞩
▁हुँदो
▁अर्याल
▁शुक्रबार
▁सर्वो
▁गर्छु
2018/04/673
▁अपरेशन
▁फर्काए
▁अग्रवाल
Ƶ
▁प्रतियोगितामा
▁खेल्नु
▁राँगा
पाला
रोबर
져
▁निमन्त्रण
ማ
达
晦
▁अगस्ट
▁भाउ
669
▁शतप्रतिशत
Ѹ
▁set
▁थप्दै
%E0%A4%BF+%E0%A
.नं.
▁गाविस
،
贸
▁लामखुट्टे
贝
ܹ
चुली
▁तताए
▁नम्बरमा
▁जनताको
▁प्लाजा
ve
▁लडेका
填
▁सेक्टर
▁नबढाए
▁नलिए
▁बस्ने
▁पकाउन
▁नविकरण
▁त्रिकोण
▁परिषद्को
▁भक्त
▁ड्रोन
▁एकदिन
▁थेसिस
▁महिनावारी
तŒव
▁थिए
▁झम्ट
Bahadur
穿
▁हालिए
٬
搭
program
▁आकाशमा
v
腐
▁एसीसी
▁स्वामित्व
ه
ե
▁द्रोण
▁अरेबिया
▁टोप
▁आँधी
ソ
▁अनौठो
▁गर्ने,
▁सूर्यविनायक
aba
031
▁अहं
ٲ
Ӗ
Ջ
▁बलर
▁स्वास्थ्य
郵
▁बगैँचा
▁आइ
Ê
▁परनिर्भरता
football/26
▁बाथरुम
▁उज्वल
Έ
▁देवेन्द्र
▁जनसहभागिता
▁शुक्रराज
▁विद्रोही
▁विज्ञहरु
▁बोके
▁जिल्लाका
▁अशोक
फान
वधिक
▁भरत
▁केन्द्रमा
रात
ݒ
▁उपाधि
सक्यो
ʍ
रिटायर्ड
▁रम्भा
ഥ
▁भूगर्भ
▁बोलाउने
쉠
वे
सन्
▁बाबुराम
▁नोकरशाही
▁प्रकाश
▁पोख्रेल
▁आं
▁छोटा
0%A4%AE+%E0%A4%
ӛ
जिल
织
▁प्राय:
▁नीतिगत
▁रोइरहे
︢
▁फर्किए
蚁
ુ
俯
HI
▁चिनाउने
▁वेबसाइटमा
▁संचय
िभर्स
▁एभर्टन
▁अलोकप्रिय
▁७७
▁(२०
▁गरिदियो
▁चिकित्सक
▁१९९९
,,,,,,,,,,,,,,,,
▁पुनःसंरचना
काजी
▁'जनयुद्ध'
ब्रान्डेड
准
▁बाह्रै
stha
▁प्रतिष्ठानमा
सकिँदा
▁लाञ्छना
啊
कार्मारोङ
ӿ
▁तालिवान
▁महासेनानी
権
our
▁ताज
ݕ
▁उपमहानगर
▁लोप्साङ
▁ध
鸿
▁प्रधान
ꠒ
▁भइहाल्छ
▁आइटी
▁जनतालाई
▁बुट
∏
▁एनओसी
▁जनजाती
إ
्छा
▁अपराध
▁करिअर
▁बूढो
٠
▁दीलिप
▁पुनरावेदन
▁बिगो
▁आक्रोश
▁प्याब्सन
듖
▁खण्ड
७६
ꍣ
▀
पहिले–पहिले
▁फेटा
मिश्रण
विनोद
▁चौधरी,
▁दौड
▁चुन
▁क्षेत्र
▁पर्यवेक्षक
मिस्टर
▁मोरक्को
विवाह
来
▁डुब
▁बाँसुरी
▁भाँच
पर्छ।'
值
拟
बादी
एरो
व्यवसाय
▁भोजपुरी
▁सिलिण्डर
▁कीर्तिमानी
▁भवितव्य
वाखोला
▁त्यसलाई
2019/05/17/15580
स्क
䒵
mesh
वैज्ञानिक
▁आन्दोलनरत
▁सुझाव
▁असिस्टेन्ट
▁म्यागेजिन
▁एकाउन्ट
18
▁हामीसँग
▁सिमा
▁फिजिक्स
▁गुम्द
ǀ
비
▁लडाए
डिपेन्डेन्ट
जिल्लाहरुमा
▁एयर
0%A4%A8%E0%A4%
▁पाउनेछ
▁थु
▁तादात्म्य
▁नगरिएको
सम्पादित
Գ
▁गाउं
ढल्केवर
☀
ting
▁विष
▁निकायहरू
▁भ्रमणमा
परस्त
%E0%A4%81+%E0%A
▁रेडियो
ы
AN
▁पुर्जा
*
গ
▁सिस्टम
बस
확
na,
▁ट्रेडमार्क
▁फाराम
▁फाइल
▁सेलिब्रेसन
▁सत्र
▁लन्च
+pani+
आत्मनिर्णय
भाषी
हाले
khu
▁अस्पतालका
न्यायिक
▁नगर
▁गाँस
▁भिडभाड
▁शिक्षा,
▁भनौं
妈
बिन्दु
▁भैंसी
▁दिनेश
दिर्घकालिन
▁उपाध्यक्ष
次
▁किशोर–किशोरी
򤨪
▁भ
गाछी
▁आएर
गड
4%B9%E0%A5%80
▁थालनी
▁व्यर्थ
▁काठमाडांै
4%8F%E0%A
▁सुन्ने
▁सुटकेस
पुगे
▁होम
▁चढाउन
▁माझ
▁विवाद
▁निस्
▁संघार
▁दिइरहे
▁आगलागी
̮
▁समूहले
▁स्थगन
ven
😛
▁घोराही
▁'मुनामदन'
▁मल
▁ख्व
▁संगठन
▁बिभिन्न
▁आउनुपर्ने
λ
턂
▁दमाई
▁कमान्डर
▁घुम्दै
▁बाजपेयी
्चे
▁बाहुल्यता
व्यतित
▁दादुरा
協
+cha
▁चलखेल
ͣ
─
▁फसे
▁खराबी
K
▁मुस्कुरा
▁६,
݌
Š
伐
lo
▁ट्रेन्ड
▁दाङ
▁सिनामंगल
▁धमिरा
▁वस
▁खरेल
▁एलिना
95
नवजात
पाखा
▁चितुवा
▁उस्
▁जनप्रतिनिधिले
शकुन्तला
सेप्ट
֕
्य
▁पथरी
▁रिपोर्ट
▁पढेर
▁मारेर
▁check
计
ͺ
ल्या
▁अष्टे«लिया
ch
踪
दिइन्।
▁दिक्क
लिइसकेको
▁झुक्न
▁मुरारका
+aa
ѷ
▁समुच
ޞ
▁भिक्षु
▁अस्ति
▁बेस
ver
▁बेर्ना
▁पि
▁ताम्सालिङ
▁अपुग
▁ईन्टरनेट
▁खोस्न
ӊ
▁धिताल
▁एरेन्ज
पढ
▁सवा
ʞ
▁स्पिनर
▁प्रतिबन्ध
ラ
▁भर्सन
4%BE%E0%A4%B2
१/१
▁मधेशी
▁तुल्याउन
▁गाडि
▁कदम
ish
बिपरित
저
▁वच
▁बाटो
▁प्रतियोगिताको
▁बाँड
▁मेशिन
kha
▁डर्बी
ན
4%B0%E0%A4%A3
▁पञ्जाब
▁शब्द
招
▁कोरियन
िजम
Ｌ
▁काबेली
हिया
%E0%A4%A7%E0%A
बिन
▁ढु
▁सप्तरी
संक्षेपमा
▁हौसिए
▁सेमिफाइनलमा
▁श्रमदान
▁जमानत
▁हस्तमैथुन
▁cld-
▁गण्डक
ば
्छ
▁परे
▁क्लब,
覩
▁हुनसक्दैन
art
▁कोदालो
Ӝ
正
▁भिजन
▁पाइपलाइन
▁अन्याय
▁प्रभु
▁दृष्टान्त
▁दिव्य
▁चलिरहेको
ैं
▁प्राप्त
फलस्वरूप
भुमी
▁टुटे
▁छर्लंग
person
▁दार्जिलिङ
▁हुुन
5%87%E0%A
बल
शु
▁सासु
▁नोकरी
परम्पराअनुसार
2017/08/
▁सोम
▁सन्नी
्छन
▁चौँरी
▁हिर्काए
安
▁धु
݃
▁च्यापिए
0"
б
▁सम्भ
क्यु
▁चलचित्र
▁दीपशिखा
工
▁प्रचन्ड
実
▁परिमाण
담
▁बिबाह
▁दसैं–तिहार
∇
내
ोदन
▁बढ्दा
▁निगरानी
▁बीए
й
▁खानुपर्छ
▁हसिना
彩
▁विशुद्ध
lawn-tennis/
निलकण्ठ
▁१४
नगरपालिका–८
.२
▁पुर्याउँछ
▁अंकगणित
̘
▁कार्यक्रममा
ܙ
विद्यार्थीहरुलाई
▁पुर्‍याइए
It
हुँ
▁सङ्कल्प
▁काण्ड
▁Ma
▁गाउँपालिकाका
▁घडी
▁गोदाम
▁कटौत
５
▁लगाइएका
▁लास
▁इजाजत
▁कापी
#comment-826
▁वाद्यवादन
ō
▁हस्ताक्षर
▁जनाले
▁आर्कष
疾
🏾
▁सरकारी
ंगा
語
सुदूरपश्चिम
宋
▁नपाइए
▁धादिङ
#comment-749
▁साथमा
▁सिंगल
▁ज्यु
4%BE%E0%A4%81
ऐलानी
▁नविन
▁देवीदेवता
१९७४
▁ओज
▁बस्दै
▁देखाउँछ
ネ
▁पैयुँ
ⲣ
84
▁बालअधिकार
न्वय
😄
▁ta
▁बिचार
ख्त
▁नित्य
मेक
▁संस्थाहरू
▁बोहरा
रेक
▁अमित
Ò
▁चुनिन
▁विद्रोह
▁गौरी
㣁
▁चोभार
fi
▁झुन्ड
ɍ
执
▁नेगेटिभ
▁लगाएर
▁विद्यार्थीका
▁मुनिका
▁दबदबा
▁ट्रान्सपरेन्स
霍
चक्र
▁केवलकार
2016/06/43
यसक्रममा
안
▁हु
▁दिनको
อ
▁बेबी
▁जरुर
ồ
▁५३
▁नक्शा
▁गणतन्त्रको
4%A8+%E0%A4%B8%E
▁कनेक्टिभिटी
र्वमान्य
ाल
▁स्विमिङ
0%A4%AC%E0%A5%87
ứ
gan
▁अन्जन
▁मिल्दैन
▁नज
全
Ծ
È
▁भाषामा
▁नेक्स्ट
ङ्
▁घुस
▁वीपी
▁थलो
▁दुल्लु
▁फड
या
▁सर्वसाधारणलाई
▁वैष्णव
▁सारिएको
Ù
😑
ुहोस्
▁सोसाइटी
▁सिमी
▁प्रिपेड
伤
▁सजावट
▁बीबीसी
pl
▁मतदानस्थल
▁ऋ
▁वंश
ज्ञान
–२०१८
लान
हाल्यो
▁कामदारहरू
▁डिलर
▁जवाफ
ud
▁ब्रिटेन
性
थली
▁रतुवा
▁व्यक्तिहरू
app
▁फेस्टिवल
曜
も
▁लाँडो
▁२०६६
詐
▁गोल्डकप
▁कोर्ट
▁garda
▁व्यापार
▁भनिए
▁राजदूतावास
▁कलि
▁गाईघाट
ेला
▁ग्यारेज
▁उडाउने
▁आउँने
▁उड्न
▁ट्रान्जिट
▁class="cld-
▁रेसुङ्गा
ཏ
િ
▁अनियमितता
▁रौनक
▁शक्तिशाली
▁अत्यधिक
कानुनअनुसार
पुल
▁त्यहीँ
▁काभ्रेपलान्चोक
础
▁विहिबार
▁रोनाल्डो
▁स्रेस्ता
ũ
0%A4%87%E0%A4%A8
▁परेर
▁उठाउन
वटा
随
Ϝ
▁समक्ष
断
ल्ट
अत्यन्तै
▁समस्याहरू
news/world/
▁श्रीमति
ɦ
▁तिव्र
鹹

▁Ne
ゆ
ੱ
▁छ,'
futsal/
▁परियार
▁अपमान
▁2017
▁भेटिन्छ
▁आशीर्वाद
▁तेजबहादुर
▁इपीएल
ឬ
ꊒ
阶
सेन्ट
जिर
धनी
▁कैयौँ
गरेको
▁बढाउनु
606
぀
ヾ
गं
▁परवानीपुर
▁विन्दु
▁पेन्टिङ
▁कत्र
⟳
▁अस्पतालले
隐
Ɨ
▁देशबीच
्ग
▁उद्योगहरू
26
▁उपेक्षित
▁उछिट्टि
गलौज
͹
▁मत्स्य
ۏ
IVE
४–०
▁पस
कामचलाउ
▁दबाव
▁समाजमा
▁देउसी
tapai
▁कुरे
催
宫
式
▁उनीहरू
ᖳ
ञ्
याम
▁झुक्याए
▁कहीँ
▁रिजाल
खेर
passion
हीनता
ﾪ
साल
▁नगरपालिका
आम
चौथाइ
▁अपील
chi
▁सर्वसाधारणले
▁वजन
▁टैटू
▁कायम
▁दिइन
▁समालोचक
धनाढय
讲
▁भेनेजुयला
▁हटाई
播
▁सिकेर
▁व्यापारमा
▁कमिशन
%3F
**********
ż
ष्टर
▁निर्वा
쏿
🌍
䭯
▁मिटर
▁भय
ქ
टन
▁लोह
▁&lsquo;
▁भताभु
▁ठान्छन्
▁विभूति
ޣ
LA
񄂇
▁कसर
ूरी
5%8B%E0%A4%B0
▁स्वीकार
▁बदल्ने
▁सिर्जनात्मक
▁अबिर
▁रोजगारीमा
▁जेहेन्दार
घरमै
▁झोलुंगे
4%86%E0%A4%AB
ឡ
▁मिसाए
Ѥ
▁बैंगलोर
▁आदत
video
▁अल्
▁याद
▁नतोक
Դ
▁ह्याण्ड
▁अायाेज
%2C%2C%2C%2C%2C
▁कार्टेलिङ
har
▁हुन्छु
▁भातृ
ロ
▁हाइपर
冕
ठे
बारीमा
क्वाटरफाइनलमा
ਵ

▁बिजुक्छे
񈌟
▁बन्न
▁ठहरिए
▁दिन्छु
▁अन्ततः

अन्र्तगत
弟
िर्त
▁परिचालक
je
पहिलो
▁मुस्कान
▁नक्सांकन
Վ
톤
Ě
▁घटाए
▁विष्फोट
闲
▁रोनाल्ड
记
▁ओमान
▁परमाणु
▁५१
▁लाक्पा
र्‍यो
सर्त
विराटनगर
tra
िकल
strength
필
▁स्वर्गद्वारी
▁परम
▁रारा
▁रनवे
▁छायाँ
✖
▁खुकुरी
नायव
▁सरकारका
你
▁बिगत
▁छन।
स्थापक
75/feed
况
科
▁उजुरी
隣
▁देश–विदेश
▁हवल्दार
सम्पादक
▁ताम
▁फसाए
4%8F%E0%A4%A8
栽
%2C
▁जफत
्छौँ
▁उम्किन
UT
▁निति
▁सिआइबी
包
▁comp
▁सिन्धुपाल्चोक
▁दसैँ
▁लडाकु
▁ब्याङ्क
▁सडक,
▁फैसला
▁मोटर
▁जुटाउन
▁गुरुकुल
カ
▁मृत्यु
▁गर्भनर
▁प्रतिवेदनमा
▁महत्वाकांक्षा
▁खड्ग
▁एकपटक
▁प्रशासन
▁गिलास
क्वाटरफाईनल
▁कच्चा
साँ
▁जनमत
▁अध्या
अतिक्रमित
%E0%A4%9F+%E0%A
#comment-817
▁संयुक्तरुप
ۦ
😳
वाद
Read
ܔ
้
˄
🙂
ӡ
▁बूढा
뒽
5%8B+%E0%A4%A4
▁वेलायत
ｇ
▁बनाइएको
'अहिलेसम्म
th
ाइजेसन
▁५७
ხ
▁उल्लेख
▁सीसी
维
Ȕ
▁दिलबहादुर
3</span>
▁रिक्त
▁मुक्तक
▁उही
▁पछ्याए
▁गौरादह
▁चट्याङ
▁बाहुल्य
ities
▁वल्र्ड
▁सिकाउने
4%BE%E0%A4%88+%E
▁गर्दछ
▁पेस
▁इङ्ल्यान्ड
▁बारम्बार
जनाइएको
▁जानकी
▁लडाकू
▁दुइटा
▁डिस्चार्ज
▁बनाइन्
▁होमस्टे
▁समयसापेक्ष
▁आफूले
ੌ
●
▁निक्षेप
▁कुहिन
▁उन्नत
~
omplete
▁नासा
ใ
ธ
without
▁घरमा
▁८००
▁तात्काल
▁माग्दा
सुन्तली
▁प्यारा
▁रजिष्ट्रार
ाउँन
▁बनाइए
▁हिरो
5%8D%E0%A4%A8
▁हि
▁निक्र्योल
▁साकेला
▁पशुपक्षी
며
▁शिक्षण
▁बाल्ने
▁खोज्ने
▁successful
3.html">
売
▁कौतूहल
▁hou
べ
▁प्राधिकरणले
▁समेट्ने
▁बिताए
▁सुनिल
030
▁साभार
▁वली
पिया
▁पकड
▁फागु
׼
▁काँध
角
▁Jun
▁मास्के
顧
4%82%E0%A4%97
🇸
燥
kas
▁नेपालका
▁नोक्सानी
▁पर्सा
▁कुर्न
▁चिरञ्जीवी
▁जादु
▁खराब
ܱ
▁'क्या
▁उनीहरुलाई
长
2019/01/732
▁बाल्टिमोर
会
ฒ
▁स्थलगत
▁filename="2017/
ù
▁कोसी
▁विस्फोटक
捏
Ř
ਚ
▁कमाउने
ত
ở
haru
0%A4%97%E0%A4%BF
▁लाग्ला
▁भनिएको
▁भनाई
▁आँकलन
हू
▁व्रतबन्ध
mantri
▁नेपालबाट
▁चिसापानी
▁जाँच
▁जिन्दावाद
▁जनश्रमदान
establish
जसअनुसार
어
搜
▁कमान्ड
▁काख
▁दूतावास
1/
ुम
▁जोगिए
▁dec
致
कालदेखि
▁बुढ्यौली
▁photo
Ă
S
विकासोन्मुख
▁imp
▁जिसस
0%A4%95%E0%A5%8B
▁प्रदेश
▁सङ्घीयता
▁दुखाई
▁दास
dhya
戯
▁आयोजनाका
ेश्वरी
ϖ
▁पुर्
रातिदेखि
4%85%E0%A4%AA%E
▁प्राङ्गारिक
▁आइपुग्छन्
545</l
▁क्यान्टिन
4%95+%E0%A4%
ݻ
चिन्ताजनक
▁२०५१
ݤ
▁प्रथामिकता
ab
▁ब्यवसाय
切
▁संसार
杭
▁बेड
▁निर्मला
▁रिहा
desh
▁कोच
▁झल्काउने
ؾ
▁बिदेशी
▁उर्जा
▁टाँसिए
▁कांस्य
सेक
ְ
▁झन्झन
▁इराक
यू
▁गहतराज
▁सन्दिप
▁प्रतिनिधिहरू
▁खरिद–बिक्री
बिज्ञप्ती
▁बेच्ने
̫
▁सिमिकोट
'कतिपय
हक्की
▁माछापुछ्रे
▁खजुरा
▁दर्शक
▁करिश्मा
च्च
º
▁लग्यो
>T
%E0%A4%98%E0%A
▁अभिवृद्धि
▁मतलब
▁प्लेन
܂
▁फिल्मी
▁उन्मुक्ति
▁मोवाइल
佥
▁भइनसके
▁पोस्ट
मन्दिर
듆
▁राइनोज
▁कन्सल्टेन्ट
▁लखन
प्रतीक्षित
लाजमर्दो
▁२.
豆
cho
▁टेप
▁यात्राको
हरूले
▁कप
▁लाए
साध्यै
▁कन्डम
▁महत्वपूर्ण
▁सहर
ोकेर
▁तिम्
साग
޺
थ्य
दान
▁राष्ट्रको
▁pra
▁प्रहरीको
नपुग्दा
▁समेत
▁चौंरी
▁हुनसक्छ
▁अखण्डता
▁चिहान
▁सुकुम्बासी
▁दीपाश्री
0%A4%A7%E0%A5%80
▁कश्मिर
▁थापा
▁बग
ɿ
▁गुमाउँद
▁छन्
ш
▁Pur
导
松
▁कार्यहरू
满
▁आऊ
▁प्रसङ्ग
һ
љ
▁करोडौं
▁प्रवन्ध
依
Ü
贴
쥻
▁दाबी
▁सङ्ख्या
▁नउ
चाहँदा
ʤ
Ȟ
ᵻ
前
▁कांग्रेसमा
珫
निर्वाचन
😤
٭
́
सम्मै
जनमानसमा
▁गठन
孫
▁चाहनुहुन्छ
▁जोसुकै
must
▁मानिसहरु
▁मागेको
▁अनुबन्ध
च्छा
▁कुट
張
▁एम
▁गर्नुपर्दछ
▁अष्ट्रिया
▁कांगे्रस
▁फलाम
扱
▁संभव
▁सुदुरपश्चिम
▁नेदरल्याण्ड
▁निरपेक्ष
is
ǆ
▁सेल्सियस
▁निमन्त्रणा
क्रे
▁आइपुगेका
31
नेपाली
भाष
▁निजि
▁थाल्यो
▁जोकोभिच
▁छान्ने
堻
तल
▁जंगबहादुर
football/15
▁हुँदैन।
議
▁शक्तिहरू
दैछ
क्ष्
▁प्रत्युत्तर
4%AE+%E0%A4%
▁राप्रपा
अस्ताउँद
ँग
पेर
▁फ्रान्सेली
▁नानीहरू
う
▁हुन्छ?
ाडी
▁चाड
▁छट्पट
▁क्यानभास
2019/04/758
विशेष
▁फाउन्डेशन
▁लगाइएको
2019/01/736
▁दिग्भ्रम
視
▁सकू
▁राम्रा
▁स्थानीय
▁प्रमाणिकरण
▁ऐन,
/feed"
▁अस

Ǿ
>
实
▁संवेदनशीलता
▁डकुमेन्ट
▁हुनेगरी
.९
nda
▁भ्युटावर
▁कोमल
▁विसंगति
▁गीतहरु
▁शपथग्रहण
#comment-779
▁मर्चेन्ट
▁अल्कोहल
͏
▁कमलपोखरी
🚩
2019/04/754
▁नमूना
▁मगाए
4%A0%E0%A4%BE
▁पन्छाउन
▁होराइजन
▁नवयुग
ז
▁जस्तै
▁भीडभाड

▁औषधोपचार
▁विस्तारै
पाइ
▁टुक्रा
▁अडियो
राजकीय
▁पुनर्स्थापना
4%9A%E0%A
छि
▁जनगणना
▁प्रकोप
▁प्लेयर
讨
玫
▁साढे
▁बिगबिगी
▁क्ष्ँेत्र
守
낣
▁काउन्टर
▁सुमधुर
息
▁लक्ष्मीप्रसाद
िना
▁उडान
▁आइपुग्न
▁टेलियासोनेरा
साधारणतया
▁जोश
▁सभापति
▁लम्बाइ
最
崦
तम्
▁भट
ԥ
۪
▁बचाए
सि
ारो
▁गठबन्धनको
यथार्थवादी
ारि
स्कृत
ाहा
网
▁एप्पल
▁सास्ती
▁नहोला
촬
▁सुनेको
Krishna
▁उपसमूह
▁०६२
▁बिग्रँद
▁पाण्डुलिपि
लभ'
▁रमाइला
▁अप्ठ्यारो
차
乾
वज्र
०३
▁एरिक
▁सुन्दै
केन्द्रित
इन्
आफ्नै
विप्लव
11
抗
꯭
▁इरान
्मेन्ट
▁वरपर
▁शंख
▁समयमा
▁माउ
㢘
▁आन्दोलित
▁use
▁जथाभावी
▁योजनाका
▁खोल
खर्च
▁कार्की
▁दिनअघि
ेसा
▁लागेर
▁मेलो
0%A4%AC%E0%A4%B8
👉
▁साहित्य
▁१९९६
固
▁नायक
्ख
▁दाइ
भरिएका
▁जीसी
दशकदेखि
Mother
comment-id="81
๛
ಣ
0%A4%AE%E0%A5%8D
▁शिवराज
▁व्यभिचार
▁त्रियुगा
▁लिलामी
▁सिकेको
▁खेल्नुपर्ने
▁May
ब्रा
▁de
ɱ
▁किराँत
▁उक्लिए
▁धुर्मुस–सुन्तली
ფ
▁चमेली
▁नाप
Ｎ
▁बिचरा
▁३५
▁जेरुसेलम
यूहन्ना
▁घरखर्च
票
▁भट्ट
ळ
▁अर्थशास्त्री
▁बाग्मती
4%9D%E0%A4%BE
चे
▁विश्वको
हत्या
▁भद्र
▁'अन्य
▁परिसके
í
刚
आवश्यक
▁होस्,
▁बेलामा
▁२०१२
▁तहका
ॐ
浣
शो
–कुन
▁विराट
4%95%E0%A5%8B+
नेटो
辠
▁मर्ज
टे
尬
▁अर्थतन्त्रमा
▁रेगुल
▁उपत्यकाका
▁भनेँ
राम्ररी
▁कात्र्तिक
̞
/१५
▁झ्
उठाउँदा
प्रशिद्ध
प्रतिको
ष्ट
▁नपाए
▁प्रण
581
▁सुविधा
▁स्तुप
▁बिर्स
殿
▁hune
▁द्वन्द्वकाल
▁बन्धन
▁दिनुस्
दिनदिनै
▁अनुज
ुट
▁असामान्य
ey
؝
▁लिलाम
▁अमरसिंह
斓
▁लेखाए
▁स्वाधिनता
▁एअर
▁डिजल
▁त्रिपिटक
▁पञ्जा
र्ष
0%A4%95%E0%A4%B0

▁बडादसै
▁प्रदर्शनी
ؼ
▁सकोस्
Ž
▁पतञ्जली
▁बाँ
▁हिलारी
▁बिद्युत
ё
▁जागरण
趱
▁किस्सा
▁टक्
櫿
ꕊ
▁सर्ने
អ
▁सेभ
▁तीनकुने
▁विकासको
िसन
▁खुसि
्ता
▁सस्तो
सतही
▁प्रा.डा.
▁ब्याट
޾
▁साँझ
धा
▁मानसरोवर
▁एक्सन
趋
裏
0%A4%98%E0%A4%9F

रहेकै
▁सन्तति
▁आइपुग
都
/2017/01/52
耳
▁टाइम
呢
im
圳
▁गित
▁धिक्कार
▁लेखिएको
▁एमालेको
▁कोइराला
▁शर्मिला
▁व्यापारीहरु
▁निशाना
▁अपर्याप्त
९६
▁सामथ्र्य
थ्र्यो
统
जीको
▁डिपिआर
܅
▁रसाए
▁विचार
▁कामकाज
▁इलाम
▁अभिभावकहरू
बद्नाम
而
▁राख्दछ
红
ෘ
▁बनाउँदा
▁सुर
▁सहिष्णुता
к
▁राख्दा
▁करुणा
▁दीर्घायु
ँध
▁खिचातानी
ர
▁दिनुपर्छ
⚽
▁सहभागी
▁झारफुक
▁पक्षले
▁उत्तरदायी
▁बुढ
▁छन्,'
▁तत्काल
▁किशोर
▁नर्थ
▁क्यारिकेचर
.......
ห
０
ܩ
▁गर्नुभएका
▁पचाए
▁र्फकन
▁राष्ट्रकवि
雅
渊
氣
🙏
आधिकारीक
▁धैर
▁बुढी
▁स्वास
लहै
त्यतिबेलासम्म
▁गौतम,
▁पाँच
झु
▁अभिन
▁'सरकार
१९९५
할
闹
▁अङ्ग
ޗ
0%A4%95%E0%A4%B2
हाबी
िदिए
塞
행
겠
野
▁कमाण्डर
अघिल्ला
▁विलय
▁कार्यविभाजन
类
▁तला
▁झिक
▁आर्यन
▁गहुँ
▁गम
ד
周
▁लाइसेन्स
▁एएफसी
ST
ध्व
▁जंगली
里
▁गरिएको
彰
▁पारित
मोज
ۻ
▁बाथ
▁डाके
ل
प्रि–क्वाटरफाइनल
▁हेलचेक्र्याइँ
▁थिएँ
्थ्यौँ
▁बनाइन्छ
▁जन्ममिति
pradesh-1/2018/
फुट
▁चिल्ड्रेन
▁अपनाउन
⨿
▁केन्द्रीकृत
▁सन्तुष्टि
▁शान्तिप्रक्रिया
▁१२५
▁जनस्वास्थ्य
▁द्रुत
▁डुड
hai
꣕
z
▁मित्रहरू
▁दनुवार
▁गतिबिधि
▁कम्पन
sert
▁तालमेल
५-०
▁अर्याल,
▁विमानमा
▁उपप्राध्यापक
स्स
▁समाए
▁राष्ट्रियसभा
कृषि
▁हत्या
▁यिनै
▁गायिका
▁लडाई
▁पाखण्ड
▁प्रतिष्पर्धा
▁पुरोहित
트
▁आउ
׋
债
▁सोच्नु
▁लख
संवेदनशील
बि
▁बिरुद्ध
–१३
take
▁बढाउँद
4%BE%E0%A4%B2%E
輡
▁खेलिसके
▁बागलुङ
▁(राजपा)
▁समाचारमा
टाइफस
▁छाडेर
(आज)
▁प्रवाह
▁चुनौति
窝
स्टार
ten
▁सेजुवाल
▁नप
▁एएफपी

उत्पादन
▁क्रिप्टोकरेन्सी
▁झुकाव
▁अँगालो
辨
▁बोल्दै
Z
▁जीवाणु
हरुको
▁बो
▁भेटियो
▁मिर्गौला
▁झार
▁यात्री
▁कलकारखाना
्याङ्क
गईरहे
業
▁रूपान्तरण
▁गैर
विन
621
▁हिमायती
▁भन्छन्-
▁तापमान
附
▁जर्मनी
4%B2%E0%A4%BE%E
▁सम्हाल्न
▁झारे
िकार
दुरुस्त
पात
▁पानीजहाज
▁माधव
▁आफन
▁सम्भवत
▁गमगढी
संघ
▁उफ्र
▁महत्वाकांक्षी
▁बिबाद
▁डाक्टरले
ँड
年
▁दर्जन
it
障
▁उम्कन
पोस्ट
ิ
्र्स
▁विधयेक
▁निः
▁विद्युतीय
▁खाल्टाखुल्टी
comment-id="79
थियौं।
0%A4%AF%E0%A4%BF
कमल
▁चेतावनी
▁छात्रा
▁खसीबोका
▁रहदै
▁सचेतना
सहित
▁other
यहाँ
अन्धाधुन्ध
▁बताए
चेत
▁फिलिपिन्स
००
▁अन्तमा
ॠ
▁माल्दिभ्स
93/feed
▁पखेटा
4%A4%E0%A5%8B+%E
▁निर्भीक
परे
गृहस्थी
िइरहेको
▁मन्त्रिपरिषद्
🇵
▁आलम
Ӎ
इतर
ϣ
वीन
सगरमाथा
ｰ
▁खोजिएको
'एउटा
같
▁वायर्न
▁सिभिल
शिप
θ
ɧ
▁आफू
96
׆
▁टिके
▁ब्वाई
▁सक्छु
cha
44/feed
ʺ
99
▁उखान
▁२०७३
▁सांसदहरु
▁गुटबन्दी
राग
▁गजल
▁इन्भ
別
६
▁पातारासी
▁ओहदा
▁दि
Ѽ
▁पन्त
▁इन्स्योरेन्स
飾
肟
▁जिन्दगी
चंग
4%BE%E0%A4%B0
लिक
ワ
▁वेष्ट
▁नदिइए
▁ढाक्न
id
खासगरी
▁मिसिल
विस्तार
个
Â
4%A6%E0%A
▁डिएसपी
न्यायधिवक्ता
歳
▁जन्माउन
हानी
क्षतिग्रस्त
4%A3%E0%A
̅
लगानीमैत्री
थान
▁ब्यक्त
▁गथ्र्यौ
▁प्रमाण
▁जाँड
甆
डेल
बेल
▁तितो
▁उत्तर–दक्षिण
),
ń
▁26
अप्राकृतिक
वर्षायाममा
▁बगर
各
▁राजा
▁प्रसस्त
▁डे
एउटै
▁एशोसिएशन
▁नवराज
▁बढाइरहे
ย
▁सुस्केरा
.np
특
▁S
बीचमा
▁पार्किङ
▁बिताउने
▁मुद्दा
▁दोभान
▁सम्झन्छन्
▁स्थानिय
▁माटा
후
▁फाँसी
तलमाथि
▁फुटाए
▁लाइफ
須
-count-wrap
ढा
▁प्रचलन
YO
昨
▁ग्राहक
▁बेचबिखन
▁डोम
▁धर्मेन्द्र
▁वाध्यता
▁क्वि
ゅ
▁बाह्र
expect
बगर
▁ध्वस्त
0%A4%89%E0%A4%A0
▁अठोट
▁अपहेल
▁¥याली
▁हौ
85
वर्ड
▁लञ्च
▁अधि
▁बैशाख
▁बानेश्वर
गोविन्दराज
Congress
ֱ
▁कुरै
Ŭ
called
▁प्रजातान्त्रिक
सेकेन्ड
습
▁ट्याग
▁ब्राउन
ԟ
៌
▁अभिभावक
▁हेरिरहे
त्याग
Sun
already
4%86%E0%A4%89%E
▁ग¥यो
▁खालका
yat
स्याङ
▁अण्डर
s.
炯
ズ
खोक्रो
▁फिल्म
ٻ
▁प्रतिबद्ध
左
▁उमेश
Ｓ
▁बचाउ
▁बस्याल
锰
याक
Ԯ
ur
▁म्यासेन्जर
गणितीय
व्यवस्थापकीय
र्ड
ď
▁लगनखेल
▁सोधेको
▁टायल
ޒ
ѝ
▁पराजुली
▁साताअघि
▁ताम्रपत्र
▁समेट
조
▁अन्यत्र
▁लोगो
५०
कैयौं
रेको
▁मन्च
▁नसुहाउ
▁उप्रेती
▁बढाउनुपर्ने
▁चिनिया
ｵ
्थिन्
▁आतङ्कवाद
4%A8%E0%A
▁क्रान्तिकारी
▁सीतापाइला
सम्पदा
؁
謝
हरे
宮
स्
▁तर्क
प्रतिरोधात्मक
Ȅ
▁कैद
▁खोल्दा
疗
▁रंगेली
गाउँ
▁पाइरहेका
▁असमझदारी
Д
▁गणतन्त्र
▁२०३०
▁युद्धमा
▁गरिदै
▁नौलो
वटै
▁उन्मुलन
▁गर्‍यौ
ϧ
▁मलाई
साफ
▁प्रसारण
.html#
▁अनुष्ठान
▁जनआन्दोलन
▁प्रभाकर
▁गुमाए
▁थाम्न
▁स्वरूप
4%B9%E0%A4%BE%E
▁रुसी
ठ
/४
‍
▁शेयर
्रिक
▁आइडल
▁फरेन्सिक
▁सिक्टा
▁चाल्र्
▁नाघे
▁फर्नान्डेज
▁उद्यमी
􀀀
4%B7%E0%A5%8D
▁विशाखापट्टनम
鞋
▁लगाउदै
Ȑ
嶽
▁तिब्बत
▁स्वीजरल्याण्ड
▁इच्छा
ì
roma
▁समयसीमा
▁छोरीलाई
▁अर्गनाइजेशन
▁अफिसर
▁बन्नेछ
▁टाइफाइड
委
▁शाही
नरसिंह
▁पालिका
▁पर्यो
݈
▁ब्यबहार
▁जडिबुटी
▁दर्द
▁अर्कोतिर
▁But
▁मुसहर
▁अरु
▁अध्याय
▁घोडाघोडी
बोर्ड
▁जिन
▁बिस्तारै
魂
▁सङ्क्रमित
LE
▁नेविसङ्घ
ԩ
▁भुइँ
▁कथ
DI
▁पेमेन्ट
▁सत्तामा
▁घरधनी
▁लगेको
▁औला
▁युवाहरु
▁असा
4%BF%E0%A4%9C
▁मुलुक
▁गरिँदै
▁अब
▁रणवीर
▁best
▁आमन्त्रण
football/34
₋
▁सकिएन
▁बीउ
▁तथ्याङक
▁मध्यपूर्व
▁छेउ
त्सना
▁ड्रिंक
दिँदा
▁ब्रा
▁आत्तिन
समेटेर
▁आस्था
▁वागमती
भाकल
▁राष्ट्रसङ्घ
▁क्र
▁एनजीओ
▁ओखलढुंगा
▁अलिकति
ंश
▁फलेवास
▁नसोध
,जे,जो,ख,ख
命
䉉
▁चाहन्छु
落
體
▁विस्तार
確
滞
२०२१
ce
▁थालेको
4%BE%E0%A4%AE
▁जिविकोपार्जन
▁चेकजाँच
ʁ
Ť
▁सावित्री
들
▁एनसीसी
ĸ
▁ओभरसिज
▁गुमाई
▁आफैं
▁बाहिर
कार्य
▁चाङ
▁गुरागाई
4%B7%E0%A4%BE
०००
डेड
▁न्यूजिल्याण्ड
▁filename="
▁नवलपरासी
▁उल्झन
Ў
ं
▁एकताको
▁पोर्न
▁उर्ल
दै
▁पाउँ
▁नराख्ने
ङग
▁पु¥याउँछ
▁व्यवहारिक
▁नास्तिक
▁३७
▁लागेको
▁कष्टक
विज्ञ
▁कोलिफर्म
▁हेलचेक्
▁सिलबन्दी
4%A7%E0%A4%A8%E
बारे
िमा
▁उदार
न्जा
距
-wrap
३२
▁इन्जिनियर
▁ग्वार्डिओला
▁हुर्क
▁स्थानीयवासी
▁कसै
▁असारमा
▁सन्दीप
▁बन्नुपर्छ
4%95%E0%A5%8D%E
हाडै
▁बन्दी
▁janata
▁मान्छेहरू
▁मन्त्रालयलाई
▁१६५
▁धक्का
▁टर्
तलेजु
▁एयरबस
अलराउण्डर
▁गाबिस
ܽ
▁भन्छन
▁सरुवा
▁खिच
Ż
0%A4%B9%E0%A5%8B
▁हरिभक्त
▁सामाजिक,
▁Home
0%A4%97%E0%A5%87
九
▁चालू
पाट
विहानै
▁यशोधरा
▁विश्वव्यापीकरण
▁उतारे
▁फर्नान्डो
▁हुस्सु
0%A4%B8%E0%A4%AE
▁पोसाक
madhes
▁परिवर्तित
▁पौरख
▁साँस्कृतिक
▁सकेनौं
획
बीर
पेसी
▁लिने
▁किताब
▁सर्कस
▁You
▁Ju
H
If
▁स्वरमा
Dhara
▁सुन्तला
▁बुटवल
▁प्वाइन्ट
▁सेनामा
푫
शैली
威
गर्दै
▁मेघा
ई
▁आइन्
▁अट्न
▁क्यालेण्डर
メ
奇
▁२०६१
▁खुलेको
▁जानुपर्छ
▁इन्डियन
▁मुसिकोट
अढाई
▁मिलिमिटर
▁टोकियो
लोकतान्त्रिक
product
▁filename="news/
▁केहीबेर
▁कुलमान
▁नरह
▁read
▁प्रतिकूल
2018/06/68
च्यूत
ç
▁पल्टन
▁बिग
▁पदमा
▁22
▁लागुऔषध
▁विसर्जन
▁तानसेन
the
▁बद्री
▁बसिरहन
▁ल्याउँथ
▁त्यस्तै
तर्फबाट
▁धर्मनिरपेक्ष
▁अपेक्षित
▁ku
विपरीत
▁छुने
▁होस्टल
ੈ
▁श्रवण
▁व्यस्तता
▁हँुदा
विश्वास
部
▁आमन्त्रित
▁साई
▁प्रबृत्ति
▁त्याग
▁सम्ममा
न्यु
▁नेटवर्क
▁कलेजो
गिक
▁झुपडी
ाधी
ன
%E0%A4%89%E0%A
▁बिग्रिए
▁सुनिता
▁स्वीकार्न
΀
査
मातृकाप्रसाद
陕
▁हिजोआज
▁कार्यशैली
ቧ
▁अनुकूल
▁खोजी
▁स्वस्थ
सय
जीवी
अनलाइन
पिङ
▁man
▁दोधारा
▁उत्ताउल
▁रुम्जाटार
▁म्याच
😰
植
mandu
%E0%A4%A4%E0%A
▁गाँजा
▁अस्वीकार
▁एकैछिन
▁मिथुन
▁हेडक्वार्टर
ेनी
आवश्यकताअनुसार
▁अजित
今
4%A4+%E0%A4%
既
▁दोषी
▁मनि
pad
496
粤
▁चलाएको
▁क्ल
▁गतिशील
¥यो
▁च्यालेन्जर्स
▁मुहार
Đ
▁निराश
উ
▁परिभाषा
訊
विवाद
ਸ
▁भन्नुभयो–
デ
ang
▁भाषा
+ba
▁are
▁जनआकांक्षा
ान्तरण
▁संसारमा
沖
▁थापामगर
▁दम्पत्ती
▁आकर्षित
ޫ
ƚ
˴
ల
▁सपोर्ट
巨
▁नेपालमा
▁प्राप्ति
朝
▁समस्यामा
रुस्लान
ʰ
东
Ǟ
▁अपनाइ
巌
ईओ
धारा
entertainment
▁रोपनी
揎
▁यन्त्र
ें।
▁१२
जिवि
▁गोठाला
▁हेर्नुस्
ど
▁सर्टिफिकेट
㝔
▁इनोभेसन
뿐
▁बने।
䣷
▁हिउँदे
▁इज्जत
▁थन्क
▁संयुक्त
ाउँदै
著
▁ड्राइभर
▁रेलिगेसन
किनकि
▁धामीझाँक्री
▁गर्यो
▁मुठभेड
▁कटे
▁मूल्याङ्कन
gra
ाब्दिक
so
▁निर्विरोध
▁भैहाल्
呀
▁मानिने
▁होटेल
▁उहाँले
▁खाका
▁पपुवा
▁पूर्वाञ्चल
▁प्रतिभाशाली
▁नापजाँच
▁अमूर्त
ј
▁मुख
▁रियालिटी
ahanagar
छोरी
▁नगराए
月
▁बाबियाचौर
▁रुद्र
सगै
200
▁सम्झन्छु
▁एसिया
▁महिलाहरुले
सुन्निने
▁फाँट
▁कलाकारको
▁बखत
▁दाहालले
जवरजस्ती
ׇ
%E0%A5%8D%E0%A4%
▁मिल्दो
▁पर्ने
▁'हि
‭
▁ट्ेरड
▁गृष्म
एफए
▁'ड
ऽऽऽ
▁खटपट
▁सन्तान
4%BE%E0%A4%A5
み
▁चाल्न
银
▁निरुत्साहित
暗
लाख
▁खिच्ने
▁सोच्नुपर्ने
铃
▁ब्लक
Ϩ
▁यमराज
▁हाइब्रिड
ボ
ˏ
ざ
▁मङप
+%E0%A4%B2%E0%A
▁मनुष्य
▁मन्दी
▁मिलाउँदै
▁सक्दछ
▁दिनमा
बहादुर
▁दिँदा
▁पाउँदै
▁पन्छाए
▁इच्छाकामना
/?p=751
▁घरधुरी
▁गर्नै
▁बनिसके
▁चापाकोट
払
話
憨
ܮ
▁कूटनीतिज्ञ
Η
▁कार्यरत
▁हठ
▁नतीजा
Ɩ
▁अनुराधा
▁उठ
▁हार्ने
नियन्त्रण
▁सोल्टी
चालक
टर्न
▁अदृश्य
▁फा
▁होइन,
▁गौर
ide
▁भनिहाल
▁अग्रता
▁माफिया
▁इयर
▁१९९७
▁मेची–महाकाली
۔
શ
▁शीतल
ेष
#comment-835
▁प्रबिधि
▁चाहिन्छ
▁गन्तव्य
हल
▁सस्था
▁पेज
▁कार्यसमिति
anel
0%A4%B6%E0%A5%8D
ाहकमा
▁कैलाली
ন
▁एकदिवसीय
सो
▁डिसी
▁रातमा
नेसनल
▁उत्सर्जन
▁मार्केटिङ
▁पर्दै
▁समावेशीकरण
▁'वि
▁आइसक्रिम
▁फराकिलो
जोखिमयुक्त
▁क्षेत्राधिकार
2019/03/753
ाउदा
ेशन
▁लोमान्थाङ
Υ
66
साह्रै
▁भान्छा
▁पछाडि
▁नपरेका
▁छैन,
▁ट्यालेन्ट
▁अटल
▁पाके
▁घेराउ
▁कुष्ठरोग
▁fi
▁बेहोस
प्रेम
र्खा
▁अपनाउँद
֚
5%8B+%E0%A4%
▁क्रिम
▁खेल्छ
▁भागवण्डा
0%A4%B0%E0%A5%81
᭴
▁मोटर्स
싸
条
तिम्रा
旺
药
▁साठी
▁मोडल
棱
▁लगाउने
▁ढोल
▁आवातजावत
▁प्रताप
玄
▁समुन्द्र
▁भेटिन
▁बच्ने
ेटर
▁अर्डर
anguage
▁शीर्षस्थान
▁स्वायत्तता
是
▁लक्की
्ची
पर्छ
▁नदीमा
▁अब्दुल
रोल
सिटिजन्स
▁देखाउँद
Ë
ाउँदैनन्
शारिरीक
▁भीमदत्त
39/feed
に

आश्चर्यजनक
▁भ्रष्ट
壮
▁छौ
▁गरिने
▁बेच
खड्गबहादुर
즣
एमसी

▁व्यवसायिक
▁आरोपित
▁परिवारमा
नसरी
▁१६
▁"स
▁सशक्त
.सी.
रेट
▁सेन्टरमा
😭
速
▁गरेकी
▁त्यतिमात्र
▁क्याबिनेट
▁होमवर्क
▁तर
㥏
भक्त
▁आतङ्ककारी
状
▁आयल
▁अमृत
221
थेँ
व्यवसायी
▁गल्कोट
▁विष्ट
▁मधेसी
▁बैठक
▁वार्ताका
▁सिक्ने
▁दुःखी
▁माध्याम
▁मोड
▁बेत
▁बर्चस्व
क्सवागन
।तस्बिर
▁निकासी
सम्बन्धबिच्छेद
▁स्टेशन
▁भएकी
▁कनक
半
▁निर्वाह
 
▁पाउन्ड
▁फेसबुक
▁बनावट
euta
׹
▁हल्ल
▁सिँचाइ
▁महाधिवेशन
▁एभिन्यु
▁राखिन
▁जन्मेको
▁नपत्याउ
ও
चढाइ
▁राठौर
▁आइएस
ρ
▁तारबार
▁कन्जुस्याइ
▁हुनु
power
ǒ
▁युके
ुपर्थ्यो
▁बहुमुख
总
黉
▁चर्को
िड
4%9B%E0%A4%BE
▁जितेन्द्र
▁डेटिङ
▁जवाफदेही
ड़
वाही
식
▁गर्नुहोस
陰
ઓ
ȵ
पुष्प
▁इङ्ग

झि
मुनी
▁सम्बन्धित
▁प्राधिरकण
伝
▁क्यारेक्टर
▁शहरी
िता
▁म्यूजिक
उतिबेला
▁सिम्रौनगढ
▁प्यूठान
हँुदै
▁स्याहारसुसार
▁गरिनुपर्छ

▁विहार
बैदेशिक
▁सकृय
ṃ
▁व्यवसायमा
सेरेना
▁उत्पादक
▁रामनगर
邦
▁पोखे
č
▁कीरा
▁आहुति
▁वताउन
▁यतिबेला
लोड
▁नहुँदै
▁लिंदै
▁पुनर्मिलन
鲜
▁जिम्बावे
▁अफ्ठ्यारो
▁भन्न
▁सहरीकरण
▁पक्की
▁पीपीपी
▁भूत
रेडपान्डा
扩
▁लगानि
▁थिएन
▁दुईजना
able
यनीय
gat
▁पुत्र
▁नेता,
▁हुँदैनन्
%E0%A
बद्ध
喜
▁११,
▁कार्यत्रम
▁रोड्रिग
70/feed
्थी
肃
bal
ौ
७५३
൒
ne+
â
ტ
Փ
Ѱ
news/country/
▁मुुलुक
▁डकैती
▁किशोरावस्था
▁नाचघर
코
▁पुटिन
▁दर्जनौँ
जारोपण
भाषा
▁14:31:
टेन्ट
▁दुप्चेश्वर
▁भनाभन
देखिएपछि
方
▁पौन
▁टेक्स्ट
▁आफ
▁टाट
伸
ք
▁घटनामा
ire
तैयार
/2016/05/43
▁लगाइरहे
気
हरू
्सले
फिल्ड
▁घटक
▁गर्थे।
▁बेच्न
%E0%A4%AD
हाङ
daina
ुपर
▁केन्द्रका
▁शिक्षामा
कप
4%A6%E0%A4%AE
▁लापरबाही
▁लगायतका
▁यतिखेर
҆
▁शीर्षक
▁बन्नुभए
▁होमियोप्याथिक
सैनिक
Ϙ
१.८
▁उम्मेदवार
▁उपकरणहरू
▁संग्रौला
失
▁धर्म
सेट
▁खलंगा
03/
राव
▁गाउँपालीका
▁फोहोरमैला
買
▁भाषा,
▁लाभान्वित
▁उपेन्द्र
▁टोयोटा
▁अन्तिम
▁अपराधी
▁पुगेन
▁मांसाहारी
▁भैरहन
Press
तिक
▁शत
▁खालको
▁गल्ति
▁संशय
Κ
▁फिनल्यान्ड
饙
▁मनोहरा
हाउस
▁हास्यकलाकार
दिशातिर
▁धुन
▁फ्लु
▁छोराछोरीलाई
▁राखिसके
▁ईन्
2018/08/697
ݸ
ღ
▁प्रतिबद्धता
▁शि
0%A4%A4%E0%A5%88
▁अप्रिल
बरा
▁केन्या
चाँही
▁आत्मकथा
▁पर्छन्
▁६८
▁पदोन्नति
▁श्रमजीवी
Û
伏
▁नरहेका
गामी
措
▁पारिरहे
⋳
2018/11/722
चपेटा
▁किशोरकिशोरी
▁तमु
ŷ
▁वर्क
舟
▁बेचे
▁कार्बन
ʑ
▁कामहरू
▁सर्प
NEPAL
▁(सन्
▁पैदलयात्रु
早
▁अरनिको
डल
便
▁मर्न
▁hun
▁जापानमा
▁कन्स
▁नराख्न
ऊर्जा
हावी
▁पन्छिन
▁भयो
孕
▁कम्पनीलाई
▁बनेका
▁मङ्सिर
▁एसोसियसन
▁पराए
▁आएका
▁नै
ed.
Μ
▁दरबार
क्ल
▁हलमा
▁दोगडाकेदार
4%A1%E0%A5%80
for
▁बढि
▁प्रतिस्पर्धी
秀
▁नोक्सान
▁दुबै
▁राष्ट्रका
▁बीचमा
▁पीताम्बर
प्रतिष्ठा
▁उठाएको
▁पहेँलो
▁सम्पादक
▁उनि
▁क्रूर
杯
आगामी
▁भोगिरहे
जू
-wrap">
咽
▁जयन्ती
▁पठाउँछ
▁सप्तकोसी
ci
▁कामपा
▁पोजेटिभ
▁अविश्वास
▁मौलिक
comment-id="77
▁लगाइयो
पुनर्निर्माण
▁खाएको
乡
न्द्र
43
पोल
▁वर्षमुनिका
▁पिउँद
िम
दत्त
▁सुपरिवेक्षण
▁प्रमोशन
▁प्रेस्क्रिप्सन
▁डेमोक्रेटिक
▁हटाइएको
▁सञ्चालक
हाँस
्दैन
वल
▁एक–एक
策
秤
랩
▁पाइरहेको
▁पात्रो
▁इन्भेस्टमेन्ट
Ή
▁क्षेप्यास्त्र
▁बक्स
ाइदिए
अाे
ג
भ्लादिमिर
平
विहिन
목
▁डोर्‍याउन
線
▁जनतामा
Φ
几
टोन
藉
̴
स् थ
▁हुनुभयो
▁गराइसके
▁दुर्व्यसन
▁अन्तर्वार्ता
+%E0%A4%A4
सहयोग
हुनेछ ।
▁प्रत्येक
मनोरञ्जनात्मक
▁बगनासकाली
▁लाइक
▁स्कटल्याण्ड
聞
▁अपरान्ह
▁प्रतिवादी
▁निकायहरु
▁नसोचे
▁स्काभेटर
日
▁जनसंख्या
莦
▁छाति
▁बास्केट
馆
▁कागजी
😏
▁'तर
認
ीकार
काट्दा
刷
▁थिइ
醒
▁विपरीत
▁सुनचाँदी
▁अप्रेसन
पीएम
܃
▁दान
एमए
▁सोना
महागढीमाई
▁पदमार्ग
▁गुञ्ज
▁बोली
ँदै
भारतीय
▁बोतल
گ
▁वितरण
▁बसेको
√
▁वढ
პ
▁शारदा
▁लेख्न
▁खड्का,
▁भाद्र
ञ
▁नलागोस
▁आरक्षण
▁मर्का
▁गुट–उपगुट
▁गोल्डेनगेट
▁नायिका
소
害
꧜
Ĕ
▁बुझाइ
▁पक्षको
गाउँपालिका
▁सर्वप्रथम
▁मिलान
जनक
▁सक्षम
▁जर
智
▁यसैबीच
▁लुटे
डेडिकेटेड
▁इन्द्रेणी
सरोवर
पर्वाह
ӯ
वृत्ति
▁रोकाय
▁परिचित
ۭ
▁नश्ल
r
▁लामिछाने
प्रे
▁परमप्रभु
▁ज्ञापन
▁दे
ٳ
▁सम्वन्ध
▁कमरेड
拜
֧
▁पठाउने
<s>
ﾞ
mp
▁अदालतले
▁कार्यान्वयनको
वृक्ष
▁(एक
औ
▁महोदय
▁रविन
▁स्पिड
▁रुँदै
▁छुटाए
▁जनचाहना
▁शोषक
Ã
■
17/
下
向
सीडीएमए
歷
お
▁विश्वभरि
भच
▁डुंगा
4%BF%E0%A4%A8
▁कुरूप
▁अग्नी
▁हाउस
書
礼
▁बनाएका
▁कृष्ण
▁सोलार
▁चिनिने
脑
▁निष्
पाइन्छ ।
▁सक्न
+ma
A
▁बर्खा
ٜ
Ұ
▁८४
寅
▁अंकुश
ܒ
वित्तिय
▁हुनुअघि
न्जो
+%E0%A4%B6%E0%A
▁बास
▁स्ट्र
शाखा
後
▁घाट
▁औल्याए
▁ल्याएका
उन्
फेसबुक
विचार
▁विरुद्धमा
▁प्रतिस्पर्धा
▁जिकिर
▁रेष्टुराँ
베
ill
▁स्मार्ट
▁पर्सनालिटी
▁गाउँपालिका–१
け
위
▁लागेपछि
宣
🇪
▁आम्दानी
▁पुरातत्त्व
+ho
哺
挪
▁बोहोरा
नजिक
▁साम्राज्यवादी
▁रोबिन
Շ
Adhikari
夜
Keep
▁दया
▁जलाउने
􀀁
▁रेफ्री
▁लो
डीसी
▁स्वाद
▁सारा
▁कि
异
▁कार्यान्य
▁सोंच
ਝ
束
▁मन्द
Σ
▁प्रशिक्षण
ка
▁निश्
▁सट्टेबाजी
它
बु
4
क्र
▁पीडक
▁द्धितिय
▁धर्मनिरपेक्षता
▁इकाइ
▁ओढ
रोस
सामाजिक
▁रोवर्ट
▁'कानुन
집
▁एयरलायन्स
▁धारामा
ठाउँ
ani
▁आम्दान
▁नदेखे
▁सुरक्षा,
▁भाटभटेनी
▁भन्यौं
ߦ
ㄚ
▁गुन्ज
▁तिनाउ
金
▁हामि
▁अवलम्बन
ियन
▁गाभ
璃
="http://
▁बाहिरिने
▁पढौ
▁निजगढ
▁चुम्लुङ
▁पौष्टिक
ポ
잘
▁आइजीपी
▁पुस्तक
2018/12/725
▁महानगरपालिकाले
ाङ्ग
हुँदै
▁संवद्र्धन
75.html">
0%A4%A3%E0%A4%AF
ML
▁डिपार्टमेन्ट
▁पिपल
▁लज्जा
▁ऐरी
▁पालिए
ಕ
↩
▁महासेठ
▁हुँदोरहेछ
▁कुर्नुपर्ने
वाहक
मन्त्र
▁चलायमान
▁देखावटी
build
मूलक
▁इतिहासकार
▁धारण
▁मोटरसाईकल
▁सिकायो
▁सफल
▁नबुझे
Ӧ
▁संगत
ិ
तेब्बर
▁आतङ्क
ߍ
हु
▁पर्यटक
▁ढिल
भ्रष्ट
ไ
�
▁मुलुकभित्र
▁फुपू
lue
▁जिज्ञासु
4%95%E0%A5%8B+%E
▁सभासद
ޏ
砂
ᤰ
▁फ्लोर
▁लोकन्थली
▁औ
▁तोप
ƶ
▁भित्रिएको
▁नगरपालिका–४
▁डायल
増
▁जुत्ता
▁राज्यलक्ष्मी
▁फार्म
▁घना
▁भिक्टोरिया
▁खेलाए
▁सिध्याए
राख्ने
ͫ
▁धाउने
▁Online
▁विचारमा
▁सन्तुलित
%E0%A4%AC
▁अक्षम
▁छिद्र
ý
▁सिड्नी
▁दोहोर्‍याए
▁व्यहोर
▁वाशिङटन
▁मसान्तभित्र
नगरपालिकास्थित
▁बेलाबेला
운
▁रक्सौल
▁गन्न
▁एल्वम
サ
%E0%A4%BE+%E0%A
टिभ
▁पर्छ।
▁मिया
volleyball/
▁bhanda
휴
▁मलेसियन
Nepali
▁शिल्पा
▁टकराव
▁महोत्तरी
▁माहुरी
भास्कुलर
▁रीता
गोपालप्रसाद
▁एग्रिमेन्ट
▁लालबाबु
▁बाच्न
बेँसी
￣
▁अवतरण
फाल
चम्किलो
42/feed
▁हुनपुग्छ
▁बहु
▁गदै
▁दुर्घटनामा
ाएको
▁छैनन्,
▁चेम्बर
%29
▁'जे
▁देखिए
▁जादा
驾
农
▁हनुमान
▁गुप्ता
न्ध
▁दिउँस
▁मित्रता
्याइ
▁चेत
▁भोक
▁सार्न
骟
लोचन
▁sabai
▁आकलन
०७३/७४
▁स्याल
▁सालमा
▁प्रतिदिन
▁रेट
▁बोले
ादि
ाउँदछ
▁इक्विटी
▁देउसी–भैलो
▁२७
软
आन्दोलन
▁कांग्रेस
▁होमियोप्याथी
se
▁कालखण्ड
▁भाग्यमानी
▁हाइड्रो
편
▁माछापुच्छ«े
▁चुनावी
▁स्वार्थपूर्त
▁hunu
▁पहिचान
▁लेन
▁बाँच
▁कस्तो
▁क्षेत्रिय
ǽ
▁पोख्
हरूमा
▁राजीव
▁कृतज्ञता
स्तरबाट
ासी
▁भत्किएको
▁जोडी
उज्यालो
▁मू
tt
▁पू
TA
▁ब्यक्तित्व
उद
佐
乔
▁प्रस्ताव
▁खाँदै
▁नबढाउन
▁शतक
▁डेरा
तेस्रो
案
असार
▁मेट्रिक
ठाउँमा
▁रहेको
▁सम्बन्ध
एकपल्ट
done
▁वसुन्धरा
▁भेटिन्छन्
하
▁लेखे
៊
विगतदेखि
积
▁रमाईलो
▁सम्वोधन
▁(एनआरएनए)
▁सन्धि
र्बाध
▁उभिने
सङ्
▁अपराधमा
विकासशील
縄
楼
नशिलता
ỗ
Ň
▁पुडासैनी
辦
सेयर
vt.
≈
▁संघको
जय
▁राजदरबार
▁इमिग्रेसन
〟
🚨
出
▁किरिया
▁वर्षायाम
▁सम्वृद्धि
▁गरियोस्
▁मलेशिया
ृहत्तर
▁गोरेटो
िदैन
▁हानिए
▁नबसे
底
▁बुझाइसके
ự
प्रगतिशिल
▁सहभागिता
ेरै
सोचेर
खेलकुद
¶
कुट
定
▁ठड्याउन
涢
▁पक्षपोषण
䋉
▁her
鬆
▁सैद्धान्तिक
▁'कु
▁फोटोग्राफर
▁ताते
▁क्यु
▁बैङ्क
▁मिल्यो
▁जंगल
▁प्रतिश्पर्ध
डोनल्ड
▁इलाका
▁लेखकहरू
▁पठाउन
▁आउँदैन
􀇑
समा
▁खतिवडा
ĺ
national
▁अक्षुण
▁ठाउँ
▁मनोरंजन
▁संचारमाध्यम
73/feed
ओस
想
▁सक्दैनन्
▁02:4
ग्रे
2019/05/762
ed
▁नगरकोट
र्ने
guid
□
▁युएस
78
▁निकिता
▁पुन
▁घन्टौ
▁ईश्वर
▁झलनाथ
▁पञ्चायत
▁इन्द्रावती
#comment-842
▁बैंकहरु
▁(
欫
▁अल्पमत
▁हुन्छ।
▁प्राडा
▁प्यालेस्टाइन
4%B0%E0%A4%AC
▁अनुपस्थिति
One
▁अवसरमा
हरुले
▁भए/नभए
टेक
डो
रेन्ज
१३
4%B0%E0%A5%81
▁त्यति
हि
▁बलात्कार
ঠ
यौं
अ
†
▁रेमिटेन्स
߆
▁मल्टी

हिर
4%9A%E0%A4%BE
▁'विगत
▁यसो
▁विम्ब
its

ի
बढेपछि
lekh
स्वैच्छिक
€
▁जोड
▁गर्दैन
ट्र
न्यायाधीश
있
અ
▁सक्रिय
▁छँदैछ
身
▁प्रविधिको
▁कार्यसूची
▁बेच्दै
football/44
ney
2018/02/659
▁नआउन
ating
▁तुरुन्त
▁शान
▁सत्यनारायण
▁झाँकी
बन्द
गिनी
▁ठान्दै
Municipality
߷
铁
समेटिएको
ness
निर्माणाधिन
विश्लेषण
▁मंसिर
㣙
those
▁पुर्न
खर्क
शंकर
▁घरबाट
ګ
▁भाडामा
नाक
5%87%E0%A4%9F
園
थु
........
government
27/
9/05/20/15583
▁केबलकार
履
▁घरभाडा
▁आयोजक
छैन
▁व्यवस्थापनका
Ћ
蒲
▁जोकोही
▁नयां
%E0%A4%A0
▁छाडिसके
▁शो
ض
【
▁बीस
भत्ता
▁हराउँदै
ʮ
▁शीघ्र
▁अभिप्राय
▁अधिनायकत्व
🐍
ब्स
सम्मका
述
▁हेरे
football/33
Т
▁गायक
▁थियो,
▁सोनाम
▁समिति
▁महìव
िरहनु
ग्य
4%B9%E0%A4%B0
▁पाउँथे
▁कोस्टारिका
▁पंखा
▁दिइरहेका
▁यात्रा
4%AF+%E0%A
रहिन्
कर्षण
नसकी
▁personal
▁अक्सिजन
0.
▁अरे
▁विन्ध्यवासिनी
▁डिजिटल
डेट
▁जोस
▁भोटेकोसी
˓
▁बैङ्किङ
जोड
cld-count-wrap">
पुग्छु
▁उखुबारी
राखेकी
▁भीम
▁गुड
▁उत्रने
5%
▁मार्केट
MAN
▁सकिसके
웩
費
▁लाग्नु
▁चोक
▁सिर्जनशील
▁तार्किक
و
圼
पे
▁गोकुल
▁मानबहादुर
▁मिल्छ
▁गैरहे
invest
Ǐ
ग्वे
▁'हाम्रा
स्थाई
▁सुजुकी
रूप
▁छँदा
▁'आज
▁बसोवास
彻
▁उत्तराधिकारी
ge
▁खर्चिलो
Today
Ԓ
▁गंगा
▁गरिदिने
ज्वाइँ
ぴ
▁गर्छन
▁शुभ
▁हट
講
▁फेद
ঙ
▁कोलाहल
🌽
सुकै
प्रतिक्विन्टल
डीए
淇
▁श्रेणी
严
▁छाप्रो
ñ
݊
▁अस्वाभाविक
2019/01/09/15470
搏
▁पद्धति
▁ध्रुव
▁टेक्नोलोजी
▁निजीकरण
▁फूलमाला
▁धोती
नगरपालिका–१२
▁वक्तव्य
पाँचवटा
▁झिकाए
4%B6%E0%A5%80
▁वादविवाद
▁भ्रमण
तालिका
▁अधिराज्य
4%99%E0%A5%8D
▁११
麺
觉
▁स्प्रे
▁बसुन्धरा
्चो
▁खोज्न
▁दर्लामी
▁भन्छन्।
▁अर्जेन्टिनी
▁"पहिल
बाबुराम
38
▁गराइन्
▁थमाए
खि
प्रजातान्त्रिक
▁यस्तो
▁कैफ
▁ठोस
▁टेकबहादुर
▁बाजी
▁होल्डिङ
▁फाइट
種
▁त्यसको
▁तरकारी
खुलाइए
▁भइन्
जिओ
潹
▁ट्याब्लेट
▁उपलव्ध
▁हरि
4%AE%E0%A4%BE
▁कामना
▁समुद्घाटन
タ
▁Sad
केभिन
▁उदेश्य
▁च्यापे
冬
ټ
▁तिम्रो
▁पु¥याई
वन्ध
▁वाषिर्क
▁'ग
▁तिलाठी
▁दाइजो
▁लेग
寂
▁राष्ट्रहरु
▁संलग्नता
▁युवतीहरु
हरा
ाट
▁साइत
洋
▁!!
▁पदम
▁जीवनरक्षा

▁बुँदा
▁आयातित
थाङ
ˇ
सामु
衰
▁ब्यालेन्स
बित्तिकै
रियन
▁गरिसक्नुपर्ने
▁लौ
0000
अफ
▁उपसभापति
▁गर्नसक्ने
ɢ
wi
▁श्र
झो
▁गाँठो
▁life
मुखी
४७
ற
▁मारे
沒
▁मोडालिटी
▁युनेस्को
▁कम्पनीले
▁हुन्थ्यो,
▁सुन्दर
▁दिए
▁परम्परागत
▁जोड्ने
▁पाइन
▁प्याकेज
सक्नेछ।
▁'उहाँ
▁त्य
▁नपरे
▁गैडाकोट
▁सृष्टि
▁अन्डा
۫
驚
▁जना
▁भैसकेका
चन्द्र
脉
चाप
▁जीर्णोद्धार
िद
११
▁मात्रा
📷
▁विनय
▁रौतहट
84/feed
▁फोर्स
▁सरकार,
hang
Dis
▁बृहत्
▁फलो
▁विमस्टेक
strict
प्रिय
▁महन्थ
遭
▁एस
sta
▁राजधानीको
▁देखियो।
▁संकलक
बाल्यकालदेखि
Ը
ग्राफ
▁आन्द्रे
∆
पुर
▁लेनदेन
យ
▁वृत्त
तारानाथ
पिआर
▁प्रतिरोधी
ठिकै
▁विवश
ओटा
▁आइपुग्छ
ग्राम
▁पर्याय
पोर्ट
डायलासिस
송
▁चलाउनु
▁लैजानुपर्ने
▁सम्पत्ती
延
▁औसत
▁reading
मित्र
▁भवनमा
▁बुझ्दा
▁पछिल्लो
面
従
宰
▁बन
रामा
भूकम्प
▁चोलेन्द्र
▁पूर्ति
▁विवादास्पद
▁शिष्य
▁पाउ
▁एड्स
▁ल्होछार
▁दर्जनौं
▁O
▁पल्टिए
▁भर्ती
+to+
घट्दो
▁भने,
凹
▁३०
밥
▁माइक्रोफाइनान्स
घुमाउरो
4%A1%E0%A
▁छोरा
▁एनआरटी
▁भेट
悔
पुरा
▁लुटपाट
पूर्वअर्थमन्त्री
▁न्यायपरिषद्
▁हुनुहुन्छ
ㅎ
▁बिधेयक
A6%E0%A4%BF%E0%A
Ͷ
ules
▁आँखा
▁बोगटी
▁फ्याँक
ઝ
▁उद्गम
▁ठम्याइ
چ
▁वार्ड
4%A8%E0%A5%8B
▁31
드
kripa
▁रामोस
▁वस्तुहरु
▁ऋषि
컬
▁बुझाउनुपर्ने
▁सीटीईभीटी
श्री
▁जनाइन्
▁प्रवेशाज्ञा
नगरिने
▁रुपैडिहा
▁so
ˎ
▁कम्युनिकेशन
साइड
▁हिँडेका
គ
▁अफ
▁बिथोल
▁अभिभारा
▁देखेपछि
M
▁सलमान
▁धोका
sure
▁पठनपाठन
▁कक्षाकोठा
स्वर्णपदक
राज
▁शक्तिकेन्द्र
२२
▁परेनन्
▁दुई/तीन
▁भेष
▁गर
コ
希
यस
▁तीब्र
▁ग्राभेल
荒
▁हेर्ने
▁फुटबलमा
▁भूपेन्द्र
▁समाचार
▁दलले
ា
▁कांग्रेसभित्र
令
ഹ
▁मुलुकका
▁बहिनी
▁सयपत्री
सहजै
▁कलह
▁बुद्धि
▁सूचक
困
▁प्राणी
Ҳ
▁इश्वर
▁पृथ्वी
▁नेपालीले
▁आकस्मिक
▁निष्काशन
▁पार्टीहरु
▁शिक्षित
֡
▁वक्ता
+jasto+
श्रेष्ठ
륲
▁यसवर्ष
न्डा
橘
▁अपरेट
▁एनएमबी
े
▁पुर्याउन
▁फेहरिस्त
遥
▁पाईने
▁गर्नुभयो
▁कोकाकोला
▁कृत्रिम
聖
̀
▁विभागमा
सालपछि
隧
▁अलि
▁अपनाउनु
▁आइसल्यान्ड
▁अदक्ष
▁बराह
<span
Ե
▁अत्याधुनिक
type="
▁रुट
▁परिवारसँग
4%BF%E0%A4%B2
ांै
ۛ
錄
▁टार्न
▁सामन्तवाद
ᶣ
椎
▁भास
▁पत्रकारहरु
▁सक्यो
लिखित
▁जसमा
▁ओभर
▁घुम
▁भार
सफल
▁राखी
▁मानिन्छ।
▁भी
cricket
▁परदेश
▁आनीबानी
▁छानविन
जिना
／
▁मगर
▁गाउँघर
between
▁ठिक
ⲕ
例
▁आएन
ŗ
्
मति
ง
▁मरेका
២
मान्यताप्राप्त
🕸
appreciate
▁के
元
빙
▁इब्राहिम
▁हुन्।
▁नगेन्द्र
4%AD%E0%A4%87
▁सपना
genera
नोभेम्वर
धारी
▁'घर
जुन
柄
वाई
▁मनलाग्दी
▁अत्याचार
񄔁
▁प्रमूख
▁अर्जुन
वाजी
F-
▁मान्छेलाई
hool
▁भँगेरा
/bi
0%A4%B9%E0%A5%88
▁ट्याङ्कर

▁प्रष्ट
▁सेतु
▁बालविकास
ڻ
▁दुरी
▁जिम्मेवारी
141
अटोमेटिक
33/feed
0%A4%B9%E0%A4%B0
▁मिचिए
▁भौतारि
𽩞
▁बनाइदिन्छ
▁अनमी
▁मनाउँदै
▁प्रतिशतले
细
▁उत्तिकै
▁गद्य
बाजे
昌
24/
▁गिरी,
xa
▁आक्षेप
▁बताइएको
िज्म
公
▁हेलिकोप्टर
▁छायांकन
▁चुरा
ώ
鞨
̤
5%8B%E0%A4%9F
ᤢ
▁डिटेल
ړ
पीडित
सकेसम्म
腾
▁'
▁देव
▁मृत
▁पाउँछ
▁अन्तरगत
▁फरवार्ड
▁ह्रास
▁भित्रका
म्बर
▁वहा
▁ढो
Ć
्यवस्थापिका–संसद
4%B2%E0%A4%BF
労
ीएको
भि
▁थोपरे
▁विच
ۧ
▁छाडेको
तथ्यांकअनुसार
क्सी
2019/05/764
्यान्ड
▁पठाइने
橋
盛
▁रेमिट्यान्स
▁आइसल्याण्ड
4%BF%E0%A4%A1
▁अध्यादेश
▁प्रान्त
澥
▁जन्डिस
▁इमान
井
rs
▁बड
嗯
▁खरिदार
▁ओत
▁एग्रो
Ӱ
▁लेकसाइड
็
▁पर्थ्यो
▁पहलमा
▁गायन
थरि
▁Ja
▁भुइँचालो
▁पृष्ठभूमि
▁लोक
▁भबिष्य
▁अराजकता
▁<
▁(क्यान)
-५
▁सुगा
▁नेमार
॥
no
▁साफ
▁साइज
ź
<![CDATA[S
▁मेसेज
▁ल्याइए
▁माल
▁दह
▁कुलपति
▁चेन
ᤔ
斯
ú
140
▁उपचार
▁उपत्यका
+%E0%A4%86
▁मेक्सिको
▁विकेट
▁भनेका
▁पच
▁धुन्चे
▁फस्र्योट
98/feed
▁ठहर्‍याए
सङ्ग
..the
▁मझ
▁'जनप्रतिनिधि
▁तोड
▁व्यत्ति
▁पञ्चाङ्ग
▁जुगल
▁सोच्न
▁नेवारी
详
▁अमेरिकामा
▁स्ट्राइकर
▁उपनिवेश
पश्चिम
▁शङ्ख
४.६
▁भन्छन्–
篷
主
果
▁एकान्त
कोट
⫎
菌
▁तन्क
६४
▁खोज्छ
▁किलो
ɤ
▁प्रतिवाद
▁खाजा
+%E0%A4%AB%E0%A
▁प्रतिरोध
धर
▁फिनल्याण्ड

संस्था
▁क्रिश्चियन
▁बुलन्द
▁'तपाईं
▁नियन्त्रक
▁छरछिमेक
復
▁गान्तोक
&quot;
▁ब्यवस्था
३–२
ܫ
इपिएस
१४
椅
▁हालै
नभएपछि
कता
▁अवा
▁एक्सपर्ट
▁हुँदैछ
▁सदस्यमा
▁लोकदोहोरी
Ҁ
▁तिन
्या
सामने
▁चित्रकार
दुईपटक
एकताबद्ध
▁शासकहरू
ﭨ
▁तिघ्रा
मार्फत्
▁संवाददाता
▁सिक्री
關
▁माइती
0</span>
▁लगाए
械
पूर्जा
▁अपनाई
▁बाँस
㍅
▁कार्यलाई
Ƅ
▁होइन
▁केटी
▁सानी
%E0%A4%8F%E0%A
▁निःशुल्क
柱
▁वर्गका
िटि
▁चौध
▁ह्यु
▁थप
▁गराउँछन्
▁गर्थिन्
▁प्रिय
▁ca
剩
▁कमि
सहभागितामूलक
▁घरबास
▁योग्य
2019/04/30/206
Communist
圄
▁लोकान्तर
春
▁लगानीकर्ताहरु
ोन्मुख
▁मिलि
😉
▁निको
4%AC%E0%A4%BF
と
務
▁भर्खरै
ཆ
▁सेल्फी
▁माहोल
▁२०७५
▁तोला
▁तपार्इं
▁मुकुन्द
▁लागेका
ů
達
▁दर्जी
मे
명
▁युनि
/2017/09/62
▁भक्तबहादुर
し
로
▁दुर्लभ
▁शुरूवात
너
▁२०६९
盖
▁विडम्बना
▁प्रांगण
▁बसी
▁भू
▁गाउँबस्ती
▁हृदयघात
हरूमध्ये
߃
ফ
दिउँ
▁सन्धिखर्क
▁अं
ぱ
޹
▁सर्दै
र्‍या
▁व्यक्तिले
̈́
▁रूस
ेयर
जग्गा
▁गइन्
▁नागरिकको
▁गतिमा
▁बोस्टन
view
सँग
鸭
▁खान
ƫ
गाड
प्रचण्ड
▁ठग्ने
▁पुरस्कृत
▁लाग्छ
ल्कुल
्दिनँ
प्रशिक्षित
▁मुग्लिन
2017
▁नखाए
ട
▁पद्दति
▁आपूर्तिमन्त्री
0%A4%A1%E0%A4%B0
4%AE%E0%A4%A4
▁डिम्ब
▁गुल्मी
戸
退
▁प्रहसन
्बो
%E0%A5%8B%E0%A
▁चेक
ठूलो
-down
▁शारीरिक
▁हेलिकप्टर
age
何
▁रक्षा
▁बोर्ड
YA
▁बोनस
▁खेलकुद)
▁जोड्दा
ग्गे
运
负
ड
▁वेपत्ता
覇
निकालेर
▁चेपाङ
ߵ
ẹ
▁हलचल
▁पढ्नुहोस्
राम्रोसँग
▁र्‍याफ्टिङ
▁चित्त
ान्त
▁लचकता
बेल्ट
मान
▁इनोभेटिभ
▁उहाँहरु
ल्ला
批
ैपर्छ
▁मीरा
स्टोन
▁रू
▁नरोक
▁महायज्ञ
▁थाली
▁नरहेको
▁रोजगारी
ު
▁दी
▁प्रस्तुती
▁दर्शाउन
कफ्र्यु
孔
▁देउवा
AR
▁८५
▁टाइम्स
▁१९८०
‒
▁पेयपदार्थ
▁'गाउँ
▁गुलियो
▁ठाँउ
▁AD
▁मस्र्याङ्दी
4%BE+%E0%A4%B0
▁नभई
ߎ
▁बोइङ
▁सुनाउन
▁साथीभाइ
▁लिखत
▁कम्पाउण्ड
怀

%E0%A4%A8+%E
ふ
▁पाउनु
भिए
▁मिनरल
िएपछि
▁'हो
▁हया
हरी
ជ
ે
▁साँफेबगर
㧌
हा
▁बाहिरका
▁सर
▁दिग्गज
穫
्दो
▁मर्यादित
💖
au
▁मोटो
▁नलाग्ने
▁नेपथ्य
候
▁लक्ष
備
दिदी
▁रेसुंगा
+%E0%A4%9B%E0%A
न्ते
▁हेम
▁खत्त
州
▁कमी
▁कुरालाई
ξ

RO
▁अनेक
▁आर्
▁ईन्द्र
Ý
▁मिनी
▁निवास
▁मृत्युदण्ड
चोटी
▁पन्थी
▁उपप्रधान
际
▁त्रिशुली
▁ह्विलचियर
uk
▁उँभ
▁मठ
▁ट्राभल्स
▁उपविजेता
追
▁निवृत्त
ӱ
गेज
સ
▁बन्द
▁नदिने
▁बनाई
▁नपठाए
͒
ँगा
▁अप्रत्याशित
、
▁बमोजिम
▁तोक्ने
▁प्रोफेसर
▁'ट्र
▁बोलीचाली
嵪
转
▁परिचय
ۼ
वार्षिक
4%89%E0%A4%A8
ծ
҉
ു
ने
football/7
NO
▁फिरौती
广
▁कामकारबाही
▁छिचोल्
▁फुयाँल
▁ट्रयाक्टर
▁कास्की
0%A4%AF%E0%A4%A3
ਪ
▁कुण्ड
▁विश्वकर्मा
क्तृत्वकला
􀉍
ൽ
▁Ap
▁सुमार्गी
▁सदर
▁प्रक्रियामा
'
▁जुटे
▁कमाण्ड
▁टेबलटेनिस
▁पक्ष
當
ន
▁अनियमित
▁निस्कन्छ
垲
緊
on
ڪ
congress
▁चरम
डी
▁खण्डमा
▁धर्म,
▁जनरल
▁उचाले
गाभिने
आत्मालोचना
▁चुहिए
▁कालिगण्डकी
▁पृथकतावादी
ɫ
लाय
▁भइराखे
▁पाउने
▁पूर्वमन्त्री
Radio
Қ
㍺
▁कमै
▁बृ
幡
▁सृज
ட
▁त्रैमासिक
您
▁मांशपेशी
▁तपोवन
▁दोसल्ला
▁निकाली
ru
ט
秘
▁एकदम
床
▁दाजुभाई
▁बनाऊ
▁शान्त
▁छुटे
/07/15
▁व्य
कर्ता
▁भ्रातृ
▁खुबी
▁औपचारिकता
Asia
▁चाहे
▁टरे
▁चिलाउने
▁प्रतिद्वन्दी
29/feed
▁पासपोर्ट
◎
▁ग्रन्थ
वरिपरि
▁मुलुकमा
▁पाथीभरा
▁हेरिए
▁'त्यही
▁विभेद
Ltd.
▁गर्भवती
ֆ
▁गइरहेको
wa
▁अव्यवस्थित
▁every
紧
जना
▁२०७४
鮡
▁नेपालीलाई
अप्रिय
▁नगर्ने
name
▁राज
ᤡ
😓
><
▁मावि
डि
▲
▁नल्याए
▁बस्छन्
趧
सम्म
ुभयो
鉛
唷
▁मिलाएको
Ō
た
▁For
प्रजातन्त्र
▁बृहस्पति
▁पासो
▁बलिउड
▁दुरुस्त
▁भद्रगोल
▁पाण्ड
▁दरखास्त
रहेसम्म
远
▁इस्ट
...'
▁थिम
उधारो
担
院
▁बुद्ध
▁संविधानमा
▁'ए
皆
Ҿ
0%A4%95%E0%A5%87
82
▁समयपछि
▁बसन्त
कुरा
򎐃
बताउनुभएको
▁गरेँ
▁बर्खास्त
▁शा
▁काका
directly
▁'उनीहरू
扰
हवा
▁मिल्क
▁माछापालन
▁मेगाहर्ज
▁पाउण्ड
/2019/03/754
4%A6%E0%A5%8D
▁श्रद्धान्जली
▁फर्निचर
–सु
▁ठोक
▁लाइनमा
乳
केदार
Ƭ
▁पो
प्प
छाड
▁ध्येय
▁गाउँलेहरू
ायाँ)
फिट
दोष
▁थुक
संघीय
▁छोराहरू
रहेछ
to
▁स्नातकोत्तर
Ƃ
岗
▁भनिन
▁सिमल
▁पार्टीलाई
अधिकाँ
▁रोशन
▁14
▁सांग्रिला
▁ब्र
▁बाहिरी
ह्य
▁परित्याग
▁घन्क
जनजागृति
स्थल
賃
▁बताइन्।
▁भर्से
▁मट्टितेल
▁दोहोरो
▁अपरिहार्य
▁मनाइँदै
▁दिइए
0%A4%B9%E0%A5%81
४६
f
मंगल
▁गलैंचा
4%B0%E0%A4%95
▁मार्गनिर्देश
▁१८०
꨾
警
आइतबारदेखि
▁बाँचेका
ुका
भद्र
▁गरिन्छ।
▁लिम्बुवान
▁खनाल,
怖
🇾
▁साक्षर
0%A4%BF%E0%A4%AF
▁भतिज
難
500
्जर
▁कम्पिटिसन
四
▁भूमे
▁चक्रव्यूह
▁सविता
ि
▁कोलकाता
ҍ
नजिकै
दीप
뎾
▁स्क
ल्न
▁बोल्ट
▁जनताले
▁महसुस
▁हुवावे
▁सातदोबाटो
▁स्वयम्
▁19
▁पुरुषहरू
▁आरोप
▁हास्यास्पद
आफूमाथि
%E0%A4%A8%E0%A
पर्छ,'
69/feed
▁रायमाझी
▁अल्झ
▁अयोध
▁धवन
▁ढलान
कसै
▁कास्कीको
▁गएको
̟
76
▁वाइडबडी
हिद
ԁ
▁लावती
支
適
Ȋ
रुङ
▁सीता
▁लेखापाल
▁सुमित्रा
अहोरात्र
▁नपुग्दै
🚫
▁sanga
僅
▁धेरै
▁रूप
▁ईसा
4%BE%E0%A4%A6
ུ
説
缚
▁खुशी
▁न्यायाधिश
भदौं
▁झन
▁चाहने
▁आरती
▁सुरज
ट्रिक
楯
▁योद्धा
▁हेर
▁आरम्भ
औद्योगिक
89
계
悷
▁जलमार्ग
▁झिके
▁थिइनन्
▁गल्याङ
▁बधशाला
▁घटाउने
▁उत्रिए
▁बेहोर्ने
▁कारखाना
/2017/12/64
▁मारुनी
▁उड्डयन
पर्नसक्ने
▁असम
▁राजी
▁बुढानीलकण्ठ
▁चितवन
▁झण्डा
मृत्युवरण
▁कलात्मक
▁लेख्दा
▁लाख
鉴
▁ग्रिड
宵
▁देशभर
▁झेल
▁उठाउँछ
▁सुदर्शन
▁आइमाई
▁विस्तृत
闻
टो
▁व्यंग्य
▁गरिएन
▁'तीन
▁उठाय
ᤩ
▁रहि
ق
▁निषेधाज्ञा
19/
▁त्यसैमा
▁राकेश
র
牙
▁उत्त
饰
▁'ठेकेदार
na+
बनाइरहेको
▁development
≡
翼
▁ब्यस्त
७९
두
▁हुनेगर्छ
▁धाउन
时
▁श्रीमद्
ᤆ
▁भू-भाग
≧
▁समस्याहरु
http://
17/feed
▁पुग्यौं
본
▁भए।
▁७८
▁दुख्ने,
▁पाख्रिन
▁विमानस्थलमा
वातावरण
▁शसक्त
▁बाग्लुङ
▁छात्रछात्रा
▁सायमी
Ǩ
▁काज
ѩ
%E0%A4%9D%E0%A
▁लेख्नुभए
׳
锈
Ɣ
२४
▁सामग्री
0%A4%81+%E0%A4%
ف
덌
खोजिरहेको
˫
Ƕ
▁हलिया
▁नम्बर
Γ
▁नबोल
😲
Ҩ
▁थालें
्रम
😪
▁एक्स–रे
2018/10/715
▁स्तरीय
स्ट
▁सघाउ
पाए
抽
ȅ
ʚ
▁साम्यवाद
离
सिंगो
om
▁कार्यनीति
待
▁चिन्तित
Ｈ
पीसी
鞭
▁फुस
▁बुझाएका
▁रिपोर्टर्स
▁भइसक्ने
िए
ाइरहँदा
▁माघे
濟
कराल
गायिका
▁(एमाले)
▁साधन
▁आराधना
▁कविता
▁कपडा
▁८३
▁साह
विद्यालय
▁तप
79/feed
▁उडिरहे
भविष्य
://twitter.com/s
ोस्
▁अछुत
ë
▁होटल
▁सञ्जालमा
Ʌ
▁'क'
शायी
सेवा
चुनाव
३६
ड्ड
pradesh-2/2018/
4%AA%E0%A5%8B
ে
▁दो
▁ब्य
▁गर्दिनँ
2018/09/20/15374
▁दुखद
▁बताउ
▁सुधारका
▁कम्पनीहरू
n't
2019/04/761
▁शुद्धता
▁खेपे
妊
सुनेपछि
न्डु
▁बनाइसके
▁फ्रेम
दे
▁सिर
町
Ц
̃
080
▁तत्
▁चुलि
ोपयोगी
虐
▁देखियो
▁सहिद
ुस्,
▁लगन
▁सागसब्जी
▁गर्नसके
▁त्यसबेला
▁साक्षरता
▁प्रबन्ध
번
▁हनुमानढोका
▁स्विट्जरल्याण्ड
22/
▁बनाएको
產
%21
▁पोजिसन
लग
▁धूवाँ
茶
▁अभिशाप
▁घन
२.५
あ
▁मन्जु
▁खनिज
▁कोईराला
ॣ
जनघनत्व
ൃ
▁दुरुपयोग
▁बिद्यार्थी
▁विद्यार्थीहरू
4%B9%E0%A5%8B
▁सुधार्ने
चिकित्सक
▁पार्दै
▁ठुला
▁•
▁सम्पादकीय
▁टेबुल
▁०७४/७५
▁रोइ
▁अजरबैजान
ŝ
▁ठूलो
ौँ,
▁मण्डली
מ
▁खनिए
▁कार्ययोजना
▁बताउछन्
सारेर
▁डेविड
'यही
▁एड्भेन्चर
▁कठिनाई
▁इन्कार
ᤘ
पूर्वक
ڊ
▁अङ्क
イ
▁घाटा
मादकपदार्थ
२०४३
#comment-819
सार
▁सव
▁कठ्ठा
该
▁भन्यो
▁बंगलादेशी
स्प
ੜ
कोटमा
०६३
▁कन्चनपुर
▁निम्नानुसा
विनिता
▁आइपुग्ने
▁जम्
永
▁लुक्स
▁सत्
▁३००
▁आ
▁कोलम्बिया
▁'हिरो
▁अदालतमा
0%A4%A6%E0%A5%8B
क्रिटिकल
▁परिक्रमा
休
▁भ्यान
▁टेन्डर
athakmanch/2018/
raj
▁सर्
▁स्पष्टीकरण
ގ
▁पोष्टमार्टम
▁गुगल
▁मनोरम
效
▁प्रस्थान
▁मन्तव्य
▁पूर्वीय
▁निस्कन
%E0%A4%A1%E0%A
▁रि
ں
▁फुक
▁राष्ट्रिय
▁चाँगुनारायण
▁मानव
भदौ
6"
▁निर्देशनालय
फ्लोरिकल्चर
销
भ्य
▁अंकमा
Government
सुधार
然
▁अहमद
▁बित्तिकै
261
맺
丸
▁अभाव
१८
हैन
▁व्यवधान
▁पराजित
आर्थिक
▁विवादमा
▁हिन्दु
▁निजामती
▁बलि
▁ठक्कर
▁पारे।
35.html">
कारिता
간
🌎
∛
डिपार्टमेन्टल
▁सकिँदै
+ko+
▁पत्रमा
好
्याइँ
▁छोप्न
झा
/२०
▁८६
ʒ
विच
्ति
▁सिताराम
ɉ
▁M
गाह
▁कँडेल
day
मुष्ट
▁आदर्श
000
▁'आफ्नो
▁पोल्टा
▁छाक
所
ाला
忙
▁तल
▁चाँजो
▁प्रसुती
՗
≤
▁लड
▁सुरक्षाकर्मी
▁विभाग
　
▁नवलपुर
▁गोन्जाल
ស
▁जेभियर
रिक
▁'वर्षा
▁लिँदा
ek
▁आउनुभए
ਟ
9/05/13/15577
▁बौद्धमार्गी
▁दुर्योधन
▁सद्भावना
睛
own
ह्याम
नपाएर
4%A6%E0%A5%88
2018/09/706
ग्रेस
▁नबनाउन
좋
▁जनउत्तरदाय
१००
filename="2017/1
37
▁रामेश्वर
ुप
▁सके
▁प्रडक्ट
▁प्यान
▁भएनन्
%E0%A4%A4+%E
आउट
necessary
▁गर्दिन
▁जग्गामा
▁धुलो
▁हेर्न
ँडी
▁क्रसर
▁स्टोक
चौदण्डीगढी
报
ꋩ
▁देखाएर
▁अप्ठेरो
▁आतंकवाद
▁झल्किन
仁
▁अर्काे
▁आबस्यक
पिट
학
▁or
▁रेजिडेन्ट
/2017/06/60
जिव
堯
%E0%A4%96%E0%A
िष
▁अन्ना
▁भृकुटी
रोप
खुरा
沢
शिष्ट
▁सतर्कता
▁सिकेका
▁लिच्छवी
विर
▁बचे
遠
मुलक
▁नघट
▁दिनदेखि
▁काट
▁बाढीपहिरो
¥
寧
▁din
▁नआउँदा
▁उद्यमशिलता
▁अतिरञ्ज
碍
▁बाबा
ར
▁पुनर्निर्माणका
▁स्वयंसेवक
ुम्लिङटार
▁आरोपी
5%8B+%E0%A
ই
递
▁विपत
्याप
4%BE%E0%A4%AB
4%AB%E0%A4%BE
޳
จ
▁श्रद्धालु
▁ड्राइभिङ
ܡ
▁प्रस्तोता
▁रकमान्तर
तिव्रता
▁केन्द्रिय
▁शोधकर्ता
▁उक्साए
▁र्‍याप
寝
▁बिघा
▁परमिट
▁दुर्गाबहादुर
▁देखी
▁बृद्ध
श्वेत
▁जव

▁ट्यांकर
उरा
▁चौहान
内
one
߸
▁बराबरको
▁अली
▁लाग्थ्यो
▁रजिस्ट्रार
▁खस्किए
绍
▁रूपमा
▁क्षयीकरण
▁स्मिथ
िसा
.html">
जडित
▁गुरूङ
▁बिकल्प
Ր
畝
▁उरुग्वे
跟
▁ब्या
4%BE%E0%A
▁शिक्षा
▁'नो
ाउँथे
ऴ
ङ्गुर
सम
्लो
स्था
4%A8%E0%A4%BF
केन्द्रीय
▁यिनीहरु
िणी
ंका
world
▁रोए
▁भूगोल
▁नाला
▁अमिताभ
▁पढेको
킸
▁अस्वभाविक
▁परकम्प
football/14
▁सतह
誇
▁टुङ्गिए
▁अभिबृद्धि
▁पूर्वसभासद
5%8D%E0%A4%A3
एक
▁नर्भिक
football/28
💕
न्डर
ac
▁संक्रमणकाल
▁आइपरे
लिनुभएको
▁मृत्यू
▁डाक्टरहरु
आयोडिन
लिप्त
▁दीर्घकालीन
▁कालिञ्चोक
靼
▁शिकार
बजारमा
▁दोषारोपण
▁गर्नुहुँदैन
भराउ
राक
▁जनसरोकार
▁बादशाह
▁ढंगले

▁हाम
pradesh-6/201
र्श
ँडे
सुरक्षासम्बन्धी
▁एक्जियटा
▁चिनिन्छ
▁त्यता
ल्यान्ड
▁जलेश्वर
▁निन्द
❷
▁बिद्यालय
▁लाभदाय
▁कबड्डी
▁इन्फ
बाट
जस्तै
▁२४
s://www.
▁सुनाए
ங
▁मुल्य
चाहिं
ꕄ
0%A4%AD%E0%A4%8F
▁एयरलाइन्स
सेप
ܧ
焦
▁चुनाव
ंड
ाइल
▁खोल्सा
⑸
（
▁अमरगढी
▁भित्र
▁प्रल्हाद
▁घटनास्थल
▁उत्प
▁प्रशंस
▁भोगाइ
▁मान्नु
胶
▁07
▁टिसर्ट
💀
▁कुलो
ुभयो।
▁दस्तुर
˧
携
▁काठमाडौंमा
▁बिजय
▁तपाइँ
▁क्याच
a
▁कञ्चन
ji
▁सगरमाथा
▁सोधे
▁राधा
▁सुजाता
4%A8%E0%A5%80
ल्ले
▁बर्तौला
ോ
▁तथ्याङ्क
▁"सबै
😮
胞
ঘ
略
▁अष्ट
▁हुनै
▁नभन
▁ब्यानर
समेत
▁कमर्स
查
ஸ
pradesh-4/2018/
邸
▁तारे
ݑ
बढाइएको
www.facebook.com
ment
s:
▁जनसांख्यिक
▁खडेरी
af
विरोधी
▁युनिलिभर
टा
行
0%A4%AD%E0%A5%82
▁प्रतिप्रश्न
▁राष्ट्रियता
▁पोल
▁छौं
टाइब्रेकरमा
ព
▁असुरक्षा
▁धम्क
▁दिर्घ
成
▁आसेपासे
ī
▁प्रतिशतमा
▁उमेद्वार

पुगेकी
Ԗ
▁बनारस
▁(क्रान्तिकारी)
😆
▁दराज
▁भट्टराई
杉
▁अल्टिच्युड
▁कि?
%E0%A4%88+%E0%A
▁नामकरण
ರ
▁हार
▁हाँसो

▁मिले
▁व्या
▁कार्यभार
▁विरेन्द्र
ु,
प्रताडित
Ƽ
▁निखार
▁धु्रव
▁(भारत)
74/feed
सक्छ ।
▁अंशबण्डा
0%A4%AA%E0%A5%88
▁ढिँडो
▁पंक्तिकार
▁हरिबहादुर
di
Ҫ
▁फोटोग्राफी
▁सुवाल
▁ज्ञवाली
▁निहित
▁नर्वे
▁गह्रौ
▁'मो
एम
▁बाक्ल
▁नगरिए
▁उपज
▁मिलोमतो
魚
%E0%A4%BF%E0%A
सकेपछि
ʽ
▁पाले
est
▁प्रजिअ
पट
圣
▁लोभ्याउन
▁बहिस्कार
▁तो
▁ठेगाना
▁उहाँ
▁भुपेन्द्र
▁साट
Ĩ
▁६९
▁गल्ती
▁असुरक्षित
厥
▁स्टोरी
碗
भो
产
▁अभ्यास
▁घरायसी
▁एकाउन्टेन्ट
ст
▁माझी
▁नभएर
▁हुनुपर्ने
▁संस्थापन
news/201
▁ऐक्यबद्धता
▁रमणीय
ι
57
临
▁पाचन
▁रक्तचाप
▁केन्द्र)
चाइ
▁घटना
▁भैसके
ᤀ
0%A4%B5%E0%A4%BE
▁छुट्याइएको
▁करिडोर
▁लिँदै
सक्नुभएको
▁दशकौं
la
▁अपेक्षा
▁प्रतिकृया
▁फस्ट
이
▁रहोस्
▁चाहानुहुन्छ
̺
え
हे
च्छिक
▁सभाहल
য
▁'राज्य
͠
▁चमक
되
4%96%E0%A5%8B
सारै
▁अनुपस्थित
▁गोपनियता
▁बायर्न
mod
㽳
▁बाँडफाँट
▁उठाउँदै
मर्कामा
4%9E%E0%A5%8D%E
见
महिने
यस्तै
▁नरैनापुर
▪
Ԝ
०७५/७६
究
मजदूरी
'यस्तो
▁निष्कर्ष
▁पक्षधर
▁महिनौ
4%BE%E0%A4%95
▁बाह्रबिसे
▁घट्दै
लिमिनेटर
▁खोजि
患
處
ബ
▁राखेप
▁दिलीप
▁बताईन
◌
7.html">
▁प्लेअर
साच्चै
जहाज
兴
उनकी
▁गरौँ
4.html">
्याउने
परिवार
▁सूचकांक
वाहवाह
▁चल्दै
劉
उन
5%A6%E0%A5%A6
▁लान
▁घडेरी
▁कानुनमन्त्री
▁उसै
नोभ
▁बच्चन
बीज
521
▁डेमोक्रयाट
ঝ
अवैधानिक
िरहे
▁दिपेन्द्र
▁घण्टौ
▁डिजाईन
▁पोटासियम
Ѐ
▁हंगेरी
▁आत्मरक्षा
戶
▁(माओवादी)
ेट
き
▁संख्यात्मक
▁कालिमाटी
▁सुरुवाल
▁गर्नुहुन्थ्यो
拼
▁बालकोट
en
▁दाँज
▁भने–
墜
नागरिक
▁मुना
🌻
▁जनचेतना
▁पट
इन्ट
▁आईएमई
▁यत्तिकै
▁निरोगी
▁फेवाताल
児
🙌
▁पूर्वाधार
▁विद्यार्थीलाई
ӥ
▁लज
▁सम्हाले
▁जे–ज
▁तानाशाही
迫
–२
ા
🙋
▁बारी
▁नदी
▁महाप्रवन्धक
▁नजिर
៏
▁कमला
▁सजिलै
ǧ
▁राज्यले
0%A4%A8+%E0%A4%
मूल्यांकन
▁नोभेम्बर
▁शासन
▁पाश्चात्य
▁झर्ने
协
▁पर्वत
▁स्याङ्जा
-३
कयौं
▁दिंदै
▁अनुदानमा
▁फेसबूक
ẵ
ر
▁वर्गीकरण
烧
▁युरोकप
▁जोडदार
▁निजी
▁टिम
▁दानव
▁माइक्रो
▁भेडा
▁रिमाल
हुर
▁टुङ्ग
▁विकिपिडिया
गार
ेल
▁हो?
%E0%A4%B6%E0%A
▁मेहेनत
रेस
Ґ
्किए
▁सर्च
▁अन्धाधुन्
▁स्वीट्जरल्यान्ड
▁कमजोर
2018/04/672
▁पार्टनर
▁रुचाए
▁युवक
▁बायो
駆
▁सुरुङमार्ग
▁कुपोषण
▁हूल
▁बैंकिङ
▁भित्रिने
▁गीति
▁हाम्रा
बाली
5%87%E0%A4%B2
▁प्रियंका
4%B8%E0%A
िइन्
▁जीवनी
ध्वज
▁डीआईजी
▁विहे
▁भेन्चर
验
फोन
▁जनप्रतिनिधि
▁शिल्ड
ָ
▁पछ्याउँदै
रिया
▁बिक्रम
▁भूमिमा
儀
▁सान्त्वना
▁देवराज
सुझाव
बिहिन
समुदाय
▁दुई–तीन
quality
कुशल
▁रानी
▁हिलाम्
यत
तैपनि
▁पागल
▁ब्रुमर
練
▁रोजगारीको
4%B5%E0%A4%BE
▁रोबोट
▁system
▁सामान
0%A4%A4%E0%A4%BF
%E0%A4%AE+%E0%A
5%87%E0%A4%B6
由
▁भन्या
독
जागरण
▁जोगाए
▁बाढीपीडित
▁हनुमन्ते
Ċ
▁रोजे
–नयाँ
#comment-828
▁चरेस
.पा.
+%E0%A4%97%E0%A
▁ब्रम्ह
▁बढ्नु
गेल
▁फेर्ने
▁उदयपुर
Ƨ
蕉
▁प्रतिलिटर
▁अकबर
%E0%A5%88+%E0%A
▁बाल
▁ट्राभल
▁लफडा
▁ट्रान्समिसन
–रसुवागढी
मुन्द्रे
करीव
▁पहाडमा
दय
弛
瘯
▁सुरक्षामा
महानगरपालिका
?v=
▁सहभागि
▁मध्यस्थता
▁12
ܬ
गुन
ʻ
ाउ
ử
ۉ
賤
football/8
Ȓ
▁भोली
疼
म्व
▁आँ
ۡ
▁तातोपानी
▁शल्य
ञ्जु
▁बाब
▁काली
ण
वंशी
尺
鴱
▁गढी
▁एकआपस
▁बुँदे
प्रत्यक्ष
▁व्यक्त
度
्दे
▁प्रोग्राम
▁यहूद
▁अन्तर्क्रिया
▁टिका
▁सर्वेक्षण
ड्यन
पात्र
२९
▁नरबहादुर
▁चाहिं
▁अभिनेता
▁बद्ल
कण्ठ
▁द्वितीय
런
▁नगरेको
अल
▁भारोत्तोलन
यीमध्ये
ौटे
▁निलम्बन
ाउन
▁भोज
؅
▁खनाल
▁तरिका
▁आइसकेका
▁बहुल
으
▁गर्नुस
▁haru
आठ
$
▁also
्पे
अदालत
upload
▁निर्वाचन
▁छोड्ने
ल्प
▁चुक
错
▁इन्च
ऑ
▁लक्षण
▁खप
बेहोर्नुपरेको
▁सम्झँदै
阿
▁अन्नपूर्ण
▁सुस्त
▁१७
▁ढोग
▁मनस्थिति
矢
भण्डाफोर
▁अथिति
▁कुर्मी
赶
प्रतिकात्मक
्छ।
▁बदला
߇
ޛ
▁विपन्न
ȿ
▁ट्रस्ट
▁अपरिपक्व
▁कथावस्तु
▁(१)
▁देखिन्छन्।
Ԟ
ः
ाधीन
▁डायरी
१९८६
▁एकछिन
ٿ
AL
▁डिम्याट
माउन्ट
पायक
覉
▁प्रधानाध्यापक
▁आवेदन
▁गौ
nized
▁ग्राहकहरू
ൈ
▁रङ्ग
▁हिड्न
才
ನ
रहित
娴
▁लिन
▁गरोस्
विरुद्ध
▁थियो,'
MA
▁बोलकबोल
▁क्वालालम्पुर
母
५३
▁म्यान्मार
▁१३
स"ग
▁उड्डयनमन्त्री
▁पहिलेको
Ｇ
▁लगाउनुपर्ने
68
マ
▁शीत
गर्ने
˷
▁विरुवा
张
▁प्रयोगकर्ताहरु
本
▁पुस्तिका
▁बन्जाडे
文
▁देखेका
▁यामाहा
▁लम्पसार
▁दाँत
0%A4%B9%E0%A4%BE
▁वायु
▁आश्रित
कान्तिपुरसँग
▁काँग्रेसले
10/15
५–०
63/feed
😡
0%A4%AC%E0%A4%A8
ٷ
70
▁'सो
៥
एनआई
⋲
ผ
अर्थ
▁दीपक
सद
फूल
▁अभिन्न
仔
pro
▁कन्सल्ट्यान्ट
▁युरोपियन
▁दमक
▁हेरचाह
त्
▁हाहाकार
▁इन्टरनेटमा
ction
▁भक्तपुर
▁सिमान्तकृत

▁दिनभरि
%E0%A4%82
us
▁कोलकत्ता
▁पवित्रा
4%9A%E0%A4%BF
õ
梯
▁आन्दोलनका
Г
⬇
▁तिलक
▁माछापुच्छ्रे
▁पढेका
▁ई–
▁उथलपुथल
▁निम्त्याउने
वाल
▁फिटनेस
▁थाले
▁थाम
0%A4%9C%E0%A4%BE
football/42
▁ल्यायो
नैतिक
टाइ
football/43
▁महादेव
♪
涌
競
▁दिउँसो
▁कोल
/महा/उपमहा/नगर
▁भिजे
▁युगमा
▁जोखीम
▁नारा
▁राउत
▁मच्चिए
▁ब्यवहार
▁धागो
सिलसिलामा
▁वीर्य
▁अन्र्तराष्ट्रिय

▁६०
▁party
लता
逾
▁जरो
▁ढाँट
तमाम
comment-id="74
▁जाने
▁कब्जा
▁'गो
आरएस
▁जीउ
▁हङ्कङ
▁उडे
/2017/10/63
0%A4%9F%E0%A5%8D
▁चन्दननाथ
▁वृद्धा
▁ऋचा
36
▁कथन
reserv
▁ब्यबसाय
▁पेन्सिल
▁सुनिन्छ
0%A4%AE%E0%A4%A8
4%A4%E0%A4%BF%E
▁दिइरहन
▁need
लोककल्याणकारी
▁गरिन्
▁उपकप्तान
देशभित्रै
▁उठाउने
▁थपलिया
И
▁फिल्ड
▁घण्टे
▁राष्ट्रसेवक
general/5
▁मिति
▁strong
孤
▁अभावमा
बिनै
▁दोष
ާ
ം
験
▁बडा
▁ह्यारी
Ⱦ
▁हुनेछ।
ἀ
▁अण्डकोष
▁वोर्ड
锻
▁भारततर्फ
ฟ
▁धामी
▁आयोजना
भित्र
▁४५
फा
민
▁तुरुन्तै
祈
▁सार्की
▁जीवनको
▁16
ϝ
▁खै
▁अर्धशतक
▁त्यसबाट
िन्द्र
▁तदनु
▁विरुद्ध
▁टिप्पर
रंगी
▁चित्र
▁यसपटक
挺
got
汋
ว
피
▁विराटनगर
双
▁हेरी
:३०
▁मौलिकता
▁खुमलटार
▁विश्वयुद्ध
▁कल्भर्ट
▁प्राथमिकतामा
alaya
▁रमाउँदै
ांत
▁भर्न
▁फ्याक
▁जर्ज
रिस
▁अाए
▁आर्मी
5%81%E0%A4%B0
借
摇
U
▁हुनेछैन
鹰
▁फोहोर
▁गर्ला
▁शताब्दि
▁ऊ
▁रिर्पोट
募
▁राष्ट्रपती
+are+
▁तडकभडक
▁संक्रमित
▁विश्लेषक
▁लबिङ
▁उपनेता
▁लगाइदिने
▁महानगर
子
娩
ჩ
ె
▁हुन् ।
Ŀ
2019/05/22/213
सह्य
▁बदले
प्रा
कला

؇
涝
▁नदेख्ने
बाध्यकारी
▁अध्यक्ष
▁२६,
क्सन
▁उक्ल
夕
与
चुँड
▁हरेक
▁hunchha
შ
▁राष्ट्रसंघ
▁सौहार्द
▁हकप्रद
▁फुकाए
খ
▁पारदर्शी
▁दशमल
▁सञ्जीव
dress
▁बालीनाली
▁फ्रेन्ड्स
▁राष्ट्रपति
साह
푋
▁सम्प्रदाय
हाल्नुपर्ने
▁राज्यकोष
बरू
▁window
▁अध्ययनमा
4%BE%E0%A5%87
ׅ
▁बताइन
kho
्द्रराज
发
▁अभिमुखीकरण
▁author
▁हालेका
ä
ɋ
▁०८:
▁बराल
0%A4%AF%E0%A4%BE
land
बंगलादेश
▁प्रश्नमा
▁दुर्व्यवहार
%E0%A4%95%E0%A
▁फलामे
▁Bi
▁हटिया
ात्मक
▁गतिविधि
▁माथिल्लो
जगेडा
लास
▁कनिका
खोज
हडताल
▁स्वीमिङ
▁अभिनेतृ
▁आप्रवाह
▁मनु
दरबार
▁भागबण्डा
▁उत्
▁मुद्रण
▁लोकतन्त्रमा
▁पाठ्यक्रम
2019/03/749
▁थाइराइड
र्मा
असोज
▁बजार
▁सुदूर
厳
▁तातो
▁विधु
सदाबहार
▁ग्यारेण्टी
ǰ
▁पाउन
सिजन
▁रियल
न्छन्
甚
▁No
▁दाउन्ने
तीनवटै
ペ
▁आभास
▁वजे
挑
▁मञ्चन
▁विमला
▁हुर्के
צ
▁जात
▁साता
▁रवि
▁'त्यो
34/feed
▁उठाए
▁स्मृती
혰
志
ss+
ḿ
▁कसो
ほ
▁जन्मजयन्ती
▁छैटौं
▁बताउनुहुन्छ
▁मेसी
▁समाजको
▁बाँध
पाँच
▁स्क्वायर
▁सकार
喪
▁बौद्धिक
▁बेक
▁सिपाही
स्ट्रा
▁सेड
▁पोग्बा
ެ
मोर्चा
मिटर
▁गरेनन्
▁चौमासिक
▁पर्फमेन्स
छौँ
▁सम्बन्धमा
১
🐾
▁अर्थमन्त्रालय
▁पहेलो
▁http://www.
宠
पिठ
rl="https://www.
▁माध्यममा
▁बजारमा
४–२
布
ҧ
▁हुकुम
▁धर्ती
▁बताइन्छ
▁लक्ष्मण
प्रकार
ފ
▁रक्तदान
सुन
▁टेलिफोन
▁न्युनिकरण
▁minister
ꦱ
配
▁चलन
माया
▁२०६२
昼
▁विस्थापन
▁युरिया
·
जघ
暖
▁नाइट्रोजन
▁अनैतिक
kati
▁संक्षिप्त
▁सर्वाेच्च
▁वहाँ
0%A4%9C%E0%A4%B8
4%BE%E0%A4%A8%E
▁बैज्ञानिक
▁नपुर्‍या
处
▁तुलनात्मक
推
느
▁नेपालीहरू
▁स्वामी
मधेसकेन्द्रित
▁सेलेब्रिटी
मुग्ध
form
▁इन्टेरियर
2018/08/699
▁देशलाई
रिएर
प्रविधि
Ӏ
▁बेसार
▁मोबाईल
▁साेमबार
▁साझा
▁पाइन्छ।
हरुलाइ
悩
졌
i
至
▁गर्नेछन्
㗣
लाई
▁रगत
▁बग्न
नियमानुसार
नाकानी
ۢ
want
▁क्षेत्रमा
▁तामाकोसी
s..
ƛ
Ҙ
▁चकलेट
यसर्थ
▁स्क्रब
▁व्यक्तित्व
▁डिल्ली
▁अवरोध
्कार
▁विश्
▁रहिरहन्छ
▁मिथ्या
 
▁फुट
▁नाली
्टा
जहाँसम्म
अद्वितीय
▁बेरोजगार
▁एकाध
▁घट्ना
ƴ
▁राखिरहे
▁लागी
▁पाँचौ
▁विधाय
▁औंल्याए
Ώ
▁प्राइभेट
▁बैंकले
टनाशक
तोष
▁ऋण
प्रतिस्पर्धात्मक
▁उति
▁सनराइज
5%8B%E0%A4%B9
▁गाह्रो
-एक
▁एनएमब
▁टक्कर
▁सङ्घसंस्था
▁गुण्डा
▁बित
▁केस
▁पठाइदिन
रुप
▁छिट
ޝ
▁नेपोली
▁मुन्धुम
▁काटे
▁सुनाइए
赢
▁गर्छन्
▁सकिन्न
▁हुनुपर्छ,
▁तोडिए
▁आरुघाट
▁बालगोपाल
▁लागुपदार्थ
▁सामाजिक
军
▁हिँडिरहे
ӣ
▁अनामनगर
沈
▁धनकुटा
ɘ
▁पारवहन
▁सफाइ
▁हुँदैछन्
默
▁पुनर्निर्माण
िष्ट
纏
कोसेढुंगा
▁सकेनन्।
मिठो
▁परिवारले
▁अनुसन्धान
▁अर्थतन्त्र
▁विर
नियमअनुसार
हालेर
▁सम्बद्र्धन
ƣ
▁लछार
▁रामकृष्ण
▁अब्राहम
%E0%A4%BE%E0%A4%
ລ
75
▁लेख्दै
▁थपियो
坪
▁रोज
सिसी
▁मुस्ताफ
जुङ
लचिलो
नगरपालिका
▁कहीं
▁गेस्ट
नगरपालिका–१०
ן
2019/03/30/15539
ब
01
म्बा
▁ढल
▁खो
▁फर्काइ
▁अंग
▁वृद्धि
पख
▁हासिल
▁थुपार
▁ठम्याउन
▁सिकारी
▁फ्रान्स
Ϧ
с
▁खान्छन्
▁पाक्ने
हुँदैन,'
गल
कालिन
%3A
ਔ
▁सल्यान
侯
सक्दो
▁सिमकोट
वोध
✴
▁आतिथ्य
ॡ
▁कानुनबमोजिम
5%87%E0%A4%9B
0%A4%9F%E0%A5%80
▁साँखु
ߙ
択
▁औपचार
甘
हावादारी
ұ
挙
雖
ाँउछ
▁लिप
▁गरिरहने
▁वृद्धभत्ता
▁छान्न
▁अग्रपंक्ति
ɳ
▁फुड
▁२०५२
教
˚
Ձ
वेस
▁आमाबाबु
架
स्मरणीय
जे
Ƥ
▁लागे
▁आवश्यक्ता
ᄶ
article
िँदा
▁सुची
ङ्क
ʲ
▁मिसन
▁अध्यन
▁यहाँको
▁चलचित्रकर्मी
▁चिस
40.html"
ालु
Ư
▁देह
ޯ
∘
▁किसानको
▁चिन्ता
7
मनमोहक
जावत
眕
▁'जस
▁टक्सार

▁चो
口
▁दायाँबायाँ
💓
▁रुन
▁दूत
घर
ṣ
ेरो
res
▁शिक्षक,
रह्यौं
▁कर्जा
'bout
▁लडिरहे
5%8B%E0%A4%97
▁किर्गिस्तान
▁सौन्दर्य
▁घोटाला
▁लक्ष्मीपूजा
▁जनताहरु
▁उज्बेकिस्तान
༻
िइ
'पछिल्लो
अग्र्यानिक
तापनि
▁साइप्रस
▁सबल
▁म्यानेजमेन्ट
Π
▁तिर्नुपर्छ
銢
淡
▁मड्रिड
ाइँ
▁हर्ट
▁डुबुल्क
糇
%E0%A5%8B+%E
▁'प्र
▁महामन्त्री
▁सूर्य
▁स्ट्या
▁पहिलोपटक
▁फु
ोक्दा
٨
▁मेची
उने
▁दिलाउने
▁छापामार
ߜ
टेड
❣
संसार
▁बोकेका
針
बाङ
प्रश्वास
सम्झौतापत्रमा
निर्जीवन
▁समीक्षक
▁योगफल
da
AS
08
▁नाइके
▁राज्यसत्ता
▁नेतृत्वमा
▁शिवजी
څ
▁अधिनायकवाद
i.</
2%80%8B
▁अवधिभर
▁एयरवेज
▁कू
7</span>
▁कूटनीति
͊
▁चाही
▁भइरहे
4%96%E0%A5%8D%E
▁आदित्य
त्यतातिर
चार
▁मनोदशा
अड्काउ
▁सकिने
▁विद्यापीठ
कन्दरा
ﾎ
▁घुलमिल
▁नं
▁इस्तानबुल
▁वर्चश्व
▁डट
ហ
บ
▁बेग्लै
▁विमल
▁साट्न
que
ाङ
▁शब्दहरू
2017/11/642
ბ
07/
▁जितमा
▁News
々
✓
▁स्पेयर
័
▁पर्नुपर्ने
▁जबर्जस्त
互
▁भित्र्याएको
ʔ
▁सेवक
▁गज्जब
TI
▁राउन्ड
▁उपमेयर
▁पश्चिमाञ्चल
ण्डो
उन्जेल
गर्भ
फोब्र्स
▁एकतर्फी
▁जोग
ݩ
▁रुमाल
त्रसित
▁बट्टा
▁रघु
▁नभने
▁नेविसंघ
ノ
尸
▁साम्य
4%A8%E0%A5%8D
▁वस्ती
▁अर्बपति
▁दृढता
▁दुर्घटना
▁९२
▁गथ्र्यो
िक्स
▁राख
▁जोर
▁नसक्नु
▁भन्छु
ӳ
▁घिमिरेले
ठाँउमा
▁क्लाइम्बिङ
▁खाद्यान्न
▁बधाइ
楚
ِ
▁निस्किन
▁दौडधुप
हान
▁उतार्न
भ्
▁तालिम
▁ग्राहकहरु
▁उता
▁ख्याती
ᤃ
▁रात्री
वर्द्धन
數
▁पनि
▁छाड्यो
▁रोमान्टिक
Development
ढे
▁अनुसार,
▁सिन्हा
ट्राफिक
龍
▁सीसीटीभी
巴
▁साबिक
▁भाउजु
instal
▁विश्वविद्यालयको
意
खानी
▁सिन्
᫞
▁कर्णेल
▁भन्नुपर्छ
▁for
%E2%80%
▁उपमहा
▁पात्र
4%B5%E0%A4%BF
मिनेट
▁अनुरोध
ợ
ۃ
▁बेग
▁निकट
▁माइतीघर
와
▁महल
keep
▁अनुदान
▁बहुउद्देश
छेउमा
▁चलि
▁नमस्कार
▁इभ
▁भारतले
▁बच्चाबच्ची
▁थरी
▁दन्त
लक्षित
ภ
▁सुदृढ
पथ
▁lagi
▁लेबनान
कौशल
र्क
▁घरको
▁धवलागिर
koseli
▁ब्रसेल्स
▁[
▁हिँड
ƾ
盆
खुसी
▁रितिरिवाज
路
ुम्बा
▁अधिवक्ता
पौवा
▁कागेश्वरी
ड्ढ
▁अपडेट
२०७४/०७५
▁मूर्त
战
▁शंकास्पद
两
▁bu
风
▁बिदेश
दायी
ग्रा
▁संसद्
द्र
▁तीनवटा
▁अनन्त
▁फास्ट
夺
ܗ
點
圍
5%8D%E0%A4%AA
photo_feature/
▁टिप
▁आर्यघाट
छु।'
ट्रो
▁टेष्ट
਼
ะ
▁नक्सल
१५
▁तीतो
▁'जुन
▁गतेसम्म
9
▁अन्जान
▁प्रिन्स
ुपर्ने
pradesh-7/2018/
▁मेसो
▁हत्यारा
▁तोकिए
▁बनोस्
▁लालायित
गरिँदा
अध्यक्ष
tyo
▁सर्राफ
比
▁मन्त्रिमण्डल
ݫ
៉
#comment-778
▁आइसके
▁चावहिल
बासी
▁ढंग
▁भन्थे
▁स्थानीयबासी
45/feed
未
हिं
▁मन्त्रीपरिषद
検
ԓ
▁बागडो
▁आसन
अस्ट्रेलिया
▁कलम
▁कर्मचारीलाई
▁चाहिँ
59/feed
▁१३२
▁पर्दैन
▁पशुचौपाया
ݾ
▁थाइ
न्य
ֽ
▁नेट
灵
जसलाई
▁चाल
4%B8%E0%A4%95
ऊ
▁अर्जेन्टिना
ut
ng
s+
▁केसीले
▁केरा
▁अवस्थाका
▁खुड्किलो
🇺
削
मन
▁con
Ϸ
dc:creator>
४-०
▁वर्ल्ड
▁गण
▁टेस्ट
▁उत्तम
▁घिमिरे,
▁चतरा
#comment-825
▁'मेरो
▁टापु
▁नचिने
Ǯ
▁लीला
▁गरिहाल्न
8"
▁सूर्यबहादुर
▁संगीत
똖
世
मानसिंह
▁शाह,
▁बाग
▁बलात्कारी
济
▁बार्गेनिङ
▁तात्
दरबन्दीअनुसार
▁रंगरोगन
▁मलेखु
4%AF%E0%A5%8B
▁बस्छ
▁आयत
▁निरर्थक
▁रेष्टुरेण्ट
▁बजेतिर
यख
▁जरिबाना
▁रसिद
थ्यो।
▁गुरुयोजना
▁लम्बाई
▁ब्यावसाय
▁अमिर
▁सिँगार
▁क्याम्पस
द्धि
▁भिन्नता
▁प्राङ्गण
滋
▁अमर
▁कारण
▁छोड्न
Ͽ
▁क्रोएसिया
▁द
पुर्वक
▁थिइनँ
ाइटिस
जम
49/feed
▁बनाउन
▁तस्बिर
参
▁नदिन
▁मतगणना
в
▁उल्लास
दौलत
▁खेलकुद
ाइसकेका
▁आउँ
征
▁सुगर
▁व्यहोर्नु
▁प्रदूषण
동
っ
买
▁'जि
▁जम्ब
17
▁न्युजिल्याण्ड
भैरव
򊼱
मिसेस
4%AC%E0%A5%8D
▁माथागढी
現
▁ब्यबस्था
劒
▁साम्प्रदायिक
汉
順
▁सक
▁निर्मित
▁झरी
hare?text=
Ǵ
▁सुनियो
▁अनुचित
ƽ
▁इन्डेक्स
▁गराइन्छ
मूल
▁मौलाए
▁अराजक
美
▁बेजोस
content/-3
फिन
महिलातर्फ
football/29
ฉ
▁हँुदै
靺
नगरपालिका–५
▁साथी
▁मुटु
▁स्कुटी
▁सुगम
▁कार्यक्रमलाई
升
▁पक्रन
ै
ત
洞
▁हत्याकाण्ड
386
▁सत्य
pradesh-5/2018/
শ
▁पुष्पलाल
▁धान्न
"अब
▁आउँछ।
▁वारियर्स
▁अस्पताल
घटना
कन्टिनेन्टल
▁जनप्रतिनिधिको
編
▁अर्की
ं,
▁नआउँद
corrupt
採
넓
उपक्षेत्रीय
🏼
bas
▁मितव्ययी
▁भान्सा

▁च्यानल
▁औं
闚
▁साहु
▁खारेजी
issue
语
ড়
भूपरिवेष्टित
▁पुरस्कार
▁काठमाडौँ
▁सँधै
्काए
街
2,
दो
गाउ
▁रन्जित
5%87%E0%A4%B9
：
신
▁प्रतिलिपि
नयाँ
▁मानिएको
▁सविन
ধ
▁सत्यतथ्य
पहिला
▁३३
▁प्लास्टिक
▁एप
▁उर्मिला
▁इन्भेष्टमेन्ट
अवधि
जार
▁निरास
असन्तुलित
ठो
▁प्रवर्द्धन
do
▁थ्रेसहोल्ड
▁व्यक्तिसँग
▁trans
▁मर्मतसम्भार
टोपबहादुर
▁पाउँछु
वित्तिकै
▁खोजियो
肝
▁सत्ता
બ
▁वृद्धवृद्धा
र्न
▁अपूर
▁बनेको
प्ला
HE
▁थिइन्।
▁मनपरी
▁नहेर
फोर्ड
धेय
被
۾
▁गर्छ
▁"ब
▁वंशावली
▁पेम्बा
52
एमाले
▁first
▁सिद्धार्थनगर
▁उद्धार
▁महत्त्वपूर्ण
भास
4%BF%E0%A4%B0
ϥ
▁कम्पनीका
織
कसैसँग
▁हाँस्न
ắ
ѱ
4%82%E0%A
▁भो
▁T
▁चक्कु
▁चुल्हो
▁क्याप्सुल
▁दमकल
海
▁पितृसत्तात्मक
메
▁बालिका
ेछ।
5%A4+%E0%A4%
▁थिएँ।
▁सञ्चालन
▁प्रविधिमा
曾
▁संवेदनशील
▁गाढा
▁अमला
▁हिचकिच
▁कपी
▁स्तुति
▁कन्सट्रक्सन
▁राज्यमन्त्री
മ
▁हुनुहुन्न
ना
▁गिट्टी
से
▁इन्स्पेक्टर
ক
एचडी
▁लेस्टर
्थेँ
ओभर
▁भिडियोमा
जोरी
ڂ
06
▁पक्का
झै
▁लगे
▁पीडादाय
continue
▁छानबीन
▁वेल्स
民
쉞
▁भन्ने
त्रि
थुन
▁आउँदैनन्
लोजी
थोर
मैत्री
कचहरी
▁संस्था
▁महासचिव
▁७,
▁७००
▁साँच्चि
▁नली
tar
▁पुग्नुपर्ने
▁वैदेशिक
रुपान्तरित
#comment-820
▁ओली
▁पोखरा
▁कर्म
हन
▁जसरी
▁माध्यमिक
▁साइबर
▁एकोहोरो
॓
कुल
च्य
н
कोसीटप्पु
−
▁गोलभेँडा
▁लालपुर्जा
▁सुनाउने
Ռ
▁गर्ज
▁भाजपा
▁ममता
▁चाहन्छौँ
▁चैत्र
▁खहरे
गाम
▁एजेण्डा
4%B0%E0%A5%80
▁चेस
▁कान्छो
▁राम
2019/05/27/15589
▁झिलिमिली
▁आफैलाई
4%BF+%E0%A4%
विक्षत
▁सहमहामन्त्री
ʧ
साथ
देओस्
▁'ऐन
▁कभर
वाड
2018/04/671
0%A4%86%E0%A4%
▁बर्ग
्छौं
▁जीवन्त
狗
宅
រ
अन्तर्राष्ट्रिय
▁जित्नु
▁कलकत्ता
▁लागत
▁चाहनु
▁खोजिए
▁लिभरपुल
▁जोडेर
▁टेम्पो
हुदै
▁सजिलो
▁पुल्चोक
▁विद्युत्

▁साहित्यिक
ؙ
ें
▁नग
योजना
な
御
सुचक
5%8D%E0%A4%AE
▁ब्रान्ड
ഗ
▁पल्लो
▁प्रायोजक
Social
▁पिथौरागढ
▁बनाए।
%E0%A5%87+%E0%A
ಳ
जन्मजात
J
▁चाणक्य
▁लि
▁एफ
▁भिन्द
जीत
▁उपत्यकाभित्र
▁पृतना
▁पर्चा
▁bhane
▁अस्ट्रेलिया
踹
–आ
▁अग्रसरता
▁फाउण्डेशन
അ
▁संविधानसभामा
▁अन्डर
▁आएँ
युनिट
▁अमेरिकाको
जिब
most
丟
▁थारू
官
सकिएकाले
焲
▁लामो
▁"त्यस
▁अँ
▁आउनेछ

▁चीनका
▁बोलाएको
般
रुपेश
▁अनुसन्धानकर्ता
ȡ
▁ज्या
चाहेर
▁कोइरालाको
▁data-
▁विभाजित
lai
ǌ
news/development
憎
▁बिस्तार
▁न्यौपाने,
▁रोविन
▁प्रकरणमा
▁लेखि
▁बनाउँछन्
Ѝ
▁प्लटिङ
▁चिन्ने
▁तृष्णा
▁हिँड्न
▁फुल्ने
▁सुनीता
▁छथर
▁सुन्दरहरैंचा
ʀ
▁संवेदना
ﭧ
सक्दा
▁मङ्गल
▁उछाल
▁कोर्न
▁निस्कियो
样
▁इन्स्टिच्यूट
Ӭ
십
谷
▁popu
▁बोक्न
▁कस्
get
老
यौ
e+
▁संग्रहालय
जितेर
▁उम्
▁विषेश
離
▁कार्यक्षमता
을
鲾
▁नगरपालिका–१
▁मनीषा
▁खुलिसके
▁आइपुगेको
▁शेरचन
▁लाग्यो,
▁आपराधिक
▁बताइसके
📢
जङ्ग
▁पाउनेछन्
वैरागी
꯫
🎊
▁हिँड्ने
▁कण
ぁ
▁रबर
▁मर्छ
पल
▁रहँदैन
चो
▁निकालिए
▁डायमन्ड
武
लिएपनि
▁आभार
▁भ्रष्टचार
▁सोधिन्
😂
е
▁रोज्ने
▁श्रेष्ठलाई
▁खेप्नु
▁मियाँ
▁कदा
100
▁ठुल
▁खेद
4%B5+%E0%A4%
▁वर्ग
▁दियो।
려
▁रहर
▁भेडीगोठ
गढी
▁'रि
答
▁कार्यपालिका
▁च्याम्बर
▁हरियाणा
🙊
▁कक्ष
आलोचनात्मक
▁website
▁भत्काउन
血
勺
▁चलान
􍖒
ाउनु
▁कहा
एउटी
▁दुइ
岡
▁असुल्ने
▁मान्म
ञ्चोक
▁अवलोकन
▁मुहम्मद
खास
▁la
८०
▁रिमोट
ة
給
ɑ
prove
甍
▁रुपाकोट
एच
क्ट
▁बगाउन
4%AD%E0%A4%8F
ep
mi
▁सीमित
सिजी
▁आउला
▁महिनापछि
▁वुद्धि
▁भेटेर
▁गर्छन्,
塔
0%A4%B5%E0%A5%80
दिनुहुन
👱
▁असोज
%E0%A4%9F+%E
▁एकल
▁पर्न
451
▁उद्दार
▁मोड्रिच
さ
▁झोला
六
▁पठाएको
χ
▁महिनाअघि
▁निस्क्रिय
▁जग्गाधनी
ee
▁बुढा
)
蜯
▁गृहयुद्ध
▁सिञ्च
▁युवा
Ǣ
賢
▁चौतारा
▁अरिङ्गाल
▁सुके
▁झेल्न
相
▁कार्यविधि
Ĵ
▁घुम्न
र्ती
▁खर्चमा
▁चिउरी
▁होलिडे
स्फुर्त
▁सुरुङ
▁राखिएको
▁'अब
पु
▁'इन्
ൂ
▁एभरेष्ट
ृत
▁'किन
▁तिलिचो
其
उँदा
movie
नन्,
▁सल
मल्टिपल
ܨ
奶
#comment-783
21
▁जिस्क
एकचोटी
表
߰
setting
असई
महिला
ीन
х
▁कार्यकारिणी
▁लगानीको
खच
通
▁संवाद
▁पु¥याउन
▁स्पट
▁पत्ता
ॽ
▁उभिएर
news/interview/
護
▁रोका
अक्सिडेन्ट
▁पठाइसके
▁दाई
▁कसको
14
▁गइरहेका
租
▁बर्न
▁मोती
▁सैनिक
▁बिबिध
Ğ
सम्मानजनक
㝞
राह
؍
📻
0%A4%AD%E0%A5%81
▁नीति
▁कञ्चनजंघा
▁अखण्ड
▁कम्पनी
▁हिटलर
▁कोशी
▁नेताहरुको
0%A4%B7+%E0%A
竳
निडर
▁बिगाहा
patra
▁युगान्डा
0%A4%A8%E0%A5%81
▁बर्दिबास
Ǡ
ឹ
▁नारायणहिटी
▁प्रतिहेक्टर
गभर्नेन्स
毕
▁बेहोर्नुपर्ने
38/feed
नेकपा
▁केमिकल
봉

#comment-837
▁कोअर्डिनेटर

߁
▁(ई
२–१
▁प्रेस
▁तेस्र्याए
拾
ƒ
▁महँगि
▁प्रावि
߫
▁नजिकका
q
8</span>
自
멘
▁विलासी
▁उपन्यासकार
ョ
5%8D%E0%A4%B2
䰟
▁बोलाइ
प्रशस्त
23/
ா
▁सर्वोच्चता
्याएर
▁मामिलामा
▁बदली
͘
▁इनरुवा
▁अश्रुग्यास
▁गर्नुहोस्
नेता
0%A4%9A+%E0%A4%
規
भण्डार
▁रक्षक
ʖ
संगठन
▁खड्क
रा,
▁नागार्जुन
▁मानब
▁सौगात
▁गर्न
▁बालबालिकाहरू
▁दस्तखत
▁रोपाइँ
▁नाघिसक्
▁आठबीस
ु
▁चर्का
बुझ्दो
"><
▁धावनमार्ग
एलईडी
▁बुझे
▁१५०
▁लाग्दैन।
▁सकेन
साना
सहितका
▁निस्केको
財
१०
▁सिकाई
问
▁नम्वर
▁पुराण
▁कोहि
▁दिल्ली
▁मेजर
笛
▁फ्लाइट
▁स्नेह
▁अधिकारीको
▁सैन्य
▁निवासी
▁मडारि
▁हिसाबले
업
▁२०००
欣
▁हुनुपर्छ
▁एकीकरण
赏
षित
레
▁निबन्ध
.....
▁भित्रिए
▁ज्योति
+%E0%A4%A8
वर्षे
十
讗
0%A4%A6%E0%A5%81
▁अभिनन्दन
原
ή
▁मीन
伙
po
介
愁
football/18
爆
लामा
.पी.
▁हाइवे
▁प्रभावकारी
▁बदमासी
स्टि
ǲ
शिरीष
▁प्रोत्साहन
֫
ांग
ज्वाइन्ट

प्राध्यापक
यूक्त
ͷ
▁आयुक्त
ề
˛
वर्षभरि
▁प्रवक्ता
ाएँ।
▁१०४
▁राजतन्त्र
▁बन्धक
▁समाधि
▁महेन्द्र
▁ल्याई
控
▁दुग्ध
dhan
▁टनकपुर
▁अहिले
▁स्विकृत
▁जलचर
ӑ
▁गरिनुपर्ने
▁धरातल
एलए
те
ौली
िस्
▁सर्वे
▁राजमो
▁यौवन
鵗
優
Share
▁कराँते
▁न्यायालय
ჭ
▁सच्याउन
रातारात
j
ɵ
बढी
अखाद्य
▁लठ्ठ
▁ब्यवस्थापन
2018/08/702
केजीमुनि
▁भत्ता
▁कोइरालाले
▁रहेकाले
▁पौड्याल
▁देखिएन
▁पूर्वएमाले
▁कोलेस्टेरोल

4%A8%E0%A5%87%E
▁मेरै
चित्त
▁lu
मुहूर्त
▁राजकाज
˨
思
▁सेन्सर
▁घेदुङ
एलइडी
0%A4%9F%E0%A4%B0
꺂
▁सहकार्यमा
▁गाउपालिका
▁उत्साह
%E0%A4%87%E0%A
Ð
▁टाइप
विधान
▁सुनाउँछन्
ꁰ
ive
Ǫ
▁प्रतिनिधी
अघि
▁महेश्वर
▁पर्स
ļ
暧
प्राधिकरण
역
▁सरोकार
वर्षेनी
▁दु
▁चाहँदैनन्
▁उत्रन
▁असाधारण
▁जाम
▁रामग्राम
썮
▁ठि
58
很
ݙ
π
▁(क

▁बिक्री
▁निरक्षर
▁समाप्त
▁गुणस्तरहीन
%E0%A4%97
olita
ܵ
नभन्दै
▁१०:
▁नगर्नु
सूचक
▁कुखुरापालन
बज्यै
チ
Ќ
▁सहनशीलता
▁समानुपातिकतर्फ
▁गर्दै
▁his
納
駐
किसिमले
▁टिप्पणी
मतलव
फिक
򴶨
净
ґ
▁टेकु
٢
▁खुद्रा
ꚁ
▁जीव
哩
2019/04/762
某
▁कमजोरी
५८
ᚔ
rofessional
▁इन्डिया
▁Twitter
姉
रहेका
+%E0%A4%B0+%E
▁खट
▁आलोच
2019/06/770
▁मैदानमा
ʎ
▁युगोस्लाभिया
▁भइसके
▁मन्त्रि
▁समझदारीपत्र
容
▁ट्रान्सफर्मर
▁गाई
▁हैसियत
▁जिउँदै
साब
ुहोस
▁बतायो
▁धुमधाम
▁अबुधाबी
㰝
▁हिमालय
թ
▁गोरख
▁सञ्चारकर्मीसँग
▁तरिकाले
केन्द्र
▁योगेश
▁बाघ
▁नरेश
सम्बन्धी
▁was
׽
समीक्षा
▁लम्बिए
▁र्‍याली
▁मुद्रास्फिति
▁धर्मगुरु
▁यहुदी
%E0%A4%AE%E0%A
▁स्रोतसाधन
▁सभागृह
Β
ƍ
▁ब्यक्ति
▁छ्याप
▁सरसर
坊
◊
▁राई,

ाएपछि
蔡
▁बिश्वास
ǿ
मन्त्रालयमार्फत
091
Һ
卖
Ǧ
賀
&#124;
山
♡
▁मिलेन
comment-id="
▁सुरुवाती
▁सम्झाए
chh
ाड्दा
▁हानिकारक
▁दुश्मन
▁कार्यालयको
–५
ޓ
ಬ
▁सकिएको
ril
▁ओशो
निर्देश
स्थलमा
अल्पविकसित
牆
▁सरसफाइ
Ƿ
▁राती
ज्यू
▁समाप्ति
▁बन्छन्
0%A4%82%E0%A4%97
即
4%BE%E0%A4%9F
▁ब्यवसायी
嵕
▁लगाइसके
▁गेट
▁फाइनान्स
▁एल्
▁न्यूरोड
ܥ
▁ललिता
ष्ठ
▁उच्चस्तर
▁चाकडी
▁माननीय
▁साझ
▁बीउबिजन
▁बेलासम्म
▁पुननिर्माण
वुद्ध
पत्नी
֔
आराधना
ߖ
संवैधानिक
▁मार्ट
▁सजग
▁अमेरिकन
टाँगे
篇
▁कागजात
१-०
▁out
罩
▁मिश्र
▁विमोचन
आइएमइ
▁पाइएन
Ǔ
ंक
▁कार्यकर्ताहरू
ổ
▁राजभण्डारी
▁मलेसियामा
▁मोही
▁दाहाल,
▁सिता
4%9F%E0%A5%8D%E
+%26amp%3B+
揭

▁ब्युटी
थी
Ԩ
▁दुवैजना
▁यज्ञ
▁प्रतिक
जिन
▁प्रजातन्त्र
▁व्रत
▁अभय
ԍ
▁२०२०
२/२
▁वनजंगल
▁लाखौं
▁नअपना
जापान
ful
▁ठमेल
가
▁तिलगंगा
▁पुरुषको
मेर
नि
⫴
▁परिष्कृत
hamro
4%9C%E0%A4%A8
▁कम्पनि
ٕ
▁कवाडी
読
▁'मन
▁भीमसेन
▁न्याय
݄
0%A4%9C%E0%A5%8B
ss
+va
▁रामायण
वासीले
Þ
▁महशु
▁स्पोर्ट्स
▁विपत्
▁गफगाफ
▁आदि
▁सापकोटा
▁ढुङ्गा
▁खाल्डाखुल्डी
α
दारी
▁घातक
▁लियोन
锦
लाइ
सक्तैनन्
▁सारंगी
▁पाटो
घरमा
▁कभर्डहल
भयो ।
ʼ
▁भानुभक्त
▁चारैतिर
▁कच्ची
▁जागरुक
▁महासंघका
हीन
▁औध
▁ग्यारेन्टी
अलग
▁ठोक्किए
▁ट्रि
हप्ता
▁गोर्
ケ
扬
὆
ር
बोटे
पारम्परिक
敢
▁थामी
▁'कम
▁रिप्
▁And
ഇ
▁भन्नुभएको
仰
सल
▁वरिपरि
दर्ता
▁अनिवार्य
▁आचार्य
▁सेन्टर
मजदुर
featured/4
▁the
▁२०६४
▁जनाउँदै
ाइड
业
▁ललित
औं
▁सिफारिश
▁थियौं
▁द्वेष
▁महिलाहरू
▁एकात्मक
斜
▁कर्मचारीहरू
ब्रे
▁उच्चारण
▁गर्नुहोला
▁एआई
वृत
對
幽
β
्टु
▁छरितो
्कि
▁सङ्घ
祭
割
ad
4%BE+%E0%A
▁भीभीआईपी
टिङ
्&zwj;य
▁कन्या
▁ओसारपसार
ശ
्ट
▁जसले
एमएस
▁वर्षदेखि
簡
खत
▁'ह
▁नोटिस
क्राफ्ट
▁क्वाटरफाइनल
Ȥ
4%AB%E0%A5%81
록
▁१९६०
▁पकाउने
हारी
Ÿ
99/feed
ɛ
▁एप्स
▁गर्छौँ
体
स'
▁पंगेनी
▁उद्धव
%E0%A5%8D%E0%A
▁नलाग
▁लुब्रिकेन्ट
▁आममाफी
桌
▁बृहत
▁बढाउन
▁प्राण
▁रुकुमकोट
▁मिथ
ն
▁टीकाटिप्पणी
▁हिसिला
ဗ
ݓ
▁चाहन्छौं
सरकारी
ݛ
ぬ
ニ
▁काठमाडौं,
ם
ɮ
जी
▁मोबाइलमा
▁सेगमेन्ट
▁न्यूनिकरण
▁बजाए
▁रिड
▁पुर्‍य
ञ्ज
▁बदलिए
▁हेल्थ
+%E0%A4%89
▁शेर्पा,
▁गणेश
ɽ
्नु
▁बिबिसी
▁मध्यपश्चिम
▁गर्नु
聾
▁सिइओ
▁सिल्भा
▁(ब
–१०
▁खेतीपाती
▁सीमाङ्कन
▁जयनगर
▁हानाहान
▁ताजकिस्तान
▁पुर्पक्ष
▁अखबार
同
▁म्याक्रो
Í
▁पार
▁मार्गदर्शन
▁गरिमा
▁आत्मनिर्भर
▁विद्या
पोष्ट
▁१२०
▁टिप्ने
ך
腕
जन्म
ഘ
▁जम्मा
▁हेनरी
धाम
▁स्थापनाका
▁अट्याक
पश्चात
▁पु¥याउने
नमिल्दा
_technology/1
▁अधिबेशन
▁नदि
▁विचारधारा
▁उकास्न
▁रहेर
▁आउँछ,
▁जेनेभा
मिट
▁प्रतिष्ठित
敵
▁सासू
▁सम्प्रेषण
▁तिनीहरू
▁हेड
늘
▁सीईओ
▁पुँजीबजार
▁छलकपट
">
ޅ
▁हिच्किच
▁तोक
▁धापासी
▁भु
▁सर्भेक्षण
건
▁निश्कर्ष
일
दर्शन
्स
▁राधाकृष्ण
प्रभाव
▁पण्डित
ताङ
▁अन्तराल
▁फर्म
▁कथानक
एआर
▁सन्थाल
पुगिसकेको
ध
▁चाम्लिङ
धर्म
ञ्च
▁सम्माननीय
流
▁रवीन्द्र
י
ong
２
▁२६
渥
5%8B%E0%A4%A1
भूपरिवेष्ठित
▁तेल
顔
–बेला
िएका
▁तमोर
2018/01/65
▁अतिथि
gust
߾
▁जन्माउने
शिखर
▁झक्झक
▁फिफा
▁ठाँट
43/feed
▁तोक्न
垂
%E0%A4%B2%E0%A
֏
▁रत्नजित
▁इन्
par
▁भ्याए
▁जिल्ल
▁विद्यार्थीहरुले
į
▁निवेदक
▁मानिसलाई
▁प्रमाणीकरण
ą
▁हान्न
▁सेवानिवृत्त
▁चुलिए
▁कन्सलटेन्सी
▁अधिकारीहरू
▁वर्ष
▁जिनपिङ
▁शिर्षक
14/feed
आओस्
रूपी
▁थियटर
▁शल्यक्रिया
लिया
˶
▁पहल
जोर
▁बिजयी
▁इष्ट
▁डिजे
विक
761
ﴄ
वास्तविक
ज'
गर्दा
फ्रेन्ड
▁किनारमा
▁आरोही
▁राखेको
आर
▁तहस
्र्र
▁भा
▁युक्रेन
▁ट्युसन
▁फर्किरहे
ӻ
2019/05/25/15587
%E0%A4%B7%E0%A
ɶ
攻
宏
ӕ
▁स्वतन्त्रता
वती
पन
▁पोस्टमार्टम
▁गला
▁अप्सन
▁जर्नेल
👊
▁परिवेश
अनुरूप
▁आवद्ध
▁सर्ट
गडा
▁स्वेच्छाचारिता
▁सशक्तीकरण
▁सक्नेछ
football/27
✋
जहाँ

ग्ला
स्पेक्ट
न्ट
▁टोलीले
▁अर्व
👎
▁खाए
▁बुझ्नुपर्छ
¥या
ա
ষ
蓮
▁उपन्यास
पिका–संसद्
▁देखिन्थ्यो
▁चिर्न
▁कंगना
८७
4%B2%E0%A4%A4
ྒ
▁चौपाया
▁प्रगाढ
▁उठाइए
0%A4%9B%E0%A5%A4
逆
char
ำ
▁राजधानीमा
८
▁जवाफदेहिता
▁थापाले
▁आमाबुबा
गाउँपालिका–२
▁अनिश्चित
Ә
▁उब्जनी
#comment-4
▁बां
▁अतिक्रमण
इल
ҟ
▁छाना
▁मन्त्रीहरू
वस
▁चिनजान
▁धम्की
▁मद
जान
▁भारत
▁घेरा
과
स्वचालित
▁भीमेश्वर
ुहोस्।
顶
悚
▁14:29:
▁प्रसाद
▁देशभरि
健
पक्ष
▁प्रवेशद्वार
̶
▁रोक्का
भरी
▁फोहर
雑
▁गल्ली
chha.
जुम्ला
▁यौनिक
जतिबेला
▁सट्टा
४५
गीत
▁अध्यक्षतामा
▁पोष
▁फेरे
▁तिमि
▁गर्ल
अपराजित
㍕
▁बहुमतीय
चन्द
ी,
अघी
ी'
eko
又
ᵤ
क्सा
▁new
ठूला
▁सिके
▁काभानी
▁प्रत्याशी
خ
랍
निष्ठ
ǥ
संयुक्त
▁ब्रो
<cls>
▁त्यती
▁रहेछ
▁11:1
ゼ
निरुपण
▁कर्फ्यु
ҷ
नारायणगढ–मुग्लिन
▁गर्नुपर्नेमा
▁नउठाए
ियत
0%A4%B0+%E0%A4%
व्यक्ति
▁दुब्ल
▁खेलाडि
▁जोत
ً
▁su
▁छुट्टाछुट्टै
जवाफ
▁नचल्ने
ꣳ
▁घेराबन्दी
̝
▁मित्र
▁जानकारी
터
▁स्वीकारोक्ति
疫
▁गरिसकेको
'त्यहाँ
भिडियो
▁दुष्परिणाम
विम्स्टेक
▁प्रत्यक्षदर्शी
掏
覆
▁बज्यो
▁सुनुवाइ
सिए
ݎ
▁नेपाल–चीन
▁ओमेगा
남
बेर
▁खानपान
▁पीर
▁जिज्ञासा
▁आएपछि
▁कसूर
ｫ
▁सती
ुपथ्र्यो
荎
ږ
4%AE%E0%A5%8D
▁ट्रेन
▁कुन्दन
쪇
▁अन्तरसम्बन्ध
▁बडामहारानी
mm
▁पढाए
ញ
▁उपलब्धी
▁पाख
▁भेटिँदैन
▁bhag
▁कुर्
▁बालबालिकाहरु
▁भादगाउँ
थप
⁄
0%A4%B0%E0%A5%80
▁दौडिए
दिऊँ
ǎ
▁ल्याउने
▁चलाउने
侵
▁लेक
▁स्नातक
▁सहमत
▁दशकअघि
▁३२
▁नियाल्द
ाड्नुपर्ने
▁सुनकोशी
»
▁झट्का
धी
歌
4%A7%E0%A5%88
▁जातिय
▁इमरजेन्सी
Ѭ
पुरुष
▁बस्नुपर्ने
0%A4%8F%E0%A4%AE
who
厨
律
👧
▁गुडाउन
प्रज्ञाप्रतिष्ठा
▁तिमीहरू
▁बताई
▁मुसीकोट
सरि
▁मुस
शुरुवाती
उपबिजेता
▁सबैजना

▁ह्याट्रिक
शिव
▁लुट्ने
▁जमानी
宿
्याउनु
▁बुढीगण्डकी
▁चण्डी
▁व्याक्ति
󠆶
▁जाँदा
▁निरु
▁निस्के
▁Na
▁रुपन्देही
▁अावश्यक
▁बराहक्षेत्र
ेन्सी
▁जुडो
▁अपि
経
्थ्यो
▁अघि
灑
▁जमे
क्चर
▁भीमबहादुर
웠
▁कामकारवाही
始
ȏ
िरा
▁सक्ला
▁प्रकारका
the+
⚠
▁कोठा
▁सुँगुर
सहनी
0
▁देशका
निर्देशक
К
▁भर्ने
ぎ

办
▁दाल
▁18
詳
छु।
庭
▁छाप
▁कर्तव्य
纺
▁कथा
▁निसान
▁वैधानिकता
बारी
Congratulation
▁लघु
▁टुँडिखेल
२०७५/०७६
0%A4%97%E0%A4%B0
▁गरौ
▁४३

्पु
楽
ˉ
▁२०४७
निषेधित
▁बंगाल
▁दीपा
▁एशोसिएसन
س
▁दृश्य
online
शेखर
▁नबन्द
風
▁टोपी
▁लक्ष्य
▁मधेस
▁शिवपुरी
▁स्टेसन
ꌱ
▁आज
▁फुत्
ावती
ś
˵
▁महाशक्ति
भान
▁उठाइरहे
▁राक्सिराङ
घरपालुवा
▁केहि
▁पासाङ
▁तोड्दै
▁sui
종
how
▁सिलिन्डर
▁दशौं
Ŕ
▁भएछ
▁मनिषा
िन्छ।
▁रात्रिभोज
▁अनिश्चितकाल
▁पुर्याइ
▁माग्न
▁पारा
▁भुट
▁fa
？
हिटी
▁सिवाकोटी
▁कत्ति
घट
तेल
कन्या
▁सिंग
esh
▁सुराकी

▁क्षेत्री
ĩ
▁झमक
▁जोड्न
▁ग्यालेक्सी
름
▁तालिका
▁विश्वकपमा
▁आर्चाय
帶
囲
गोला
▁घुँडा
57/feed
ৃ
▁एन्जिला
▁तीनै
.org/
च्न
▁कडाइ
狂
▁वेस्ट
एसइई
ꍱ
▁सेक्स
含
抱
!
Ϣ
▁गुमायो
▁सत्तासीन
▁उपसमिति
दुल
坂
䡛
sar
▁नबुझ्ने
▁पेशा
友
ំ
१९८८
क्रमण
水
ोपर
ٔ
०६२/०६३

▁भोटे
▁क्याम्पसमा
▁हिमचिम
▁फिलिप
▁म्यानमार
▁ऐ
▁(आई
▁अर्बौं
▁कुश्मा
▁महानिरिक्षक
▁हस्ता
登
▁सुलभ
́
▁सक्नु
▁ma
9/05/28/15590
▁हुन्छ,
▁आड
▁श्रोत
▁पढ्नु
गि
सकेको
▁रुपैयाँ
▁बुढाबुढी
▁ड्याम
हरुबाट
याउने
▁अप्
व्यय
%E0%A4%BE%2C+
ृ
▁bro
म्बे
सकेका
4%B6%E0%A5%8D%E
याङ
ീ
▁हंगामा
▁सिद्ध
▁पिकनिक
▁त्यतिखेर
׎
%E0%A4%AF+%E0%A
▁कंडेल
+ani+
󶺰
▁H
筆
▁बताउँछ
▁फिक्सिङ
▁बर्ष
▁काफ्ले
ˬ
▁देशहरू
▁घिसिङ
黖
ept
संवाद
▁सहरमा
▁०७२
Ɏ
▁आकाश
񩈔
▁प्रकरण

▁गेडागुडी
ഒ
लोन
▁हल
▁po
▁कहिँ
▁भइहाले
#comment-836
で
फेयर
बागलुङ
난
▁डाइ
▁दिमाग
▁नसकिरहे
▁बिन
कट्टी
▁अण्डा
एक्स
▁धराप
▁जुर्मुरा
वैदेशिक
ic
▁vaye

▁रेष्टुरेन्ट
▁पाल्न
▁सुत्केरी
▁गर्नुपर्नेछ
▁नेताहरू
续
ȫ
▁जु
जत्तिकै
▁निज
chu
2019/04/759
▁शिवरात्री
ܸ
▁मञ्जु
▁(नेपाल
▁नेदरल्यान्ड
▁यही
▁दबाउन
ց
lay
▁गर्छ,
5%8D%E0%A4%9B+%E
ल्याण्ड
▁कोपा
沟
团
च
▁सिद्धार्थ
▁माक्र्सवाद
निस
-७
▁मज्जा
ɏ
▁प्रतिद्वन्द्वी
❆
区
▁व्यूरो
▁सानीभेरी
▁पुतलीसडक
▁उपशाखा
▁साँसद
▁अचेल
चा
些
आईसी
域
▁गरिसकेका
पल्ट
▁नागरिकलाई
】
4%B0%E0%A5%82
29/
ϋ
भावना
▁मेडिसिटी
ญ
ᨵ
▁कुल्च
ावर
▁वार्नर
▁भजन
▁'भारत
2018/10/26/15405
▁क्यान
▁बेचिए
▁महारथी
▁जुकरबर्ग
ഭ
腰
ोचित
▁गाउँपालिका
▁तिमीहरु
▁चोटपटक
▁पोम्पेओ
▁समसामयिक
▁पोर्चुग
▁परिबर्तन
्रा
蘭
ष
▁फर्कने
▁१९८९
▁बिषय
▁सभ्यता
▁रमाउने
▁'लभ
▁स्पोन्सर
▁विराज
बृद
%E0%A4%99%E0%A
衡
‹
▁अलाव
▁११०
▁क्रिया
Ȭ
▁लड्ने
उद्योग
▁दुनियाँ
▁ब्याख्या
िलिचोङ
放
खन्दा
▁नमाने
鳥
▁परीक्षा
▁केन्द्रविन्दु
jati
खाएपछि
▁हतास
▁पुग
隅
एक्सपोजर
▁मोहम्मद
पत
हरण
▁आज्ञा
फ़
▁उन्नयन
▁चाँडो
▁माइग्रेन
0%A4%97%E0%A5%81
खोर
▁जर्मन
▁अल्ट्रासाउन्ड
▁नीलो
▁समीक्षा
▁महत्वपुर्ण
▁बस
क्षमता
▁सुते
計
链
▁अक्सन
▁द्रौपदी
▁साप्ताहिक
▁ते
▁चण्डि
▁भिमाद
5%8D%E0%A4%A8+%E
स्वर्गीय
qui
ṅ
▁निर्मल
▁वासिन्दा
low
▁आतंकवादी
▁भन्दै
▁खर्चिए
▁धो
▁लागिपरेका
▁आउदै
▁जित्न
▁उत्पादकत्व
प्रांगारिक
▁लिङ्ग
▁सिएनएन
हतार
▁ब्राइट
▁कोरियाली
▁मोउरिन्हो
▁उपचारका
▁उदघाटन
▁विक्री
▁बेंसीसहर
諸
सिं
▁तोडे
एकलाख
त्ति
47/feed
▁co
▁जुस
▁मूलधार
▁ढिलासुस्ती
िङ्ग
एनए
▁इञ्जिन
Ƣ
▁'धेरै
▁न्यू
▁परिपक्व
▁विश्वसनीयता
▁सेलरोटी
▁इञ्चार्ज
Ԑ
▁आईजीपी
▁परोपकार
円
/05/15
ュ
▁नाच्ने
எ
ޕ
122
▁सेवन
▁छ–
▁मनमन
▁बि
▁पठाई
Ǆ
霼
▁चौबिस
▁पुजा
워
▁श्रमशक्ति
▁श्याम
▁बिराए
▁"अहिले
晴
▁राजसंस्था
▁पासवान
▁हम्मे
▁आतंककारी
▁पाइन्थ्यो
▁महान
5%8B%E0%A4%A7
▁ढाके
ावली
film
ژ
♯
▁रेणु
銀
▁अन्तर्गत
康
▁उत्तराद्र्ध
▁वायुसेवा
▁गो
軽
׌
▁निकुन्ज
པ
ݚ
낭
should
िभ
▁उम्मेद
▁लाने
▁सरह
▁नि:शुल्क
▁पिठो
▁आँगन
▁तीव्रता
अहँ
askar
▁सभापतित्वमा
▁सञ्

कल
▁भएकै
▁आफूलाई
▁युवापुस्ता
森
盘
习
▁बाँझो
संरचनागत
▁तिमल्सेना
▁गएर
▁जन्मिएको
▁लिपि
▁पथलैया
▁बनाउदै
ex
▁कमी–कमजोरी
4%BE%E0%A4%89
▁लत्याए
▁बेइमान
▁एल्बम
▁नेपालमै
▁जीवनभर
▁पिछडिए
۝
▁खटिने
▁सन्तुलन
▁सुगठन
4%BE%E0%A4%B0+%E
▁आँशु
🎤
▁डेनमार्क
्दोरहेछ
टिन
敌
▁प्रोडक्सन
▁भारतको
🌺

󹡱
▁चन्द्रपुर
र
▁राज्य
项
▁श्रेष्ठ,
▁गर्नुस्
▁दियौं
ʙ
ौल
वित्तीय
▁नख्खु
ृष्ट
वर्क
▁रेस्क्यु
▁'संघीय
तनावग्रस्त
पाटी
इरहेको
▁म्या
वीर
▁पल्सर
Thank

ڬ
शुल्क
▁इंगल्याण्ड
▁गरेका
▁भाइबहिनी
लागेकी
▁लाचार
及
कुमार
ᤥ
वरी
▁मन्त्र
▁पुग्थ्यो
▁पुन:स्थापना
▁मुखर्जी
▁राजिव
5%8B%E0%A4%B7
繁
4%AF%E0%A5%8B+%E
▁अनुशन्धान
擔
▁पर्दछन्
औषध
銭
变
◀
▁नाति
▁क्रिज
▁जुवातास
信
ⴚ
▁हिलो
䊚
򖳗
ị
▁३८
▁टुगेदर
▁दिई
▁तय
▁ठकुरी
▁बर्बर
▁जुटाए
2018/08/701
चरी
▁गुर्जा
▁हिरण्य
期
▁किसिमको
▁आजीव
किन
▁थपिँदै
▁लहर
▁हुंदै
ғ
पीएस
▁बेहोर्नु
▁दाउरा
▁बुझिए
中
▁शिल
▁वताए
▁'लिलिबिली'
访
惑
▁नपढ
▁सुक्न
ᤧ
्सी
或
▁देखिन्न
"मैले
मार्फत
▁चिप
▁चे
▁सेलिब्रिटी
▁कुटनीतिक
ाइदिन
摸
冲
▁इतिहास
खल
着
▁पुस्तकालय
▁फाल्न
▁पिता
͇
Զ
▁तीर्थयात्री
▁अष्ट्रेलियन
▁कतारमा
▁बेन
▁नआए
▁न्युन
4%96%E0%A4%BE
▁खोल्न
▁चालचलन
+%3F
्रे
दोस्रो
▁बिजेता
▁हिउँद
हृय
▁एमेच्योर
▁दल
˅
▁महिलाको
▁रोप्ने
▁बाव
▁छु
▁झिल
▁बूढानीलकण्ठ
प्रयोजनका
अगाडि
ܪ
▁ल्याउनुपर्ने
▁बनाउँछु
▁बफादार
#comment-773
▁पहारी
▁२०४८
हिन
▁दृढ
▁युनिभर्सिटी
▁नियति
NA
▁हटाइ
▁लुकाए
OR
▁मालवस्तु

▁आन्द्योलन
Õ
62/feed
ܦ
޵
ڵ
▁वै
ݘ
▁अलग
幸
economic
▁हुनेछ
▁मदरसा
化
ւ
▁वैचारिक
▁पिरियड
▁कालोसूची
▁आफ्न
▁फेज
▁कार्यपत्र
▁सचेतक
٩
आइए
त्यहीअनुसार
27
un
▁प्रकृति
▁बाख्र
▁बेहोरे
▁पुर्‍याए
▁दिप
▁मिक्स
▁स्विकार्न
छेक
ी
万
▁अवस्थी
▁दीक्षित
▁रद्द
बाह
▁मन्त्रिपरिषद्को
ถ
ை
महान्यायाधिवक्ता
▁सुगन्ध
▁काग्रेस
▁पिए
ब्या
覮
փ
▁पोलिटब्यूरो
ߌ
किरा
▁नगरिक
肾
▁13
▁मरासिनी
-१९
▁बजाउँदै
▁संरचनाहरू
해
▁६१
ལ
音
ъ
떻
नियम
▁एसियाली
▁मधुर
▁अनावश्यक
▁बताइ
▁कठघरा
son
▁बुझ्दै
▁यहीँ
涂
pati
कुलबहादुर
撰
िरहेकी
▁हेक्टर
▁फाले
ừ
जल
▁निम्त्याउँछ
▁गठबन्धन
देसी
▁हुन्छन्,
교
▁पाउँछन्
Ϊ
💯
▁अन्त्येष्टि
▁त्यसो
चीनबीच
ޢ
featured/5
▁समितिले
सरा
▁बोलेको
681
鴚
▁गीता
जेठ
▁आशि
ड्डी
मन्त्रीस्तरीय
tara
▁नगरवासी
▁घोषण
▁संखुवासभा
▁अहम्
🇬
▁तहसम्म
▁आइरन
▁यत्रतत्र
▁गुन्जन
袜
भरि
ڝ
超
अधिकार
▁सर्भे
▁पठाइदिए
Î
住
▁गृहमन्त्री
▁औष
▁सरदार
▁क्रोध
(नेप्से)
荣
▁खेती
▁एशियाली
सार्वभौम
king
讓
▁रेमिटयान्स
फोक्सुन्डो
es
▁फल
49
޽
▁भने
▁चासो
▁मापदण्डअनुसार
▁नाचे
▁वटै
लिए।
▁खतरा
पूर्व
▁लेख्छन्
सरो
▁पञ्चायतकाल
▁हास्य
2017/02/
準
्छ,
▁महिनामा
▁गर्भनिरोध
संसदीय
▁पर्यटकीयस्थल
विरुद्धको
Ǘ
嫌
Ҟ
▁बूढी
▁फार्मेसी
э
राखेको
▁केरला
▁नस
प्रथम
0%A4%9C%E0%A4%A8
▁गथ्र्या
▁देखेको
▁भुटानी
ौचा
मती
▁डिन
G
ाँस
▁अपराह्न
▁अञ्जली
▁फस
ཾ
럽
Phone
▁गरेपछि
▁स्ट्याण्डर्ड
▁मुलुकको
चमत्कारी
ދ
᢬
▁अनुसन्धानमा
4%A7%E0%A5%87
枡
▁नमिले
हाल्छ
▁सशस्त्र
पत्र
▁हातखुट्टा
泊
▁नगरप्रमुख
ސ
▁शिव
▁प्राथमिक
キ
▁बोटबिरुवा
▁ढुंगेधारा
नेत्रविक्रम
रोज
▁सुभाष
▁मन्त्रालयमा
4%BE%E0%A4%A1
▁pa
मरी
Ú
▁लुकाउने
क्रिया
6</span>
杜
840
▁गर्लान्
%E0%A4%A6
▁अधिकतम
ट्स
ग्राही
▁दिदी–बहिनी
मिनेटसम्म
▁countries

संशोधन
舆
▁महराले
अक्टोवर
▁पछौटेपन
डिया
4%AE%E0%A4%BE+%E
▁रुवान्डा
ؘ
阤
▁कुवेत
ٶ
版
ȭ
▁सुकाए
Ｔ
भारततिर
हाल्ने
▁फुच्चे
Ɍ
अवैध
Ω
▁झरना
ुरु
〝
▁गुणात्मक
football/6
ί
khabar.com/?p=72
▁तलबभत्ता
०६७
ϛ
अव
▁सं
कालीन
▁पाइनँ
▁plan
▁ल्यान्डफिल
▁'दसैं
▁चढेको
c
▁खेलेको
▁बालमैत्री
▁सेन्चुरी
ॅ
▁कस
▁चक्रपथ
०७५/०७६

融
▁नागढुंगा
▁मकवानपुर
▁दिलिप
▁!'
▁he
▁खाएर
拿
0%A4%9B
滨
乎
▁विनास
▁उचाई
बर्षीय
gue
ज्य
˝
▁आममानिस
▁भई
▁जालसाजी
▁पिँढी
भर
▁गड
▁सिलसिला
▁भाइटीका
ye
विक्रम
तापूर्वक
▁तिमिल्सिना
▁विकटता
감
▁६
。
मोद
▁केजरीवाल
साई
▁पै
▁प्योङयाङ
share
▁सक्नेछन्
リ
▁मन्त्रालयले
▁जित्ने
▁दादागिरी
▁टण्डन
千
वैवाहिक
瑰
▁अठार
▁मुद्दती
बुल
▁जलयात्रा
▁पाएनन्
▁मुहान
मात्रै
排
Ī
ێ
▁कुवेर
提
नाखो
▁छिचोले
치
▁जङ्गल
चुला
4%B0%E0%A4%B9
2019/05/11/15575
▁बलेवा
▁वेबसाइट
▁खोजे
अवकाशप्राप्त
녀
ेन्ट
▁दरबन्दी
˙
▁बल्ल
निर्माता
ə
▁(सी
0%A4%B5%E0%A4%BF
▁आशिर्वाद
무
▁सवै
阴
ुहुन्छ
▁हिँड्दा
▁श्यामसुन्दर
▁संचालनमा
▁दोरम्बा
▁२०७६
▁आउट
ुरो
▁बदल
–साना
▁खुल
▁नारायणकाजी
▁प्लाट
4%B0%E0%A5%87%E

▁अक
ट्राउट
讯
▁गाउँपालिकाको
▁युभेन्ट्स
▁भन्छन्
▁गराइएको
▁मेघ
療
एन
▁आत्मबल
सुरुमा
抠
सक्यो।
▁गजुर
kaam
▁दश
2%80%8D%E0%A
▁दिइयो
▁शैलेन्द्र
▁समातिए
yo+
2008
एक्काइसौँ
߼
▁क्षयरोग
˾
크
ससुरा
▁धितो
▁फल्ने
Ԣ
फानो
/५
▁पिडित
ÿ
सम्मको
▁शोभराज
▁भन्छ
▁ज्वरो

划
▁गठ
ờ
淽
▁कैलाश
▁सेट
स्य
▁राजपा
▁लापर्बाही
䫿
Ӽ
▁पशुपंक्षी
फ्या
޴
▁अन्त्यतिर
▁पिसाब
▁खैर
दिइसकेका
▁टेरे
लले
ance
▁धन्य
運
Ψ
यथेष्ट
▁रचनात्मक
ч
Է
▁झल्को
弄
▁असहमति
▁बालबच्चा
कुञ्ज
स्या
▁छेत्री
▁वृक्षारोपण
際
▁सद्
Λ
¾
▁बनाइदिन
▁ज्ञान,
०७५
बाहेक
▁सारे
▁दर्जनौ
▁मूलत
गर
▁कलाकृति
▁हिरा
पत्रिका
ơ
։
स्टर
▁जाँगर
ƙ
▁पाण्डे
ट्
▁तुषार
▁बनिसक्
डेन
वरपर
▁जैमिनी
मेन
▁साक्षात
▁प्रकाशित
▁शिवाकोटी
्यान
ế
ber
update
▁अर्ब
照
▁डाँगी
▁कठ
▁पोर्टल
❤
▁सम्प
st
ुस
ङ्ग्र
▁कन्
▁Ko
▁भेषावकर
광
▁मुसलमान
▁ब्यान्ड
ؕ
▁मिलापत्र
written
घारी
▁पारिस्थितिक
▁संरक्षण,
栗
▁सिरी
▁01:4
डब्लु
कतिसम्म
कोणबाट
▁वाराणसी
किटानी
▁साहित्यका
▁निद
▁देहाय
२१
▁राइफल
5%8B+%E0%A4%B8
िसकिएको
司
▁Jan
्याउन
▁प्रान्तीय
▁एमबी
▁३,
▁दर्ज
खाने
▁गितार
football/22
ीआरआई)
▁लिखु
▁नचाहिने
संविधान
▁भेन्टिलेटर
▁हिल
񤔇
▁पुष
४९
▁ग्रिजम्यान
▁विषयक
▁भीड
▁हिमालयन
▁खोजतलास
shi
कतै
per
ाइदियो
धार्मीक
▁चाडपर्व
उपचार
▁मिलाउनु
▁टुरिजम
बिरुद्ध
112
▁टुप्लुक
▁कृषक
▁कट्टेल
ccess
▁गाउँसभा
▁सानु
ә
८३
 ।
ion
创
▁असिना
▁रक्तस्राव
↑
▁रुकुम
▁काठमाडौं:
▁आयोजनाको
tab
७४
Л
पाटन
▁इटाली
भने
▁समाजशास्त्री
▁दुई–चार
ेरी
▁सोचमा
쏄
4%A6%E0%A5%80
▁पोलिसी
javascript
Ģ
ճ
▁bha
होला,'
▁खनालले
ﴌ
▁मष्तिष्क
▁आर्चरी
▁ग्राण्ड
▁लिदै
Ϗ
–१६
য়
▁बालक
रसुवागढी–केरुङ
▁आ-आफ्न
▁थान
▁प्रतिवर्ष
▁कर्नर
▁पञ्च
जस्ती
秲
▁डायमण्ड
▁क्षतिपूर्ति
नाकाबाट
ध्र
ː
▁ध्रुवीकरण
▁ब्रिफिङ
▁सिरोहिया
▁रैथाने
▁गुम्ने
▁चलाय
모
Χ
▁राखिने
▁बैठकले
बर्षिय
▁सौर्य
जोमसोम
▁सुन्दा
兩
संक्रमणीय
根
▁छठ
▁संगम
▁बहालवाला
football/17
▁२०४६
▁बस्ती
▁वालिङ
▁शेरबहादुर
717
22
▁खुवाए
▁कल्
▁उपदेश
合
▁सिन्दुर
▁सुनाए।
▁घरै
चोटि
ollect
आवासिय
▁कट
बनेपछि
▁भाइचारा
ང
प्रतिस्पर्धा
▁ब्याण्ड
▁भेनेजुएला
▁पठन–पाठन
▁पत्रपत्रिका
ԧ
▁ओसाका
दास
▁लैङ्गिक
▁मर्
ӆ
天
16/feed
ाएका
婷
▁भन्नेमा
▁आजको
▁नहुँदा
डु
बार
▁तिब्र
ग्राउन्ड
▁कुमार
२०३३
ꭷ
तथापि
Ҵ
弹
▁कलेजहरू
宗
2019/05/765
शिक्षिका
▁तिर्नु
▁कार्यालयका
दुर
▁शुभारम्भ
Ε
🌷
 
▁बिहानै
▁यसै
कथित
▁कालोपत्र
▁चापाकल
▁विराटनगर,
ៃ
▁युद्ध
16/
ित
थ
4%B0%E0%A4%BF
▁मुस्ताङ
』
▁बनाए
呈
▁धर्मालम्बी
▁वामपन्थी
ځ
▁समात
्लिङ
अक्साइड
蓋
▁उत्पीडित
Ņ
ष्
▁लगत्तै
%27
2019/04/26/15562
▁समापन
011
Ғ
▁ढकढक
▁आयोजनामा
▁सकिदैन
▁ताम्राकार
▁बनाइँदै
श्‍व
▁प्रह्लाद
Ӕ
▁विश्वविद्यालयमा
普
▁मारि
▁विरोध
्फ
▁आबश्यक
▁धमला
▁कव
▁बोलाए
▁कन्क्लेभ
▁राष्ट्रवादी
२०३१
2018/09/709
#comment-841
▁निर्देशिका
▁थुप्रो
4%AE%E0%A4%BF
显
▁मालदिभ्स
▁यार्चा
▁बिक
▁सुरक्षा
▁जमीन
▁किराना
ct
5%81%E0%A4%AA
▁हिमपात
▁अञ्जु
▁गलत
news/banking/1
񾘤
ථ
▁१५
▁झन्डै
▁स्वदेश
▁वेभ
👈
नन्
▁निस्ते
▁यकिन
▁ओइर
セ
▁मोडलिङ
▁खाँड
▁निषेध
▁मिलाए
▁किलोवाट
9"
▁विप्लव
놆
▁समान्य
▁परमेश्वर
जति
▁व्याख्या
प्रयास
▁रहन्छन्
▁चेपुवा
88/feed
▁माक्र्सवादी
▁माथिको
▁चाँदी
▁राउटर
▁रोमा
▁पदस्थापन
▁पर्वतारोही
▁जस्ता
▁कुम्भ
▁बसेर
ϯ
˭
/2018/02/65
݁
िँदै
मुजफ्फरपुर
▁केटाकेटी
ंगे
पिएस
91
▁रात्रि
आप्mनो
Ύ
▁सदाचार
䧂
▁असुली
▁बुझ्छ
▁बुझाउन
ᤜ
▁गोठ
َ
▁लेखा
भेद
▁क्वालिफायर
▁सम्मेलनमा
सिला
▁प्रक्रियागत
तोला
धुवा
▁वर्चस्व
निर्विकल्प
▁एस्काभेटर
▁सुख्खा
▁केबल
▁उनीहरूको
▁नगर्न
▁'डि
Ń
豪
▁अंगीकृत
news-details/19
▁आगलाग
▁सुत
▁सोनम
孟
जाने
®
▁बचन
▁पूजाआजा
ﷺ
锤
烠
▁जडान
▁अर्थविद्
▁हिसाबकिताब
應
aj
इन्टरकन्टिनेन्टल
▁खुर्सानी
▁कटारी
兔
▁पाउँदा
आइसी
▁ग्यास
2017/12/
घाटमा
अख्तियार
▁रातो
र्भिक
.५
▁प्रचण्ड
▁बसाई
▁टिमुर
▁लैंगिक
餐
ﯢ
食
▁भएमा
Ǒ
▁गर्दछन्
▁उम्मेद्वार
✉
▁सदस्यीय
▁करदाता
सूची
Ɉ
प्रतिनिधि
▁मिलेको
発
ेहात
▁फेल
▁बढ्न
▁एसईई
दूर
Ŵ
婦
▁किम
▁कोशिस
▁बाफ
महा
▁सोनल
▁मजा
▁धुर्मुस
१–१
पार्वती
▁'बजेट
없
३०
िरहेका
▁डिफेण्ड
▁कम्युनिस्ट
▁14:18:
ڞ
5%87%E0%A4%B0
▁न्यून
杀
▁फिक्कल
オ
▁सेप्टेम्वर
भीषण
効
▁सुम्पिए
aru
▁शुभेच्छा
▁खटाउन
▁इन्डोनेसिया
▁नभेट
▁दिएको
▁मिठाई
मान्छे
5%8D%E0%A4%B0
▁देख्नुभए
छ
▁वाग्मती
प्राविधिक
֖
ʜ
▁खेलाडीले
▁इन्टेलिजेन्स
▁वनमा
▁ड्रेस
ग्रस्त
स्की
▁सीएनएन
+%E0%A4%B9%E0%A
▁महामारी
▁तीर्थ
्दै
ुअघि
▁रावत
膜
򷪵
▁माग्दै
x
नबोली
्यो
▁पेन्ट
▁कन्ट्री
֍
▁भाग्ने
▁आइएमई
▁साथै,
▁वाध्य
׀
づ
 
▁चौराह
▁बढ्ने
मंसिर
▁कार्यहरु
▁यिनी
▁बुवाआमा
灯
ڌ
就
ท
▁चलचित्रमा
홈
▁प्रविधि
रिट्रिट
विरूद्ध
雷
▁स्पेन
▁...
▁जेठा
पञ्च
▁निरिक्षक
▁विकास–निर्माण
氓
▁टप
'हरेक
गन्ज
ট
▁चुनौतीपूर्ण
▁इ
▁जनजीवन
▁मारिने
education
ेड
秒
▁चुलो
▁एकेडेमी
▁बक
▁दलित
陆
▁अभिलेख
플
▁उपयोगिता
▁ठाकुर
▁मेहता
्याउँछन्
ܠ
97.html">
발
▁राता
▁आह
侃
अस्पताल
▁तारिफ
什
▁भाका
▁नेम्बाङ
सबैजसो
▁सञ्चालनमा
۳
▁चेष्टा
▁निर्धारित
φ
▁समस्याको
赞
▁लिएर
▁परराष्ट्र
2019/03/752
▁यार्ड
😃
尚
▁बजेटमा
注
▁माध्यमबाट
▁देखि
▁ट्रेडिङ
▁सभामा
्मथलो
कुपिण्डे
▁बितरण
评
▁किबोर्ड
▁बुझाउँदै
▁पनी
▁पुष्टि
작
삼
▁सक्नुहुन्न
▁समस्याका
▁हैन,
▁गरिसक्ने
Á
▁'घटना
▁कर्मचारीतन्त्र
▁ढङ्ग
▁चाउमिन
IN
Å
k
'अरू
गाउँमा
भाग्यशाली
▁दुतावास
ܾ
▁प्रतिनिधिसभा
▁गोला
▁कहिलेकाही
絶
▁भालु
▁भया
᡻
▁श्रीमान्
▁सुशीला
▁'रो
▁लेकाली
▁नाइट
▁तेस्रो
▁देखाउनु
▁अम्बर
▁खतरनाक
सर्व
３
सिंह
%E0%A4%9E%E0%A
活
▁फ्रन्ट
▁म्यानचेस्टर
▁चुनौती
va
▁भएकाले
▁दिउसो
▁कश्मीर
▁मनपर
▁कचनकवल
▁सूत्र

▁झमेला
場
▁अयोध्या
▁अधिकांश
减
▁'ती
महाराजाधिराज
▁सत्यमोहन
▁सद्भाव
١
▁संग्रह
▁गुन्डा
तालाई
▁तात्पर्य
̯
▁निकायका
▁हेटौडा
İ
्वर
✨
Kama
▁गर्नुपर्ने,
र्गेन
▁बोक्रा
🐽
वा
▁by
mo
रेश्मा
▁लेखेको
做
▁उपलब्धि
▁एक्जाम्टेड
▁अनाथ
▁संसारको
▁कोरियामा
अमृतसर
त्त
こ
▁प्रकृया
▁बुहारी
pradesh-3/2018/
▁हेरिसके
穷
्याउँदै
▁सामाग्री
▁कारवाही
द्धारा
तिरै
▁भन्छिन्,
▁गुरुङ्ग
साधन
幼
經
▁मृगौला
▁अन्तर्वार्तामा
▁आँप
▁उमंग
▁पुर
ી
डोर
▁प्रारम्भिक
▁डंगोल
▁सेमेस्टर
▁साँठगाँठ
̜
▁आत्तिए
The
▁ह्दय
▁गर्नेछ
▁अनुगमन
खोजेर
wal
▁श्लोक
तेन
▁किसान
पीओ
▁दगुर
▁धनी
粟
▁रहन्छ।
▁रफ्तार
▁दर्शन
▁टीभी
▁इजलास
▁कार्यप्रगति
छन्।

▁छाती
▁गर्नैपर्ने
चेट
4%85%E0%A4%AC+%E
򜮖
▁सीएमसी
够
▁मध्यान्ह
▁बितिसके
▁दूध
▁अनौपचारिक
▁एथलेटिक्स
्वा
粉
▁चरा
रूपान्तरित
IT
▁रामशरण

钨
शरण
▁रहेन
▁दिगो
▁चलेका
operat
प्ले
अनुसारको
▁बाँस्तोला
▁मुस्लिम
▁वाल्मीकि
कदाचित
▁घोच
▁जाली
लागे
कृष्ट
्दा
▁फिल्मको
हुचर्चित
▁श्रीकृष्ण
%E0%A4%9B%E0%A
Ⲫ
혐
▁ताली
▁पोख
एयर
▁कम्बोडिया
▁आजभोलि
▁बसाइँ–सराइ
ङ्ला
▁आक्रमणकारी
▁ज्योतिष
▁योजनाहरु
765
▁ईश्वरी
738
बिस्तृत
न्र्दभ
忌
िदिने
▁ज्यालादारी
▁फैलियो
02/
कलाकार
५/६
र्दै
益
▁फाइन
▁मोटरबाटो
پ
▁अस्वस्थ
▁अनुकरण
ࢎ
up
▁लगाउनुभए
▁उद्देश्य
ाउछ
▁उतै
▁प्रख्यात
६९
▁दिनपछि
▁गाडीमा
▁जनअधिकार
개
4%A8%E0%A4%BE
▁एक्सचेञ्ज
+%2C
0%A4%8F%E0%A4%95
🔱
▁विक्षिप्त
▁प्रतिवद्धता
ारा
ْ
मेन्स
▁पराउने
▁सिङ्गो
्‌
▁खोट
रेज
▁फुटपाथ
4%A2%E0%A
▁(हाल
5%8D%E0%A4%A6
˼
䚩
0%A4%B2%E0%A4%97
ानो
▁दिलाए
▁चिम्
▁आशङ्का
martial-arts/
▁स्वीट्जरल्याण्ड
▁दबाए
▁लागूऔषध
▁कोइराला,
κ
言
देन
▁मन्तब्य
▁मन्त्री
▁आइपीएल
▁पूर्वराजा
भौतिक
烌
आउँदो
▁स्नान
▁डाँडा
▁मालिका
सरास
▁पहेंलो
▁पच्चीस
▁युवायुवती
AT
▁बम्जन
▁खटनपटन
▁सावित
▁भुर्तेल
▁तौल
▁तोडफोड
▁पातलो
syndicat
摩
▁महिलाहरुको
▁मिनाहा
▁महासचिब
▁गरिए
і
▁राष्टिय
rit
ং
香
▁कन्हैया
▁अफिसियल
且
▁स्टु
▁सुखी
Ʃ
▁प्रा.लि.
▁अप्रत्यक्ष
ोमो
▁हल्लाखल्ला
प्रवासमा
भन्दा
퇻
बिहान
▁सुन्नु
information
▁बाझिए
▁उन्मुख
▁नेपाल'
▁२०५५
▁सुशान्त
▁च
▁निकाला
Mr.
Ԭ
Ő
+%E0%A4%B5%E0%A
%E0%A5%8B+%E0%A
▁स
िनुपर्ने
▁२०५०
▁झडप
ޑ
▁टेक्निकल
लागि
▁प्रतिवन्ध
큮
협
बा
पाङ
ി
▁रिट
勇
▁'तिमी
Э
परा
▁खुवाउन
▁इन्धन
▁अप्ठ्यारा
▁विश्वसनीय
▁घैंट
포
▁७६
▁मिक्लाजुङ
我
吾
裹
▁अगुवाइ
▁अखडा
若
▁पम्प
▁लेप्चा
▁सुवेदी,
डा
▁चिस्यान
▁गराउन
4%B8%E0%A5%8B
🇱
▁भुक्तानी
F
▁असमानता
▁सामान्य
▁कित्ताकाट
बहुसांस्कृतिक
राधे
▁पक्षका
▁पात
▁चढ
▁भनसुन
▁'ख
▁गुलाफ
▁सुरेश
▁यति
65
▁पाउनुपर्छ
▁विक्रमासिङ्
▁कटाए
▁उत्तरप्रदेश
▁उड्ने
▁भीएलएन
▁पेस्की
▁सल्लाघारी
%E0%A4%9A+%E
▁समावेशिता
▁टू
▁खैरो
प्रशासक
▁पु
▁बोका
马
▁अध्यात्म
況
▁खटिएका
▁लाहुरे
▁ब्रिटिश
▁शाश्वत
natural
▁यहाँ
ल'
▁अभिषेक
🇦
र्लोस
惚
▁ओ

▁होली
▁म्याङलुङ
किम्फ
▁अट
▁टोके
अनिश्चितकालीन
▁चन्द
▁तेहरान
बेमौसम
▁मुन्टो
▁'ड्रिम
▁लिबरल
▁अनुत्पादक
▁सोलु
▁लगाए।
▁भविश्य
商
▁टंक
▁बर्षा
限
भीर
5%81%E0%A4%95
ɀ
श्वर
▁रहेका
▁जनाको
府
▁उद्योग
֐
लुकाएर
औँ
▁दही
▁नामसारी
▁खड्काले
साल्भाडोर
पुराण
▁विरोधी
▁बहादुर
▁व्यवस्था
Ҷ
蒂
▁२००
friend
▁कानून
▁कैदीबन्दी
君
ﾥ
像
ぼ
िले
▁पुगेँ
4%A8%E0%A5%87
▁अदूरदर्श
く
----------------
▁चाले
प्रदाय
▁चालिसे
▁नखा
▁जनकपुरधाम
▁गैरजिम्मेवार


▁नआउने
0%A4%B2%E0%A4%AF
▁व्यवस्थापनमा
▁बढ
▁सुनील
⇒
▁उल्लेख्य
धेर
🏽
▁much
वरमा
▁राखिदिए
▁काठमाडौं
जङ्गली
विभेदकारी
▁त्यसैगरी
जिउँदो
▁कुना
▁नलग
▁उपसचिव
oo
▁रिहर्सल
▁त्यहा
나
ថ
▁छैटौँ
▁हो।'
▁06:4
▁दिसापिसाब
̷
▁गैरसरकारी
Ɖ
繰
फर्केपछि
football/47
उँ
पक्कै
निय
प्रथा
▁हप्क
▁बनाउने,
ink="false">http
▁मिलाएर
प्रयोगविहीन
version
▁उक्त
▁पिट
▁बनाइदिए
▁मस्को
▁किर्तिपुर
ुरा
▁ब्यारेज
गेट
▁भट्टराई,
▁फिक्स
뚻
輕
गोरखा
▁उपनाम
▁सञ्चार
▁मुद्रास्फीति
▁ताइपेई
▁प्रतिनीधि
降
▁अभियोजन
▁आँच
▁नसकिएको
ܴ
ு
▁विघटन
▁अध्ययनका
▁पश्मिना
▁लनटेनिस
٪
▁स्वरोजगार
डिङ
रहन्थ्यो
섯
जस्ता
▁किरात
▁पुर्‍याइ
ӎ
▁खाँ
0%A4%B2%E0%A4%BE
▁कच
▁सरकारको
ฮ
废
▁बेइमानी
▁स्टिभ
欢
►
विवेकशिल
手
▁कानुन
▁भ्रष्टाचारी
▁लम्ब
make
▁मास्टर
▁24
떨
▁'सरकारी
▁भन्नुभयो,
▁सेल
▁पथप्रदर्शक
持
▁रुग्ण
ल्लाह
▁प्रवृति
सेफ
▁रहिरह
▁प्रार्थना
▁ड्युटी
लगतै
▁जिरो
▁मध्यपहाडी
#comment-822
▁ढुङ्गाना
जनताप्रति
चिभमेन्ट
▁परीक्षामा
▁२०४९
▁भीआईपी
ff
▁अवरुद्ध
▁शुद्धिकरण
▁आधुनिकीकरण
星
▁अम्बानी
辽
०१
▁पटाका
▁ऐना
▁शिल्पी
芝
▁घो
▁अवैध
▁पित्त
राष्ट्रिय
हर
different
▁बताउँछिन्
▁उठ्ने
★
▁आर्जन
%E0%A5%81+%E
▁जमुना
निहित
जाग्रत
▁पुर्‍याइरहे
练
▁रुचि
▁बिरामी
▁हरियो
गान
▁तुलाधर
▁मधेशमा
२-०
▁सुन्धारा
नाजायज
▁पेन
▁अभिव्यक्त
▁भारद्वाज
ې
▁थापाको
▁गाउँ–गाउँ
▁यमुना
▁बाँफिकोट
押
˱
▁अभिसन्धि
धान
▁बुधबार
▁अनी
▁जाला
सह
ram
▁सम्वन्धी
▁नापी
▁फोर्ब्स
▁जगाती
▁हत्कडी
ν
▁देख्न
▁अन्त्यसम्म
歉
ெ
▁अभिलाषा
▁नपाउँदा
▁असंख्य
瞱
news/editorial/
▁कंचनपुर
though
फिल
▁शुरुआत
ort
ޟ
▁आशयपत्र
▁थालिन
▁पार्दा
▁सेलाउन
▁वञ्चित
▁हुँ।
▁फन्दा
▁राजमार्ग
8
फ्रेण्ड
▁उपकुलपति
could
पाथ
Ƚ
िलो
▁गंगालाल
ţ
▁चर्पी
箱
▁शिविर
ж
▁पोलिटव्य
応
▁अहिलेसम्म
▁भड्क
▁जाल
िएको
▁मोटोपन
football/9
0%A4%96%E0%A5%87
麗
सानो
4%AF%E0%A4%BE%E
首
室
१७
Ｅ
▁तिवारी
▁दोहोर
ंडा
▁अपार
ん
▁विधेयकमा
▁टेलर
फलस्वरुप
नियमनकारी
▁गर्दैछु
्याट
▁२०६०
▁हिमश्रृंखला
▁वहु
▁कठिन
ल्लो
साप
परिणामस्वरूप
ऌ
▁सप्त
hare?text=%E
▁हिंसाका
▁इफेक्ट
▁प्याज
▁पर्छ,
▁त्यसरी
▁सत्याल
"
▁अम्पायर
▁सभा
▁अम्ल
北
▁क्रस
▁पुरे
चु
▁सुशील
▁उपाध्यक्षमा
厂
ोड्नुपर्ने
𫿮
▁सहजीकरण
वैशाख
▁फुर्
😊
🇴
▁सोचिरहे
▁स्याउ
ः४५
/2016/12/51
4%BE%E0%A4%A4
്
▁मोजमस्ती
▁आजदेखि
▁सहजकर्ता
▁छाला
恨
हेन
质
折
▁न्यूनीकरण
热
▁छाउगोठ
▁सत
▁वसन्तपुर
▁आउटलेट
▁नियुक्त
▁छैन ।
▁कन्फ
▁पाप
▁सत्तापक्ष
छु,'
at
▁२
▁धुल
・
澳
पिपुल्स
lan
▁बडिमालिका
ʥ
▁कोरिडोर
▁अप्सरा
▁अपलोड
▁अवसर
▁महावाणिज्य
▁तीस
▁चान्सलर
▁सुदुर
▁नखोज
0142
हाल्नु
▁भण्डार
▁लिओन
▁कञ्जुस्या
म्यान
▁अड्क
Thanks
▁विपश्यना
ٵ
Į
▁रही
▁स्ट्यान्डर्ड
竭
▁वाचन
▁आउछ
▁एसोसिएसन
#comment-816
शनिबार
較
▁क्वार्टरफाइनल
ィ
進
▁अग्रज
▁चाँ
範
गराएर
▁बस्न
708
८६
▁लम्क
冥
अनुरुप
▁ठेक्का
▁वीरगन्ज
誕
▁क्रिकेटर
सेन्स
▁परिषद
संख्या
▁विल्सन
DA
॒
▁फ्युजन
▁निशुल्क
–नेपाल
▁गफ
▁चाउचाउ
▁निमावि
ֹ
बाराही
À
ਧ
उच्चतम
▁नपाइने
▁विद्येयक
▁फो
▁जप
▁नुह
▁चिन्तन
म्स
ck
२०७५
▁पद्म
शिवप्रसाद
प्रेस
▁क्लस्टर
घरभित्रै
珠
आरआई
Ͳ
▁रहस्यमय
4%BF%E0%A4%A4
廊
▁कर्मचारी
▁गेम
▁भरोसा
विजय
▁मामाघर
▁उमावि
▁दलहरू
vo
▁उर्
🌿
▁स्वस्थानी
ह्वील
▁मार्मिक
▁सम्बन्धि
▁फकाए
▁मेगा
贷
दिएको
▁थुने
▁तिर्न
▁ईतिहास
▁इन्डोनेशिया
ݰ
राधा
▁आफन्तजन
▁नदिनु
▁नातिनी
▁कक्षा
एसपी)
▁सोमपाल
▁शुरू
4%A8%E0%A5%8D%E
▁कोरिया
▁थिङ
प्रेरणादायी
▁बहन
▁अभिनेत्री
▁आइओसी
ˣ
▁आर्थिक
▁प्रस्तावित
6
ş
▁सुरक्षण
ษ
态
▁मेरुदण्ड
▁आत्मसम्मान
▁प्लेट
स्टे
+with+
0%A4%AA%E0%A4%A2
dherai
गरीएको
▁व्ययभार
त्रिशूली
▁गैंडाकोट
ोधखोज
ͯ
▁पिटर
ical
▁त्रिपाठी
▁रुपैँया
▁बिग्रिएको
泉
▁खेलाडी
▁बाउ
ुपर्नेछ।
牌
y
欵
▁जानकारहरू
▁पाइएको
वेदन
수
▁डिफेन्ड
េ
filename="2017/0
͂
▁विपना
0%A4%A4%E0%A4%B0
鿎
▁वन्यजन्तु
▁नेतृत्वकर्ता
विज्ञान
▁17
▁भाइबर
सम्मत
▁अनुमोदन
▁'यति
▁कारणले
िरि
5%8D%E0%A4%B7
▁सक्ने
▁बिगार
स्ट्र
4%B0%E0%A5%87
▁वाइबा
▁सुम्निमा
▁असत्य
▁अधिकारका
दयाराम
▁पसिना
सा
ڴ
ट'
▁टाढ
उत्साहजनक
▁पूर्
▁मिल्स
蒙
4%A4%E0%A4%BE
क्रि
▁सौरभ
▁०७३
▁तिम्सिना
▁फ्युचर
▁हुलास
▁कृषकहरु
▁प्रतियोगिताका
▁सर्वसत्तावाद
मस्कट
ence
▁लोपोन्मुख
्ाा
ालय
▁सांस्कृतिक
▁वयस्क
▁माओवाद
▁रेफर
0%A4%85%E0%A4%AC
▁गाए
हुँदा
а
親
畑
后
▁बेला
腺
烟
▁मुखिया
▁साँघुर
विमानस्थल
▁भागबन्डा
concern
▁देखिरहे
▁भौतिक
▁कु
▁मान्दैन
▁गरेन
▁घुमाउने
ɺ
🤦
सिल
›
▁गाँज
谜
ꅕ
͋
ोट
कचौरा
प्रश्न
與
▁उपसभामुख
▁स्मरण
▁ओलम्पिया
愿
▁जर्सी
ाईरहेका
ग्लाइडिङ
▁कन्ट्रक्सन
▁९७
ँच
▁जगेर्ना
嫎
▁माली
栃
▁बहाना
▁शेर
▁घरहरु
%E0%A4%AC%E0%A
▁द्धन्द्ध
▁गर्नुपर्छ।
६२
▁नेपालीभाषी
ò

04/
▁उनीहरूलाई
#comment-843
둇
ҁ
सूचित
▁आदेश
▁स्व
0%A4%A4%E0%A5%8B
ׁ
▁दायर
दिएपछि
▁चाहन्न
▁बालवालिका
▁सिकाए
1</span>
▁ऐनमा
▁छोडेका
▁जबर्जस्ती
▁रानाभाट
▁गाला
▁रामचन्द्र
ho
▁बैंकहरू
सेर
▁पुम्दीभुम्दी
▁कटवाल
ꍽ
炉
वरण
▁'राजनीतिक
▁समावेशी
ाइरहनु
Ａ
▁बुझ्नु
▁भिर
बर्ग
▁जागीर
▁चु
लिएँ
▁फिल्टर
▁बनिन्
▁हाँडीगाउँ
▁गुमाउने
▁इक्युपमेन्ट
գ
ۈ
05
▁(अ
▁सां
(३)
▁काउन्टी
▁मनसाय
▁कोरियाका
▁खेमा
ี
ाइसकिएको
성
刻
▁सर्त
▁ढुंगे
▁हैरानी
पुनर्विचार
▁सचेत
▁ठुलो
श्
▁परशुराम
4%95%E0%A5%80
▁मलमूत्र
▁एमए
4%81%E0%A4%9A
щ
ारे
▁शुक्रकीट
▁स्तब्ध
परन्तु
tan
̓
味
󥡑
▁कष्ट
據
▁डि
墠
▁नहुनु
▁पाङ्ग्रे
/कान्तिपुर
▁शोध
▁दलीय
▁क्षत
▁लिइसकेका
स्लाम
茧
▁कुनै
▁गढ
▁गर्‍यो।
▁सकरात्मक
▁कर्फ्यू
勋
विन्द
▁पर्यटकहरू
▁बीबीए
क्षिप्त
▁केन्द्रबिन्दु
▁भिरालो
news/employment/
▁पर्छ
▁कार्ड
▁राख्नु
▁सम्राट
▁पूर्वाग्रह
▁चारवटा
▁छुटेको
Ѷ
间
खेलेर
▁मातहत
▁बन्दोबस्त
唔
▁अफ्रिकी
वर्ण
▁हतोत्साह
▁अन्योल
71
▁अनेसास
कपिलवस्तु
▁हेप
+%E0%A4%95%E0%A
ĕ
दृष्य
▁विचित्र
▁पूजा
▁शान्ति,
sad
▁छन्।
▁खगेन्द्र
▁हालीमुहाली
詩
रहदा
football/30
▁पाला
▁आयोजनाहरू
शिक्षक
निया
वर्षीय
▁दुस्साहस
▁भोग्नुपरे
▁सुष्मा
▁राष्ट्रपतिको
▁भन्डार
53
…
▁उठ्न
▁रूपैयाँ
▁अभियानमा
filename="news/7
▁निवृत्तिभरण
%E0%A4%81%E0%A
Ɇ
ĭ
सक्न
▁त्यो
ɾ
🇹
▁जाँचबुझ
▁अनुप
▁संस्करण
▁मन्त्रालयसँग
khabar.com/?p=
▁गरे
말
弾
यमान
▁१.
धारण
▁घट्छ
E
लागी
阜
̿
諚
छात्र
्बर
▁क्षति
▁परिणत
▁बिचल्ली
▁गर्‍यौँ
▁गौतम
▁अंग्रेजीमा
▁रेवती
जयन्ती
▁पार्दछ
▁चौकी
▁प्रत्य
宇
؀
ɡ
र्व

▁हरिप्रसाद
▁'प्रधानमन्त्री
दुईटा
▁छाँया
बाज
促
͗
अद्भुत
换
▁बाध्य
▁मारियो
˽
▁कलश
▁अधुरो
०
▁सर्न
▁सञ्जाल
▁हटाउने
▁ल्हासा
▁बैक
▁थन्किए
▁चिकित्सा
▁क्रिसमस
परिमार्जित
▁धरपकड
▁पढ्ने
▁निरीक्षक
▁फुटे
▁बस्नुपर्छ
▁विशेषज्ञ
भैm
]
্
▁विकिरण
贫
दिप
वर्षभित्रै
▁आर्किटेक्ट
▁खाने
0%A4%AF%E0%A4%B9
▁टेनिस
▁गुमाइसके
rai
NC
ȓ
4%AC%E0%A
पूजा
▁किलोलिटर
▁डाउनलोड
▁लचक
Ӷ
▁प्रदेशका
龠
4%B0%2C+%E0%A
गोठ
▁situation
हाँ
▁सक्नुहुनेछ
4%95%E0%A5%8D
▁म्यानेजर
▁लिडर
▁प¥यो
▁हाउ
▁बढदै
▁प्रत्यायोज
▁कुराले
ism
▁माई
▁काठमाण्डु
ი
ुरुक्क
▁कुन्नि
უ
week
だ
˿
▁चार्टर
जम्प
▁कपिल
▁त्रिभुवन
▁फर्
ج
등
奋
▁हुँदैछ।
▁जिप
▁संगठित
▁श्राप
▁व्यवसायी
▁मिसिए
एस
▁पाईन्छ
4%B9%E0%A5%8B%E
▁चार
▁उच्च
▁विर्तामोड
▁होला
检
लामो
▁धैर्य
नोल्ड
造
Ǜ
▁क्षमतामा
▁साँढे

▁सर्वाधिक
▁देख्ने
ン
▁समयावधि
▁मानक
▁प्रोफाइल
▁पुर्याउने
▁बालगृह
—
▁बिचौलिया
探
磁
▁अबरुद्ध
▁काप
वृत्त
copy
न्।
▁पकाए
ाएरै
▁बेलिब्रिज
৬
▁बिग्रियो
▁बोक
मोट
壇
▁समय
▁डलर
▁चिराइतो
Ȍ
洹
▁पाठेघर
▁टायर
लो
😅
▁कट्ठा
▁हेर्दा
▁सर्वसम्मति
Ā
▁पढ
▁खेलेका
▁छोड्नु
⑻
▁३९
🌾
▁५५
▁मोतीराम
▁विधि
▁म्याग्निच्युड
干
क्की
ȟ
▁We
؎
▁अर्पण
पखाला
5%81%E0%A4%A8
▁प्रत्यक्षतर्फ
खान
▁थिई
</a>
▁बलिदान
▁गराइदिए
▁बेपत्ता
▁वनक्षेत्र
옰
फी
गण
▁तपाईको
散
टोल
▁भइसकेका
題
傜
▁चितवन,
▁एटलेटिको
▁प्रक्रिया
खेल
ंस
▁मष्टा
▁फिचर
◆
आफ्ना
गणेश
▁अनुरूप
▁ग्रामिण
%E0%A4%B8
▁भोजन
▁अड्चन
▁जनप्रतिनिधिहरु
▁महरा
尽
▁ढुकढुक
▁अन्तरराष्ट्रिय
▁नानी
बहाली
▁पर्दाफास
▁सर्जक
4"
▁त्यस्तो
content/-2
▁गर्दछन्।
▁प्रालि
▁आहा
चौकी
0%A4%85%E0%A4%
Ñ
黒
返
रौता
▁थुप्र
▁(पोर्
▁मान्छेहरु
▁२०५३
▁जगाउने
कार्यक्रम
▁खटिए
स्त्र
developed
ི
▁चक्की
▁मं
▁निणर्य
▁जेष्ठ
▁मीठो
▁जन्मोत्सव
襃
块
অ
▁लम्साल
울
शसस्त्र
ко
▁हरित
▁प्रदेशको
▁एकीकृत
▁हाकिम
झनै
▁शैलीमा
▁बलराम
▁बिगारे
▁बाम
▁दुताबास
认
▁होड
▁२८
▁सेञ्चुरी
廳
▁संघसंस्था
4%B6%E0%A5%81
ख्या
political
बुक
कात्तिक
3/74
िँदैछ
▁तयारी
▁सत्याग्रह
▁गैरकानुनी
▁समस्त
ϐ
▁दंगाल
֭
▁तपाईहरु
▁नगर्दा
▁बल्खु
▁निकायले
呼
▁नियन्त्रणमा
मित
顾
▁महिना
▁कमर्सियल
▁हिरोइन
▁हाँक
융
दायरामा
4%AB%E0%A5%8D
▁छानिए
▁शिवराम
▁प्रतिमा
ke
▁संक्रान्ति
😍
▁सुनकोसी
▁तरीका
▁पूर्वी
丵
▁पिठ्युँ
76/feed
▁निकाल्यो
ist
न्छ
5%8D%E0%A4%B0+%E
▁खाल्डा
▁टमाटर
򊪻
5%8B%E0%A4%9C
▁चाँदनी
▁धूमपान
▁विरोधाभास
뱻
▁सय
ाइरहेका
▁फिजिसियन
▁(क्याप
去
▁ट्याटु
▁स्पेस
W
%E0%A4%A4
ानदार
▁पछ्य
ƀ
▁२०१९
गठित
▁गुनासा
▁थात
▁परिदृश्य
▁नक्सा

▁बनायो।
चीन
ादेश
吃
愛
▁नुन
닝
▁गर्छ।
▁उडाए
开
▁यस्तै
▁मार्क
▁माओबादी
शम्शेर
▁भुमरी
बर्दिया
肯
▁जसमध्ये
΅
▁खोजेको
▁उभिएको
▁समुन्नत
0%A4%95%E0%A4%BF
▁बिराटनगर
数
▁हिसाव
▁उपकरण
▁देवदह
ẽ
😢
▁अनमोल
▁महोत्सब
▁हालसम्म
▁विनियोजन
▁उपप्रमुख
▁विपद
▁होर्डिङ
▁चेम्जोङ
प्रभावित
ദ
▁भत्किएका
69
▁स्वतः
▁साहस
▁भूमिका
т
Ք
▁अविनाश
आफ्नी
▁सटही
▁रोटी
तर्फ
▁पुल
▁२०१७
ƭ
정
देव
▁राख्नुपर्छ
▁अन्तत
2#comment-
环
▁just
▁&
▁गोलभेंडा
▁भुक्तभोगी
िप
▁भट्टराईले
▁सच्याइ
স
抛

्नुभएको
입
लेखेर
▁सार्थकता
रा'
क
▁Au
▁एनेस्थेसिया
▁सुल्तान
ᤕ
肩
संक्रमणकालीन
▁काउली
Ƀ
敦
▁तिमीले
ẫ
県
क्या
▁छोडिए
▁उत्रिन
्तो

▁राजनीतिज्ञ
%E0%A4%A5%E0%A
▁गराउनुपर्छ
븳
एकाएक
▁बढिसके
▁दरबारमार्ग
ޡ
ا
▁प्रकृतिको
▁सामग्रीहरू
▁गाउन
टिक्स
˖
▁जसका
事
▁डिस
▁मानिस
ޮ
暂
폿
च्याङ
्यालय
ѹ
▁चराउन
ۊ
光
▁लिइ
▁प्याट्रियट्स
▁बुझाइए
ٰ
▁क्षेत्रभित्र
克
Ĥ
▁अस्पताल,
▁निलो
▁अत्य
▁सम्हाल्ने
जन्मसिद्ध
疃
▁बनाएर
ꊳ
▁फलानो
▁बेल्डाँडी
▁व्यवस्थापन,
४२
▁शिवकुमार
▁गरि
▁छुट
रान
▁क्यामेरा
ϸ
ĳ
ordpress
▁कर्मचारीले
▁आर्ट
👇
▁बिहानी
▁कलाकारिता
▁२०१८
ϑ
▁कब्जियत

▁आविष्कार
▁पहिर
▁ट्र्याक्टर
添
▁राना
ट्याक्ट
▁05:3
字
▁विद्यालयको
ढ
▁१०
पटकपटक
▁चापागाईं
कर्जा
▁त्रिपुरासुन्दरी
▁बुर्तिवाङ
सांसद
बेला
ाइरहेको
▁विछोड
▁सकेका
भार
▁नेपाल–भारत
ग्रह
▁भाषण
▁संघ–संस्था
कूल
▁विद्युतीकरण
▁परियोजनामा
▁गुरिल्ला
▁पश्चिमा
؞
वद्ध
▁ब्याट्री
▁पुगी
ब्राजिलियन
▁शैलेश
▁लायन्स
4%B0%E0%A5%8D%E
▁पछी
तौल
▁दर्शकदीर्घा
contact
▁स्थापित
ޭ
▁हुनुपरे
डेढ
भरपर्दो
▁नहोस्
߉

▁सागर
г
那
मीटर
अविश्वसनीय
२०७३/०७४
▁पुनस्र्थाप
–२५
▁श्रीदेवी
▁तत्वहरु
▁मधुमेह
+%E0%A4%AA%E0%A
ब्ब
▁यहा
सच्याउनुपर्ने
Ȁ
▁उपाधी
awa
▁सिलगढी
交
सूत्र
▁रु.१
▁तीव्र
冶
▁गर्दछु
▁स्टाइल
कार्यबाहक
մ
▁थिएटर
▁थापा,
Very
▁त्यही
ী
▁(माओवादी
刂
ख्य
▁विधार्थी
ललितपुर
ム
▁इटली
482
▁लाग्दछ
▁भैसक्यो
▁उठेका
▁टमाटा
▁समावेश
2016/11/50
▁भूमिगत
С
ᤍ
▁भनिन्थ्यो
▁बाणिज्य
दश
菲
▁नगरपालिकाका
▁उपराष्ट्रपति
▁जिवन
हँुदा
▁डेमोक्र्याट
बत्ती
ies
直
स्क्वास
गोर
▁२०११
्मि
▁बुलेट
▁जीत
▁ट्रफी
ine
खेमराज
▁मेट्न
▁हुँने
▁हुँ
▁धब्बा
▁जुवाडे
+S
恒
जेल
▁सिक्लेस
ܐ
दार
▁घाइते
▁नबढ्न
▁माग्ने
頭
३
ीकृत
२–०
Information
▁गाउँपालिकाले
▁बाँच्न
▁सवस्टेशन
▁हार्ट
予
▁दिनभर
▁गर्दैछ
▁आहार
▁च्याम्पियनसीप
▁लाद्न
2019/03/748
▁अछूत
▁गौचन
अर्यालले
▁बसेका
▁तेक्वान्दो
spect
▁थाइल्याण्ड
ぃ
▁क्षेत्रबाट
के
▁भि
▁दिएन
mal
ra
र्ग
▁थोपरि
▁सफ्टवेयर
ढुंगा
शासकीय
▁स्वीकृति
り
ڑ
▁शालिक
▁उदाहरण
▁स्टाफ
李
▁f
▁क्रिकेट
▁संस्थाको
अन्यथा
▁हमाल
▁सर्वहारा
निज
Ҕ
▁मच्चाए
审
ग्न
▁आठराई
▁हुनेछन्
▁मापन
▁शिलालेख
▁डोरी
巅
⃣
▁ख्रीष्ट
▁दैलो
▁पाठ्य–पुस्तक
▁वज्राचार्य
▁विश्व
▁गलकोट
khabar.com/?p=66

पद
▁जीवित
▁पारेर
लिब
▁धन्न
ត
▁भवानी
सक्छ,'
▁निम्त्याए
▁भैसकेको
▁गोलअन्तर
▁दर्जा
輩
थाल्दा
▁हरायो
▁अन्यौल
२-१
सुपरहिट
▁रत्नपार्क
▁जरीवाना
満
嘞
खी
टेस
▁सुम्पन
ֳ
वास
̵
仿
▁ठेकदार
标

▁कतै
आइतबार
ᇡ
याल
▁बाहिरिएको
▁चर्चित
😖
▁क्यास
▁आँखामा
Կ
लगायतले
印
▁चाहिए
▁पु¥याइ
▁वुमन
炼
▁कुरो
▁समाह
▁निकाय
▁सच्याए
딩
▁इन्द्रजात्रा

▁जर्
आजभोली
▁सप्लायर्स
఼
411
▁तान्जानिया
०८
▁मोरिस
football/32
4%BE+%E0%A4%B8
सकेर
氟
राख
सायनिक
▁शिक्षकहरू
dislike
ེ
▁खेल्नेछ
▁गापा
済
▁लिइन्
▁स्वर्ग
ძ
▁वर्षिय
▁कुराहरू
ډ
4%B0%E0%A5%80+%E
碳
假
▁च्याउ
때
TV
running
▁निस्किने
▁खाद्यपदार्थ
▁ट्रेकिङ
प्
仓
प्रिन्ट
▁गराउनु
▁по
▁ग्रिजमन
रोक
▁ब्लग
निर्माण
▁लुकाकु
▁सोच्नुपर्छ
▁रानामगर
▁मूख्य
二
▁टाँस्न
🇷
▁चन्द्रागिरि
पर्व
▁द्विविधा
֗
SA
ـ
▁दिने,
ォ
▁प्रमाणित
绘
▁राहदानी
▁याक्थुङ
▁परीक्षणका
nest
ंकर
▁तेर्स
▁विज्ञप्ती
▁डुब्न
बालुवा
दिन्छन्।
ʋ
होस्
▁टल्क
Ֆ
酵
▁होमपेज
▁स्वेच्छाचारी
▁कागज
▁ल्याए
▁भइसक्यो
%E0%A4%BF%E0%A4%
▁विजुली
▁दौंतरी
ʛ
▁रहन्छ
▁फैलाए
▁बेलौरी
स्पाइनल
▁प्याराग्लाईडिङ
Ԇ
▁व्यवासाय
▁आङ
▁बिहार
▁सक्थे
%21%21%21
▁बाइक
│

▁दिशा
▁नाका
▁अनुशासन
्टर
▁खुम्चिए
▁सिँचाई
संगीत
▁विज्ञहरू
इङ
▁वहस
▁बुन्न
▁मनोज
नै
खबर
▁अर्थतन्त्रको
ۋ
瘝
▁भू–
पुर्ख्यौली
फर्किंदा
खुला
込

लेक्ट्रोमेकानिकल
्याम्प
▁गरें
▁हस्ती
▁थे
प्रध्यापक
▁ब्राह्मण
सिक
▁उनलाई
▁नपाउने
2019/01/733
नारी
▁वाक्य
μ
卵
▁रोमान्स
▁टेक्नोलोजि
▁तीज
what
▁श्वेता
镜
दक्षिण
▁सामाग्रीहरु
▁यहि
tor
▁तिर्नुपर्ने
が
ζ
▁खेत
र्जी
̸
▁घट्ने
̢
५१
▁नेतृ
पटक-पटक
▁स्वेच्छा
▁माइक्रोबस
बालिका
▁दाहाल
花
핕
55/feed
फट
त्ता
▁चौडाइ
१९९३
▁हुदैछ
▁भाँडो
▁आश्
▁आइडिया
▁बर्षमा
पालक
support
(लाइसेन्स)
▁खल्बल
▁पेश
्‍न
▁मज
बाबु
▁बिहिबार
4%B7%E0%A4%BF
▁महत्त्व
ˠ
Ź
ऄ
▁काँकडभिट्टा
Sharma
▁कथामा
▁आशा
▁वीरेन्द्र
▁पाक
猫
जिया
▁सुपरस्टार
▁दंग
४३
मुरारी
0%A4%98%E0%A5%81
▁इरानी
硬
孞
▁क्लिन
▁काष्ठमण्डप
khabar
oman
կ
ѿ
▁गुण्डागर्दी
news/2018/
ɔ
content
▁भिन्न
▁बिशेष
▁विश्वकप
▁ख्याति
▁सदस्य–सचिव
गिनिज
ٽ
box
facebook
ро
#comment-834
▁छ
वंश
铜
ान्वित
却
▁बोरिङ
▁नेइमार
40
24
▁नाट्य
▁घटनाहरू
▁कमलरी
▁किन्न
▁कोसिस
news/economy/
▁नगन्
▁लिड
▁ट्युमर
孊
4%A4%E0%A4%B9
आरआर
▁ठे
▁फ्ल्याट
रु
▁जन्मिएका
​
+hun
ⳁ
▁देख्दिन
▁विद्यालय
▁बैकल्पिक
▁सांसद
▁बढाउँछ
▁सरोकारवालाहरु
▁देखिएको
▁काङ्ग्रेस
▁पुस्तौं
🇲
▁धरान
▁मान्दिन
▁सोच्ने
डाँडा
疆
慮
▁छोडिदिन
पनी
▁किंवदन्ती
ヘ
▁मोरङ
古
▁मोल
価
▁पारस
宪
ឯ
▁क्याम्प
争
ja
잠
▁पाचौ
ͳ
▁हारे
="2
▁निर्दिष्ट
码
▁लिंग
▁पाउनुभए
स्वदेशमै
मू
ﴽ
▁सोचे
▁इन्स्टिच्युट
/2019/03/751
featured/3
泸
▁हराएका
चुने
उड
▁हुन्
▁खल्ल
2014
▁भेटिएका
ਅ
▁दुखाइ
▁मातापिता
▁हुनपुग्यो
̍
▁४६
▁पप
Œ
परी
▁
▁फरक
類
▁नसुने
楈
▁परामर्श
▁कुरा
भन्नाले
ἆ
न्यायाधीवक्ता
'यस्ता
▁थबाङ
▁Su
̔
˒
८२
ݵ
矿
􀃲
深
ES
कंन
얘
▁इन्फ्लुएन्जा
▁सम्
▁वफादार
级
单
ܷ
▁देहरादुन
▁विद्यार्थीहरु
▁हेरिरहेका
▁थुनुवा
▁विजय
▁जान्छ।
▁जनयुद्ध
▁ल्याब
आईपी
ủ
प्रताप
सुम
▁अचार
ेनि
▁आइस
वि
▁सहअध्यक्ष
▁G
▁कामरेड
▁क्यापिटल
माधवप्रसाद
▁मिठास
Ս
▁प्रभात
ाँ
▁गराउने
▁विषय
▁भाव
▁जटिल
▁बनाइने
▁निश्चल
▁च्वाइस
▁महाभियोग
शून्य
ਹ
☑
宝
beautiful
पालि
वार
राख्न
段
具
▁वाहिर
▁आतिथ्यता
/r
▁प्रजातिका
घु
%E0%A4%A7+%E
▁जीवनयापन
टेक्स
▁लोकेन्द्र
▁can
▁सोध
▁नीति–नियम
नवनिर्वाचित
▁हुँदाहुँदै
▁भाई
▁रहला
▁वायुमण्डल
▁जारि
큉
▁खस–आर्य
ऒ
बाहक
朴
▁आफन्त
▁पशु
▁problem
▁जे
▁चाह
251
▁प्रसाई
यूनाइटेड
ພ
▁आयु
०७३-७४
अन्दाजी
输
▁हँस
Post
ö
▁दाहसंस्कार
६०
▁एक/दुई
▁भन्छ,
680
▁बुर्तिबाङ
Н
惠
ਗ
▁परामर्शदाता
▁२०५९
▁केके
▁समानीकरण
▁चारै
khabar.com/?p=73
▁देउखुरी
Google
䪩
▁सीताराम
▁रोक्नु
सुब्बा
▁'प्रहरी
▁झुन्डिए
chha
ती
▁रहनु
▁असन
޷
ँझ
नायिका
ჯ
4%95%E0%A5%88
޻
ण्डी
▁ज्ञानको

क्ष
✌
हालसालै
▁सामूहिक
᪰
भेन
▁बालसाहित्य
▁अजेय
▁पाएको
टुलु
̊
▁नाडा
%E0%A5%81%E0%A4%
鏏
频
▁सहभागितामा
▁च्याम्पियनसिप
२७
▁खोजिरहेका
▁छुट्ने
▁विधवा
ۣ
▁प्रश्नहरू
ﻘ
▁दुखे
▁मान्नुपर्छ
✔
▁अभिवादन
ban
靓
▁माया
▁लगानीकर्ताहरू
सीसी)
ો
▁हाँस्य
▁अपव्याख्या
▁त्यस्तै,
▁तल्ला
件
▁अन्
▁रिलिज
▁अस्पष्टता
gree
庉
Խ
▁ठान्छ
▁विज्ञापन
▁खसी
बुलबुले
▁हुरीबतास
识
▁लिङ्क
ಗ
▁पालो
▁द्रुतमार्ग
驭
▁खर्च
▁कोलोराडो
▁पृथक
डुल
▁ईटहरी
देऊ
ć
▁ताक्न
▁सघाउन
▁लैजा
▁बुकिङ
▁मूल्यांकन
▁अला
▁अनुभुति
▁शिक्षादीक्षा
▁अपनाउने
▁कुवा
游
晚
▁चन्दा
區
▁स्टिकर
▁सह–
黨
𗲜
▁आश्विन
傲
▁झस्क
better
ाइसकेको
▁प्रधानन्यायाधीश
▁म्याक
▁हंगकंग
😒
▁रमाइलो
瑞
▁प्रश्नहरु
ྩ
▁ससुरा
▁इन्ज्युर
▁ग्रीन
▁यसको
०६
▁साल
▁कुतर्क
▁दशगजा
槐
news/economy/1
▁स्याफ्रु
▁सरसामान
▁इण्डोनेसिया
+%E0%A4%AD%E0%A
▁भात
▁खरिदबिक्री
국
▁न्यायाधीश
अमुक
族
▁गैह्र
▁ब्रह्मा
▁उठाई
Ӣ
▁फलाए
परै
ँडा
▁२०४०
▁बनाइयो
真
▁कार्यदिशा
▁म्याद
5%8D%E0%A4%95
▁प्रधानन्यायधीश
▁घट्नु
▁खाँदबारी
७७
▁साहित्यको
▁शरण
▁लिगा
▁निवेदन
▁आ.ब.
▁जीवनमा
▁04:5
▁'ज
▁फाउ
ˍ
▁मन्दिरमा
▁निर्वाचनको
▁mu
Ȇ
▁मायालु
आदरणीय
▁भएँ
▁भयो,
▁सामर्थ्य
पित्तथैली
Ŷ
▁हिँड्नु
气
▁जाओस्
▁गन्धर्व
हारेर
种
试
▁क्रियाकलाप
ન
▁सुरु
▁पत्राचार
4%BE%E0%A4%AE+%E
▁कुमारी
▁देखा
हिम
▁प्रतिसत
ǐ
▁धौलागिरी
於
▁आय
HA
ٌ
▁काँकरभिट्टा
na
टी–२०
▁तब
灰
ֿ
고
▁स्टिल
▁कारोबारमा
5%A8%E0%A5%A6
▁तह
▁बेसक्याम्प
▁छन
sy
अब
▁रनरअप
भयाे
▁decision
▁तिरे
シ
0%A4%AC%E0%A4%BF
▁अनेरास्ववियू
挀
▁चुके
उत्कृस्ट
१-१
▁मजदुर
▁जीविकोपार्जन
▁थिचिए
le
▁हाँस्दै
▁बसाए
▁नर्
ķ
▁मच्च
▁फुयाल
▁मध्यपुर
▁बुद्धिमान
म्
▁अजयमेरु
ę
▁जिरा
▁माफी
▁अल्पसंख्यक
पोखरा
७२
▁चाहेका
▁अर्ना
라
▁विस्तारमा
नगरपालिका–७
擅
कुनामा
▁फालिए
ؖ
iya
साइकल
渉
▁भनें
▁भूकम्प
草
牛
旭
儲
ݷ
▁मन्त्रालयको
▁दुःखद
▁"S
▁पारेका
jay
–अ
▁अना
▁छाडिदिए
ۀ
▁निशा
मिट्यान्
ร
ƺ
▁एक्सप्रेस
▁नफर्क
▁ट्वा
▁अफगानिस्तान
▁फाइबर
▁साना
▁garne
▁देखाउँछन्
टिसी
▁भिटामिन
▁शेयरधनी
ture
䣒
रचना
<mask>
▁भेट्टाउन
▁आवासीय
▁पाथिभरा
▁परिसरमा
कर्पोरेट
▁वृद्धाश्रम
▁गर्थें
▁संस्मरण
▁एण्ड
▁ओठ
नियोजित
▁अन्नबाली
▁हाइड्रोपावर
之
摔
▁प्रशंसा
प्रहरी
भन्दै
더
हँ
▁तारकेश्वर
露
▁सम्झौता
चैत
▁राणाशासन
▁कज
ience
✊
▁बृद्धबृद्धा
▁पुरातन
▁विभिन्न
▁कर्पोरेशन
▁प्याकुरेल
▁कार्यालयहरू
▁नक्षत्र
▁थेग्न
▁'जिल्ला
▁श्रेष्ठले
▁थाह
न्द
▁घरजग्गा
▁मेमोरियल
▁अर
▁क्वीन्स
ͭ
▁W
▁ढकाल
ь
ף
▁श्रेष्ठको
▁चिकित्सकहरु
पिड
▁बदलिँद
▁छर्लङ्ग
號
4%BE%E0%A5%87+%E
▁भेषभुषा
▁निकम्मा
Ï
▁पालना
𖾄
▁नाममा
▁न्यायोचित
▁मूल्यवृद्धि
▁अष्ट्रेलियामा
▁कहाँ
▁स्वर
This
भुषण
▁महात्मा
ओछ्याउने
ɐ
b
▁जिम्मेवार
▁नौ
घि
▁प्रमाणपत्र
▁माइनस
▁ओगट
▁लगा
▁द्रूत
▁प्रयोगात्मक
▁अपनत्व
▁एन्टी
▁वर्षीय
▁विभूष
時
▁उद्योगीहरू
▁भारतसँग
▁जिसी
▁विकासमा
▁थुना
िन्।
۲
▁ब्युरो
▁देउराली
▁ओहोरदोहोर
历
▁समेटे
▁'स्
2018/04/674
ਜ਼
▁तिहाई
輿
0%A4%A8%E0%A4%BF
▁भलाद्मी
▁समाधान
▁परापूर्वकाल
ʪ
▁सरोकारवालाहरू
▁अविवाहित
▁खादा
िट
▁मेलम्ची
ܝ
▁प्रशा
պ
न्छ।
▁थियो।
▁टावर
绩
विहीवार
▁सम्भावना
बेग्लै
˰
्रेस
ेन्ड
▁सिद्धिचरण
39
▁हाे
इन्ड
▁सक्थ्यो
▁जाहेर
ȗ
▁अवस्था
▁या
▁बिष्ट
点
🖕
▁निकायमा
सास्कृतिक
▁चढे
0%A4%95%E0%A5%81
▁गरिनेछ।
▁निभाउन
▁लागूपदार्थ
ϵ
▁उत्पन्न
▁गुडिरहे
▁बहिर्गमन
5%A7%E0%A5%A6
▁कार्यालयबाट
▁गाजा
यद्यपी
؉
▁फँ
िझाउने
迂
स्वी
▁स्थायित्व
▁हिँड्नुपर्ने
ț
हरूबीच
馩
▁विद्यार्थीको
▁सर्भिस
▁रेखदेख
841
▁पनेरु
▁एडभेन्चर
23
ma
▁Ri
0%A4%B8%E0%A4%B9
▁सञ्चिति
ע
접
0%A4%AF%E0%A4%B8
▁कन्काई
▁इन्ष्टिच्युट
▁भूमण्डलीकरण
҃
뇄
▁मुद्रा
▁सत्कार
▁लमही
▁ज्ञान
०७६
▁बास्तोला
▁गुमनाम
▁त्रिवि
ख्
97
▁देहरादून
▁२०५७
▁बेस्ट
▁बस्न्यात
ǡ
▁नदोहोर
जोखिमपूर्ण
▁यसलाई
ated
▁डिप्रेसन
▁रोल
▁आघात

▁बनि
▁सुट
图
▁क्षमा
▁खोलिए
▁नखुल
▁अचेत
▁क्रममा
ियो
क्रमिक
摆
ाकार
▁मेडिसिन
▁बूढापाका
छन्
▁लिखित
▁वर्षात
उँछ
▁मार्
ɜ
▁हङकङ
▁अप्टिकल
▁उपर
▁"हामी
▁क्यासिनो
2018/09/705
▁पुर्ननिर्माण
thanks
͌
▁प्राध्यापक
䶅
▁सिँढी
ह्वा
football/40
ى
▁हिंडे
▁अर्
🏦
▁तपाईं
▁संघ/संस्था
▁अक्स
↹

एल
4%AA%E0%A4%9B
▁रहनेछ
▁'महा
–
Ӥ
▁व्यग्र
▁अग्रगामी
▁जेब्रा
찾
▁वन
▁पञ्चेश्वर
贤

▁अपारदर्शी
ान्तर
वानी
▁पर्खाइ
▁बाँझ
मधेश
खुरु
▁क्रमश:
केन्द्रबीच
ȑ
裂
▁गु्रप
▁बताउनुभयो।
▁दोहा
→
▁टोखा
▁झापड
օ
۰
▁'मधेस
▁रहिरहने
▁पाउदा
▁यस्
۸
▁गोर्खाल्यान्ड
痖
▁दिनुपर्छ।
▁पोस्न
欠
विनियोजित
탄
▁मट
हिँड्छन्
▁सुआरेज
▁प्रदुष
▁ईपीएल
ͨ
▁गर्दा
▁पूर्वउपकुलपति
▁vane
▁भोट
ݱ
▁प्रेममा
▁जन्मेका
▁भनि
त्या
781
▁दायाँ–बायाँ
▁बंैक
父
▁कलर
眨
▁भाँडा
▁छरिए
管
रह्यो
▁computer
मुकुन्द
◄
▁२१
▁तामाङले
▁जाँ
▁नकार्न
साउँद
▁रोयटर्स
▁परिवहन
▁हलिउड
भोग
▁भइहाल्
▁भनिसके
▁अग्लो
▁नामक
लंघन
▁कठ्यांग्रि
▁प्रेसर
▁देखिन्छ।
युद्ध
▁गोल्छा
बिहान–बेलुक
両
▁क्या
▁सीडीएस
▁बिकाश
▁मान्दैनन्
बिमला
▁बेसीशहर
▁थियौँ
🌙
ाउँथिन्
񬊾
official
Ь
▁जुन
▁दृष्टिकोण
▁परिमार्जन
▁कालाबजारी
🙈
▁चर्चा
एसएल
▁खाई
▁प्रतियोगी
ײ
▁पात्रहरु
▁ब्रोडब्यान्ड
▁भलो
▁आन्तरिक
‡
▁जनवाद
▁उग्र
ធ
▁उडाउन
न्यास
▁दुरा
▁कटाक्ष
▁अटो
▁काल
▁लगाउँदा
हरुसँग
मिला
▁गाउँपालिका–५
▁महाराष्ट्र
捞
액
▁मिहिनेत
▁त्यहाँका
▁पितृ

ियो।
▁हस्त
▁नियोजन
▁ट्रम्पले
▁दिनभित्र
▁थिइन
▁उपनिर्देशक
▁किनबेच
मृगस्थली
▁खानी
▁ट्युनिसिया
▁नदीनाला
गोल
喂
▁छैन'
▁प्रबल
▁सुझ
আ
▁भने,'
▁खोजेका
red
▁नकि
▁महाकाली
भोट
扒
▁एजेन्सी
▁आरक्ष
▁चलाइरहेका
▁चिनाउन
शैक्षिक
￼
▁व्यहोर्ने
मातहत
▁जित्यो
▁कर्पाेरेसन
Ų
||
脳
▁बंगुर
%E0%A5%80%E0%A
▁उ
▁हुनुहुन्थ्यो
▁बोल्ने
▁पोखरा,
▁निमित्त
थरीका
ʆ
▁उदास
▁चाहान्छु
▁कम्बल
football/23
ਬ
▁भारती
लोकमानसिंह
▁चुहिने
▁उल्लङ्घन
▁रिसेप्सन
▁समयअघि
!!
हनिमुन
न्यू
▁अंश
वल्लभ
▁समयदेखि
▁भनी
्थें
ی
▁विश्वास
▁स्प
–मैलुङ–स्याफ्रु
–लेनिनवाद
赌
▁घटिरहे
▁'उ
▁शालीन
▁घुमिरहे
www.w
आयोजना
news/author/
▁वल्र्डलिंक
▁क्रिस्टियन
問
▁क्रिस्टल
मण्डल
▁'ध
ீ
▁वि.स.
ម
▁वान
▁राख्दै
▁केटा
▁चिक
677
▁हरिहर
▁कपास
5%8C%E0%A4%82
▁प्रचण्डलाई
48
न्जेल
▁आउनुपर्छ
171
▁मिलाइदिन
▁बाझ
4%A4%E0%A5%80
շ
▁सुनाखरी
▁मोफसल
▁भनौँ
괎
타
▁ढाल्न
▁गजेन्द्र
टक
▁फागुन
▁'म
ゃ
▁वार्तामा
▁पोशाक
▁एशोसिय
ছ
▁बिगार्न
▁छनोट
▁म्यान
▁क्षमतावान
ֈ
٧
▁जता
देवनागरी
ҿ
▁आतुर
ger
▁हुनसक्छ।
ٹ
备
▁सवाल
्रिन
越
▁छिटो
▁भयावह
▁बेलुका
▁सृजना
▁असफलता
स्रोत
Ԃ
ͦ
▁मैनाली
▁कोहली
▁अछाम
▁see
▁दिँदैन
▁ढकाल,
▁विपक्षमा
▁मिस
▁रसुवागढी
एस्सी
▁फुकाउन
▁रामारोशन
&#x200d;
▁ठगिए
▁na
帰
▁जुटेका
▁गोल्डेन
यौँ
田
RI
ana
▁मास्टर्स
रहृयो
display
ऩ
祥
डिजिटल
▁थ्रेट
▁क्याप
▁प्रविण
特
छिन्।
▁लक्ष्मी
▁ममी
赁
▁सम्झाउन
व्य
▁खोज्छन्
▁थापे
▁थोक
▁तालीम
▁थाक
▁प्रवद्र्धन
▁झोल
▁बढ्
▁छानबिन
▁गुजरा
▁नजान्ने
▁आरोह–अवरोह
▁खिचे
▁मध्य
▁संघिय
ө
▁स्वाधीनता
ˋ

निर्णय
▁कोपिला
▁अल्पकालीन
ल
▁बन्दा
▁म्यासेज
▁टस
ഏ
剂
▁नजर
बिइङ
literature
▁माहा
सिटी
4%BE+%E0%A4%
बाख्रा
ė
▁मताधिकार
▁दलाल
मुनिको
ü
߄
▁यादवले
suggestion
ி
सर्जिकल
▁पूर्वराष्ट्रपति
Є
昧
▁जमाउन
▁मान्ने
▁सार्वभौमिकता
▁इथियोपिया
▁भनिरहे
▁श्रेय
▁बित्छ
▁कट्टा
श
▁असन्तुलन
दुई
მ
▁शताब्दी
▁गरगहना
▁छाड
ayera
▁सक्छन्।
▁रबिन्द्र
▁गुपचुप
▁उहिले
▁bhaye
▁एलपी
ַ
▁लिम्बु
▁जुँगा
⟲
▁क्यानाडा
▁ज्यादा
%E0%A5%A6+%E
부
▁पुष्ट
▁भनिन्,
▁म्याग्दी
ȁ
5%8D%E0%A4%AF%E
प्रशोधित
▁पारदर्शिता
▁गाउ
दुर्गाप्रसाद
▁परियोजना
धि
▁अनुच्छेद
酒
▁वासिङटन
▁सामञ्जस्य
ܞ
▁पुस्ता
sharma
▁पाच
▁धर्मावलम्वी
▁संस्था,
सहर
▁लिइरहेका
▁तोड्न
▁पर्नु
दलहरुबीच
ℷ
颗
▁थारु
▁लामाले
▁राजोपाध्याय
擴
▁ha
▁२००७
्जि
▁सफाई
▁गाउँदै
▁लाग्नुपर्छ
▁आत्मसन्तुष्टि
▁भकुण्डे
▁उतार–चढाव
▁हुंदा
▁निशस्त्रीकरण
▁जोगबनी
▁रेखा
5%81+%E0%A4%
▁राखिन्
नियमविपरीत
▁बोक्सी
▁असन्तुष्ट
▁साँझसम्म
▁लालीगुराँस
▁बन्दसत्र
ता,
▁कार्गो
▁सेती
परिचित
▁संस्थालाई
बिघ्न
▁जिते
▁बटुवा
{
▁मानिँदैन
▁साँगाचोकगढी
ݯ
▁महँगी
एपी
वर्गीय
▁दिएर
मुकायम
▁बार
▁ईमेल
夠
▁असहज
/2019/02/739
▁कसरी
+%21
▁क्षेत्रका
▁सानै
ध्या
移
▁आत्म
▁संस्कृतिको
▁रामेछाप
ʊ
▁वैधानिक
▁प्रतिज्ञा
▁बामदेव
▁बढ्दै
Sat
र्पा
▁लुइस
▁सोचेको
▁प्रसन्न
5%80+%E0%A4%
▁मंच
ङ्ग
▁कामै
▁इभान
फरक
▁आयात
news/society
킹
5%81%E0%A4%B8
निशा
चेतनशील
▁चुरोट
▁माथिका
▁नागरिकता
▁जौ
▁पार्न
▁(क)
ли
▁१
▁मन्त्रालय,
▁आत्मघाती
▁वृष
▁(सीआईबी)
▁मोहित
channel
pur
▁खिलराज
▁बागमती
4%AD%E0%A4%8F%E
▁बिक्रि
हवान
▁माघ
▁किलोमिटर
291
oint
32/feed
संञ्चालन
▁नागरिकहरु
┍
▁मेडिकल
ज
▁तन्दुरुस्त
▁केलाए
▁बलात्कृत
सुङ
▁बृद्धि
დ
▁सक्दैन।
nish
▁अनुभब
▁परीक्षण
▁मङ्गलवार
▁कनिष्ठ
ਈ
▁फ
ports
सम्वन्धी
▁विमान
·
说
▁हाँगा
▁गोही
▁मुद्धा
▁उनको
▁हेर्छ
▁ब
▁मिहेनत
4%BF%E0%A4%A6
▁आलु
▁परिक्षण
▁सीधा
पीएल)
▁तु
थ्
दर्श
chhan
खडानन्द
勲
▁उत्कृष्ठ
▁व्यायाम
▁क्विन्टल
▁आठौं
▁विष्ट,
/2018/03/66
ब्ला
▁हामीलाई
▁विना
▁बार्षिक
▁थुन
秩
̑
▁आश
2018/12/728
▁पाउडर
▁न्यायपालिका
nstall
/2018
▁वाइवा
▁थि
उच्चस्तरीय
▁शृंखला
▁रिहाइ
▁सकुन्
ठा
▁हातमा
▁भावना
적
▁खोर
壊
▁सुटआउट
『
स्वरूप
खुलेर
屋
मात्र
▁एन्ड्र
▁हिस्सा
▁वर्णन
▁स्विजरल्यान्ड
对
œ
▁गोष्ठी
/dc
▁पार्क
▁फूलपाती
▁तालिबान
▁राखिएका
葡
杂
▁गाडिए
१९९१
ेका
▁अक्षता
遖
▁सिगात्से
▁सीमा
▁मन्दिर
기
▁हाम्रै
▁सम्पर्क
1</
▁अनि
▁दस
ट्वान्टी
▁<s
↓
0%A4%AD%E0%A4%AF
▁इमानदार
▁लाज
▁राई
▁सिनेट
▁शै
▁प्राबिधिक
▁चन्द्रागिरी
▁प्राइम
ⲓ
▁बन्दै
갥
साटो
╘
劇
▁'राष्ट्र
▁एन्टि
Ǥ
▁शिक्षकहरु
⊗
न्ना
▁हिउँ
胸
com
▁प्लेकार्ड
▁निर्भरता
लोकेन्द्रबहादुर
貨
▁निशान
▁घरहरू
래
▁Do
烈
▁किनभने
衆
｀
यल
▁नुहाउन
羊
माध्यामिक
▁खा
▁योगमाया
विरुद्घ
அ
▁(नेकपा)
डब्ल्यू
崎
▁बज्न
▁काठमाडौंका
▁देशभक्ति
बलजफ्ती
स्वप्न
▁शैया
▁धेरैजसो
▁अहिलेका
상
▁सदस्यको
ङ
▁वैज्ञानिक
▁गरीब
▁भक्कान
ǭ
学
झिसमिसे
▁नवमी
料
系
份
▁शम्भु
▁गिरफ्तार
▁पूर्व
祝
▁शोभा
▁डाइरेक्टर
तालिमप्राप्त
▁घरघर
▁आँफै
▁पार्टीमा
ोली
मारा
▁लेभल
구
▁एसपी
मला
जा
छौं,'
▁स्किम
▁नपाउ
▁मुलुकहरु
箋
խ
▁हेर्दाहेर्दै
सिना
▁गीतमा
90
▁प्रति
िदिएको
ाओस्
▁दीर्घकाल
0%A5%8D%E0%A4%87
収
🎥
▁प्रलोभन
▁राजदूत
▁नबढे
ዛ
▁कनेक्ट
▁प्राविधिक
▁आँबुखैरेनी
11/
▁नवीन
▁वसन्त
६५
往
पुर,
▁घु
▁गयो
नथे
अनुुसार
▁शान्ता
एमआई
▁अाज
ानुसार
%E0%A4%AF%E0%A
▁तीर्थस्थल
▁टेलिभिजन
१९९४
▁बम
%E0%A5%AA
ȷ
▁Nepal
▁पारि
▁कमाए
▁सिंजा
स्पोट
ुहुँदो
bad
▁त्यसले
्लान्
▁of
महानगरीय
¢
साय
ő
引
▁ओड
ڽ
▁बै
▁पौष
स्पद
181
▁खासै
ങ
▁चमेलिया
 ?
Maoist
告
▁दाग
▁'दुई
▁अयोग्य
▁विभाग,
▁प्रायः
▁सिन्ड्रोम
▁स्टोरेज
पति
颈
ভ
ጛ
अकल्पनीय
▁तपाईंको
▁पाइएला
िङ
让
▁डीएसपी
4%95%E0%A4%AE
▁बस्नु
4%BE%E0%A4%AF
▁रुपान्तरण
▁तत्पर
आठवटा
▁नआएको
ङ्ख
▁निकै
ाएकी
̓
ɰ
▁संस्थागत
漢
▁श्रीमती
▁मुम्बई
जबसम्म
▁भेटाए
▁समयसम्म
▁नेटवर्थ
▁कुटनीति
▁रजिस्ट्रेसन
प्रुफ
▁भरी
ǩ
▁दिदीबहिनी
▁छाड्न
▁एम्बेसडर
नारायण
▁मनो
▁अंकित
▁संभावना
▁बलिङ
रोध
कुनै
▁पु-याउन
▁वेद
▁सम्बत
दिवस
सेक्सुअल
주
्टे
ഫ
攝
ؿ
कोट,
स्तरीय
▁शब्दमा
▁बल्झ
▁मुछ
燚
▁ग्राम
ߞ
▁हाँसे
▁खपत
▁साहित्यमा
▁सपथ
ش
为
▁जहिले
▁धुने
进
इ
▁स्थानबाट
▁बिष्णु
▁स्टेडियम
र्भ
२०३६
▁वार्षिक
र्च
▁नौबिसे
संग
박
▁ह्वीलचेयर
1531
्ल
▁गुरुङ
▁जानेछ
▁निरंकुश
▁बाँडे
堵
▁थप्न
߈
▁धन
ीय
▁सार्ने
较
▁खाडल
▁जि
▁गति
▁नगरकोटी
शाली
n
▁केभी
▁सङ्
▁ऋतिक
ݍ
▁छोडेको
▁सोभियत
▁जनसम्पर्क
檭
▁मन्त्रिपरिषद
will
फ्ल
▁मोडेल
▁wo
▁दशैं
▁'रा
sion
▁Republic
धन
焼
▁तलाउ
µ
😋
▁कालो
▁थोत्र
뵢
▁दर्शाए
▁Le
▁प्रस्तावना
▁रोकथाम
▁12:53:
▁आप्रवासी
우
▁भोगचलन
दाता
▁महासागर
▁चा
Ӂ
▁मोल्न
ൻ
ावट
⋆
▁ये
▁परिप्रेक्ष
4%AE%E0%A5%8B
▁तीमध्ये
订
▁अभिनय
▁बैकुण्ठ
補
人
र्ति
कालागि
▁पारिएको
▁पान
pisode
ڡ
स्फूर्त
太
જ
▁उदेक
赛
税
▁जंगलमा
▁Rom
▁दर्ता
▼
ever
विस्तृत
▁स्टक
▁झुल्क
turn
圆
▁मसान्त
▁प्रतिबन्धित
▁&#124;
৭
▁सहज
involved
▁नेवार
▁मातृभूमि
▁मुख्य
इट
▁छँदै
▁बनाउनुपर्ने
▁ग्याजेट
▁रैछ
▁आम
▁आशिष
▁पलेँटी
羁
▁पग्ल
ꭹ
been
उपाध्यक्ष
̠
왔
आरटी
▁म्याराडोना
▁कुन
▁स्वर्णिम
▁माओ
रजिष्ट्रेशन
5%8B%E0%A
▁रानीपोखरी
▁स्व.
▁काटिएको
सानोतिनो
शिल
▁स्वयम्भू
▁रामबाबु
▁दिनेछ
▁कसैको
शरीर
▁सरोज
डब्लू
▁डिल
▁इन्जिन
▁सट
▁मस्यौदामा
▁इन्स्ट
▁तास
▁भेटिने
▁सिने
▁देखे
▁उठे
+%E0%A4%85
▁दीपकराज
किस्ताबन्दीमा
रास
▁मकाउ
ٴ
ate
▁जनवादी
▁गाईबस्तु
▁sa
▁बाँचे
नान
वारपार
escription>
▁परिधि
0%A4%AC%E0%A4%A2
#comment-667
▁फछ्र्योट
▁भरपर्द
६८
कालमा
/2016/05/42
्कै
▁रोक्न
▁जानुपर्ने
▁गरी
▁पशुपालन
▁मध्यरात
▁कान्ति
▁विदेशिने
▁घट्टेकुलो
▁२,
▁क्षेत्रको
▁मुख्यमन्त्री
/पहिलोपोस्ट
▁सार्क
窟
▁समकक्षी
▁आत्मीयता
▁रघुगंगा
受
83
▁पारी
▁संरक्षणमा

發
찬
▁भगवान
▁प्रस
▁जस्तापाता
▁लक्षित
१६
德
▁युनाईटेड
towards
▁क्षेत्रलाई
现
▁औद्योगिक
चटपटे
रोड
▁पिच
ेक्स
▁समेट्न
▁आजै
–३
▁स्काउट
▁प्रोत्साहित
▁रोमाञ्चक
▁!
गिरि
▁निर्माण
▁ब्यापार
▁मिठो
ढिक्का
97/feed
▁स्पर्श
▁साझेदारी
▁बसाल्न
191
▁भरमा
101
विघ्न
줏
ԡ
▁इन्द्रबहादुर
▁पाइए
ｼ
फाई
▁त्यस
迭
ीना
@gmail.com
▁बुझिसके
∙
▁मोवाईल
पर्छन्।
▁Republ
▁भाग्न
▁real
▁प्रतिविम्ब
▁उपनिर्वाचन
▁चाहि
▁साम्राज्ञी
ak
▁वार्ता
死
▁किनेको
▁वि
उ
ाही
▁रिचार्ड
tag
▁जेनेर
▁असुल्न
▁कटिबद्ध
В
号
继
骷
革
▁सिरिज
▁pro
ວ
ुसुक्क
▁तिमी
▁जलबिद्युत
享
▁'एक
भूकम्पपछिको
+sabai+
▁सरस्वती
▁Uni
▁'ए'
▁क्लव
न्ति
▁बिग्रने
҈
▁खान्छ
▁स्न्या
▁मेलिना
▁मुस्किल
देला
ल्लु
按
▁कम्युटर
▁कन्सर्ट
ҽ
▁रोड
▁समाबेश
聊
▁दमौली
Ŏ
ᤱ
▁14:14:
▁रोकिएको
▁उदारवादी
मापदण्डविपरीत
▁सीप
▁(रासस)
सुदूरपश्चिमाञ्चल
▁सुनसरी
रहन्थे
悉
▁लिला
▁इमिरेट्स
गैर
״
5%8D%E0%A4%B8
＆
ڒ
▁गरिसके
▁सम्वन्धित
▁more
▁निम्न
ount
ﯗ
▁पञ्चासे
▁प्रभावशाली
‐
▁सूचीकृत
▁कमीकमजोरी
综
▁धरावासी
▁गर्नुपर्ने
▁मध्याह्न
▁पिल्लर
▁नजित
▁अवधि
▁जीडीपी
Ҍ
<br
▁मार्दै
▁सोनी
Ց
▁संक्रमण
▁दिएँ
adan
▁पिताजी
乐
▁अपरिचित
▁थालिन्
▁38
ャ
列
▁साबुन
扶
腳
堀
्थर
▁नलाग्न
ोङ
वृद्धि
罰
车
a+
▁प्रेमी
B8%E0%A4%AE%E0%A
՞
33.html">
निवर्तमान
हरुलाई
▁स्वयं
फो
भूषण
▁मदर
▁साइकल
ữ
▁प्रकार
्लिन
▁सेना
८८
ेज
हाल्छन्
题
बे
▁जलविद्युत्
▁जुनसुकै
दैनिक
▁एसियन
▁मुकारुङ
.com
15
▁फाइदा
▁सायद
▁भ्रुण
▁मान्नुपर्ने
▁पुर्व
▁2015
Δ
▁निवारण
▁क्लोज
▁काल्पनिक
▁केन्द्राध्यक्ष
#comment-827
▁हाफ
▁भरिया
▁गीतकार
▁मे
▁लिङदेन
▁व्यक्तिगत
लाइन
▁घमण्ड
▁नछोड्न
▁निस्किँद
ꅵ
▁उद्देश्यले
▁राम्रै
陘
▁बसाइँसराइ
▁किपर
आयुर्वेदिक
ᤅ
▁कमाएको
अभियानअन्तर्गत
▁पावर
▁लोकसेवा
▁राखि
▁कंसाकार
▁संसद
ar
▁५८
▁सिनियर
沃
d
▁थैली
▁इन्सुरेन्स
▁जाँदैछ
โ
▁बुझेको
▁योगी
▁देखासिकी
▁सौभाग्य
▁सूक्ष्म
▁पंक्ति
▁गाउँ
▁जर्मेन
܇
▁चिठ्ठा
▁पासवर्ड
▁संस्कृत
▁किसानहरू
पञ्चमी
तेह
िब
▁आन्द्रा
▁प्रविधिमन्त्री
▁पत्नि
耐
हाम्रो
▁भण्डारीले
▁किरण
▁कृषिमा
▁hola
们
▁तुलाचन
▁गिरिजा
▁हुनसक्ने
▁विद्यार्थी
▁पर्यटन
सामाजिक–आर्थिक
▁अभियन्ता
▁कुनाकाप्चा
▁पशुपन्छी
▁न्यूरो
▁संसारभरि
०७३/०७४
▁जति
▁बाचा
ߠ
▁थुप्रिए
▁पार्टीका
ⶬ
▁दिदि
ुरे
΍
乗
▁काठमाडाँै
ި
bir
▁९६
▁मान्दै
▁रजिष्ट्रेसन
▁दुगड
ूँ
▁1
▁not
▁ठेला
▁बाधा
प्रविधियुक्त
ớ
2017/09/
▁गरेबापत
▁नकारात्मक
▁हुर्काए
▁ब्युँझ
▁बर्स
देशभरी
ښ
िटी
▁भन्नुहुन्छ
▁सांसद्
油
ɟ
▁संरक्षक
▁धनु
▁फस्न
गुरु
▁बोल्नु
ǹ
🏿
▁नलागे
ୋ
दुईपाङ्ग्रे
▁रोगहरु
▁प्रस्तुति
▁job
▁अटेर
▁ज्ञानेन्द्र
▁न्युयोर्क
▁कार्बोहाइड्रेट
▁थाइल्यान्ड
ო
र्गिक
she
गिरी
▁दु:ख
ग्
▁खोज्दै
लिजमा
▁बाख्रा
(सार्क)
▁कार्यालय
▁हल्का

▁बोट
रेर
▁फणीन्द्र
▁प्रहार
▁ब्रुनाई
̰
▁संचार
▁अढाइ
▁पोखिन्
▁पन्च
▁बनेर
▁तारागाउँ
拉
▁यती
独
▁प्रशंसक
%2C+%E0%A4%
▁रिसर्च
ձ
▁तापक्रम
अन्तर्गतको
▁वेबसाईट
▁भीर
चंखेली
˥
▁प्रवासी
तारा
환
प्रदर्शन
▁संविधान
▁23
वत्
パ
▁मिडफिल्ड
船
माथिको
हिल्यै
▁सज
▁सहकार्य
ٚ
अधिकारसम्बन्धी
्यो।
▁एक्सटेन्सन

▁परा
▁ट्विटर
▁धकेल
▁कि.मि.
飣
gi
बल्ल
▁कार्यक्रमहरू
壁
भएछ।
/2017/07/61
弃
अग्रस्थान
់
5%87+%E0%A
止
%E0%A4%A1+%E0%A
▁संर्घष
two
▁व्यव
▁चिच्या
संहिता
▁संरचनामा
▁जेसीबी
द्रायणी
▁देशमा
▁चल्थ्यो
5%8D%E0%A4%A7
खिम
▁मधेश
बुद्ध
China
▁महŒव
▁मकालु
मुल्य
感

▁जन
▁सुम्पे
छलफल
▁सुक्ष्म
किनकी
▁राजपत्र
▁तहको
▁पूजाअर्चना
▁रेटिङ
败
▁च्यासल
▁महाप्रबन्धक
▁एकजना
सांगठनिक
▁सोच्दै
खराव
▁खोज्यो
▁बेइजिङ
▁वर्षात्
징
▁उद्योगी
▁हुनुपर्छ।
कर्म
ँद
एफसी
▁नगरपालिकाको
▁बिस्
▁नचाह
▁हाराहारी
%E0%A5%81+%E0%A
译
▁बैं
▁चढ्ने
冠
绿
तर्फका
▁ताजा
▁हामीकहाँ
98
▁पचास
▁ऋणपत्र
Ì
׃
▁सल्ला
🆚
▁पूर्वअध्यक्ष
于
▁खस्द
▁निम्त्याउन
Թ
▁नसकिने
▁तुल्याउँद
ाउ"दै
▁सकेन।
▁सुु
नगरपालिका–३
▁प्रवीण
▁थापाथली
▁अव
⓵
दलीय
▁व्यथा
van
▁संकट
▁गुल्म
चिह्न
呆
'हामीले
▁जोहो
声
▁उत्रिएका
▁जोड्दै
▁रोम
सर्ग
榮
बध
पर्‍यो
▁जेभी
हदै
4%9F%E0%A4%BE
नवनियुक्त
膺
▁अपर
गार्ड
योग
follow
▁दिल्लीमा
तिहार
䣰
अर्कातिर
▁नयाँ
परिभाषित
3</g
▁स्तन
▁छापाखाना
加
Ո
off
एनसी
बिस
▁बालबालिकालाई
.वि.
▁कद
उपर
ۓ
2018/05/681
琉
स्टा
link
रायो
▁सलाह
▁रहमान
م
▁निर्माणका
/2017/04/57
▁तिब्बती
▁भएकाे
ц
ाली
▁पक
▁उनीहरूका
त्व
▁बुढाथोकी
सीमावर्ती
5%8B%E0%A4%87
2018/02/662
ރ
+the+
▁गोरा
▁स्वास्थ्यमा
हस्तक्षेपकारी
▁जनार्दन
4%B8+%E0%A4%
넥
ग़
4%B9%E0%A4%BF
▁पुँजीवादी
刮
▁लिनुपर्छ
▁येशू
▁प्यारापिट
▁class="f
चौरमा
▁भने–'
▁बिरामीहरू
変
脸
एम्बुस
▁शुरु
.सं.
▁कार्तिक
▁माडी
差
constitution
則
▁बीमा
▁सुस्ता
▁गलेश्वर
▁बचत
演
▁कुरामा
फल
चाल
▁बुढेसकाल
▁युग
㤱
▁कमलादी
ातदिन
म्यानचेष्टर
▁'हाम्रो
endra
ᤷ
▁भगवान्
▁प्रज्वल
▁कुम्ल
ヤ
0%A5%AB%E0%A5%A6
▁स्याहार
▁नह
▁पाइदैन
▁चोरी
▁नराख
नितान्त
▁सर्जन
▁मुर्
serv
▁भव्यता
რ
▁शिवालय
▁अधिकारीले
▁मनाइए
5%8D+%E0%A5%A4
▁समीर
▁मेलामा
फोर

▁दृष्टि
वाशिंगटन
▁च्याम्पियन
▁अल्ट्रा
▁व्यावसायी
▁सामसङ
साता
▁नातिनातिना
Ѡ
▁मनोरन्जन
▁गतिविधिमा
▁सिंहले
google.com
86.html">
▁कुशल
▁ल्याटिन
▁विश्वव्यापी
▁सूचीकरण
समितिमार्फत
ジ
्याङ
football/19
諷
▁गिटी
▁जान्थे
▁तुलनामा
्याएको
्टि
▁ja
▁छौँ
बस्तु
佀
▁तागत
▁सातवट
मुग्लिन
್
▁क्लिन्टन

▁सर्लाही
०७१/०७२
ʬ
क्कल
ऍ
्टन
▁चेन्नई
▁गणना
current
̪
▁हुने
▁न्या
ति
▁चाहेनन्
훑
▁टाउको
language
͡
▁अपवाद
▁शनिबार
純
▁लेखपढ
စ
탂
▁कुटुम्ब
盏
络
▁पिस
▁८२
रोन
थकित
आएका
▁बस्यो
▁शायद
0#comment-
हेल
▁१९९८
त्था
▁जिताउन
▁निकासा
▁आफैँ
▁कुबेत
▁त्रयोदशी
▁इजिप्ट
夫
▁आर्सनल
基
▁।"
ाऊ
▁खाँडाचक्र
▁विजयादशमी
▁अर्घ
–२०७५
text
भीमदत्तनगरपालिका
▁भर्जिनिया
箬
94/feed
▁उकालो
▁गर्जेज
मि
यदाक
眾
गुलाबी
▁विस्फोट
▁नलेख
श्रोत
जिक
इबोला
▁बनायो
;
▁संगीतकार
▁झलक
▁घनश्याम
▁दुवैतर्फ
▁निर्मम
वामपन्थी
懲
▁चिनिन
_
pub
2019/06/03/15595
郑
▁आदर
▁मासु
Ζ
牧

▁सजाय
▁जनाउनुभयो
瘠
!!!
▁क्रिस्टिन
▁टिप्स
▁कलाकारहरू
टेर
▁टहरो
用

ൊ
▁गिद्ध
▁खायो
▁हिन्दी
▁हराउद
▁स्टेफन
म्प
▁नियन्त्रित
ೊ
▁समुद्र
▁सघ
ͽ
▁पाखा
▁स्टल
ेश्वर
साङ
लाइट
▁मनी
▁भइदिए
▁डेनिस
▁पाठक
▁अन्नपात
▁धन्यवाद
▁झा
▁मत
▁चित्रकला
嘴
▁शास्त्र
▁बन्ध्याकरण
▁सफा
ांक
ायक
▁खेलमा
▁उपरिक्षक
ੂ
ӝ
▁निकाल
▁अपराधिक
▁कार्यान्वयनमा
興
▁मागे
▁वस्तुहरू
▁फाइनलमा
▁डेभिड
▁कार्यसम्पादन
▁ओझा
努
वर्ग
▁कटाउन
▁सुरुवात
▁बस्नुभए
▁क्व
庄
▁भित्र्याए
藵
▁खाद्य
▁हन्ट
पत्त
ҩ
▁होइन।
▁परम्परा
ुपूर्व
▁महाशिवरात्री
다
態
▁सिंह
▁टोलीमा
▁पाइन्
▁शुभचिन्तक
appear
̏
घोष
▁छ',
▁माछा
▁सन्देश
▁समाजसेवा
▁पुरुषतर्फ
▁काठमाडाै
▁उपयोग
▁रहन
0%A4%B0%E0%A5%8B
ố
▁कञ्चनपुरमा
%E0%A4%BE+%E
▁विषादी
▁गोपी
ko+
करिव
▁सुखद
▁सेकुवा
방
▁घेरिए
▁'द
▁समर्थ
▁गोकर्ण
स्वा
4%BE%E0%A4%A0
▁पर्ख
स्तान
▁विधिवत
▁टुङ्ग्याउन
▁हाइड्रोमेकानिकल
▁तपाई
􀂥
셔
▁भारदार
ݨ
▁मानसपटल
▁वातावरणमन्त्री
▁मिथिला
गङ्गा
▁भएका
▁अम्बा
֎
पुटी
▁डेबिट
я
कित्ता
▁राख्यो
बू
मिनिस्टर
पढ्नुस्
▁षडयन्त्र
▁हुदा
▁लगानीकर्ता
♠
▁Da
▁धरौटी
▁निस्क
▁मिलियन
▁शाखाका
▁रुपयाँ
ҋ
रिन
क्रममा
▁हकदार
▁गुन्द्रुक
▁नकआउट
▁गर्नेछु
▁विदेशमन्त्री
▁Kha
▁खालि
姐
%E0%A4%A8
▁हुनुहुन्छ।
缘
96/feed
▁शर
ệ
+of+
▁नल
मस्तिष्क
tic
▁मिड
सिधै
▁गुट
प्पा
▁भेटिए
सोनाक्षी
▁देख्छन्
▁खस्न
ҕ
青
tom
Ҥ
求
纸
펥
▁अत्यन्त
브
▁रेमिट
थ्यो
थेरापी
▁घलेगाउँ
Ϭ
▁गिरोह
▁नच
▁अधिकारीका
व्यवस्था
▁हेर्छन्
▁त्रुटी
▁चन्द्र
डोल
｜
▁सम्मानित
▁'नेपाल
▁नमुना
किलो
▁छात्रवृत्ति
▁Ba
▁चलाउ
4%BF%E0%A4%B6
▁कामहरु
▁मर्चवार
▁तराई
冷
▁कम्प
▁आयोजित
▁सिंचाई
▁बुन्ने
0%A4%A4%E0%A5%81
▁गरेर
∞
▁C
ट
▁गराइ
च्या
ाया
▁शुल्क
淀
▁लेखापरीक्षक
▁परिश्रम
छु
҄
▁याम
妄
▁गराइयो
丁
▁खुलाउने
刊
▁सुवास
此
▁८,
▁कबुल
▁किम्वदन्ती

install
▁गुमाएका
▁थियौ
म्म
then
नेल
▁डन्डी
짗
▁कार्यकर्ता
हुन्छ
▁जलविद्युत
ौरा
▁तारिख
▁ग्ल्यामर
राप्रपा
ाउँछ
ट्टफुट्ट
򶑃
्यो,
▁विश्वमा
䁛
▁(एस
७१
▁किन्दा
▁मार्गचित्र
बित्दा
▁कवि
▁तीनजना
ुली
4%9C%E0%A5%8D
݋
ﶂ
ਨ
เ
▁छोडे
▁डी
▁लोड
क्रान्ति
▁बर्थ
欧
▁रुपैयाँसम्म
ើ
▁महोत्सव
▁हराभरा
弱
▁डाक्टर
्रु
▁दुईवटा
▁हेर्दै
▁उद्य
item
्दछ
#comment-824
▁लगाउन
▁रिलायन्स
▁गिरिजाप्रसाद
▁हामी
िया
▁कार्यान्वयन
̇
関
▁७२
▁कायापलट
㖒
त्यो
▁तोड्ने
▁संयोजकत्वमा
▁प्रविधी
▁'मिस
▁कुक
振
▁समाज
ӫ
डेन्ट
竞
践
▁सुझबुझ
▁करिब
रुपमै
▁बत
ला
ɞ
पुस्तक
गमन
▁पढाउने
▁७
▁हेमराज
▁बातावरण
वर्ती
+din
▁सौ
▁३.
▁फर्कंद
्याउँदा
सम्ममा
0%A4%B2%E0%A5%87
▁कन्ट
▁पुर्‍याएका
द
▁बायाँ
सिद्ध
▁बिष्फोट
▁भोगिरहेका
हरु
+
▁भाग
ाइ
▁सुरेन्द्र
भइसकेपछि
▁डेमो
2018/12/729
▁ल्याइने
ͬ
kai
दृश्य
बेदन
å
सक
ǋ
▁९३
▁बिताउँद
▁प्रकट
4%AE%E0%A5%88
▁छौं,
▁रामहरि
▁उहाले
रोह
▁घिउ
釚
▁खस
▁प्रेमिका
्बा
▁जीपीए
模
टान
▁चुनिएका
मुनि
▁खोले
भएन,'
湾
▁गुना
▁६४
▁कृषकहरू
ハ
▁डिसेम्वर
܏
▁शहीद
▁कुरुवा
▁चिनारी
雄
䖥
▁लागिरहेका
▁खुसी
▁सेता
अभियोगमा
▁उत्कृष्ट
▁अक्षय
低
巡
एकदमै
▁जहदा
मय
▁11:2
१९
fe
選
릎
▁स्वागत
證
▁शत्रु
▁विवेक
▁धैर्यता
▁महिला,
came
▁अधिकारवादी
comment-id="80
▁08:1
▁जनालाई
▁सुगौली
▁विधानसभा
넉
인
▁ब्रेन
बहुक्षेत्रीय
010
▁वर्षभित्र
-up
▁पुरा
𽲿
<![CDATA[<p>
from
ौला
साँच्ची
▁उज्यालो
5%87%E0%A4%B0+%E
▁संश्लेषण
▁वेला
▁'पहिले
▁खानेपानी
▁त्योभन्दा
怪
▁नक्साल
▁राम्री
▁ट्याक्सी
􀈣
▁पप्पु
▁औजार
न्ह
जनता
▁लुइटेल
▁अधीन
hirish
▁बैजनाथ
▁बोसो
▁मजदुरी
▁अहिंसा
▁चमत्कार
only
▁अन्तरविरोध
माथि
站
▁पाकिस्तान
▁कर्माचार्य
▁निर्वाचित
機
▁हराउने
बो
▁अवधारण
▁कञ्चनपुर
▁छानो
,
को
▁घनिष्ठ
ۑ
त्रुटिपूर्ण
▁रहनुपर्ने
▁नाचगान
▁अन्धकार
ि्र
▁पार्वती
▁खेल्दै
गयो।
▁कनेक्सन
28/
必
▁जै
▁ढुङ्गेल
रहेकी
स्तरको
उल
नाटक
पर्दथ्यो
國
得
▁आचार्य,
टिए
ᡬ
▁क्रम
▁वृद्ध
▁खुराक
et
ƻ
▁गर्छौं
ߑ
٥
▁कर्मचारी,
ः३०
▁बाढी
▁बनाउँदै
▁डोजर
▁गर्यो।
표

▁नामावली
▁दिनु
▁लगाइ
▁ट्र्याक
▁स्टर्लिङ
ﳃ
ȯ
ས
▁गर्नुहुने
⧟
किशोर
▁गोलाप्रथा
ഉ
▁उब्ज
▁सर्वसाधरण
प्रकाश
▁पुलामी
었
▁राष्ट्रघाती
▁चलिरह
ブ
चाहीँ
間
▁उनीहरुको
喍
▁जिदान
▁गोप्य
30
तोड
▁नातेदार
%E0%A5%8D+%E0%A
▁जाँदै
▁हार्डवेयर
▁छिटोछरितो
▁बबई
bar
▁आलेख
▁महत्व
▁बर्ड
▁फर्काइए
莉
▁नभएको
▁८९
▁योगेन्द्र
प्रतियोगिता
0%A4%AF%E0%A5%80
▁सबैभन्दा
棉
▁थवाङ
▁बैंकका
▁जुद्ध
▁तोकिएका
▁झै
२०२४
▁सनसनी
♢
Ȧ
▁बिल्डिङ
▁त्यत्तिकै
्चा
र्जित
▁५०
▁ह्या
मगर
▁श्रीराम
▁मिठाइ
▁माङसेबुङ
▁समर
पम्फा
न्यायपूर्ण
ε
ानी
ʦ
▁पुज
4%BE%E0%A4%B8
policy
䙑
▁गहिर
5%81%E0%A4%96
樟
֨
脱
वाली

ய
▁सदरमुकाम
񰎄
stak
▁राजिनामा
▁चिन्तक
ঁ
आसपासका
▁'विकास
ैधानिक
26/feed
▁स्पा
▁लिमिटेड
֪
ӵ
▁मात्रै
▁पाउनेछन्।
▁दोहोर्‍याउन
▁सुल्झ
िकृत
▁फुटवल
कन्भिन्स
▁नहुने
复
뺧
▁'रे
▁नझ
टे«
▁चलाउन
▁(राखेप)
▁८७
曲
ߣ
😇
▁प्रतिबिम्ब
.gov.np
拥
▁सर्वोत्तम
▁सेभिया
▁महापरिनिर्वाण
▁भाइरल
▁लिएको
डाडा
▁भोलिपल्ट
नौ
▁वो
▁पश्चिममा
ओ
्ते
遊
പ
▁सुशासन
▁लमजुङ
X
ाई
सानैदेखि
ll
▁जेम्स
Q
▁महत्त्वाकांक्षा
ѥ
仏
समयमा
▁पीपीएल
▁तपाईँ
86/feed
भेर
▁टुंगो
'आयोग
▁नाम
हेतु
ڮ
▁च्यालेन्ज
▁तारजाली
▁पठाउनुपर्ने
उप
▁ल्याइदिए
▁सुरुमा
▁प्यालेस
▁कोलेस्ट्रोल
▁कोष
▁डम्बर
▁सुबिधा
▁थालिएको
▁पत्रिका
▁दोहोरिए
▁सानेपा
मिक
▁अध
苗
▁दुष्
2017/04/
▁फर्काउन
४०
▁निष्ठा
ले
सातादेखि
᮱
▁बोर्डिङ
संयमित
횶
▁गेम्स
ik
▁अनुमतिपत्र
▁सुपरीवेक्षण
▁गर्नुको
凡
▁टार्गेट
▁व्यानर
▁पत्रकारिता
बिहानदेखि
देशीय
64
line
▁पशुपति
▁बैतडी
▁जोडिन्छ
सम्मेलन
▁पल्टाए
▁जनाउन
隊
✏
▁विद्यालयले
▁एभरटन
▁St
राइजिङ
▁व्यबस्था
에
ѭ
ϩ
▁लगाइने
नाले
Ƒ
▁इक्विपमेन्ट
Ɓ
▁हुन्छ।'
▁देखायो

4%81%E0%A4%97
🎙
▁सुरू
▁बिच्छेद
▁गायत्री
▁२९
▁२०५८
चेर
▁बाटोघाटो
▁जेसीज
▁बज
任
0%A4%AA%E0%A4%BE
▁आलोचक
▁डेभलपमेन्ट
▁"यो
5%87%E0%A4%96
yo
pradesh-2/201
۞
㠷
▁मध्यभाग
4%BE%E0%A4%87
छोटी
▁थाल्न
Ç
▁&#8216;
▁वाङ्मय
▁गैरआवासीय
▁आउनुभएको
Download
향
隆
▁टोटेनहम
▁संग
▁अघिल्तिर
▁गगन
▁तिमीलाई
egional
▁बाली
▁उम्मेद्वारी
村
▁कार्यकर्ताको
रोमियो
▁उपस्थित
▁कार्पेट
▁विगतमा
कान्त
▁होइनन्
▁आमनागरिक
▁पायौं
▁तुल्याए
▁राज्यका
镀
▁मिडफिल्डर
▁ओलीले
ल्ली
▁भंग
▁रेडपाण्डा
ाना
▁अस्थिरता
▁डिस्पोज
▁गरिदिन्छ
🇧
ٱ
▁उनले
%E0%A4%9C%E0%A
▁खस्क
▁ho
▁भ्यूटावर
▁धावा
▁अत्तो
National
▁आजाद
football/46
संरचना
䗚
ेस
ȴ
領
▁राजनितिक
▁भीमफेदी
▁पारिश्रमिक
▁भएन।
771
स्कुले
सीसीडी
▁रङ
`
泰
᝚
▁डा
▁जैसवाल
▁अडिसन
▁बिज्ञापन
▁भन्नुहुन्छ,
जेन
ट्रेजरी
राख्नुभएको
▁जन्म
▁ओगट्ने
economy
▁भन्नेबारे
pradesh
▁औधोगिक
▁थपिने
▁सेल्टर
767
▁लोकल
चुअल
ॊ
▁गजुरेल
▁भदौ
▁अलमल
figure
▁कार्यालयहरु
▁सुपरमार्केट
▁गरे,
४.८
वार्ड
▁२०६७
▁कमिला
▁दैनिकमा
▁क्लिंकर
▁खैरहनी
▁अन्त्यमा
िको
▁अडान
elt
！
▁तरंग
❹
पर्यटक
δ
嗤
तारो
大
▁नपाई
्याइएको
परिषद
▁कमिटी
▁भूउपग्रह
▁प्रवर्तक
46
▁शोषण
▁सङ्क्रमण
दु:ख
洛
娜
▁मनपर्छ
ྟ
庫
सिप
▁परिसर
缥
▁प्रशारण
▁डब
आत्म
극
निष्ट
逼
Ƞ
粧
з
प्रतिनिधिसभातर्फ
▁रुचाउ
%E0%A4%AB%E0%A
단
̩
......
बेंसी
▁पुर्याए
▁औँला
▁आर्शिवाद
글
▁गिफ्ट
▁गुमाएको
句
देब
▁'स्व
▁परिवारका
▁छौं।
▁विद्यालयका
यम
▁सबैको
ﾟ
걸
▁किमी
0%A4%A6%E0%A4%9B
▁४९
妆
▁सच्चा
▁बताए ।
▁बाँदर
겨
▁आइतवार
帝
Ϫ
िन्थ्यो
▁'पैसा
161
😁
▁एलजी
▁लगायो
▁सुशिल
ǃ
७०
👻
यसबीचमा
ђ
भु
ה
▁विशेष

̳
▁लाइट
▁विष्णु
▁जनाए
्याई
릭
营
▁यसतर्फ
▁पृ.
राखेपछि
▁जवाहर
▁दम
▁बित्यो
▁जुटाउने
除
❶
▁राख्छ
▁'यो
▁गण्डकी
▁after
ܲ
▁मतपरिणाम
कुण्ड
ग्ने
▁भण्डारण
▁ऊर्जा
▁पुर्या
▁बन्ला
垻
ार्इ
▁निर्णय
.
ुक्क
▁इन्सपेक्टर
▁स्वस्थ्य
printedition/
ߋ
▁मेसिन
凄
客
▁अभियुक्त
▁घाईते
▁नपुगे
egistration
🌴
务
▁हुम्ला
▁निदान
▁होस्टेल
▁खुम्च
▁स्कर्ट
▁भ्रस्टाचार
▁खेप्नुपरे
ेस्
㰶
▁परिन्
▁इब्राहिमोभिच
ाऊँ
娘
▁'ब्रेक
▁उत्पादनको
0%A4%AF%E0%A4%95
▁एजेण्ट
▁आलिया
▁जीवनस्तर
▁१०८
▁नुहाउने
▁सेवामा
यदी
▁भरिएको
▁भयौं
▁फाटे
वाञ्छित
▁एसी
▁विद्यावारिधी
▁निर्वाच
▁पालुङटार
▁गोर्खाल्याण्ड
▁जिबन
▁धुर
▁सौराहा
▁रक्षाबन्धन
ង
롰
्रि
०४६
د
▁पुनर्वास
क्क
▁नकरात्मक
घरबाहिर
▁(यु
▁हाटबजार
▁नरोकिन
斗
▁ब्राजिल
ڕ
ִ
स्थापन
▁एजुकेसन
बालेर
ȣ
▁अकाल
away
▁हुइँक
Ǉ
▁बुटिक
▁बताउन
यसरि
▁जमल
▁बढाएको
खुट्टे
4%BE%E0%A4%82
▁जनमोर्चा
▁एडभान्स
▁टेण्डर
पित
▁नसकिए
▁प्रहरीमा
▁देशैभर
2018/04/17/15239
152
वारि
▁सिध्याउन
▁सात
▁21
▁सिद्धबाबा
पटक
ਰ
制
▁गोपाल
▁लिन्छ
憑
▁टाँस
ɇ
▁गरायो
▁सीध
▁इनार
▁हिम
疑
▁विद्यार्थीले
थिर
头
贯
ỹ
▁एकतिहाइ
▁जापान
▁विकास
▁नाउँ
▁ओपनर
▁सरुभक्त
盐
▁रोकिए
ग्लो
▁सम्झिन
▁संवत
सीमाभित्र
▁कपि
▁जी
तेर
ओएस
ޙ
▁बु
஗
▁भलिवल
▁निधि
▁टुंग्याउन
%E0%A4%AA%E0%A
▁रोक्दै
艗
▁Off
▁लुम्विनी
ߧ
शेष
▁कपाल
समस्याग्रस्त
▁'जो
▁prote
掌
0%A4%B0%E0%A4%BE
▁पाइला
▁पत्नी
▁हिसाब
ǯ
▁बदलियो
सदस्य
सिस्ट
▁महाअभियोग
▁भग
▁बलबहादुर
▁घेरे
▁आन्दोलनमा
偏
▁कफि
͖
▁हविगत
▁सक्दिनँ
▁सिक्न
▁रुघाखोकी
▁मदिरा
▁बनाईए
▁सहायता
न्च
܁
▁बिक्री–वितरण
4%BF%E0%A4%AA
thi
▁मैनबत्त
☆
▁and
眠
▁सुधार
▁पुग्ने
▁मान्छ
▁भिडीयो
ल्ड
अपराध
माझ
歴
पंक्ति
राय
4%AE%E0%A5%87
▁बारा
▁(इ
▁दशमी
4%A1%E0%A4%95
▁घुमाए
Τ
͵
▁एफ.एम
रेखा
ភ
ѕ
▁नट
虽
प्स
विपरित
खेती
आइसियु
योजनाअन्तर्गत
▁दायाँ
া
▁मुनि
∕
विमुख
▁उत्सुकता
सिया
▁यश
ʈ
▁भनिन्छ,
▁2019
आ
ﲥ
यन्त्र
▁छोड
सामुदायीक
▁टक
ਭ
ड्ने
萝
▁ट्रान्सप्लान्ट
▁भाडादर
५९
▁पक्षहरू
ल्याएपछि
▁लस
सार्वजनिक
े 
▁प्रदेशमा
सम्पत्ति
न
▁पैरवी
वाट
▁अभियानका
▁संयोजन
ag
盒
▁सुनिरहे
▁भूमि
▁उदाहरणीय
▁पर्फेक्ट
▁02:0
▁युवती
▁विपरित
▁पूर्णबहादुर
▁एक–दुई
▁अर्चना
▁छौँ।
ुत्पादक
▁बुलबुल
兰
▁बैँक
▁प्रफुल्ल
कलंकी–नागढुंगा
迅
▁बह
▁सीमाक्षेत्र
▁पेट
൓
▁आख्यान
▁उद्यमशीलता
स्क्र
‪
▁कप्तान
▁दुलाल
격
▁निर्यात
दूत
2018/08/696
▁तौलिहवा
▁हुँदैन
▁बेन्जाम
▁झड्का
▁डल्फिन
#comment-70
नेस
▁अतिशयोक्ति
▁छोइ
(नेस)
स्थान
▁महानवमी
▁जान
▁matra
▁तिर्खा
▁म्यानेज
▁सन्जाल
▁प्रोस्टेट
▁नरहरि
歬
▁टाढा
▁मुख्यसचिव
遇
▁धान
▁लाग
&nbsp;
▁"नेपाल
▁शेष
लिइरहेको
▁इन्स्टाग्राम
▁भनाइ
▁भगाए
了
▁गार्मेन्ट
्छन्।
र्म
▁पूर्वपश्चिम
CD
▁फोकस
▁स्वा
▁व्यवस्थापिका
▁अन्योलमा
ể
▁'त्यति
願
▁कम्पनीहरु
▁बाँसबारी
private
▁चार–पाँच
▁वर्षीया
कम्तीमा
▁छोए
▁रानीमहल
रू
▁परिपत्र
▁खुल्ने
▁गर्थे
줍
ुन
▁नम्रता
▁आशावादी
▁पछाडी
व्यंग्यात्मक
▁छोरीहरू
dai
ご
▁फ्यान
ր
▁छ)
▁स्मार्टफोन
▁जनह
छाप
訪
▁तुलना
०७५-७६
▁कामदारको
दिनभित्रै
▁मेसु
▁गृहसचिव
▁आईतबार
▁बिबरण
इन्जिनियर
ँदैन
▁डिप्लोमा
परिस्कृत
ߊ
ʾ
▁कार्यालय,
▁ड्रिम
▁गर्नुपरेको
▁सेवा
▁एपीएफ
लौरो
▁सक्कली
दी
▁ब्यूरो
Ԁ
समातेर
▁स्क्रीन
▁चैनपुर
एसिया
΢
▁आपत्ति
पूर्णरूपमा
️
▁हजुरआमा
▁href="
▁परिपाटी
▁पक्षमा
▁शेक्सपियर
डिसन
܋
ﾀ
▁die
▁शक
▁अमेरिकाका
▁बन्दीपुर
▁घरपरिवार
▁पथ्र्यो
▁अक्षयकोष
▁यूनियन
▁हो।
4%A1%E0%A4%BE
▁भन्नु
▁अग्र
形
नोज
紹
彼
जाइ
▁पतन
▁अल्पसङ्ख्यक
粒
螺
ڈ
▁भोग्दै
▁मंगलवार
▁रिचर्ड
▁शताव्दी
ोत्सव
्यू
▁छ।'
१–०
चिन्त
२०७२/७३
हरू,
▁कुपोष
आई
驶
86
▁बन्यो।
▁फेर्न
▁अभिरुचि
ंै
चुक
▁La
▁आइन्सटाइन
▁कौ
▁खोलानाला
...
सिर्जित
Samacha
▁स्वस्तिमा
裤
▁बसिरहेका
유
响
▁भोगेका
▁'पानी
―
▁बरु
▁छटपटी
▁डराए
▁ra
▁चिफ
▁एमबाप्पे
▁गुफा
▁इन्दु
▁डो
responsible
▁डर्टमण्ड
▁कार्यदल
▁गर्नुभयो।
२०७२
▁'ब्ल्याक
ok
▁गोत्र
▁आजसम्म
▁डकुमेन्ट्री
▁पुनरावृत्ति
▁मन्सुर
▁भैरहवा
ԃ
cide
▁लगाएको
▁भिडन्त
▁भारतमा
▁किसानले
▁पुरातात्विक
▁थिएन,
▁दिवंगत
▁गोष्ठि
강
▁निर्मूल
׶
ुःख
टिकाराम
尭
▁गन्तव्यमा
▁हुनैपर्छ
▁त्यसमध्ये
▁करणी
खोज्नुपर्ने
▁वर्तमान
▁बैंकक
ͩ
▁खन्याए
हन्छ
अशुभ
▁हजारौँ
would
▁होला?
▁भलाकुसारी
䈻
章
▁मारिएका
▁कौशल
←
▁मान
▁पु¥याउ
▁लाभांश
2019/03/750
▁अन्य
▁छैनौँ
ซ
▁बान्ता
▁शाक्य
▁पेय
▁नजिकिए
▁नक्कल
▁बन्दुक
▁थकान
▁धनधान्य
▁दूरी
▁जुग
១
–प
व्यावसायिक
पुर्ण
课
▁ग्रहण
▁भावी
their
▁प्रो
▁अदालत
▁६३
▁ब्रिगेड
▁ढोका
▁करेन्ट
▁16:3
ेन्स
▁पार्टपुर्जा
Ѕ
▁नियात्रा
援
▁छोरो
▁नपाएका
▁जोडिएका
▁नगर्नुस्
ल्ने
▁दिक्तेल
스
▁दृष्य
▁मयुर
▁अज्ञानता
▁सिक्का
単
5%8D%E0%A4%B5
फाँट
͐
▁प्रतिकार
कार्यान्वयन
▁टा
सुग्घर
▁नाघ्
ed,
▁रिफर
▁सुचि
վ
▁उपचारमा
▁हव
ha
सातवटा
▁सजिए
▁छापिएको
<
哈
क्ष्य
势
ाङ्क
▁नब्बे
ς
▁केवल
▁मुगु
ằ
▁जड
वातावरणीय
▁संबिधान
▁खकुरेल
摊
▁सिसा
▁छैनौं
艤
Mon
▁ओर्ल
▁छैन
▁मित्रहरु
पछी
5%80%E0%A
▁(एन्फा)
▁दोब्बर
ল
▁समथर
页
▁४.
▁नकाट
▁क्लिक
देश
▁खडक
गम्भीर
0%A4%AA%E0%A5%82
▁परिवर्तनको
▁पोष्ट
▁रोकिन
racquet/
सामाजीक
▁अहेब
▁पोलिक्लिनिक
ê
ꑿ
जतिसुकै
▁साँवा
▁एकता
ބ
帮
▁धूलो
▁विकल्प
벃
▁विद्यालयहरु
▁धितोपत्र
▁माथि
4%AA%E0%A4%BE
▁तानातान
์
뀐
▁प्राथमिकता
▁इनिसियटिभ
熱
▁फुर्सद
▁चुह
▁आइएनजिओ
जीवन
▁देब्रे
▁योजनाकार
▁प्रतीत
पुगिने
▁gh
▁आफ्ना
▁राजपुत
▁'क्याप्टेन'
दियो
还
▁भण्डारीलाई
माथी
सुधारिएको
▁'त्यस
▁इमोजी
रास्ट्रिय
न्टरनेश्नल
ả
अन्तर्रा्ष्ट्रिय
适
⛭
概
यस्तो
▁Co
%0D%0A%0D%0A
▁सालदेखि
▁छुवाछूत
▁अवयव
▁६२
ट्ठा
स्पर्शी
▁त्रुटि
र्जन
哲
पुर्‍याएर
▁सहअस्तित्व
▁उचाल
▁सघाउँछ
▁चाल्ने
फोहरमैला
▁तुल्सीपुर
▁मधेशवादी
▁ईन्जिनियर
comment-id="78
त्यस्तै
5%8D%E0%A4%9A
ѓ
។
▁संवेदनशिल
▁पार्
▁दृष्टिविहीन
▁साथीहरुले
्छन्
ṵ
▁शरद
▁किन्ने
▁आत्मा
▁चलाए
▁भ्यालेन्टाइन
▁मसाल
▁इमान्दार
▁पर्यटन,
▁बताइन्
▁जनसङ्ख्या
०५
▁मुटुरोग
▁अमेरीका
▁टाटा
▁प्रमिला
नपुग
▁एलोपेथिक
▁नारायणगोपाल
Ｗ
सुख
▁रिजर्भ
Com
▁खातिर
𔻹
छेउ
समूह
बाजा
अपेक्षाकृत
▁छैन।
川
▁पुग्थे
▁ध्वजा
ށ
▁आईओएम
▁सभासद्
▁लिइने
▁जनाउने
▁आयुष्मान
6.html">
बेठीक
▁स्पोर्टिङ
जाहेर
ΰ
लथालिङ्ग
ⲁ
▁उल्लंघन
ौं,'
▁होस्
च्छ
▁बढी
हामी
▁त्यसतर्फ
▁इनिङ्स
▁रसुवा
ेष्ट
we
▁प्रसंसा
'सुरुमा
ม
पोत
▁मान्न
▁तस्करी
न्जी
▁पे
खुशी
▁नगरपालीका
▁महाधिबेशन
construction
▁एग्रिकल्चर
▁वाटर
▁सावधान
▁गिर
▁दुर्गन्ध
4%A4%E0%A5%8D%E
शान्त
▁न्यूयोर्क
Ά
पदमबहादुर
▁त्रिशूली
▁'छा
▁२५
鵍
▁बेग्ला
79
▁किलोग्राम
ीकरण
▁खु
%E0%A4%B8+%E0%A
ुस्याहा
like
नन्द
▁आकांक्षा
▁बिर्सेर
०६४
̚
▁(२)
🇭
자

्ठ
▁ठान्दछ
▁रक्तअल्पता
सिँह
▁वडाका
▁झुल
▁ब्रिज
▁स्लो
ुभएका
▁अस्तित्व
▁रेस्टुराँ
▁भएपछि
▁ऐतिहासिक
▁सन्यास
▁विद्वान
▁क्यानेडियन
▁'राज
हित
▁रोकाया
預
▁न्यायिक
%E0%A4%95+%E0%A
▁आश्चर्य
▁बेहाल
09
▁बचाऊ
▁कम्प्यूटर
당
▁ओर्लिए
▁त्यहीं
▁उपस्थिती
▁भूमिसुधार
ाइरहने
ڶ
ഡ
置
▁घुम्ने
▁समृद्धि
▁थकाली
▁मुठ्ठी
▁अनुदार
▁म्याग्नेसियम
▁आफंै
football/39
▁शृंगार
▁नतिजा
▁गर्नेछ।
▁वाइफाइ
▁दोर्दी
▁'ब
 ।'
ार्हस्थ्य
▁टाँग
▁४००
4%A6%E0%A4%BE
▁व्यबसाय
▁बचाउँछ
▁मौरीपालन
click
⇄
▁ग¥यौ
勒
▁प्रभाब
▁धौलागिरि
▁स्काई
▁शर्माले
▁छनौट
▁जगदम्बा
▁मार्च
▁पैदलयात्री
▁पहलकदमी
ʱ
▁बाजुरा
▁डर
चाँडो
१९८२
▁08:4
▁मिनि
▁महाराज
▁चाहान्छ
ច

▁नमोबुद्ध
抵
टार
Ѧ
▁सकेको
आफूसँग
▁मान्छे
▁गरिव
▁dekh
▁इन्टरटेनमेन्ट
ter
▁धर्ना
श्व
▁छक्कापञ्जा
ला,
ͱ
꯬
▁पर्दछ।
▁रुम
▁लगाउनु
▁जावलाखेल
▁रुढीवाद
ाउने
हात
details
尖
नगरपालिका–६
▁काटेर
4%89%E0%A4%9F
▁चौबीस
▁15
來
▁टड
4%8F%E0%A4%B0
ū
▁नसकेका
Ӊ
विदित
▁भनिन्छ।
डब्ल्यु
▁हजुरबुवा
सी
फाइ
nt
▁तृतीय
▁सम्म
▁करार
٣
भिन
▁अञ्जन
▁आँसु
取
far
प्राकृतिक
▁आयोजन
मत
▁ट्याक्स
漸
▁४१
Ɂ
▁आरोपमा
▁'उपभोक्ता
▁भारतीय
▁सुरक्षित
▁नोबेल
Ϛ
▁प्रसंशा
ेसो
ज्यु
w
複
▁दलका
▁जुनियर
८४
arch
सुन्दर
▁र
▁गर्‍यो
आजकाल
▁प्राचिन
ारवहन
▁मिलेर
출
▁खम्बा
ब्याक
▁पवित्र
कट्टेल
車
लगायत
▁विन
4%9D+%E0%A4%
▁शौच
▁हर्
त–जावत
▁२००२
▁सक्दैन
जननिर्वाचित
▁there
▁हड्ताल
▁मिलाउन
टी
▁कम्पनीको
▁वियोग
▁खुट्टामा
ʩ
看
सेना
▁Ar
विश्वेश्वरप्रसाद
▁चामल
▁अमानवीय
▁फुङलिङ
▁सक्छ,
▁साधक
▁चल्न
萨
▁हिमपहिरो
▁फौजदारी
Thai
▁उपहास
आईसीआईजे
Ѓ
▁काठमाडौँमा
4%9A%E0%A5%8D
भिस
▁ठान
▁भग्नावशेष
▁रहे
▁असन्तुष्टि
▁ठोक्किँ
▁सम्बाहाम्फे
士
梤
▁भुजेल
▁आउँछन्
▁कुर्सी
▁धर्मशास्त्र
भाउ
▁sarkar
▁पाण्डे,
ഷ
ΐ
博
▁सुवर्ण
▁ठाने
▁पुर्‍याउनु
▁ट्राइ
ߐ
▁चाहाना
गु
▁P
▁चाहिएको
▁चौलागाई
वाह
▁कन्सेप्ट
啪
납
▁अधिकारीहरु
▁नजिक
पार्टीगत
沦
▁थुनिए
▁भविष्यमा
▁सुमित
4%BE%E0%A4%B9
वी
▁पेट्रोलपम्प
▁महासन्धि
▁बस्छु
▁सन
▁समाजवाद
▁आनन्द
सम्झौता
▁सचिन
▁पूर्वानुमान
▁पुगेको
%E0%A4%B2+%E0%A
स्ता
सङ्गत
▁शाह
दायक
▁सहानुभूति
सन्देह
/१०
▁आइपुग्दा
२५
–७
▁'लि
▁साइनो
ά
よ
▁पैठारी
0%A4%96%E0%A5%88
면
幊
code
4%9C%E0%A
▁हानी
▁दाउपेच
ឈ
▁दोस
▁my
▁लेखक
पिँजडा
货
▁फोक्सो
頓
इस्लामिक
▁अतीत
4%97%E0%A4%A4
CH
प्रति
胜
ुल्लाह
▁रथयात्रा
混
▁तिनीहरु
ლ
▁एक्स्पर्ट
▁भन्छौं
‬
▁बेइज्जत
▁एब
रूपमा
ट्या
▁अधिवेसन
▁निरज
▁हकहित
▁वास्तविकता
▁शिर
▁ज्व
▁अकुपेन्सी
私
▁गुम्न
٘
▁आषाढ
յ
व्या
▁निर्
9C%E0%A4%A8%E0%A
▁ओसार
व्यापार
सेतो
ڠ
▁राजनिति
कृत
館
▁बन्छ
▁ट्वीट
ី
िसक्यो
🔥
▁नास्ता
▁हृदयाघात
월
▁दसैं
▁संघियता
੍
证
0%A4%86%E0%A4%AB
sign
▁समारोहमा
▁तपाइ
ް
▁हिंसात्मक
▁उनका
२३
▁राख्नुहोस्
▁०९:
▁थाल्ने
:४५
AE%E0%A4%BE%E0%A
▁लायक
▁मैत्री
भिल
▁किसिमका
▁चन्द्रमा
▁फण्ड
▁तस्बीर
▁तमसुक
▁नाघिसके
׮
▁सोधेँ
▁रहेछन्
▁कोरा
го
▁फेरि
▁Shrestha
▁थपिएको
▁कंक्रिट
der
▁इन्टरटेन्मेन्ट
蹭
▁पार्नु
▁us
▁देशको
▁खेल
▁टाउका
▁बैरागी
िनसक्नु
तेसै
右
ब्युट
Ǖ
▁ईमान्दार
▁ल्या
グ
鉄
दिल्ली
⋅
▁गर्भ
▁साग
▁युवाहरू
▁चक्र
▁ढाकिए
留
▁दिइएको
霊
aye
<![CDATA[A
▁कहानी
▁एकादशी
۩
毛
▁आपूर्ति
▁पर्दैन।
▁इसारा
微
▁अध्यापन
▁भित्ता
पट्यार
Ŗ
Տ
▁युट्युबमा
▁त्रिपाल
▁लडाईं
▁लागिरहेको
▁अपरेसन
▁सालिक
मेट
▁छिर्ने
率
सामरिक
▁बोकाए
䶾
▁सम्झिँद
顺
￥
यता
▁चाबहिल
▁सिमरा
▁क्रमश
▁गे
4%B6%E0%A4%BE
ल्याउँछन्
▁खन्न
▁कार्की,
▁जन्मिए
▁बाँड्ने
▁तानाशाह
▁तोकेको
▁मस्त
▁भाँडभैलो
知
環
鷣
▁लिनुपर्ने
ाईएको
▁दाङको
ე
Why
▁चाहन्थे
बन्दी
▁कठोर
▁कसले
Ś
▁नेयमार
▁आदी
▁सफारी
▁छायाङ्कन
ї
▁पखाल
०६६
▁लाखसम्म
▁समृद्
龙
߲
वाहियात
re
टीए
ވ
▁गर्
电
▁गर्भपतन
▁पाण्डव
ko
▁मैना
tes
▁रेलवे
▁सर्कुलर
▁रास्कोट
▁रामपुर
▁गरिरहन्छ
+nai+
▁बोल्ड
▁प्रशिक्षक
ुहुनेछ
സ
अमेरिका
▁विषाक्त
कलेज
▁जाती
▁एसोसिएट
▁चिसो
▁मत्स्येन्द्रनाथ
▁सचिब
߬
ुर्लुम्म
▁पहिरन
▁जकार्ता
▁२००३
▁एरिया
▁महर्जन,
▁हरियाली
▁छिमेकी
▁घाँसे
▁आधुनिक
託
▁पुनरावलोकन
सोध्दा
▁उत्र
ster
▁२५०
膨
ϫ
郁
▁फूटबल
▁खडग
मा
&rsquo;
▁नोमिनेसन
▁जुध
ka
％
▁सल्लाहकार
▁हौं
%E0%A5%A9
▁ल्याउँछ
્
▁नून
▁प्रमोसन
▁कलाकारहरु
▁बलत्कार
▁भ्याइ
छिपी
टिजर
▁जीवनशैली
湿
强
▁फेस
०६५
➧
▁बोल्नुभए
▁वचन
瓴
▁दुर्गम
मेल
स्थापनाकालदेखि
▁दुईतिहाइ
जम्म
▁भइसक
▁फेर
82/feed
▁पुग्नेछ
▁नेपाली
浙
▁आउँछ
▁समर्थकहरु
MENT
▁दाजु
▁लगिए
👤
▁महिला
▁एमाले
▁तनाब
▁सकि
ǜ
▁गोर्खाली
聘
新
ीतिक
▁ऋणी
▁अच्युत
沿
Ū
रोग
▁मगर,
▁मि
▁सेकेण्ड
▁प्रयास
▁संग्राहलय
▁लाग्यो।
▁जंगी
ɓ
▁आवतजावत
▁06:0
▁जनआस्था
▁उसले
▁ठप्प
苍
क्रेसी
▁रत्ननगर
▁महिनादेखि
ब्रो
▁बताएको
▁औंला
▁स्वीकार्य
घट्ट
many
ल्ह
̋
▁दाहिने
रहनुभएको
▁छिन्
श्लेष्मान्तक
हरुका
撕
≠
佛
甩
▁अनिल
▁होईन
▁नछो
▁सर्वश्रेष्ठ
从
▁हट्न
▁स्वीस
4%B2%E0%A5%8D%E
▁तार
▁संशोधन
▁भ्याक्सिन
跳
帐
▁रन
þ
▁मौरी
▁चल्छ
▁विमानस्थल
न्टे
▁माहिर
▁धान्ने
透
▁मकै
懸
▁उत्साही
ाइन्थ्यो
हट
till
▁ओडार
末
▁निर्धक्क
▁सेनानी
▁The
▁भब्य
▁14:58:
▁सम्बन्धी
दिनु
लम्बन
4%B2%E0%A5%8D
ب
展
थो
▁कांग्रेसले
酿
▁सडकखण्ड
▁अस्
旋
▁व्यापक
֯
▁बन्देज
te
▁चप
נ
ਫ
▁बिछ्याइ
र्द
▁छ,
急
जस
▁इकोनोमिक
▁नगरसभा
तराई
竟
▁कार्यलय
▁बिदाइ
ץ
▁दाता
▁जीबी
▁विमर्श
▁राजापुर
▁प्रभाव
玉
गाल
▁पिज्जा
▁please
„
▁ग्वाटेमाला
ҙ
▁रुचाउँछन्
ुपर्ला
盂
▁सन्तुष्ट
拶
▁टो
▁दवाव
▁गाउँले
ڳ
▁काँ
霸
▁नमान
social
▁'भ
▁झन्
▁(एजेन्सी)
▁सर्वोच्च
▁क्षमता
▁वर
▁मिडियाले
▁पारिसके

▁ग्यास्ट्रिक
८१
▁सँस्कृति
▁सर्भर
ˌ
▁हुण्डी
▁सुदिप
▁पर्व
▁समानुपातिक
뚢
5%87%E0%A4%95
▁गराई
▁'नेपाली
▁class="
▁उत्तेजना
▁कछुवा
ۙ
▁मेहनत
▁मिरा
मोर
▁झरे
ाउला
园
▁टिकाउन
नसकेको
5%81%E0%A4%9F
▁डक्टर
समानुपातिक
挩
汁
▁दूर
बाटै
▁संस्थाहरु
▁मित्रराष्ट्र
▁शिवम्
▁चाहिँदैन
ҡ
▁व्यवसायीको
▁होला,
▁पँुजी
▁बिर्सिए
मानेर
??
िय
िंग
▁सल्क
▁धुँवा
Ѩ
78/feed
▁रेल्वे
▁गार्ड
सु
संगत
▁खल्ती
्था
▁फुले
１
易
▁सिद्धि
▁अस्मिता
▁स्वच्छता
▁चेतन
▁भत्काउँद
▁पाखुरा
▁पेस्तोल
▁२०१०
▁त?
▁अनुपात
▁हुन्छिन्
▁फ्रेन्चाइज
football/36
繁
▁exp
%E0%A4%86%E0%A
▁गोविन्द
भिजन
चुङ
▁छैन्
▁नागरिकहरू
𘡎
▁द्वन्द
▁ब्यहोर
indow
▁ध्यानाकर्षण
▁हुँदैन,
▁जीवन
▁विदुर
Nepalese
▁गूगल
मौसम
생
सञ्चालन
▁तानिए
▁सिक्स
史
नेचुरल
िनामसिना
feed
कर्मी
▁नङ
免
▁तर,
▁मिस्त्री
▁माओवादीले
▁आबद्ध
▁गरिरहेको
?]]></d
▁अखिल
清
64/feed
쿼
▁रेकर्ड
򝠊
६)
▁रसाइली
▁All
▁स्वभाविक
हल्का
▁लिइएका
▁गौचर
गो
▁दाम
४१
बृत्त
▁इञ्जिनीयर
▁रामबहादुर
▁विज्ञप्ति
▁छाडेका
▁पाउँदैनन्
4%A4%E0%A4%BE%E
ेजाब
▁स्कूल
5%83%E0%A4%A4
▁भत्किए
▁दैवीप्रकोप
▁रोक
होल्ड
▁धार्मिकस्थल
▁कुम्मायक
煌
ра
▁आसाम
धिकृत
27212
ނ
▁बिजुली
▁परेका
▁स्टेट
▁जबरजस्त
▁स्रोत
न्टी
gen
▁जोगी
%E0%A4%A4+%E0%A
▁क्याल्सियम
勾
।
▁पीपीए
▁स्वीकारे
भएन ।
ԇ
▁दुखेसो
러
▁हेमन्त
▁'आइ
85.html">
▁प्रवद्र्धक
ट्रयाक
▁बिवाह
Ƈ
+gar
▁सवारीसाधन
▁कराते
▁लैजानुपर्छ
▁सेमिफाइनल
शेर
▁मुद्दामा
▁हेला
▁साधारणसभा
▁सुपारी
▁उनीहरुका
▁किर्तिमान
हेरेँ
छ,'
Ȳ
अनु
▁झन्डा
▁शु
वद
▁छुवाछुत
▁नामाकरण
ï
▁जहाँ
▁२०३५
0%A4%88+%E0%A4%
▁हुन्न
▁चिप्लिए
▁छिमेक
▁बिहीवार
िन्थे
क्लो
पाकिस्तान
4</g
र्षि
आन्तरिक
軌
बुबा
पत्य
%2F
▁युक्ति
婲
▁उत्थान
▁जबरा
▁चिढ
-१०
▁Di
▁विपक्षी
▁समेटिएका
jha
▁अपार्टमेन्ट
▁आउँछु

ۗ
▁शास्त्रीय
ڎ
र्मी
▁चिन
▁सिम
अपेक्षाअनुसार
▁लगाएत
▁हवाईजहाज
▁परी
🇩
▁संरक्षण
anskrit
्ययन
м
▁ठेगान
ះ
▁आत्मसमर्पण
忧
▁खुवाउँद
बलात्कारपछि
歇
▁उदाउँद
Ӑ
–२०
派
ँगो
(0
▁जितेको
▁च्यातिए
▁06
▁भोग्न
गोपाल
▁than
▁बदाम
▁प्रोटिन
▁भन्नुहुन्थ्यो
▁हुन्छन
▁निकेतन
▁उचित
▁बोधगया
ाइन्छ
▁मर्नु
▁बिते
बौद्ध
pradesh-5/201
权
क्षित
ंच
▁पेन्सन
▁मझौला
▁अपारदर्शिता
終
ە
▁कांग्रेसका
▁On
▁जबज
▁खाती
▁प्रगति
▁जान्न
बजेट
ස
▁एक्स्पो
▁छापे
ข
敲
▁बालुवाटारमा
ు
▁सिमसार
▁भएअनुसार
▁अस्तव्यस्त
नभ्याइ
影
▁प्रतिकेजी
▁मार्न
▁अभिकर्ता
गे
छोरा
▁तुह
▁मोटा
विरुद्व
▁आमनिर्वाचन
▁बिजनेस
इरहन
▁बिडम्बना
▁बिनोद
▁देश
87
▁यद्यपि
▁धार
▁रसिया
ம
संरक्षण
▁'अनि
▁देउडा
泵
▁पार्टीको
港
▁प्रज्ञा
▁फन्ड
压
̧
खा
▁ट्याक्टर
25
▁चाहँदैन
😦
सक्यौं
▁फ्याट
बकैया
吴
टीय
भैरहवा
▁गुह्येश्वरी
▁खोइ
▁समाजका
▁चट
▁हेल्मेट
▁काउण्टर
गठबन्धन
▁मानिसले
लगत्तै
▁ग्यालरी
<![CDATA[Raj
臓
▁फुटसल
▁झिकाउन
–१४
▁रह्यो
▁your
▁सकिनेछ।
▁बालश्रम
🏻
▁मेडल
0%A4%96%E0%A5%81
ठिक्क
▁तजबिज
▁चिनिए
▁आधारभूत
▁फर्निसिङ
▁10
स्थानीय
遂
पास
▁बढ्दो
इक
▁पुँजीपति
0%A4%AE%E0%A4%
▁हाजिरी
▁पत्र
▁प्राध्यापन
▁पोखरामा
崽
▁कम्प्याक्ट
िहाले
☔
▁देखिएका
really
▁–
▁आईपुग्
खरो
हिरासतमा
▁उभिए
藏
▁श्रद्धाञ्जली
🇮
▁नाग
견
▁प्रवास
▁प्लस
आपतकालीन
..
▁अभीष्ट
云
सुर
▁अलैँची
▁जनताका
▁पछ्याउने
▁चुपचाप
▁विधेयक
▁(सि
▁मानिन्थ्यो
on:
▁दक्षता
बिरुद्द
▁शैली
▁उद्द
ꋗ
▁राय
▁भेग
because
▁ब्याच
#comment-802
▁शिक्षाविद्
▁underst
型
▁घट
भाइ
▁उभिएका
▁आपूm
▁रोजिन
▁मूल्य–मान्यता
템
जीवि
▁दिपावली
▁किमि
ोरा
ڗ
強
▁एफएम
▁देखाए
豐
▁पाँचखाल
▁बैसाख
00
拱
螕
采
书
▁गौतमबुद्ध
䗬
▁बार्दली
्लुङ
गरि
敏
ोपेर
▁ककनी
अलि
▁लगाउ
▁लालमोहर
यथार्थपरक
�...
▁आइलाग्
स्तै
副
▁राखियो
▁झुण्ड
नेप्लिज
ƃ
ण्ड
▁रोप्न
▁सुप
+%E0%A5%A4+%E
▁त्रिपुरा
#comment-771
ো
鱠
▁स्वयंसेविका
गाँठ
हेटौंडा
▁१५,
elect
▁असन्तोष
▁कुण्ठ
दीक्षान्त
▁असमान
▁केसी
▁केशर
उत्तर
▁रकम
▁लाग्दैन
▁साक्षी
रेन्स
▁सन्दकपुर
731
4%9C%E0%A5%80
▁पदमुक्त
▁ठोरी
िन्छ
▁संविधानसभा
▁राष्ट्राध्यक्ष
लिस
▁सिमेन्ट
▁उद्घोष
▁झेलिरहे
▁गाउने
नभ्याई
î
▁सामना
▁अर्गनाइजेसन
त्य
▁अधोगति
0%A4%AA%E0%A4%A6
▁थिएनन्
21/
▁as
▁'आ
▁बाह्य
㻖
▁उपभोक्ता
▁माउण्टेन
मिर
្
▁अनु
▁सुख
ओराली
舗
▁काठमाडौ
ı
▁एआइजी
[२]
ৈ
▁वेशभूषा
▁पिरामिड
▁संगठनहरु
▁गाडी
▁यसपाली
▁गुणस्तर
टिस
नहस
▁एलेक्स
▁प्रस्तुत
▁दायरा
बिध
भूवन
▁जुनार
城
ؠ
▁टे«ड
▁लत्ताकपडा
▁गैरे
晙
4%AB%E0%A4%B2
कुचो
▁निहुँ
內
▁प
शाला
मुरी
▁सुनिश्चितता
फेदी
현
तिरबाट
▁फड्को
϶
▁बजेसम्म
िनी
▁प्रस्तावमा
▁अल
▁एट्लेटिको
ɯ
▁खुलामञ्च
岛
▁फर्किएका
72/feed
Ͱ
茨
▁जय
▁व्यापारी
▁भन्छिन्
garera
杨
▁11:4
10
▁लाइभ
ीत
▁यार्सा
▁भएन
hoto_feature/201
▁इनर्जी
▁दार्
▁गने
▁पीडितहरु
▁समिर
▁गीतसंगीत
▁लाग्दा
▁प्रगतिशील
4%82%E0%A4%B8
खे
▁बेकार
▁प्रेरित
▁त्रासदी
▁अतिरिक्त
▁जुरे
▁"अ
ۄ
4%95%E0%A4%BF
岳
%E0%A5%88+
दिएकी
▁संकाय
▁हतारो
▁रोमाञ्च
▁(अस
ɚ
▁प्याड
▁मिलेमतो
राजगद्दी

쑔
▁निरीह
⒖
/index.html">
▁दावा
▁तिल
प्रसिद्ध
▁कुराकानी
▁भेदभाव
चिकित्सकीय
▁सिक्दै
▁मांसपेशी
ۚ
▁अग्रिम
▁मेसिनरी
▁बी
ुपर्दा
सेन्सेटिभ
▁रौतामाई
▁समानान्तर
▁झूट
मागअनुसार
air
▁विजयपुर
pic.twitter.com/
▁तेज
▁भृकुटीमण्डप
▁पुग्नुपर्छ
ͤ
मी
जिम्मेवार
lag
[
▁सुनसान
▁स्वाभाविक
▁विलियम
阪
▁खास
▁काँचो
▁केन्द्रबाट
▁बटुल
▁ट्रायल
▁आईतवार
▁कङ्ग्रेस
▁सम्भाव्यता
▁निकाल्ने
पक्षबीच
▁डेढ
▁फरार
▁हुनपुगे
▁नरो
kuro
盧
▁हर्न
▁माइला
▁असल
გ
▁अविभावक
▁हेरौं
4%BF%E0%A4%B8
709
▁संकटकाल
थुम
ेरा
▁उनीहरूले
▁तप्का
▁आलोपालो
▁वृद्धिदर
亚
▁संस्कृतिविद्
▁पुग्दै
ग्री
▁छाडा
▁छलफल
▁प्रोसेस
news/education/
▁छाता
課
▁च्याम्पियनसिपमा
▁बत्ती
थे
डर
▁जन्मदिन
▁ठाडो
▁भेषभूषा
llo-sukrabar/201
奈
▁हाल्न
ीलाई
▁गर्नुपर्दा
救
▁शीर्षकमा
ȧ
▁रमिते
▁जनादेश
▁सेवा,
मागेर
韩
/2018/
्ब
▁महिनासम्म
▁थिईन्
+%E0%A4%9B+%E
▁खेपिरहे
ity
कार्बनडाइअक्साइड
道
👌
खड्गप्रसाद
▁सहि
▁शर्माको
晋
▁निर्वाचनमा
्नो
भ्याली
▁तत्कालीन
story
▁कालोपत्रे
▁सोध्न
बैठक
▁अर्थशास्त्र
कडभिट्टा
चिटिक्क
मंगलबारदेखि
आफूखुसी
▁पोर्तुगल
▁त्यसै
ai
▁मद्दत
▁हुदैन
▁कि,
▁सिप
▁मुरली
▁जित्दै
▁टोलि
▁दिनुभएको
▁मानसिक
मिल
मौद्रिक
存
݆
▁पुण्य
र्चा
ᷠ
सुदन
▁सकियो
फु
शोधनान्तर
⇐
%E0%A4%9A%E0%A
▁सक्नुहुन्छ
▁पुगिन्
भारत
हत
दिक्षा
▁पाइन्न
▁एसएसपी
▁कर्मचारीका
▁चाहन्छु।
▁सालसम्म
Օ
▁पोखरेलले
у
▁टिपे
▁अलिक
应
▁निर्णायक
बाँध
मिति
▁सह
▁04:2
महत्वकांक्षी
뷶
▁निकास
▁भन्दा
თ
५२
▁०.
▁विद्यालयहरू
▁डेंगु
删
#comment-831
▁भन
यी
▁कहिलेकाहीँ
▁न्यायधीश
▁खटाइए
▁प्रपञ्च
▁time
岐
▁४७
▁रण
र्जियो
ओपिडी
नुपर्छ
魔
▁मास
लिङ्ग
苏
▁सकिन्थ्यो
▁छेउछाउ
▁सघाउने
▁खन
#comment-823
▁विक्रम
गार्हस्थ
खेत
▁भीमदत्तनगर
ư
▁दम्भ
ა
将
▁कस्सिए
▁listen
紡
▁मान्छन्
▁बढाइनेछ
▁भागे
थोत्रा
▁सबैलाई
▁सरकारबाट
चार्य
▁बोल
गुण
▁पारखी
ब्यापी
ꑝ
ची
▁एन्टोन
▁०७:
▁राइ
▁राखिन्छ
▁एन्फा
▁पालामा
▁छाड्नु
▁सम
▁बिलियन
▁दोहोर्‍याइ
ค
%2C+%E0%A
▁श्रद्धा
लज्जास्पद
वृद्ध
≢
▁सुरक्षाको
च्यु
पिच्छे
Ӻ
̼
ߒ
▁खबर
▁क्षेत्रहरू
नी,
▁टिक्न
▁परिच्छेद
▁वर्षयता
▁जिम्बाबे
▁कुम
億
′
仙
३१
▁सञ्‍चालन
▁प्रसार
▁जुलिय
▁व्याजदर
सर्वपक्षीय
lot
▁पढे
▁उपल्लो
▁भेट्न
आफ्नो
▁गरिएका
嶗
सन्तान
▁क्रेडिट
▁इलेक्ट्रिक
241
▁राजु
튶
bo
क्षक
▁जरा
▁आँचल
अर्को
▁कल्याण
▁लिएका
▁कोरियोग्राफी
▁भारतबाट
यौट
和
떹
▁जरुरी
▁मस्क
विमर्श
σ
▁हैकम
▁२१,
鲁
▁पर्
䙥
▁बच्चालाई
पो
▁दक्षिणपूर्व
डिल्लीराम
▁पीडा
▁शिष्टाचार
▁लैजान्छ
नरेश
बहिनि
▁२०२२
साधारण
▁विजेता
▁आफु
▁ग-य
news/migration/
▁निर्दोष
▁पुष्पकमल
在
▁प्रधानमन्त्रीको
▁सेरोफेरो
▁सेल्स
ం
▁सामुद्र
▁बिगार्ने
First
ञ्जेल
▁छक्क
%E0%A4%B0%E0%A
4%B0%E0%A5%8D
/2018/10/71
अघोषित
▁एच
▁विपिन
जि
▁रियाल
▁गीतहरू
▁देउसीभैलो
▁एड्भान्स
ર
▁लण्डन
▁डिब्बा
社
▁विनिमय
▁सप्ताह
▁सम्पर्कविहीन
▁कुरिरहे
▁नोकिया
㛌
▁पुस्ताका
▁गोलकर्ता
▁लेखन
▁झैं
स्तरका
▁हुनुपर्नेछ
▁काटिए
▁भियतनाम
▁संसदीय
▁महत्त्वका
▁त्रिचन्द्र
▁बुढानिलकण्ठ
¡
र्ल
▁बाँच्ने
▁पूरा
▁सरिता
▁पञ्चेबाजा
▁भाइरस
ाैं
▁मदन
Ρ
▁अप
▁मुनाफा
ֵ
ther
▁प्लाष्टिक
डिग
पहिरो
▁मट्टीतेल
ाइरहेकी
汽
अव्यावहारिक
▁डिआईजी
▁गीत–संगीत
並
▁भुसाल
▁भरे
▁हिल्सा
▁गड्डाचौकी
▁टाइगर
▁खवास
स्थिति
▁मुस्
▁कार्यशाला
चारित्रिक
▁इम
३–०
▁लेखाइ
▁चापागाउँ
▁Thapa
▁क्यूएफएक्स
नास
पहिलेदेखि
ے
▁निरिक्षण
▁खबरदारी
▁'प्रचण्ड'
▁शाहीले
䯻
▁तथा
▁जोडे
▁अविरल
स्थ
था
▁सहयोगमा
▁गरिहे
...	
▁हल्लाए
▁वितृष्णा
▁पाल
赖
▁फिर्ता
pathakmanch/201
0%A4%B0%E0%A4%9A
%E0%A4%AD%E0%A
▁नरसंहार
राष्ट्र
▁प्रयत्न
बुझ
▁टेक
▁सलोन
▁संविधानले
▁मर्म
▁गुण
national/2018/
∀
▁सोध्छन्
पहाड
▁कक्षासम्म
▁अनलाईन
▁छविलाल
▁लैजाने
▁भिम
▁सिक्वेल
▁आले
>W
5.
भेल
▁कब
▁देवानी
▁युएन
▁उपत्यकामा
अमेरिकी
͉
黎
╪
▁खग
▁न्यु
खेरी
▁मनाउन
▁कानूनी
ल्ल
▁मरे
▁प्रबन्धक
▁भक्ति
'त्यतिबेला
▁दोलखा
▁हुनुपर्‍यो
सुट
▁बाहेक
▁मौज्दात
涵
▁जोगिन
▁संलग्न
▁प्रतिनिधित्व
क्
Ů
▁नेताले
愕
▁ट्रयाक
▁डुङ्गा
岩
रहेको
▁विपद्
▁सुनवल
▁आत्मविश्वास
伪
④
▁सकिन्छ
▁जेट
▁मदत
ˡ
▁बिर्सन
▁महिलामा
▁चिकित्साशास्त्र
▁पेटी
▁गल्फ
▁नाइन
▁प्रहरीलाई
▁गई
ي
ҥ
2019/05/769
▁संजय
▁08:3
मसिनो
▁उन्नाइस
▁आपतकाल
▁किरा
4%82%E0%A4%95
▁नाँच
▁परिवारको
▁थपे,
रहनुभएका
▁शीर
▁ठिमी
▁राजनिती
▁बिमल
▁भारतिय
▁टाउन
▁उत्पीडन
▁नदेखिने
गैरकानूनी
▁मान्यजन
▁बनाइदियो
▁राज्यको
▁भयौँ
्क
संँग
▁विरोधमा
pre
▁ठूला
▁सम्झौतामा
लेख
news
ुइ
▁गुज्रिरहे
/2016/04/41
कानुन
पा
ॄ
▁अस्पतालमा
▁रोयल
स्थायी
▁अन्सारी
चोकदेखि
뭅
▁डेस्क
▁free
▁सम्हाल
▁सलाद
飯
▁आधार
▁अनुभूत
▁अष्ट्रेलिया
溯
▁नछाडे
they
▁garnu
शिक्षा
Federal
Ѣ
▁खोल्ने
▁सिलवाल
0%A4%A8%E0%A5%88
g
▁पोल्ट्री
▁थातथलो
约
▁दशैँ
5.html">
▁लब
▁त्रास
विनायक
्‍
▁सौदाबाजी
▁सिन्धुली
gain
Ԫ
▁निमार्ण
勉
58/feed
▁गर्नका
▁आमा
▁नगरपालिकामा
▁सम्ब
ुस्
football/24
▁इन्फोटेक
्लाङ
बिर
▁रामकुमार
級
4%BF%E0%A4%AF
捧
िइसकेको
▁प्रध्यानाध्यापक
आँखीझ्याल
▁राष्ट्र
▁मिल्ने
▁स्वास्थ्यसेवा
▁स्लोभाकिया
▁सु
▁पुनः
繞
▁पुगें
▁हलो
सक्नुपर्ने
मह
ӄ
▁विद्यालयमा
▁विभागका
˳
हरूलाई
▁अज्ञात
▁डाँडाकाँडा
२६
＠
▁स्थापना
▁पुँजीगत
▁28
किला
▁राखिए
Sarkar
亲
▁सदुपयोग
宁
हुनुभन्दा
N
▁पुगिसके
मृत्यु
▁बराबर
▁आल
硅
ậ
लिएकी
▁प्रवेश
▁भारी
ँ,
围
▁नृत्य
▁राधेश्याम
溼
바
▁पूँजी
ोडक्स
▁अवधिमा
▁पढाई
▁वित
ʳ
▁दिशानिर्देश
谓
▁सिर्सिया
शनिबारदेखि
▁घरबारविहीन
भेट्दा
वस्था
▁अमलेखगञ्ज
रितेश
当
आरसी
🤪
쭜

▁बन्नुपर्ने
ाका
款
गठन
कि
▁वैभव
▁write
標
▁चुनाब
▁मुल्यांकन
▁हताहत
▁साँचो
▁पुष्पा
सम्बन्धित
钮
▁रोगव्याध
▁मुक्त
ग्र
短
ݹ
संवेग
चित्र
💌
्यु
▁रत्न
▁लगानी
▁निस्कँद
सिस
▁तामाङ्ग
क्षेत्रमा
▁नामांकन
▁धुलिखेल
▁क्याफे
▁गिरी
▁भेटघाट
▁मध्यवर्ती
▁खाद्यवस्तु
९७
▁'देश
▁धिरज
▁we
ǳ
▁ब्लड
▁अन्वेषण
▁ऐसेलुखर्क
▁उप–महानगरपालिका
बेस
▁मिनेटमा
頂
▁अन्धविश्वास
content:encoded>
▁कुँवर
➡
0%A5%AE+%E0%A4%
▁मितव्ययिता
ੁ
▁यथास्थिति
▁अनुत्तर
ौं
▁किल्ला
▁सामानहरु
▁कोठामा
गार्हो
▁अहिलेको
▁लुम्बिनी
▁साइन्स
▁सकेनन्
ोस्कोपी
▁छिराए
क्रान्तिकारी
ŏ
revolution
जलाशययुक्त
郎
९
▁ढल्क
▁फर्कन
▁हाल्ने
ोटे
▁परिचर्चा
▁नभन्नु
क्रसकन्ट्री
@
▁से
▁काठमाडौंको
Ι
롨
▁खोटाङ
▁घोर
▁भएको
▁जिल्लाबाट
▁१०२
▁दिने
▁बेलुन
▁यूवा
ڤ
यत्रो
▁आकर्षण
ّ
▁नबिर्स
점
▁संशाधन
उत्प्रेरित
▁खेलकुद)–
लिटिल
㽾
▁सर्किट
5%8B%E0%A5%A4
専
▁कहाली
▁सुर्ती
ent
07
हरूको
्याए
३८
▁प्रपोज
ܑ
▁तस्कर
4%BF%E0%A4%A4+%E
♫
▁राज्यमा
र्स
▁भनेर
लान्
▁अवस्थिति
लुङ
▁बाच्छ
˹
尊
ो,भा,भी,भू,ध,फा,
▁प्रतिष्ठानका
劝
ղ
पेट
▁हस्पिटल
▁शुक्लाफाँटा

प्रतिवेदनअनुसार
डिए
ड्
क्रिय
[१]
レ
bility
禁
▁सञ्चालित
▁लिस्ट
▁पन्जा
िदिन
戦
👁
चिकित्सा
्ला
he
図
▁अनुपम
▁साइपाल
▁अगरबत्त
ियम
गर्नाले
碎
▁गरिदिए
▁पोर्चुगल
兵
▁वेब
▁अनुहारमा
▁मध्यस्थकर्ता
‚
▁न्यौपाने
尔
▁नरे
▁सबैतिर
/e
हिँ
▁६५
sa
▁चलाइरहे
ंदै
▁अध्यागमन
▁असली
नजोत
」
義
▁प्रतिवद्ध
▁उकुसमुकुस
सामान्य
ఓ
🏡
，
▁नं.
▁अधिवेशन
▁बिधि
▁मुत्यु
िन्छ,
バ
▁एमालेले
क्कै
लाग्दा
▁देखेँ
▁निकुञ्ज
▁आराम
मोन
टारी
▁श्रुति
痶
विशेषतः
˸
▁पेभिलि
▁कर्कट
▁भान्जा
▁निरुपण
ק
台
कम्तिमा
▁विश्वका
▁निजीक्षेत्र
▁वर्षका
▁कालु
न्यायाधिवक्ता
▁फाल्ने
▁लाटोकोसेरो
रहन्छन्
▁२०५४
खोलामा
हो
▁भूभाग
▁वास्तुकला
抑
▁५.
व्यापी
문
▁परमादेश
▁rel="
्सा
冤
▁जुट
▁gu
走
port
▁संयम
ूट
१/२
▁पौड
▁निरौला
▁ढ
▁नेताको
▁जिल्लावासी
परेन।
▁सुधीर
▁रासस
닩
클
▁यदु
▁लाजिम्पाट
▁जम्काभेट
▁एजेन्डा

▁स्कट
▁नतिर्ने
▁उमा
+K
pradesh-5
▁झु
桨
▁१९
▁बिहे
▁अशान्ति
▁काशी
▁ठुट
६६
विस्वास
▁सहपाठी
कर्णाली
қ
▁क्रिकेटमा
巻
▁नबनाउने
महिलामाथि
▁भुषाल
बीचमै
▁अटाए
ज़
Լ
▁महिनाभित्र
▁म्युजियम
▁टिपर

▁किन
띵
बिहीन
▁टन
share-text="
۠
कतारी
▁ओम
सीप
▁घटस्थापना
आधुनिक
▁चढाउने
4%B9%E0%A5%81
मूर्ति
▁मनसुन
ら
▁पोलिटेक्निक
धिकार
h
▁जिन्सी
4%AE%E0%A5%8D%E
▁ज्वेलर्स
▁खेर
%0D%0A
▁पाएपछि
▁चटारो
▁विरोधाभाष
粋
▁आयो,
▁केन
▁लज्ज
▁विकाश
▁ताकि
▁गरिनु
ݜ
▁जनविश्वास
िदा
ढ़
▁अंगुर
▁जोन
%E0%A4%B5%E0%A
▁युआन
▁मौसमी
▁नेभ
द्वन्द्व
▁विकासका
लाएर
▁देखिँदैन।
त्र
Ȏ
३.८
ѣ
ाचार्य
▁इस्
▁कोटा
▁राजीनामा
▁पहरा
▁लोडसेडिङ
▁हुन्छ ।
પ
ピ
्युट
▁अवस्थामा
4%9B+%E0%A5%A4
▁मेरो
▁जोखिममा
▁सेमिनार
▁गुठी
▁बताइए
то
ẻ
▁फोरम
▁जनप्रतिनिधी
▁ई-
ែ
▁कान्छी
▁अर्कै
▁सदन
▁सोसिडाड
۷
▁थर्क
नोस
हेर
ザ
▁बताए।
▁गुप्तचर
▁छवि
▁भनिएका
तीन–चार
▁मेवा
▁विकिपीडिया
▁धरहरा
चैन
सातै
ानुकूल
▁साथै
▁खेलिरहेका
▁मनाइरहे
फर्म
芽
▁टिकट
続
जातीय
▁निर्भर
▁फ्री
▁कन्सल्ट
▁स्थलमा
▁सिराहा
▁१४०
▁(२०६
्रेस्तेदार
▁सिमित
▁तमिलनाडु
ĥ
चियापत्ती
▁प्रधानमन्त्रीले
र्ज
▁वाल
ब्र
▁ब्याट्सम्यान
▁आत्महत्या
▁इमरान
▁लथालि
લ
湖
▁अनुभव
ɥ
▁पूर्वतयारी
पहिचान
▁लभ
▁आधुनिकता
▁आंशिक
&amp;
▁चिच्याए
▁भेटिएको
्यौं
ꦖ
剰
▁बताइरहे
利
▁खेल्छन्
▁बहाव
4%A8+%E0%A
▁जोखिम
▁दुःख
̬
斎
▁साँच्चै
च्चा
▁जित
दण्ड
▁चाहन्छन्
😈
12
ȃ
▁८.
▁लामा
▁भुवन
ﴼ
▁जेनेरेटर

ाउँ
▁दोस्रो
▁भरिए
修
▁बझाङ
犁
▁साम्राज्य
▁बन्दैन
ҳ
टुक्रा
▁अस्थायी
▁मात्रामा
▁is
▁कुरुप
▁काउन्सिल
▁साम्राज्यवाद
▁सक्छन्
▁गर्यौं
纤
▁विषालु
▁बगान
▁कहिले
▁यूएई
▁दोहन
▁बुझ्छन्
▁आँट
ठीकै
▁साउथह्याम्पटन
प्रमुख
萄
▁कीर्तिमान
ݼ
房
बाचन
▁बेनी
ẩ
▁दृश्यावलोकन
▁योजनाबद्ध
ga
▁अकु
▁द्वि
नवउदारवादी
▁आआफ्न
▁उत्तरार्ध
▁कारागार
+%E0%A4%B0
▁समुदायको
▁मनोरञ्जन
२–२
▁भूपू
▁मेनेजर
गौंडा
者
▁नाराबाजी
mission
▁इन्गेजमेन्ट
आबुधाबी
▁अतुल
▁आमसञ्चार
▁इन्टरनेसनल
सम्भवतः
गोटा
▁कृति
▁हरिकृष्ण
4%A8%E0%A5%87+%E
护
▁<link>
▁सकिँदैन
▁युरो
सञ्चो
皱
संबैधानिक
▁कच्चापदार्थ
दह
ゲ
▁प्रक्षेपण
2019
▁भित्रै
懂
៨
􀄮
▁पछ्याइरहे
▁रहस्य
पोट
&#8230;.
ᤗ
▁गराउनुपर्ने
▁कि.मी.
▁अझ
߀
▁एन्ड्रोइड
▁नि
▁आदित्यनाथ
विधि
him
▁चम्क
गा
भे
▁गुलाब
▁निकालेका
▁ताकेता
▁टाई
˃
ാ
指
▁25
▁process
覧
Ǝ
▁खर्चे
▁वडा
▁गा.वि.स.
यूटीएल
▁चरमोत्कर्ष
程
▁दाजुभाइ
▁सरकार
̌
▁उल्टो
देखि
▁इँटाभट्टा
Ľ
130
05/
▁मनाइने
▁श्रष्टा
ǉ
籍
▁बिच
▁सहारा
कारी
बापतको
▁हात्तीपाइले
600
सान
▁विभागीय
▁क्यान्सर
ль
विश्व
家
价
▁थ्रीस्टार
套
▁श्रीनगर
ʌ
▁सचिव
▁'हामी
661
▁केबुलकार
▁मण्डनदेउपुर
hamrokhelkud.com
▁इच्छाशक्ति
▁गुरुङ,
▁अर्थमन्त्री
चितवन
▁प्रसाईं
▁मन्त्रीपरिषद्
▁शासनकाल
▁निकाल्छ
▁सुपरभाइजर
▁अख्तर
🏏
▁लाम
▁नीजि
ڨ
Ħ
▁|
2019/05/21/15584
0%A4%B7%E0%A5%8D
▁पोलिटब्युरो
▁कर्मचारीको
▁भत्काउने
疲
िक
▁सुनेका
▁आयआर्जन
▁४
▁पार्टीहरू
–८
▁जनाएको
실
▁सोझ
▁भोकै
▁चिनिन्छन्
▁भोजपुर
▁हितमा
魅
▁टोल
खाना
▁भइरहने
▁फूलबारी
▁आउनुभयो
澡
▁फिट
▁झगडा
▁पद्धती
▁फेरबदल
ंदो
爱
▁घोत्लि
▁नहुन
▁बहाल
▁इटालियन
▁बंगबन्धु
▁तालाबन्दी
विलास
▁चिल्लो
Ｐ
ľ
▁कर्जन्हा
e
Ԏ
सूचना
▁ग्लास
साथीहरूसँग
ჹ
▁निकटत
वर्षौंदेखि
▁जग्गा
▁तोकिएको
▁संवत्
▁तटबन्ध
हिल
▁डार्क
समाज
यतिमात्र
つ
▁ठीक
25/
२०७३
ث
गञ्ज
ỡ
▁स्मारिका
▁विद्यालयलाई
▁रामदेव
凭
ܺ
▁जोगाउन
▁any
तार
▁काठमाडौंबाट
ל
</
एकैपटक
ҝ
▁भर्दै
긝
▁अहम
टिप्पणी
极
འ
▁रजिस्टर
▁भूक्षय
纯
▁सहायक
▁विज्ञप्तिमा
뢽
៍
▁पति
ヴ
▁बुझाउने
▁सम्पुर्ण
▁gar
s/1
▁उसलाई
▁ऐश्वर्य
▁गर्नेहरू
▁रुख
ूल
简
▁महत्त्वाकांक्षी
ase
▁कटान
▁रोकियो
校
0%A4%A8%E0%A5%87
▁कराए
▁जलाशय
▁पार्टि
▁to
्ने,
は
पालैपालो
ݮ
▁पं
▁आक्रोशित
कोठाभित्र
▁विश्लेषण
▁निर्धा
#comment-839
प्रसारित
▁वकील
▁हजुरबुबा
▁जिरी
▁भेटी
哽
बलात्कारीलाई
▁कतिपय
▁जाहेरी
▁साताभित्र
▁आइन्स्टाइन
▁ज्वल
򡔖
▁कर्मकाण्ड
▁तपाईलाई
▁अश्लिल
फू
स्टाइल
▁हुनुभएको
ाएर
आँखा
▁मोहन
থ
🤣
ुष्ट
▁सकिन
▁वंशज
▁त्यतै
▁मञ्च
▁द्वन्द्वपीडित
2019/02/744
शाकुन्तल
樓

football/37
पाँज
▁दोश्रो
▁पर्यावरण
▁control
म्याक्स
▁'प
▁सम्पादन
▁ह्याक
▁कार्यालयले
विद
▁कम्
▁मुलुकहरू
▁पाउनुपर्ने
क्षी
पटक–पटक
ाइयो
▁पुग्छन्
▁क्व्होलासोंथर
▁त्यसैले
▁विश्राम
ig
▁लड्न
▁चलाउँछन्
▁परिसूचक
▁पुरिए
▁तँ
▁अमात्य
अँग्रेजी
▁अवशेष
溅
▁भाँडाकुँडा
▁पाना
Ν
▁बिताएका
Ї
ुद्दिन
▁घोषणापत्र
▁गरिदिनु
▁आधारशिला
▁रहिछन्
▁उपाय
▁मादी
4%A5%E0%A5%8D
ড
や
再
▁अग्रणी
▁जायज
news/tourism
▁पुगि
ियोस्
嫓
▁खरीद
न्त्र
ɭ
▁पस्न
▁दशमलव
4%A1%E0%A5%8D
ѫ
ψ
▁पुगे
▁आदिवासी
way
▁garna
4%9F%E0%A
स् त
▁धुवाँ
प्राथमिक
Ӈ
▁उठान
Department
▁अनलाइन
▁खोस
▁बसे
▁प्रकृतिका
▁साधना
२०४२
▁खुले
दल
▁लाग्यो
▁छोडेर
▁महासभा
opyright
सिरियाली
simple
򃃺
▁नेपालीहरु
ਆ
▁स्पष्ट
̻
ज्यूले
▁सुनाइन्
▁ल्याउनु
ेसन
▁बाराको
▁सिङ्ग
5%8B%E0%A4%9A
͍
अथवा
▁भागेका
(
馬
▁हेपाटाइटिस
▁बेथिति
▁त्रिपुरेश्वर
▁भुल्न
▁९१
खतिवडाले
news/insurance/
▁देखापर्छ
नीले
िंढी
⁩
▁अल्प
▁बिशाल
▁जबाफ
丹
偷
▁हास्यव्यंग्य
(भिडियोसहित)
߮
▁कपूर
▁व्यक्तिको
‸
▁प्राचीन
▁स्टाटस
航
🌹
▁नरिवल
निकट
▁दिइएन
木
छिन्
▁अदुवा
पूर्वनिर्धारित
सभा
▁ससुराली
चर्
t+sh
▁हुनेछन्।
▁ढोरपाटन
ट्वान्टी–२०
ビ
▁शिक्षक
िरहन
साथै
▁देखाउ
▁चेली
भैंसी
▁इन्टर
भए
ȋ
▁गैरदलित
basi
▁प्रयोगकर्ताहरू
5%8D%E0%A4%AF
▁उँच
▁बबिता
▁विद्यादेवी
▁रात
ya
▁सरसफाई
201
आर्टिफिसियल
ջ
▁डिग्री
४
▁सकिनेछ
nai
▁निरपेक्षता
▁जनक
▁टिप्न
林
钟
ብ
5%8D%E0%A4%9B
▁अफ्रिकन
▁६.
feel
▁सताए
▁चम्चा
▁गुनासो
▁योगदान
▁sam
▁कार्यक्रमका
▁आजका
याँ
%E0%A4%B6+%E0%A
era
▁टर्की
▁कुप्रथा
▁हिरासत
एनपी
ặ
▁मार्सी
▁लेख्नु
▁असहाय
▁टेलि
281
۱
▁समाजवादी
▁नपुगेको
▁बनाइदिएको
▁मस्जिद
कुरी
ク
节
Њ
्ने
▁निर्देश
▁निरन्तरता
▁resi
२
राङ
▁मुचुल्का
▁पहँुच
ڿ
그
▁सहकारी
▁बिउ
ootball
क्रो
▁खेल्दा
▁मेट
▁गेहेन्द्र
▁गराउँदा
▁बाताबरण
Ԛ
▁मग
群
否
▁ऋग्वेद
जित
▁फर्केका
񵒋
▁बताउनुभयो
▁कैदी
/2016/07/45
▁योग्यता
Ʀ
▁अह्राए
마
▁अग्रसर
▁यादब
▁सरकारलाई
▁शर्मा
▁लगाइन्छ
ന
▁रणबहादुर
▁निध
▁टर्बाइन
▁अपिल
▁क्याथोलिक
घटनाबारे
प्रतिघन्टा
०४
देखी
▁14:13:
शमशेर
▁पर्खे
队
ꇯ
▁स्ट्रोक
Ǚ
▁डेब्यु
徳
लग्न
समूहगत
jo
▁घर
׊
释
▁भत्काइ
िन्छन्
鉓
▁मनमा
朵
ीले
▁डाक्टरहरू
▁रिभर
▁चौधरीले
▁बैंग्लोर
▁पछिल्ला
▁सुचारु
%F0%9F%
▁वृहत
▁कसैले
+%E0%A4%9A%E0%A
▁अनावरण
thulo
▁अध्यक्षद्वय
▁बढुवा
▁चल्ने
签

▁पानीको
ki
देशी–विदेशी
▁त्रैमास
▁भनेपछि
▁देखाइरहे
▁फेस्टिभल
▁क्यारोलिना
诺
▁बन्ने
.४
football/13
맞
▁गराएका
▁दर्शनार्थी
ाशय
▁सतर्क
%E0%A4%95
▁उचाइ
▁जलाधार
▁सान्
▁कोरे
▁नगरपालिका,
ڀ
▁श्वास
/2019/03/750
▁नियमावलीमा
▁दिदा
テ
▁उम्मेदवारहरु

धुर्मुस
अनावश्यक
Ƴ
▁दुख
▁मोरोक्को
4%B5%E0%A
.+
▁डिआइजी
▁गद
▁उतार
У
▁'नयाँ
雾
▁परिप्रेक्ष्यमा
संसद
ायर
苹
坛
▁ढाले
युग
ाउँछौं
▁चैते
AYE
费
4%BF+%E
▁उप्क
언
</s>
▁पाए
▁फ्रि
▁ल्याएर
म्बु
सम्बद्ध
似
▁पुरी
▁ढिलाइ
▁अजेन्डा
title
▁व्यावसायिक
Ǭ
树
拆
ꭝ
ھ
▁कोटेश्वर
ख
▁प्रकाशन
▁आव्हान
▁उद्
▁कायस्थ
▁स्वाइन
▁खानु
0%A4%A6%E0%A5%87
▁नजाने
▁पात्रहरू
मुख्यमन्त्री
1.
▁प्रबर्द्धन
प्रायः
需
▁फ्रिज
▁जुक्ति
ѵ
▁समर्थन
▁योञ्जन
ायन
▁थोपा
केट
िस्तान
▁फोनमा
▁अचानक
▁श्रृजना
▁इन्फेक्सन
▁व्याडमिन्टन
4%89%E0%A4%81
▁दुर
▁चौरसिया
据
▁माइल
▁हराए
▁लेनिन
▁प्रादुर्भाव
🤔
▁लेबर
آ
कुहिने
忠
▁बिन्दु
▁जोङ
public
▁मधेसमा
不
▁जागिरे
▁गन
▁कित्ता
▁समारोह
राई
▁चिली
▁किस्ता
#comment-840
▁अपभ्रंश
Janata
▁आइरहेको
news/lifestyle/
▁'से
▁बस्तु
华
जस्तो
▁मल्हम
⦁
▁दाना
▁जियो
▁जकड
ං
▁उन्मूलन
▁भुँडी
▁झर्

▁गरौं
▁नभै
▁निकाल्द
2.1
ड्राइभ
सजिला
▁नेप्से
▁चौं
陷
jan
▁तोरी
▁नाश
▁चौ
妙
डिआई
koseli/2018/
▁प्रेम
feeling
▁सू
▁बोलि
नेपालभरि
▁नैतिक
▁विविध
about
▁उत्सव
il
जसरी
▁तटस्थ
▁उत्पादित
+%E0%A4%85%E0%A
थाप
▁समझ
▁शान्तिनगर
▁बन्दैछ
कथा
▁ब्रोड
▁गर्छन्।
4%9C%E0%A4%BE%E
֦
대
▁जोमसोम
▁विफल
▁उम्मेदवारी
▁लन्डन
▁स्कुलमा
run
सुविधासम्पन्न
बहाल
▁ए
त्रा
▁बहराइन
島
▁उज्वेकिस्तान
परेकी
▁संयोग
▁मुसा
▁ढाका
▁हाइकिङ
कलंक
▁नगद
▁प्रकारको
पछार
▁वडामा
▁साँघुरो
痩
▁दीगो
tick
▁२०६३
<![CDATA[K
▁चरण
▁गणित
▁फ्रेन्च
▁युजर
▁केजी
▁बाहिरबाट
▁सेकेन्ड
白
▁एक्साभेटर
'यसअघि
监
▁न्युजिल्यान्ड
Ӌ
▁one
▁काबुल
▁आईपुगे
▁मोक्तान
▁स्वयंसेवी
उहाँसँग
▁हद
dha
灿
▁यात्रु
▁अक्षर
▁चुरो
ula
회
पत्रकार
▁mil
▁उपमहासचिव
विवादित
▁क्याप्टेन
▁हुरी
▁बढ्नुपर्छ
▁सक्दो
▁ट्रम्प
▁न्यूनतम
▁विताए
▁गरिराखे
▁प्ले
कली
▁घण्टौं
▁बन्गाड
購
ԋ
泪
▁प्रश
World
▁भएन,
▁अनलाइनखबर
▁ज्वाला
▁नआ
▁दिनचर्या
﹯
鬡
बहुजातीय
ー
▁प्रतिनिधि
ुपर्‍यो
▁दुस्मन
责
each
उल्लेखनीय
Ŧ
܊
ണ
▁दर
4%9F%E0%A5%8B
पारी
+le+
िङ'
▁जोगाउने
oli
क्स
▁बनाउँ
▁भान
▁रहेछ।
▁रणनीति
▁सवार
▁हनन
शूल्क
▁बाबु
231
▁प्रशिक्षणमा
▁मलाइ
▁गौरीशंकर
▁कोर्स
▁विप्रेषण
▁पुग्यो।
4%B2%E0%A5%80
ti
▁ढाक
▁हानि–नोक्सानी
綾
则
▁टुंग
▁दक्षिणपन्थी
▁औषधालय
▁मख्ख
▁स्वर्ण
भाग्य
防
▁चुप
ʏ
ჰ
별
▁मामिला
ن
株
▁मध्यम
▁बगाउँद
ۮ
नाग
▁कार्कीले
▁उहाँहरू
举
▁बर्सेनि
▁सध
▁ईकाई
▁नियुक्ति
enerator
▁बताउने
▁घट्न
▁औरही
ব
賞
▁अति
▁संघका
৩
▁डुबे
ਢ
्छिन्
▁11:0
panyDetail.aspx/
▁ब्याक्टेरिया
▁क्यामरा
मुक्त
▁इशारा
Ĭ
▁केरुङ
▁तयारीमा
▁मलखाद
▁एसयूभी
पर्यायवाची
ाउलान्
▁झि
▁मतदाता
▁जापान,
िग
▁दुर्गा
▁सम्मेलन
हाइ
▁१०००
▁उभ्याउन
▁जन्मकैद
l"
▁कान्छा
▁इमेज
▁डिभाइस
▁जुवा
क्टर
+you+
▁शुभकामना
沬
▁अम्रिसो
▁माइक्रोसफ्ट
販
प्रेमी
莅
▁उतार्ने
▁प्रतिक्षा
▁बस्दा
▁विश्वप्रकाश
▁संयन्त्र
▁फछ्र्यौट
▁बदनाम
狭
54
▁गोबर
football/35
׷
▁सम्भोग
▁आकाशे
▁लागिपरेको
People
▁परिणाम
अभूतपूर्व
記
˪
अनुसार
]]></
▁हो–
▁सक्छौ
▁मन्थली
▁मेलमिलाप
另
▁घुमाउन
▁आफै
▁सालको
▁बहुउद्देश्यीय
post
रिझ
阐
ए
अनपेक्षित
▁खोलामा
▁यत्ति
▁संगै
▁आस
届
己
एफ
▁पर्खन
▁शुन्य
ाउँने
▁निश्चय
▁गरिरहेका
निधि
▁आक्रोस
耍
▁दस्ताबेज
▁पाठशाला
绳
▁पराल
▁छुर्पी
टू
难
तर्पm
▁वकालत
▁यसरी
नेपाल
▁स्टेप
ڔ
lick
契
▁प्रणालीमा
▁लघुवित्त
▁२००५
▁गाँउ
gar
▁चतुर
▁मेलवर्न
ﹾ
पूरक
▁सब
95/feed
▁पौडी
▁सेतो
▁गै
▁कोषाध्यक्ष
▁cha
▁प्रतिघण्टा
▁औद्योगीकरण
虚
뺋
睄
▁प्रश्नावली
4%B0+%E0%A4%
्दि
▁युनिभर्सल
ाइदिएको
▁चल्नेछ
सहमति
5%87%E0%A4%B8
ח
员
▁माग
▁युट्युव
▁यू
▁चुनिए
▁पातल
▁टोटनह्याम
▁फुल
▁भरतमोहन
2018/12/724
▁ड्रग्स
߂
▁लगातार
▁गिरिराज
%3F%3F%3F
▁पटना
%E0%A4%97%E0%A
▁एसियाड
▁मधेसवादी
한
ल्हा
वर्तन
▁बाहिनी
▁(आ
質
▁निरंकुशता
▁गराइदिन
▁सहन
ܻ
▁बाटोबाट
पछि
▁स्तरका
Ҏ
▁मयूर
य़
%E0%A4%B8%E0%A
▁यथावत
Ж
⁣
▁बिग्र
▁चश्मा
▁परमात्मा
▁गयौ
▁छौं'
general/3
▁'पहिला
RM
▁लोप्चन
▁प्रश्र
▁मालिक
ूत
▁दिइन्
▁घरबेटी
▁09:1
0%A4%B8%E0%A5%81
बिहीबार
Ɠ
▁नदेखिएको
▁भन्दिन
猪
हरुमध्ये
▁विरासत
▁जाउँ
▁बयान
+%E0%A4%A6%E0%A
▁बबरमहल
▁गरिन्छ
贡
▁11
▁नसक
अभिभावक
▁भ्रष्ट्राचार
4%B2%E0%A5%8B
▁उनीहरु
▁प्रतिवेदन
她
▁राजविराज
▁अभागी
ഞ
▁निम्तो
▁अग्नि
▁महालक्ष्मी
오
▁पड्क
瞪
डेर
֒
हेरिटेज
समिति
▁युरेनियम
Ĝ
▁कोड
पढाइलेखाइ
cre
जनिक
▁सिग्नल
貴
▁खाएका
▁औँ
टआउट
कृपया
4%8F%E0%A4%B0+%E
421
▁पानी
▁बिट
▁चर्च
▁है
72
बित्दै
लय
▁लहलह
▁बेल्जियम
▁जिउ
▁समग्र
▁खोज्नु
▁चिज
▁खिन्न
▁निर्माणाधीन
▁सीमामा
▁बुझाउँछ
ნ
ۿ
▁बोरा
▁गुजरात
▁मनाउने
霉
ﾧ
▁बलियो
हीँ
▁टेवा
ुभएको
▁कलैया
▁सुई
▁टाठाबाठा
ک
三
▁हुर्काउन
▁छ ।
▁कल्पना
▁लिन्छन्
8/03/05/20180305
man
▁अनुप्रयोग
लमा
З
परिषद्
▁जातजाति
ʣ
ܘ
▁पढ्दा
▁सदस्य
पोखरी
郡
थरी
р
4%9B%E0%A5%81
3
चलचित्र
▁२२०
▁नक्कली
病
▁पुग्नु
▁दिइन्छ
▁चुमे
्थे
▁कर्पोरेट
▁उदाए
▁प्लेअफ
▁क्यालेन्डर
▁पुर्‍यायो
▁परोपकारी
给
उपत्यकाबाहिर
▁you
ԯ
띱
񪺟
▁छिन्नमस्ता
▁तत्त्व
▁गोल्ड
4%AD%E0%A5%8D
능
ʡ
▁इनिङ
हास
34
▁चाहना
<sep>
▁गरियो
▁करण
िंँदै
吸
破
▁डाँफे
▁उत्तराखण्ड
▁दुरूपयोग
鮨
番
▁दुर्इ
▁अमेजन
1
▁सर्व
दिवसीय
▁अमिन
▁इसाई
▁यसमा
蜂
देउराली
▁in
5%8D%E0%A4%9F
▁कम्युनिटी
▁इन्काउन्टर
▁आइरहे
▁गर्नेछौं
る
有
▁कोसेली
▁लभस्टोरी
कीर्तन
▁सदस्यहरू
ศ
२.८
ӓ
▁भेषवाकर
帽
仕
▁सिस्ने
▁विशेषत
लगानीयोग्य
✅
▁सोधी
▁रियाद
ȶ
▁पत्याउन
▁चल्दा
म्यान्चेस्टर
▁आसपास
88
▁भेटवार्ता
tal
▁नाफा
⤡
叶
ߔ
▁क्यामरुन
▁बाख्रापालन
▁मार्गदर्शक
▁गैसस
ri
▁तपाँई
জ
替
▁क्रिष्टियान
ैपिच्छे
▁जनमुक्ति
▁मनमोहन
▁अरू
▁सोचाइ
네
艳
मल
▁सञ्चारकर्मी
▁धोनी
▁पितृसत्ता
拳
▁मोर
स्तरमा
▁जागृत
▁Be
ौं।
l.org
ाते
चोकमा
▁तपस्या
▁जस
▁नाइजेरिया
ϴ
+%E0%A4%B0%E0%A
▁नभए
▁मंगलसेन
उपरोक्त
१
▁खाम
िन्दा
ԑ
▁पूर्व–पश्चिम
0%A4%B8%E0%A5%8D
ڣ
८५
զ
▁वर्षे
改
▁(ए
2019/02/745
▁डडेलधुरा
4%A7%E0%A4%BF
鳴
ted
▁पञ्जीकरण
사
颁
▁सहयोग
कटहर
०६२/६३
▁ओरालो
▁मनोनीत
▁केन्द्रीय
請
绅
▁दिइएका
%E0%A5%A4
▁सत्तरी
飲
क्ता
▁ताप
योग्य
▁रेक्टर
秋
▁निर्देशनमा
बेगर
पाठापाठी
lar
۟
्छु
▁एनआरएन
▁ठूलाबडा
▁ब्ल्याक
ͼ
▁भगाउन
绝
💋
HT
▁सत्ताधारी
पछाडि
घोषणा
▁नबढ
▁सिल
פ
ﻺ
▁पीडित
▁खोसे
第
▁बिर्तामोड
▁कन
ڢ
ܢ
▁ढक
▁सुनामी
▁स्रोत–साधन
􀇓
0%A4%B8%E0%A4%B0
▁सार्वजनीक
▁बिस्फोट
縮
4%BF%E0%A4%B7
▁एघार
▁लेखिरहे
ប
▁अन्तरिक्ष
ԣ
屈
▁बाँडफाँड
इम्बोस्ड
▁नेता–कार्यकर्ता
रमजान
रीमा
▁छु,
ߘ
▁शौचालय
▁गोरे
पत्ति
पार्टी
▁साङ्
0%A4%AA%E0%A5%81
बीचको
▁जीवनका
▁सुनौलो
▁बिरामीको
▁निराशा
चाहिँ
ष्ण
0%A4%96%E0%A4%BF
र्फ
ٞ
뵪
ँदैछ।
▁विल
▁प्रतियोगीता
▁सरावगी
खोजी
राप
߳
R
पाठ
▁http://www.b
▁रिचार्ज
▁चिनफिङ
▁प्रादेशिक
▁भैरव
02
▁भनिदिए
ुपर्दैन
▁अनवर
ाउँछिन्
pachhi
▁पदपूर्ति
😶
॰
念
स्ट्रो
र्थी
▁अप्रेशन
2
ڥ
涨
▁सुत्र
范
▁ट्रेलर
▁हातपात
▁सुत्ने
निक
७.६
肉
▁चयन
▁मानविकी
रुपमा
प्रायोजित
▁सांसदहरू
बिस्तार
▁कार्यकाल
拝
▁जुटिरहे
ре
영
▁क्षेत्र,
नबुझी
▁बाजागाजा
▁हो
靠
▁पी
▁हुनसके
▁२००१
९८
▁हत्त
▁विक
▁कारक
▁मानिए
〜
▁हो'
▁सिंगल्स
धूप
▁आएकी
oc
侧
परिवर्तन
▁Program
Ű
▁सम्भार
▁वजार
▁पर
▁मिचे
▁संख्या
▁बटुल्न
؜
▁पर्नेछ
؟
pi
#comment-814
भूमी
0%A4%AE%E0%A4%BE
शर्त
4%A5%E0%A4%BF
▁डोटी
▁कर्पोरेसन
ap
密
▁निम्ता
▁कैय
4%AB%E0%A4%BF
5%8B+%E0%A4%9B
▁अत्तरिया
4%AE%E0%A4%A8
▁महँगा
▁हस्तकला
▁हड्डी
▁दार्शनिक
▁मनहरी
गेन
▁सुर्खेत
▁मरिच
▁सर्वत्र
▁भेटेका
वेद
▁हीनताबोध
▁हुनुभएका
▁वैद्य
+have+
桃
▁जनाएका
▁व्यवसायीले
have
▁सिटामोल
▁गरियो।
▁आरोग्य
की
▁'के
▁पाइप
असंलग्न
रेल
▁यहाँका
▁ट्रेड
▁स्याटलाइट
िँदैन
0%A4%AE%E0%A5%80
▁पृथक्
under
▁हदसम्म
▁सहचालक
२०३७
▁पुग्छ
▁रोजीरोटी
111.html"

▁पुत्ला
高
८९
▁अनुरुप
󠆷
හ
अंग्रेजी
▁जोडिन
է
為
߱
モ
▁हर
▁दलहरु
▁समिट
pradesh-6/2018/
▁वेल
२८
˻
▁प्रतिव्यक्ति
び
技
▁तरङ्ग
▁बरामद
▁सकियोस्
쌶
▁क्वीन्टल
涉
▁गर्नुपरे
ћ
▁पहिला
▁भनिन्
▁जोडिए
Christian
▁राजाराम
▁खुलाए
▁शिक्षालय
▁शिशु
▁re
ह्वात्तै
may
०,०००
auna
▁अम्
ٮ
審
റ
▁बुध
ज्ञ
▁लाग्नुपर्ने
▁गुड्ने
▁असमर्थ
▁तमलोपा
▁जन्ती
▁सहमतिमा
पहिले
गाँउ
▁जित्दा
͑
▁हजार
▁पाँचजना
081
Љ
▁अभियोग
▁फेशन
嘉
▁इटहरी
▁शोरुम
▁एपिसोड
▁वनस्पति
▁अभियान
दिएँ।
शिल्प
ɕ
▁कड
पलिका
추
▁पलायन
▁जेठी
绵
▁घर्ती
▁देवकोटा
5%8D%E0%A4%B0%E
✍
▁उठ्छ
ाञ्जली
▁दिन्थे
thumb
䓭
▁आयाम
5%81%E0%A
र्षरत
▁महारानी
▁अभिमुखिकरण
football/38
फ
पत्यारिलो
▁विक्रमासिंघे
墅
▁हिँडे
▁नराम्रा
▁पहिलो
स्तो
बराबर
▁गु
हराएर
▁८
यसप्रकार
▁४२
बेलायत
▁भिœयाउन
▁फणिन्द्र
▁मनोकांक्षा
ՙ
昂
▁बानियाँ
पर्ने
▁उस्तै
力
▁पृष्ठ
▁छुट्टिए
▁साम
▁चुक्ता
ǅ
्यास
▁गुज्र
唆
९२
%E0%A5%8B%2C
女
्वल
▁पाठ्यपुस्तक
▁नबुझ
▁घम्साघम्सी
͟
悪
▁I
▁सङ्खुवासभा
▁शेखर
0%A4%B0%E0%A4%BF
%3F+
▁कामदार
▁डेभलपर
सिय
u
▁मेह
विख्यात
such
#comment-833
▁हातहतियार
洲
स्तरमै
88.html">
▁म्यादी
▁भनिन्छ
▁कुपण्डोल
▁मिष्ठान्न
▁फ्रेस
丝
へ
Ղ
C
完
▁युनिभर्स

▁कुसुन्डा
▁मनोवैज्ञानिक
▁महंगो
༺
▁निर्माणमा
▁उद्योगधन्दा
हप्रवक्ता
▁मरण
▁क्रियाशील
構
▁खेप्न
(डीपीएल)

▁शून्य
▁राजनैतिक
्म
op
▁'बो
0%A5%A4+%E0%A4%
|
नियाँ
ં
+%E0%A4%86%E0%A
▁हलेसी
▁all
ाउंदै
▁कठिनाइ
▁आउजा
▁उर्लाबारी
▁कुवँर
▁देशभित्र
ϱ
ۯ
▁टि
▁ठान्ने
▁अल्झिए
^
▁तवर
▁कार्यन्वयन
(आइओसी)
इन्फ्रास्ट्रक्चर
▁केही
▁आयोगको
4%BE%E0%A4%A7
▁ठाउँमा
/2016/10/49
2019/04/756
别
؊
मोह
▁चर्किए
▁मिर्चैया

छाडमछाड
▁ल्याइदिन
免
▁पाँचथर
▁पुस
▁दुर्भाग्यपूर्ण
股
▁गुणस्तरीय
मार्पmत
▁सीट
ޘ
▁हाडजोर्नी
▁घोषित
㩪
when
स्वास्थ्यमन्त्री
▁मूल्य
▁पड्काए
▁बताउदै
▁रातभर
▁ढुकुटी
▁समुह
▁बसाइ
▁खेतबारी
ݝ
policies
▁पारिदिए
बन
▁टाइटल
▁रुचाइए
▁चाँहि
▁थाल्यौं
उक्त
▁वैध
▁वाई
द्य
▁कोदो
ढोका
▁क्षेत्रफल
+par
चल
″
▁कुलेखानी
▁थिईन
판
▁नेपालले
▁कूल
▁बेफाइदा
ंँ
बहा
▁सिद्धान्त
▁ल्याएको
66/feed
▁३६
िच
▁निन्दा
▁सखुवा
▁यसैगरी
35/feed
▁12:00
𯪰
सिफ
उनले
▁पश्चाताप
▁अनुत्तीर्ण
┌
▁पुतली
सम्
▁(१
▁लम
ি
联
▁डाटा
▁रणनीतिक
▁"तर
Ӯ
–काठमाडौं
▁ब्यारेक
प्रतिशत
Ϳ
▁निद्रा
▁रमाए
忽
洒
▁पाइने
नवोदित
ك
मन्त्री
Ւ
यु
٦
▁एसेम्बल
▁लाइब्रेरी
钥
▁अन्त
▁जमघट
▁भन्नुभयो
ņ
▁आफूहरू
▁बौ
▁रेस्टुरेन्ट
▁वित्तीय
▁भट्टराइ
56/feed
▁अन्र्तगत
▁पहिल्याउन
हलुका
▁पार्थिव
'मैले
had
▁बैंकिङ्ग
▁अरिंगाल
▁चाहियो
▁तड्प
+dekh
▁शरिर
▁टाइगर्स
or
requ
अगावै
▁रिक्सा
퓄
74
▁टाइब्रेकर
▁छाप्न
मुस्कुराउँदै
▁target="_blank"
▁सेवाप्रदायक
皇
▁महशुल
▁अद्यावधिक
▁भोला
▁महालेखा
सक्नु
▁भैरहेका
▁योजनामा
▁चकित
ណ
्चर
लाल
▁डिजाइन
▁मार्ग
तोक
▁पोषक
▁ठगुन्ना
▁५२
4%9B%E0%A4%A8
वाणिज्य
因
▁पहुँच
ർ
ɬ
खो
▁आव
▁कसैलाई
▁आधारशिविर
͚
֠
뒭
▁सम्भ्रान्त
▁लिटर
2018/12/726
▁सीके
▁प्रत्यक्ष
▁पठाउनु
͝
▁सम्पति
▁एमाले–माओवादी
▁filename="2018/
▁नमिल्ने
斑
▁काग
पार्ट
▁ट्रान्सफर
Ʒ
▁जालझेल
ণ
䳧
外
ǫ
▁mail
ധ
▁रुचाउने
▁सिचुवान
▁काठेपुल
छन्,
ミ
उता
▁सेवाग्राही
▁दीपेश
▁हुनुपर्दछ
▁अलपत्र
권
▁दु:खद
▁झाडी
Ȃ
▁निर
जीले
▁टेलिसिरियल
पाई
ुहुन्न
▁—
▁धातु
▁खत्याड
▁एसएलसी
프
연
▁विगत
▁अा
▁आप
╨
▁गाँसिए
▁ललितपुर
व्यवहार
ाउँछन्।
▁बालविवाह
▁सम्हालेका
▁प्राक्टिस
▁सहजता
0%A5%87%E0%A4%B8
ಡ
ऽ
विश्वकै
+%E0%A5%AB
踢
माधम
▁kura
▁आफ्नै
▁मातृभाषा
माओवादी
小
प्रो
🇻
▁ब्राण्ड
लार्इ
स्वेच्छिक
िफ
ǚ
▁लोकतान्त्रिक
ियर
▁कार्यकारी
게
#comment-829
▁सक्रियता
ब्रह्म
흜
▁बहिर
हजुर
पूर्ण
▁खवर
▁कुखुरा
rat
परि
▁पार्कमा
▁लाल
▁विज्ञता
犬
▁हाजार्ड
दा
鹿
▁म्युनिख
तत्कालीन
▁तयार
ग्रन्थ
시
Ԥ
▁अनुमान
▁दिदै
▁आउनु
⇨
妹
▁राजधानी
▁बैंकमा
η
仍
▁मद्ध
▁ढुंगेल
▁De
▁साईकल
▁होटलमा
倉
्वो
रञ्जन
▁क्लिनिक
▁गान्धी
▁झिक्न
अहिलेसम्मकै
उदै
▁एवं
ायो।
ด
▁नेकपा(एमाले)
'त्यसपछि
踩
▁शर्त
–१७
▁केसी,
▁पूजापाठ
▁दिगम्बर
▁उहाँका
▁सम्बद्ध
▁नभ
േ
गन्हाउने
▁विखण्डन
▁बिहान
▁जिब्रो
▁गम्भिर
师
▁गाउँका
▁प्रवचन
▁संयोजक
週
▁धोए
▁चहलपहल
कती
欲
कारण
▁महासङ्घ
▁भत्क
紀
丈
▁साकार
只
众
top
लाप
Ч
न्दु
▁स्तूप
ٛ
▁'सु
烂
5"
▁मुम्बइ
▁प्रयोगमा
kar
▁भण्डारी,
▁प्रदर्शनमा
▁Go
▁src="https://
🤓
ीक
▁हुन्छ
▁छापा
प्य
तत्कालिन
▁महीना
ɖ
책
चेतनामूलक
▁जासुस
▁बनाऔं
▁दौरासुरुवाल
腊
विनाशकारी
▁बाइस
रुचाउँदैनन्
सुहाउँदो
▁बालुवा
92/feed
▁वर्गीय
जुल
▁सीआईबी
हरूबाट
▁वैधता
दृष्टि
lement
cup-2018/2018/0
Ϯ
讦
▁नाकाबन्दी
▁बेलायत
नीति
▁नपुगेका
ऋ
▁बौद्ध
काे
pen
▁प्रदर्श
यि
▁आयातकर्ता
▁पब्लिक
▁नखे
ギ
節
वादी
सोलिडारिटी
▁हुदै
सरिक
▁टिचिङ
कु
▁बिसी
׬
▁बायोपिक
柯
्वी
Ʊ
ߴ
▁दिइ
ӈ
▁कमिटि
▁प्रेमबहादुर
kan
诊
હ
매
ख्ख
▁करोड
▁वर्षमा
▁दूताबास
▁होलान्
▁डान्स
केन्दि्रत
नेछ।
▁यथा
+%E0%A4%AC%E0%A
▁नाङ्ग
tr
ㄩ
बिहानैदेखि
ͪ
臣
ӏ
ुक
▁माइक
▁लाग्दो
术
द्ध
▁द्वन्द्व
▁सो
०७४÷७५
▁filename="2016/
▁राम्रो
तथाकथित
▁कार्यमा
ाउनुपर्छ
ո
प्रमाण
▁जानी
轩
▁पिउन
▁सुधार्न
हेलो
▁शालिग्राम
掉
▁बट
ानुभूति
थाह
Ѯ
दिनभरी
5</span>
क्षा
▁सिहं
悟
▁परिवारजन
ӂ
▁अरुण
▁जाऊ
▁फर्के
▁लेखाजोखा
ލ
▁थोपर्न
अधिकांश
▁च्याङ्ग्रा

सम्झौताअनुसार
ूरो
▁अगुवा
टाल
थिए
获
▁हिमाली
एक्टिभ
pradesh-4/201
寄
▁समूहमा
▁१९५०
डे
函
वक्ता
bi
२/३
▁यम
▁समष्टि
ुन्जेल
भन
▁जल
्वाय
▁एउटा
अन्तर
ኛ
ाउदै
ڍ
▁सुदृढीकरण
▁ताजिकिस्तान
на
प्रतिशतभन्दा
▁निष्पक्ष
▁ह्वाट्सएप
▁जन्मथलो
背
▁गर्नेतर्फ
名

▁काठ
▁अवस्थित
▁मोटरसाइकलमा
ȉ
जुद
▁इँटा
ĝ
梨
2018/08/700
▁मृत्युदर
▁सहभागीता
स्पर्धामा
▁पसल
पक्षीय
ひ
ܕ
Ϻ
▁फाट
▁ka
आईए
▁नेपाल
▁नपा
▁सभामुख
ुइँ
khabar.com/?p=71
▁लाग्यौं
▁नहर
▁पाल्पा
ो
t
ारी
▁जाजरकोट
▁08:5
▁परिचयपत्र
▁टुर्नामेन्ट
▁चन्द्रौटा
Щ
ڲ
▁क्षमायाचना
巧
ɗ
▁हल्लाउन
▁नपरेको
▁समकालीन
▁लिइन्छ
these
▁तुलसी
▁चालक
▁नेदरल्यान्ड्स
▁पठाउँदै
ﾉ
▁उमेर
चढ्दा
▁प्या
▁श्वेतपत्र
▁दशै
▁ओखती
▁सुदूरपश्चिम
▁७३
िव
▁'बे
वृन्द
▁स्रष्टा
▁दिएका
▁सत्तारुढ
▁डोल्पा
▁सीमान्तकृत
▁कमाएका
वहादुर
▁मठमन्दिर
▁पत्यार
0%A4%B8%E0%A4%A6
▁श्रीलंक
▁जरिवाना
▁७४
पाताल
कञ्चनपुर
▁डा.
ਜ
▁लियो
▁सान
%E0%A4%9C
▁मानिसहरुको
▁खुला
र्तीजन्य
▁दिनुभयो
▁प्रत्यारोपण
सम्बन्ध
जेन्ट
▁मेटाउन
▁बिना
▁मनोवृत्ति
▁समस्या
饭
Ǌ
किरण
▁मार्सल
▁अमेरिकी
ताको
▁थिएन।
▁वैज्ञानिकहरू
▁चढाए
4%AC%E0%A4%BE
क्षेत्रगत
᷺
摄
▁ब्ल
▁पालुङ
▁व्यवसायीकरण
བ
▁बाजे
▁उत्खनन्
请
8th
華
▁एकरुपता
▁थाई
 
▁लिक
▁अर्थात्
▁नरोकिए
▁भेइकल
▁भत्काए
▁निभाए
सुर्खेत
4%A7%E0%A5%8D
▁१३,
▁चर्काचर्की
南
找
आंगिक
+bha
पाती
ꌍ
▁विजयी
▁एसएसबी
▁तामझाम
▁षडानन्द
िहरु
▁खानेकुरा
▁०७४
सक्ने
ताल
ight
ӗ
▁मानसिकता
▁सञ्चय
▁प्रत्याभूति
▁जेसु
▁रेग्मी
Չ
▁चुम्न
र्ध
▁सम्मिलित
▁अगष्ट
▁अभिभावकत्व
▁अकर्मण्यता
ݺ
▁सञ्चालकहरू
读
▁आईसीपी
ച
▁जम
▁ग्रा
उनीहरूमध्ये
्छे
tor>
打
अनगिन्त
–ए
मग्न
▁आउँदैछ
▁पर्खाल
▁ज्ञापनपत्र
▁संसारभर
▁परेवा
▁मानवता
▁हाँक्ने
भूराजनीतिक
<![CDATA[
तृ
▁तदर्थ
51
▁असुले
▁कुस
जिवित
߽
▁नयाँदिल्ली
🚁
80
▁ट्रफि
▁कान्तिपुर
विशेषगरी
▁हार्मोन
4%AA%E0%A5%8D%E
/2017/08/61
▁किसुनजी
明
エ
▁दीपिका
▁विमति
फेडेरेसन
ਂ
操
▁खुमबहादुर
泌
▁बितिसक्
▁छेक्न
▁गस्ती
▁डेटा
▁(ग
▁एभरेस्ट
▁झर्न
▁घटाइए
ম
־
▁निर्वाचनका
रेन
▁टुङ्गो
▁क्वा
▁चले
▁ल्यापटप
▁स्त्री
▁पोषण
▁फर्कंदै
倍
▁न्युनतम
笑
▁नर्स
▁पाइँदैन
▁रु
▁पाटा
₹
▁पल्ट
2019/02/742
्र
कारा
儯
姆
071
႗
अहिले
▁पोलि
▁फसाउन
▁खुल्दै
ency
▁जिविस
▁गुँड
▁समिती
静
s
𽩒
▁थिए ।
▁लगाउँदै
▁उत्सुक
▁प्रिक्वाटरफाइनल
5%8B%E0%A4%B2
label
แ
▁किचलो
?!?!?!?!?!?!?!?!
ायौं
▁वस्तुगत
拍
▁असहिष्णु
ुपर्छ
▁हुदाँ
▁जहाज
2724
▁लोकप्रिय
▁प्वाल
एका
▁कुहिरो
▁चित्रमा
का
=
#
▁२०१३
這
҇
<pad>
▁दिनसम्म
▁नगए
▁बिद्या
▁नगरको
▁अमृता
▁चलनचल्ती
उनी
ike
महिना
▁लागेन
▁लोकमान
RA
▁​
स्थापित
▁शिक्षिका
▁त्यतिबेला
▁सधैँ
▁ऐर
没
服
▁उदारीकरण
˦
ायल
पुट
▁(युएई)
幅
▁चिडियाखाना
▁गरिरहनु
/others/
▁२०१६
▁प्राज्ञ
▁छाड्दै
ᤓ
ݞ
▁रविन्द्र
▁पुतलीबजार
ताछुल्ल
▁जनाउँछ
▁छोरीचेली
▁दैनिक
鶴
▁ब्याडमिन्टन
김
▁पैसा
▁लाभकर
4%AF%E0%A4%B0
土
▁घण्टा
▁'कर्मचारी
पर्‍यो।
िदिन्छ
辥
▁पोइन्ट
▁छोरी
티
▁'ओ
▁हिट
धार्मिक
▁जयराम
▁चढ्न
▁खुल्यो
▁स्वास्थ्यकर्मी
▁गरिरहे
▁महाभारत
▁pu
▁गुणवत्ता
ʭ
▁सन्दर्भमा
0/
ident
ў
弁
医
▁आतंक
▁चुनढुंगा
सको
कन्डिसन
ⲏ
▁निसीखोला
▁ब्रेक्जिट
▁श्रीपेच
棚
हुुने
▁छिन्।
लोजिकल
‛
▁सुक्खा
्कारो
ൢ
▁अन्तरवार्ता
भौगोलिक
▁विकास,
▁चोट
governance
▁क्रिस
▁सिक
▁धाए
ाइदिन्छ
l
▁नैतिकता
▁खयर
但
्से
최
▁वैशाख
गत
तर्फको
चार्ज
+%E0%A4%AE%E0%A
▁भिड
▁बोकेर
尴
▁रोयल्स
ഖ
technology
ठाँटी

▁नेताहरु
HAR
▁मेटाबोलिज
▁उन्माद
▁https://t.co/
सिङ
▁(पी
पब्लिक
quote
▁जलस्रोत
ुङ
Ӿ
▁सुपरिटेन्डेन्ट
▁लहड
ग्या
▁राजबंशी
▁न्युज
वन्यजन्तु
▁विषयवस्तु
वाङ
♦
स्वत:
▁गाली

4%98%E0%A4%BF
熊
߶
▁पून
▁गोंगबु
▁रहँदै
▁राजनीतिमा
▁सोहि
▁हुन
▁रंगशाला
▁मान्यता
▁किर्ते
▁निखिल
679
सूस
▁व्याज
्सन
काठमाडौं
▁बगिरहे
4%95%E0%A5%87%E
▁बनाउनु
🇳
खोला
0%A4%B9%E0%A5%80
4%BE%E0%A4%9F+%E
フ
筋
छैनन् ।
मन्त्रालय
׍
▁आयरल्याण्ड

午
▁नचाहे
▁ल्याइसके
▁आइरहेका
ކ
▁खोप
▁गुरु
छेवै
▁निगाल
▁स्याङजा
▁सामेल
शिश
▁ब्राउजर
%E0%A4%85%E0%A
監
गौडा
▁किड्नी
▁सुब्बा
▁बुझ्न
▁'सा
▁खटाउने
पशुपति
▁विषयहरु
▁सोसल
▁फाउण्डेसन
▁अरविन्द
▁कर्नाटक
㡑
▁टे
जाति
쯬
▁कार्य
▁संघर्ष
▁राजनीति
▁प्रेमकथा
币
▁छुट्याए
Ϋ
▁बस्नुपरे
टाइम
▁खाइ
pradesh-1/201
AI
▁सञ्चयकर्ता
▁An
▁जोत्न
▁लम्की
वर्षौदेखि
▁जिल्ला
क्षण
▁हुाद
▁प्राक्टिकल
助
▁व्यावहारिक
१)
गोचर
ப
विस्तारित
▁ति
ali
▁अन्ध
▁सङ्गठन
▁अग्ला
を
׫
͔
आज
+ha
▁स्वयम्भु
▁बगे
डीपी
逐
सहकारी
👨
▁सेन्टिमिटर
▁मनाइन्छ
▁नारी
अझै
▁खटे
Ǽ
▁पाउँदैन
4%B9%E0%A4%BE
ू
वारी
孝
–९
ङ्गे
्हो
▁नाजिर
टीसी
हबुब
▁स्या
ंकलन
,गे,गो,सा,सी,स
▁भिसा
▁उपनिषद
▁लिच्छविकाल
▁सहयात्री
觕
▁श्री
逊
▁अझै
९४
蚊
▁राजमार्गमा
▁प्रा
▁पु-याए

▁गर्व
▁प्रखर
▁तस्विर
▁माता
▁यसले
ौनी
▁कबोल
重
▁पलाए
तिब्बत
▁बोल्न
▁प्याक
▁निहुर
chan
ს
▁'समृद्ध
▁स्थिती
▁यान्त्रीकरण
%E0%A5%82
ݡ
▁गर्नुपर्‍यो
796
心
▁सदस्यहरु
%E0%A4%AF
ഐ
▁हुनसक्छन्
▁मोबाइल
▁नलि
्कासि
पर्ूण्ा
辰
विद्
▁दुर्भाग्य
हर्ष
▁बिमस्टेक
▁रामप्रसाद
ॢ
▁विच्छेद
न्डो
बुँदे
▁ब्लास्ट
4%B2%E0%A4%AC
३७
▁पेसा
हाई
संग्रह
ina
▁अगस्त
▁बसिसके
ortal
▁विवेचना
▁खाली
▁मान्छेको
▁Minister
ỏ
뒲
▁अनुसार
.३
न्तर
▁हिस्सेदार
▁शय्या
्झट
▁काममा
▁दुख्छ
▁भुमिका
बुङ
▁चलेको
Ϥ
ठ्याक्कै
▁पर्यटनमन्त्री
ト
▁पूर्णता
व्र
▁युनियन
▁सदस्यसचिव
फोलिय
▁फ्राइडे
চ
ª
▁हुन्छ,'
▁सुरुआत
▁समूहका
comment
▁राज्यव्यवस्था
Khabar
险
▁आदान–प्रदान
▁हाइकु
▁सडकको
sh
▁सापटी
ழ
▁बालुवाटार
▁घण्टासम्म
os
▁ठोक्कि
▁चराचुरुंगी
द्रष्टा
▁आयोगमा
剧
▁२०१४
45
៕
▁हर्मोन
ष्ट्र
शुक्रबार
बिन्दू
बैंक
52/feed
4%B0%E0%A5%88
త
▁सेसन
奣
football/48
▁वासिङ्टन
▁माला
▁फूलको
▁बिरामीहरु
夏
▁सा
▁छुट्टयाइए
ณ
▁७१
हारगुहार
anda
▁भरि
सरकार
तातो
▁ग्रसित
▁अनुकुल
常
▁कुटपिट
▁मोक्ष
▁जोर्डन
▁नग्न
ाउथे
ित्तै
▁०७५
योजक
▁विभाजन
▁पुगिन्छ
▁पोल्याण्ड
▁पोथी
परीक्षण
ाइन्
p
▁04:4
দ
០
▁पूर्वराजदूत
▁एन्डरसन
ֶ
सांसारिक
परम्परा
▁समन्वय
▁रोल्पा
▁घरेलु
▁प्रस्ताब
ԙ
▁स्टील
▁रोजाइ
Ҧ
घनमिटर
▁सिरहा
▁नो
▁रोगी
▁title="
खोलेर
2019/03/746
▁नबिग्र
▁ज्येष्ठ
카
▁ईयू
▁अनिता
▁तारिक
▁गहिरिए
▁अघिल्लो
継
▁सकाए
pradesh-3/201
▁केशव
Good
टै
▁नहोस
作
▁सम्वत
▁डिनर
विभाग
गंगा
材
वार्ता
▁प्लट
▁रमेश
▁हाई
▁सीमांकन
▁हो,'
▁श्रीवास्तव
▁दलदल
▁but
▁पारे
▁अप्ठेरा
ੰ
и
▁मोह
英
▁शनि
▁द्वैध
맗
▁फुपु
▁चाहन्छ
閲
▁बिजोग
अध्ययन
奉
ぶ
▁बुझाय
▁जाडो
▁साख
▁मण्डल
▁प्रकास
▁कडा
羽
yan
ᤐ
ुहुन्थ्यो
दर
▁छोट
▁उजागर
▁थाले।
%E0%A5%A4+%E
२०३८
▁विशाखापटनम
▁चाहेको
供
ꁝ
▁मलेसिया
▁बढद
दिइरहेको
男
▁बिताउन
▁भारतका
▁तारा
When
साउन
▁इष्टमित्र
▁काभे्रपलाञ्चोक
▁चुक्तापूँजी
起
ܰ
▁निर्देशन
변
त्यसयता
▁देउता
▁नियन्त्रण
▁गरुन्
ₒ
ہ
▁बेलायती
幕
▁पु¥याए
▁नरदेवी
▁शिशिर
▁जनमतसंग्रह
▁ओभरड्राफ्ट
▁चिउरा
▁सुल्झाउन
▁शुरुवात
▁गोरु
▁ब्यापक
▁एनसेल
▁नागरीक
球
शन
उद्योगी–व्यवसायी
▁लिफ्ट
▁गतिरोध
д
▁ढुक्क
▁जनभावना
他
▁पानि
बेलैमा
▁गरिंदै
▁लिनु
▁प्रोटेक्सन
▁२०
▁अस्पतालको
▁नीलकण्ठ
몸
▁प्याराग्लाइडिङ
परिचालित
▁सवारी
▁इन्डो
디
+k
‏
▁बहुसंख्यक
▁मैदान
▁over
▁साधु
▁रहिरहे
▁हिंसा,
▁कल
▁आगन्तुक
ऐ
ϻ
▁धुम्बाराही
▁आन्ध्र
▁छाडिए
▁जनकपुर–जयनगर
▁प्लान
▁स्वैरकल्पना
塾
▁सन्ध्या
▁झाडापखाला

▁ताक्लाकोट
▁निकायको
चित
▁सहरी
▁उठाइ
िरहँदा
▁मःम
荷
ܖ
िसके
▁नक्सापास
हिमाल
▁नया
▁छौँ,
वाण
ៅ
▁सुरक्षाफौज
▁मूल्यमा
भाग
Ʋ
ਇ
गी
पती
▁सरोकारवाला
▁४८
富
Ｋ
शुक्रबारदेखि
▁झुट
जन
▁मसी
▁लोग्ने
΂
▁अमेरिका,
कुमारी
呵
बोट
▁ब्लु
▁मर्स्याङ्दी
▁भर्खर
▁डडेल्धुरा
能
慢
▁पहरेदार
▁उभ
▁गालीगलौज
▁राप्ती
वारेमा
抬
4%A1%E0%A4%BF
▁communist
▁व्याकरण
earthquake
阳
घर–घर
होस
षण
▁एथ्लेटिको
407
–ब
▁लाओस
▁यी
▁मदनकृष्ण
फिरफिरे
4%AA%E0%A4%B0
▁कुटे
※
전
company
▁बेहुली
ज्या
悲
▁आयस्रोत
▁भ्यू
▁नेशनल
▁सुम्पि
2019/02/19/15505
▁सम्यक
닦
▁प्रम
times
▁अंगभंग
▁रवैया
観
่
2018/05/678
',
वादको
▁माने
▁७.
पाइलट
்
विचलित
▁कन्ट्रोल
्चामा
▁२०४५
मोड
啦
▁दाबेदार
▁(एम
121
▁चौलागाईं
samachar/
ER
▁थालिए
毫
送
▁बधाई
▁ठान्न
▁फलफुल
▁बिदाई
▁फोरजी
▁गर्नैपर्छ
청
0%A4%AD%E0%A4%A8
नौँ
▁अशिक्षा
0%A4%B0%E0%A5%8D
ʷ
▁अक्सफोर्ड
▁बन्यजन्तु
न्न
▁सिरिया
장
泥
▁काँडा
▁मुद्दाहरू
▁नबोक
...बाँकी
▁फुरु
福
▁ग्रान्ड
堂
विना
栓
▁७९
ɲ
▁केटो
▁हटाए
▁बनाउने
जानुभएको
▁नटुंगि
▁वीरगंज
▁साथीहरू
▁प्रवर्धन
4%AD%E0%A4%88
ेन्द्र
▁यमपञ्चक
▁माध्यम
▁स्वच्छ
▁परिकल्पना
आठौँ
police
▁केन्द्रित
▁स्वतन्त्र
घा
▁खाँदा
▁बडाहाकिम
鬼
▁सम्बन्धन
▁थिचोमिचो
▁समृद्धिको
핏
ా
▁'हिजो
▁इन्ज
krishna
सजाय
▁फोर
▁पठाइयो
▁जुम्ला
▁सेढाई
▁ट्यांकी
▁कागती
▁बिर्सिन
▁डुबाए
▁२२
▁बडी
▁लगायत
कर्ण
▁उपमहानिर्देशक
▁गुलाम
भएलगत्तै
▁गाम्
源
▁४०
+%E0%A4%AF%E0%A
किनेर
ʅ
ส
ध्द
कायमै
▁कतार
..and
धाप
▁घटनाक्रम
%E0%A4%88%E0%A
界
湛
절
ナ
ne
▁फिल
ۆ
बाँकी
▁महा
🎼
▁इन्डिज
▁परेको
▁रजिष्टार
▁हिँडेको
▁मैत्रीपूर्ण
▁ट्रा
▁संचारकर्मी
▁जीवनसाथी
磨
4%AE%E0%A5%81
😎
छौं

▁हराउन
▁बिसाए
܄
投
▁बैंकको
'त्यसैले
▁छानिएका
▁नबोल्ने
▁प्यारो
बक्स
▁उपप्रधानमन्त्री
han
▁गाउँको
▁दक्षिणकाली
गौरिका
▁हातेमालो
(प्रजातान्त्रिक)
▁सांग
▁अर्का

▁बासिन्दा
पुस
#comment-5
▁शक्तिका
▁हिड
▁नसक्दा
▁निधन
▁वहन
ple
™
粕
▁सेफ्टी
▁तान
▁प्रत्यासी
階
▁बस्तीमा
ۇ
▁भगवती
यो।
착
▁तत्कालै

▁खड्गी
▁हट्ने
▁लैजाँदै
▁यशोदा
▁साउदी
▁कोही
▁प्रहरीका
▁अरुणा
▁गर्दैछ।
ึ
▁चेन्नाई
यसैगरि
܆
▁चोखो
▁सुनार
▁उत्रे
▁सान्दर्भिक
▁सेभेन
झ
feature
▁मतभेद
▁भूतपूर्व
▁आमाबुवा
men
hare?text=%E0%A
▁अजय
भल
▁पार्लर
▁'पहिलो
▁'मि
존
fa-
हरुमा
थोक
4%95%E0%A
▁'सि
▁'राष्ट्रिय
खेतीयोग्य
▁चाकरी
▁ban
आउदा
▁अपनाइए
💐
ก
▁कटु
ϳ
▁बत्तीसपुतली
▁मासिक
▁फस्टाए
▁मह
ओली
怎
पठाउँदा
महाअष्टमी
▁चेल्सी
▁ट्रेनिङ
▁रवाफ
▁दुराचार
अाइतबार
▁अज
▁थपिए
Ȼ
मध्ये
Ơ
▁९
rly
▁नेत्र
जेपी
ता
▁राख्छन्
▁सम्पदा
भवन
▁प्रज्ज्वल
लक्ष्मी
पाइयोस्
ᤒ
▁देखापरे
温
▁चलाउनुपर्ने
▁चलाउँछ
▁लैजान
एक्काइसौं
ŕ
酶
2019/03/751
▁लिबिया
ঃ
▁घेर
½
目
れ
ڦ
▁गुमाउनु
▁जिल्लामा
▁अपाङ्ग
▁जले
▁पूर्णिमा
0%A4%B8%E0%A4%BE
▁बुढामगर
资
▁क्रसिङ
िन्
वन्त
ner
关
▁पढ्नुहोस
through
▁समर्थक
▁नहुन्जेल
▁लड्दै
ვ
ून्
सबभन्दा
▁पसे
局
लिस्ट
▁book
判
▁सिकार
▁गहना
▁प्रतिकुल
▁गाग्री
均
▁रा.प.
▁विचौलिया
&#8212;&#8212;
▁हुनाले
▁'मुलुक
▁खडका
▁किशोरी
▁लुक

▁राखेर
diaspora
▁रथ
▁गरिन्थ्यो
▁सर्जरी
▁निष्कासन
▁सन्
खेलिरहेको
功
९९
象
cricket/5
▁that
駙
▁लगत
▁सदस्यता
▁आफ्नो
▁प्रयोजन
▁४,
▁बढाए
▁महानिरीक्षक
▁विनम्र
ڰ
▁पोस्टर
विकास
過
▁दक्षिणा
▁पत्रिकामा
▁जनावर
तिर
▁भेल
▁एकाइ
▁बिबेक
▁स्वीडेन
पुँजी
▁14:38:
राइट
+b
इण्ड

▁भिषा
2018/09/703
▁बिरालो
खाले
▁शपथ
सचिवस्तरीय
卜
▁गृहजिल्ला
ॴ
▁शमशेर
▁इंग
▁व्यहोरा
▁लगाउनुभयो
論
▁बसाइँ
jana
▁छिर्न
▁देख्नु
▁कृयाकलाप
▁बिग्रे
💿
😞
विवेक
▁समूह
▁साथीहरु
▁बेरोजगारी
आउनुस्
▁झल्क
艾
袖
▁बिरोध
▁खुल्ला
▁फेसन
▁मौनता
+%28
ुभएछ
糸
▁श्रावण
튜
▁कोशेली
▁सम्झे
▁शब्दावली
΃
▁खड्का
▁प्रहरी,
▁पठाएका
▁स्वाधीन
▁पब्लिकेसन्स
▁५०,०००
▁जन्मनु
,खे,खो,गा,ग
؆
श्रीमान्–श्रीमती
कल्याण
4%97%E0%A
▁'बाहुबली
▁पठाइएको
▁थिति
▁creat
ޱ
▁इलेक्ट्र
▁साहसिक
4%B0%E0%A5%81%E
▁नलगाड
ខ
झिनो
नेपाल–भारतबीच
adi
▁शितल
▁हिडे
always
स्कार
▁बताउँदै
▁हो,
फेस
5%87%E0%A4%A1
Ӟ
जनकपुर
譏
▁उद्योग,
विकेश
▁भर
▁जान्छ
द्घ
7"
▁नलगाए
▁छैनन्
ག
▁उत्पादनमा
वमोजिम
0%A4%B9%E0%A4%BF
पेक्ष
▁बेचविखन
▁प्रतिनिधिमण्डल
ायो,
見
▁प्ल
▁मौसमविद्
possible
祉
▁पुगिरहे
▁जाकार्ता
肥
एससी
छ ।
▁think
▁वालवालिका
ऋणात्मक
हिजै
▁ब्रत
▁गह
news/world/1
Dr.
ܶ
्सको
丰
😔
ݴ
▁स्थानीयले
▁तत्व
▁मरुभूमि
म्पा
श्र
Ο
▁पुरै
▁'संविधान
▁प्रदिप
▁वर्गमा
▁नील
▁नेसनल
आणविक
▁क्षेत्रहरु
▁साम्
▁गर्दथ्यो
礎
▁पुँजी
▁घटेको
མ
▁बिरुवा
▁दौरान
▁आर्थिक–सामाजिक
▁दामोदर
▁परिपूर्ति
▁बच्चाहरू
▁तिहार
座
▁चराचुरुङ्गी
捂
▁सचिवालय
▁'यस
बै
▁पठाए
▁खातुन
▁फोटा
▁हुन्छौं
▁आरिफ
▁गाडे
▁विविधता
▁नियाले
▁हान्ने
जमिनमुनि
ł
Ǹ
▁मिर्गाैला
▁पदार्थ
▁भोजभतेर
彫
कृया

▁थिए।
Ȯ
▁पाकिस्तानमा
▁झापा
▁दण्ड
बोल
9:40
▁सिलिगुडी
ચ
▁इन्टरनेट
▁राशि
▁लगाइदिए
▁मुछिए
▁अञ्चल
अनुकूल
63
टेन्सन
३/३
▁जयन्त
▁हुलाकी
▁परिर्वतन
्दी
इन
ਛ
ܣ
ગ
▁बालबालिकाको
‌ं
歩
जाजरकोट
▁ब्रेक
▁हमला
सानातिना
▁हजुरबा
▁'कति
भूत
\
▁महिनाको
▁कार्यक्षेत्र
▁अभियानको

▁फर्किँद
ѐ
▁मनाङ
▁चल्ती
लोकबहादुर
जिल्लास्तरीय
▁रुस
▁गतिविधी
▁कसुरदार
펣
प्त
%E0%A4%9F%E0%A
▁लखेट
撮
म
िल
संघर्ष
▁छुट्याउन
खाएँ
▁अनुसरण
纪
▁बजेदेखि
▁छिनो
▁जुट्ने
▁सोधें
0%A4%9B%E0%A5%8C
ģ
▁सामसुङ
▁गोठालो
▁पेप
▁काठमाण्डौ
▁शीर्ष
▁खुल्छ
▁देहावसान
ैया
+%E0%A4%B9
▁साहित्यकार
▁चिता
͙
▁'आधा
See
▁ड्र
Ѳ
▁बुर्जुवा
㉠
भारतबीच
▁समितिमा
▁यमन
▁माइ
▁बङ्गलादेश
▁थुप्रै
▁तेरो
▁चुचुरो
यातायात
Next
▁परिस्थिती
▁थिइन्
▁पाइनेछ
▁उपभोग
ahile
me
Please
छिटो
▁पुम्से
▁ओमन
▁देखें
▁निरञ्जन
▁बुझाउनु
ुभएन
▁टेलिश्रृंखला
▁दुई
ुपर्दछ
िदियो
尋
ṏ
捊
▁some
ासाथ
▁ओपनिङ
राज्य
▁सेक्युरिटी
▁हामीले
▁सभ्य
▁'सबै
▁मुकेश
▁नरहने
कडा
2019/05/766
Х
▁कर्तुत
▁जानु
▁बहिष्कार
▁फैलाउने
4%97%E0%A4%B0
А
艕
छैठौं
餅
▁समवेदना
▁दीप
▁प्रवल
▁सातौं
....
B9%E0%A5%81%E0%A
▁गरिसकिए
वलोकन
ुभो
ݔ
॑
▁आएनन्
▁सपिङ
貌
▁रोकिने
▁उपर्युक्त
؄
▁जताततै
调
⎼
▁फाउन्डेसन
▁म्युजिक
जुल्द
阅
▁विद्यावारिधि
▁स्वरुप
梁
▁चीज
▁आत्मनिर्भरता
▁ढिलो
⁦
▁पार्टीभित्र
▁लोकप्रियता
आइपी
▁फैलिए
▁फोल्ड
चउर
41
▁समूदाय
%E0%A4%89+%E0%A
▁अर्कोतर्फ
▁बढाउँदै
▁ग्या
▁&#8220;
ヨ
긂
▁०६८
▁जिम्मा
▁ना
▁बहुमत
▁योजनामन्त्री
׾
漫
▁वास्तविक
▁वाग्ले
ल्
▁२०७२
पाउँछन्।
▁नहिँड
▁बेद
▁धनुषा
▁नन्द
じ
▁सूची
▁बढाउनुपर्छ
▁लेखिए
ुवा
▁महेन्द्रनगर
▁हौसला
▁दिल
鼠
रिज
▁नभेटिए
▁बाझिन
痿
Յ
ו
观
▁प्रसारणलाइन
▁अपांगता
▁खण्डन
▁कलेक्सन
▁number
सडक
葉
बहिनी
▁काँग्रेस
▁दिँदै
▁रङ्गशाला
▁बैद्य
▁दोहर
▁खुल्दुली
▁अशक्त
▁हावाहुरी
▁एकिकृत
▁ल्याइएका
▁ग्रिन
怕
▁आईपीएल
▁रिसोर्ट
▁मार्जिन
वृष्टि
मुलुक
ƨ
▁चारजना
▁कामी
संशोधित
्‍यो
▁सुमो
▁हिन्दुस्तान
▁बिर्से
▁नाता
▁कम्युनिष्ट
द्द
▁शौ
▁बँदेल
त्रे
▁दवाब
޿
▁यौन
▁बग्ने
̥
▁अधिकार
͕
▁हृदय
▁बोक्ने
▁स्वार्थ
ຯ
▁प्लान्ट

▁हटे
▁भयो।
१९८७
Ӛ
▁गरिदिन
▁कपुर
▁फर्किसके
▁भित्र्याइ
football/45
▁गरिरहनुभए
▁झण्झट
▁बढिरहे
▁टेलिकम
ྤ
▁दुविधा
购
▁विपत्ति
▁साइक्लिङ
栅
डक
ȇ
▁अब्बल
ग्राह
िसकेका
▁देवघाट
ʂ
▁लगिने
▁गर्दछौँ
▁अँध्यारो
▁सक्छ
्थे।
२-२
▁पेरिस
▁भुक्तान
▁औँल्याए
▁नेपालगन्ज
谈
िरलै
▁सक्छ।
▁हतार
▁बढ्नेछ
▁बजारीकरण
सोहीअनुसार
▁कन्जरभेटिभ
▁ड्या
ल्हामु
▁टिभी
भिन्न
▁सञ्चयकोष
मेन्ट
लेखन
˘
▁आकर्षक
▁नहुदा
▁पिडा
▁एनआईसी
▁पटेल
▁जगदीश
ਲ
▁आर
▁मसला
टाभट
▁रोशनी
&#8211;
ठी
׵
ˀ
វ
▁रंगशालामा
+%E0%A4%AE
याेग
▁भए
ुहोला
№
▁थालेपछि
▁नख
ỷ
Nepal
जस्तोसुकै
र्ण
मण्ड
卡
݀
▁घार
▁कमेडी
दुवैतिर
ढु
朱
▁नदेखाए
▁मानिन्छ
▁लाख,
지
▁अध्यक्षता
非
टु
▁प्रिन्सिपल
▁रहुन्जेल
▁मच्चाउने
जन्य
▁दृष्टिले
उटिन्हो
▁नपरोस्
▁नागबेली
4%BF%E0%A4%8F
ٺ
▁उत्पत्ति
▷
4%BE%E0%A4%AA
▁चक्लाबन्दी
करीब
装
▁एक्स
▁रहनसहन
बैध
诉
▁जाति
१२
Samachar
्थ्यौं
▁करोडौँ
अनुमानित
擇
de
ग्याल
▁गुरुत्वाकर्षण
▁हजारौं
▁too
+%E0%A4%96%E0%A
राड
▁तिर
▁स्कटल्यान्ड
▁नर्सिङ
坚
▁अनुसूची
▁धर्मावलम्बी
֌
निश्चित
▁has
페
ߚ
▁स्वीकृत
抜
▁रोचक
▁दिपक
▁download
▁एक्सचेन्ज
▁चालु
皮
▁डरलाग्दो
Ɛ
ள
608
▁बेत्रावती
▁सुव्यवस्थ
▁भाँच्चिए
ट्टी
▁ठट्टा
▁सौजन्य
▁सन्चालन
▁ज्वालामुखी
त्यतिवेला
▁पत्रकारहरू
155
am
ुले
▁मृतक
–११
▁पञ्चायती
▁नबस्ने
▁हेरेर
दर्शक
▁बाक्लो
▁प्रभावकारिता
▁कारावास
ढंगबाट
समाजवादउन्मुख
▁साँ
▁पूर्वमाओवादी
▁आफूहरु
▁पढ्न
鏹
▁किटाणु
户
िदै
▁पञ्जाव
▁अवश्य
▁पुर्याएको
▁सिष्टम
▁आफनो
▁पुँजीवाद
▁गते
▁निराकरण
▁दूरसञ्चार
統
투
ह्र
玩
▁प्रेरणा
▁निस्केका
newsofnepal.com/
媲
▁नदिए
▁नाङ्गो
▁संस्कृति,
चोक
▁मष्तिस्क
▁फिनिसिङ
▁सामुन्ने
捷
▁प्रभुत्व
▁अन्तर्
▁खोज्दा
▁दिन्छौं
▁तपाईंहरू
▁भइ
▁पालनपोषण
5%8B+%E0%A5%A4
▁बज्राचार्य
▁म्याट
원
▁अवि
▁मारवाडी
☺
▁मनोबल
ल्याउनुभयो
%E0%A4%B5
अन्तर्गत
▁अकाउन्ट
▁पछुतो
▁जीटीए
製
्वि
▁बर्बाद
▁खन्ने
▁स्वीटजरल्याण्ड
▁बिर्ता
娱
04
▁वृक्षरोपण
basketball/
्छन्,
न्
▁भोकमरी
以
۬
▁सै
▁भौचर
▁थिचे
४–१
▁हावापानी
▁रहने
सैन
pra
▁भलिबल
शी
▁निक
▁नखेल्ने
▁छुट्याइ
▁बढ्यो
▁थाल्छ
𬧟
▁बनाइरहेका
बिरुवा
▁लाग्नेछ
▁ट्रष्ट
俗
▁पुरूष
▁बैठकमा
(४)
▁कस्तुरी
▁'छक्का
32
्लि
ܳ
Ł
▁अतिवाद
▁पढाउन
साथसाथै
▁नेमकिपा
▁तम्घास
▁देखाउने
▁सूचि
णि
▁शुक्लागण्डकी
▁मुलुकभर
▁व्यापारघाटा
▁लहान
첫
▁सुबेदी
▁क्षेक्र
सोमबार
पृष्ठ
आउलान्
ͥ
▁भेट्टाए
्ली
बर्षदेखि

▁निगम
▁उपरीक्षक
▁साबित
호
▁चल
हु"दा
▁चिन्न
▁डुवान
▁ठेक्कापट्टा
▁बैंक
▁भईरहेको
▁हार्
▁लिभिङ
沉
रङ्गी
हाराहारीमा
▁बाल्यकाल
違
%E0%A5%A7
▁09:5
Ｒ
खोई
मोबाइल
▁धङधङ
▁छैटौ
▁हास्यव्यङ्ग्य
▁तराई–मधेश
▁लालपूर्जा
▁06:5
स्थानहरुमा
▁निलम्बित
▁प्रौढ
विद्या
▁सिधा
271
निर्बाचित
▁बिन्दुमा
द्दा
काठमाडौँ
अनलिमिटेड
▁मस्र्याङदी
पीएल
▁दिइनेछ
▁चप्पल
▁प्रिमियर
4%A4%E0%A4%BF
▁कञ्चनजङ्घा
册
▁छिन
།
▁नि।
▁जाउलाखेल
हेभी
肖
▁प्रदायक
▁जुट्न
▁खेलाडीहरू

▁पुग्नुभए
▁नबन
▁कीर्तिपुर
▁एकाप
du
▁सिलिङ
霤
4%AD%E0%A4%BE
दलबहादुर
津
握
▁बहुविवाह
्पो
साद
▁सावित्रा
/2017/05/58
▁शिथिल
▁नत्र

▁मौ
･
▁भौगोलिक
▁हुनु,
▁अनौठ
बेठिक
▁मनोनित
▁प्रतिशत,
▁नयाँबानेश्वर
▁गइ
तिरेर
▁चियापान
▁कृषिक्षेत्र
▁भे
financing
▁क्षेत्रीय
title>
▁घोषणा
▁लिङ्देन
▁रजत
陸
▁ताक
्न
▁गराइने
एकमात्र
ादेवी
चि
広
0%A4%A4+%E0%A4%
▁महङ्ग
▁रोजगारदाता
▁समान
▁तरुण
▁बनाइदिने
▁वरदान
▁ल्होसार
립
▁प्रशिक्षार्थी
▁आधारमा
▁अश्लील
▁years
03
हुन्डाई
▁उपस्थिति
▁छाड्ने
▁फेरिए
▁क्रियाशिल
▁पुग्छ।
▁नबन्ने
ice
ᱱ
▁डेलिभरी
▁देखिन्छ,
▁आना
▁भद्रकाली
्नी
載
▁अनुवाद
▁कालोबजारी
सित
▁चालीस
Bank
▁अपहरण
▁वकिल
▁बिस
の
जनप्रतिनिधिविहीन
趣
▁हीरा
▁रेखामुन
か
▁निदाए

▁यज्ञराज
▁प्यानल
▁यातायात
▁ट्यांक
▁मार्टिन
▁फि
▁गि
▁ग्लुकोज
नौं
▁पाटी
शान्ति
百
敷
؋
👍
ό
▁छुट्टै
▁रूपन्देही
▁वर्षसम्म
▁अफगान
▁वासस्थान
▁सिफ्ट
तले
ช
ᤁ
▁आहारा
▁उज्ज्वल
5%88+%E0%A4%
▁देखाएका
▁वे
̾
▁सिकाउन
शा
▁'कन्
▁bi
▁मणि
▁अनुष्का
勤
兄
▁गर्नुपर्छ,
▁आग्रह
▁सेज
15/
▁क्लियर
4%BE%E0%A4%A8
▁बढे
▁मुक्ति
▁जीप
ф
कम्पनी
मत्कारिक
संरचनाअनुसार
缩
4%AD%E0%A4%BF
▁आरोप–प्रत्यारोप
सुविधा
हारा
撑
4%B9%E0%A5%87
镍
▁आवास
▁हिक्मत
if
▁जयप्रकाश
▁निवासमा
▁सहमति
स्थीत
܈
▁संविधानको
䠭
ुपरेको
▁बात
▁कृष्णबहादुर
नजानेर
▁सङ्कट
陥
▁सांगीतिक
▁एनआरएनए
▁प्राधिकरणका
異
▁सुनेर
▁जटिलता
▁संगीतमा
समय
&#039;
एनएसजेएफ
▁होल
वेन
▁ओहोर
▁हडताल
▁विवाह
ᇎ
▁अड्किए
भित्रै
▁बाँस्कोटा
▁मालसामान
▁कर्मा
5%8D%E0%A4%AB
▁प्रयोगशाला
लेखापढ
स्वकीय
▁बिभाजन
▁मातृका
չ
▁लुटेरा
भोजराज
Dur
▁गाँउपालिका
▁बुढापाका
७५
哔
NE
▁लुइँटेल
▁अन्त्य
द्व
▁दबाब
▁अड
▁बूढीगण्डकी
2018/11/719
답
ສ
▁रिफ्रे
▁डुम्रे
▁हिमताल
▁यसअघि
▁मम्मी
लुम्बिनी
सातासम्म
▁हराएको
▁More
▁'ल
▁रुपैंया
4%BF%E0%A
▁ओभ
सियस
ダ
▁समुदायले
अनुशार
Θ
▁बल
▁सकिरहे
伺
▁विनोद
min
▁ओछ्य
ʿ
▁बे
▁भन्नुपर्दा
ुङ्ग
0%A5%8D%E0%A4%AF
▁खुब
▁बुल्गेरिया
▁'बादल'
प्रस्ताव
सहितको
5%88%E0%A4%B8
▁गोरखा
▁ल्याइएको
☎
݂
▁'इ
भन्सार
▁साविक
▁सेवासुविधा
पर्यटन
七
▁गोकर्णेश्वर
▁वैकल्पिक
▁गराउदै
भा
▁मीना
偶
'यदि
4%BE%E0%A4%96
nu
ामा
▁जनविद्रोह
वाइ
ितिसक्दा
▁भुवनेश्वर
उल्लिखित
申
걯
ڱ
▁बिज
▁अनुराग
▁बगैंचा
Y
▁हजुर
83/feed
क्याप
▁बदर
秉
脂
क्य
ҫ
where
%E0%A4%B0+%E
4%BE%E0%A4%8F
▁महर्जन
टहरा
▁सिरियल
▁आँखाले
▁दफा
▁अर्थव्यवस्था
0%A4%95%E0%A4%BE
▁वाङ
खोज्नुभएको
أ
團
गरी
▁चुरे
▁समयको
▁शिख
▁६७
Narayan
▁बुने
▁शुक्रवार
▁उदासीन
▁डोल्मा
ല
सिसि
सक्छ
▁डिजेल
172
▁चाप
▁त्यहि
३३
▁ट्वीटर
♔
า
Ό
▁सिक्किम
▁निस्किन्छ
倾
्याल
▁रसायन
▁हो ।
▁मानिएका
▁सर्वशक्तिमान
▁भेरी
'मेरा
कार्यस्थलमा
▁संस्थान
▁भल
▁रिजल्ट
▁लेखिसके
ᇟ
▁नेतृत्वले
▁देखाउँदै
्रो
奴
▁संगित
▁शहरीकरण
▁जा
▁बताएका
▁जनकपुर
९१
ƞ
न्त
▁कार्टुन
▁जेठ
▁मेस्सी
▁सम्झना
▁विराटनगरमा
▁अग
▁स्विस
▁डाँडामा
▁तुच्छ
https://w
▁न्यूज
न्द्रा
▁प्रतिष्ठा
▁कट्रिना
emocratic
0%A4%B8%E0%A4%AC
▁माओवादी
▁ल्याइ
▁खने
▁दुबई
स्कर
▁रूख
कसलाई
▁श्रोता
▁नेताका
▁सी
▁प्रिमियम
▁पिरो
▁अर्थमा
》
म्भ
▁नगरपालिकाले
ؓ
보
付
0%A4%97%E0%A5%8D
▁दोहो¥याए
વ
संचार
नन्।
▁गृहमन्त्रालय
kal
▁औचित्य
हालतमा
▁राजनीतीकरण
हरूसँग
हुने
▁अन्तराष्ट्रिय
▁पहाड
▁आश्रय
멋
▁आधारित
▁विशेषाधिकार
▁कार्यालयमा
▁शिखर
▁नवप्रवेशी
̉
ाइएको
▁लागु
ound
▁स्पस्ट
सुटुक्क
बर्षअघि
▁०७०
த
▁गर्मी
ױ
#comment-832
भागवत
मेरो
廉
्स्
जेड
▁गाय
ಶ
🐏
▁हाते
▁परिवारलाई
▁बगाए
▁देखेर
िनु
लीला
▁"म
▁२००९
हूँ
स्योरेन्स
सकिएपछि
▁युभेन्टस
▁बेहोर
▁मल्लिक
Ꞗ
▁'यहाँ
▁गएका
सन्त
▁हिजो
▁नसुन्ने
।'
नर्मल
59
▁ढाल
▁बनायौं
ेश
▁साउद
▁गन्ध
▁साइन
अघिल्लो
▁भानु
▁निर्मात्री
唯
▁कोट
દ
कृति
+in+
▁मक्
nd
▁कंग्रेस
▁लाश
▁इस्राएल
▁बेचैन
長
▁फुकुवा
動
people
सात
▁बढाई
▁माध्ययम
▁पथरीशनिश्चरे
▁सामु
渤
▁थाके
▁फुटबल
रिङ
+sam
एमजी
पांग्रे
work
産
▁परस्पर
/A
▁ट्विट
ni
5%81%E0%A4%9D
暫
▁यथ
▁लोकमार्ग
ތ
▁फकाउन
▁ईशा
तया
▁खाता
▁मुभमेन्ट
▁अब्दुल्लाह
खचा
▁पोखराको
▁href="http
▁उखु
4%9C%E0%A4%BF
▁सानो
▁विवेकशील
頼
▁पौ
▁कार्ल
▁इनिसिएटिभ
▁डुबान
थेग
+++
▁दिवाकर
薪
4%9C%E0%A5%87
ｬ
बाजी
Ӫ
ય
磅
▁सिटौला
▁दुर्गादेवी
▁आइटम
▁उनी
+%E0%A4%A8%E0%A
ɒ
▁मतपत्र
韓
्छौ
्के
खरमा
¸
▁पुस्तकहरू
▁इङ्ल्याण्ड
王
▁सनातन
चिङ
▁७०
▁लाग्छन्
पिए
֬
▁कार्
दानी
________________
▁चिप्ले
驩
लिङ
▁फाईनल
5%8D%E0%A4%A1
▁पत्थर
▁हाने
▁नगरपालिका–२
▁जमाना
▁रित्तो
▁मटिहानी
भी
▁लडाइँ
▁प्रसुति
▁घर,
▁सत्यता
▁नेप
▁प्रिया
ली
▁'आर्थिक
▁वाक्यांश
m
▁रंगकर्मी
㢙
self
news/sports/
傳
ुम्
मेण्ट
▁सिट
ៈ
▁सर्वोत्कृष्ट
▁मुल्याङ्कन
ख्यात
▁भ्रम

आन
amp;amp;amp;amp;
णीय
培
▁गुलरिया
▁भन्सार
▁तालतलैया
▁अलैंची
▁होला।
▁रंगी
development/
▁असक्षम
सर्वा
।रासस
अलोकतान्त्रिक
5%81%E0%A4%B2
तः
💥
ݬ
▁तेन्जिङ
▁मिडिया
ڇ
戒
觀
13
▁अस्ट्रिया
▁भनिदिन
ेली
豚
iz
–ठूला
но
▁चुनावमा
्यौली
▁समन्वयमा
▁टेलिभिजनमा
िरहनुभएको
▁ओभरमा
▁खुवाउने
९८४
▁कण्डम
慧
▁नरहे
०७४/०७५
媛
á
▁विकासमन्त्री
﻿
过
跨
ृंखल
▁निर्देशक
▁चिकित्सकहरू
▁कारोवार
▁गर्दैछौं
▁पौडेलले
▁जनअपेक्षा
­
▁मध्यमार्गी
ۺ
▁बुबा
▁छिरिङ
र्प
दिइसकेको
▁सक्नुभएन
शिला
अस्तित्व
恥
▁भर्
तुङ
छौ
▁रुक्म
छौँ।'
▁परिचालन
▁किसानहरु
करण
▁हर्क
▁लैजानु
▁बित्त
앙
▁सुजन
/
उन्मुख
绣
跤
▁भिलेज
▁बिल
▁कुद
▁डिफेन्डर
▁काला
▁गोइत
pe
录
▁आइल्यान्ड
▁शव्द
▁खोकना
▁संस्थामा
▁डिफेन्स
▁प्युठान
एसएस
▁नपाउनु
६.८
임
▁पटकथा
▁घृणा
▁म्यागजिन
▁आध्यात्मिक
ਿ
दिसामुक्त
▁neta
▁पुनर्गठन
koseli/201
▁उत्साहित
▁छौं।'
ताले
केही
सराइ
▁चुमनुब्री
▁देख्छ
मणि
in
वितरण
▁पर्याप्त
▁आधिकारिक
▁दिपेश
ۤ
जिङ
ai+
▁थिएँ,
▁वी
▁जन्मदर्ता
એ
▁व्यवसाय
0%A4%B0%E0%A4%B9
說
ीकन
▁महसु
▁युरोप
१९७१
▁गर्नुअघि
▁हुन्थे
▁प्राकृतिक
ာ
ङ्गा
सुर्तीजन्य
ظ
属
▁पुर्ण
姜
▁नसकेको
▁हैन
Ҹ
िस
ụ
श्रम
फ्
▁शूद्र
िकता
लका
पैसा
4%A8+%E0%A4%
ʉ
प्रशासन
▁दूरदराज
▁हटाउन
▁गराएको
▁सज्जन
▁वास्तवमा
▁बालाजु
▁औषध
▁फँस
▁गएरात
ϟ
सँगै
▁सुन्दरी
कुलप्रसाद
▁व्रतालु
▁सेभिल्ला
▁लेख
▁समुदाय
܀
सुविधाजनक
▁सिस्नो
▁सामाखुसी
▁मनमुटाव
纳
िराखेको
▁पुछार
▁पाइन्ट
▁९,
न्याय
▁महिषासुर
代
▁बोलपत्र
▁बाँध्ने
▁ढिलाई
료
▁राख्थे
▁आमहड्ताल
旱
▁आमालाई
▁नागरिक
िडम्वना
▁बनेपा
泡
▁गुहार
4%95%E0%A4%BE%E
▁इस्लामावाद
▁कटौती
५
ྴ
▁उपयुक्त
允
फुल
▁फ्रान्
働
诞
▁तपार्इ
न्ड
▁ट्रक
▁पुर्जी
विभिन्न
铭
▁कहिल्यै
▁पदाधिकारीहरू
ø
ろ
igger
▁शेख
▁हेर्नुपर्छ
हन्ड्रेड
▁थाहा
品
▁मुड
▁जलजला
▁रामजी
सले
प्रदत्त
▁जुत्ताचप्पल
險
▁रोह
▁मिलाउने
疶
ढि
▁प्रदीप
▁बुद्द
▁भिनाजु
▁महेश
வ
▁मुआब्जा
▁भीष्म
tell
पत्तो
योजन
▁महावीर
▁सिण्डिकेट
▁जिताए
0%A4%AC%E0%A5%8B
व्याप्त
bru
19
२०७४/७५
▁चालिए
▁ल्होत्से
शील
▁बादल
गएराति
▁गरिँदैछ
▁संगीता
▁नबनाई
▁स्वास्थ
▁अनुसन्धाता
▁आहृवान
▁काश्मिर
旅
▁चौधरी
ߛ
▁असुल
▁वाम
िरहन्छ
▁यूएस
▁स्वशास
▁इन्ट्री
र्ब
▁असहयोग
▁शाकाहारी
▁वैठक
0%A4%A4%E0%A4%BE
▁सम्पत्तिको
▁सदभावना
并
▁जन्मस्थल
▁बढाइने
՛
0%A4%AF%E0%A5%8B
▁जान्छन्
▁पिउने
▁मेयर
▁भ्याट
▁फेब्रुअरी
▁फेवा
▁भनियो
평
۹
▁महानगरपालिकाका
▁सुझाए
िहाल्छ
▁दाह्री
▁भेट्ने
▁गंगामाया
–१५
कताको
ߤ
▁देवता
Ҽ
板
▁कल्याणकारी
घण्टा
▁रुपमा
▁अंग्रेज
▁'त
pm
▁चिने
▁सम्झने
बुटवल
दाखिला
▁प्रतिस्थापन
0%A4%95%E0%A4%B8
Ժ
▁मूल
▁इम्प
pal
▁थिच
थ्री
वान्
ट्युब
▁प्रा.
ुत
%E0%A5%88%E0%A

ક
▁बान्तवा
▁लेख्नुहोस
भ
▁९.
मोटी
act
dc
डायलाइसिस
#comment-770
芸
▁आकांक्षी
▁गुणा
ाउनुपर्ने
▁चामे
▁चीन
ื
जात
赋
▁पूर्वसचिव
▁कार
▁बिरामीलाई
▁बुझाउनुपर्छ
पङ्क्ति
5%8B%E0%A4%95
▁कर
▁के–के
ɨ
준
▁जयशंकर
▁निकालिन
▁इस्लामाबाद
址
▁उद्धृ
▁अबसर
ݧ
▁सक्तैन
▁कृषि
▁कर्णबहादुर
▁वरुण
▁गराउँदै
मधुवनी
▁अधिक
गृह
▁'जन
季
0%A4%A4%E0%A5%80
▁पस्क
▁वैदिक
▁लर्को
혜
म्याच
▁ज्याला
सेवक
▁डा.केसी
त्री
▁नेवा
news/auto
▁अधुर
क्रिस्टियानो
३-०
▁पुछ
▁नगरे
▁उमेरका
ite
▁रुचाउँछ
▁पठाउ
▁बढेको
–१९
नुसार
अन्दाज
▁हदम्याद
आधा
onlinekhabar.com
▁झोलुङ्गे
▁हिम्मत
क्री
रोकिएका
▁सेमिफाईनल
an
▁ठट
▁रोज्न
锏
▁पदयात्रा
एक्लाएक्लै
▁प्रमुख
▁बामपन्थी
▁ल्याउँदा
प्रक्रिया
̎
▁मनोविज्ञान
🐒
▁बिषयमा
ार्थी
▁भौँतारि
；
ाभिषेक
तन्त्र
▁इमानदारिता
गोष्ठी
ۜ
▁खाइसके
▁टोटनहम
▁विधान
▁नम्बरको
▁दैवी
▁चल्दैन
▁थालिसके
▁गोपनीयता
ਖ
ʴ
0%A4%A8%E0%A4%BE
▁सङ्केत
▁विश्वविद्यालय
員
media
▁खेलहरु
▁तुलसीपुर
▁वटा
▁हर्षोल्लास
箭
咨
አ
स्वागतयोग्य
▁पूर्ण
भूकम्पपछि
覚
▁पेनाल्टी
▁भिœय
ʝ
▁शनिवार
+and+
"Ma
झन्डै
ʕ
▁विक्रेता
▁फर्ज
亡
ĉ
՚
▁प्राधिकरणको
實
▁स्केच
▁छु।
▁खत्री
▁मंगल
▁सघाए
▁पराकाष्ठा
▁कोलकता
ाउँथ्यो
奖
▁शैय्या
▁'बी'
दिशातर्फ
▁जिम
▁हिन्द
五
▁कप्तानी
▁पदाधिकारी
▁गर्‍यौं
गर्न
ุ
▁व्यस्त
truth
नाफामूलक
▁कुकुर
▁इन्स
▁सिप्रदी
▁लाग्छ।
▁तोकिदिए
▁स्थानान्तरण
▁मंगलबार
▁तेह्रथुम
SH
▁बहुआयामिक
▁कम्प्युटर
▁व्यावसाय
▁वजेट
▁रेडक्रस
▁नवाज
▁प्लानिङ
▁नेपालको
니
▁सोलुखुम्बु
▁दिसा
▁टेक्न
िसकेको
4%B8%E0%A5%88
ល
▁मुन
▁चौका
Ф
▁थालेका
▁दुर्घट्ना
ࡡ
ꗿ
約
▁सङ्गठ
फत
▁बढाइ
▁शोषित
▁पर्दछ
▁खेल्न
ș
▁बुद्धिजीवी
祖
ɝ
हिसावले
▁फैलिन
4%A5%E0%A4%BE
आतंक
臭
▁दाउ
▁वितरक
▁उत्तरपुस्तिका
ɪ
▁पारेको
<unk>
《
▁पाँचौं
▁तुवाचुङ
▁दम्पति
▁इण्डोनेशिया
▁विद्वान्
▁घ
▁सिंगापुर
靖
▁साधारण
▁श्रीमान
रियल
▁रञ्जित
▁सिङ्गापुर
▁कहिल
έ
ަ
▁खिचिए
ȼ
tu
쁺
▁गतेदेखि
▁बरिष्ठ
serious
िस्केट
▁नांग
▁'फ
▁आइपर्ने
बडिगाड
▁कावासोती
▁फत्ते
4%AF%E0%A4%A4
▁दोहोरी
▁अत्यावश्यक
नाम
.एस.
空
देल
▁हालिमुहाल
SE
▁सुर्
▁मजदुरहरु
▁स्ट्याटस
▁झैँ
रामनवमी
薄
육
▁निधार
०९
거
א
ल्य
▁व्यवहारमा
▁दुब
͜
育
▁फोटो
▁सङ्ग्रह
▁डाइभर्सन
▁नवरात्र
▁हित
▁थन्क्याए
▁पेल्न
門
▁प्रश्न
▁प्रोडक्ट
▁गर्नुहोस्।
▁कान
▁अगाडी
kehi
प्रणाली
▁गरिरहन
▁भ्वाइस
▁एप्लिकेसन
ाधिक
▁उनीहरुले
▁काभ्रे
▁विश्वस्त
細
▁थिमि
▁दिइने
▁खच्चड
ग्लाइडर
कान्तिपुर
▁बारेमा
▁कुराहरु
विहार
▁चिल
Ô
छोप
िन
before
▁टर्मिनल
惯
껴
▁काजकिरिया
89/feed
▁एआईजी
▁पुथाउत्तरगंगा
▁ठगे
▁गर्नेछन्।
▁घण्टी
▁थला
▁एचके
▁घुम्ती
▁आचारसंहिता
▁गिरिजाबाबु
盵
ু
ূ
छन।
▁हाले
ğ
▁गराए
察
▁सम्पूर्ण
▁नातागोता
ल्क
▁चुहावट
प्र
▁लगाएका
▁विहीबार
▁सामुदायिक
▁ओमप्रकाश
如
扑
गाडी
क्रिए
बन्धु
▁स्क्रिन
सरस्वती
परवाह
沙
पन्न
공
▁राल्फा
９
▁हिड्ने
▁डकर्मी
ៀ
▁शिलान्यास
▁आप्रवासन
ON
▁लाङटाङ
ुप¥यो
론
▁रुपैयाँमा
▁अनुभवी
खरा
▁चैत
ेँ।

▁गुमे
▁बागबजार
▁आगामी
ुरी
▁ट्र
▁पुनर्निमाण
▁पुगेका
脐
wan
▁वर्कसप
▁गर्थ्यो
ary
भञ्ज्याङ
धेरै
▁स्टे
▁सुचना
▁भेडेटार
प्रेषण
%E0%A5%81%E0%A
Ԅ
▁स्वदेशी
卫
▁मन्त्रीहरु
▁पुर्‍याएको
▁दुनिया
ܿ
▁सि
▁महिला–पुरुष
▁उपदफा
▁सर्वेन्द्र
राब
▁सर्पदंश
▁आईरहे
企
▁तराइ
▁विरल
er
७५०
伯
ߺ
ӽ
▁जिउने
▁'काठमाडौं
▁फहर
kopila
ट्वेन्टी
▁गैंडा
▁सामन्ती
▁ताँती
ब्
4%9F%E0%A4%95
▁मिनट
व्यवस्थाअनुसार
▁डेरी
▁सुने
ۂ
%E0%A5%87
ℑ
4%A7%E0%A5%81
सिवाय
閉
प्रदेश
4%9F%E0%A4%BF
▁विवरण
ϗ
▁बोल्छन्
सिकलसेल
▁गएपछि
▁लाप्राक
सनाखत
▁सटर
ʃ
▁मुर्ति
५६
▁ga
▁बिजनेश
पेड
वु
🙁
्यारा
▁Media
▁लेखमा
浮
網
▁पायो
▁पाएर
ir
▁नरक
▁तलव
V
▁आदान
marg
a,
571
मर्यादित
▁लोकगीत
▁गोश्वारा
▁एमएडब्ल
▁मनाए
जोन
सके
▁आयो
▁पुकार
▁पुस्तकमा
▁भइरह
화
▁देशहरु
▁हितैषी
▁अनेरास्ववियु
▁विनाश
▁स्वारेज
▁बर
▁लै
ウ
Ş
▁मेनपावर
▁प्रभाग
▁भैंसेपाटी
212
share-
स्मृति
Ș
नारायणप्रसाद
▁स्टालिन
▁खडा
+%E0%A5%A4+%E0%A
सान्दर्भिक
▁एक–अर्का
4%AA%E0%A5%81
Ң
height:
ʫ
▁पाएका
विध
机
▁६६
दूषित
集
Ｏ
न्ज
ब्यक्तिगत
▁क्रमशः
फागुन
▁शुद्धीकरण
ര
嫲
प्रकारले
▁आश्रम
結
नीता
सनले
▁बस्
▁सानिमा
▁फर्किने
▁श्रीलङ्का
▁भाष्य
▁टेक्सास
減
▁paisa
▁आ.व.
▁दिन्छ
▁यूरोप
ढी
▁उमेदवार
▁सार्थक
▁'स्मार्ट
as
दोबाटो
屽
शास्त्र
▁स्वाथ्य
ाभिन्
▁खिम्ती
उदा
▁सुक
杠
▁no
▁पर्नेमा
ेन्जर
पुरानो
पश्चात्
ask
▁नियमित
एघारौं
¯
सिट
▁इत्यादि
▁सम्बोधन
एक्कासी
▁बिनियोजन
▁"क
फर्केर
▁ठूल्
▁सञ्चारमाध्यम
न्डल

रहेपनि
序
렶
▁ग्रीष्म
▁गरिबी
▁सोधपुछ
yog
▁सामुहिक
एकसाथ
▁पाँचतारे
▁सभाध्यक्ष
ყ
话
सम्झेर
▁हार्दिक
▁'बि
▁देउवाले
▁गोसाइँकुण्ड
▁इंग्लिस
▁पद्मरत्न
▁अल्टिमेटम
京
They
▁गतिलो
տ
▁खलबल
▁लाहोर
रहेछ,'
किनार
֓
▁द्वापर
▁सास
▁पेट्रोल
▁डढेलो
general/1
▁मोनो
ни
वासीलाई
comment-id="83
ीया
▁कार्यसमिती
▁न्युनीकरण
ϙ
81
▁निरङ्कुश
▁छुटाउन
4%AC%E0%A5%81
ؔ
▁भैलो
▁पार्‍यो
▁चक्कर
4%96%E0%A4%BF
▁sp
▁मानिसहरू
▁नेपाल-भारत
▁श्रृंखला
▁शहरमा
ོ
३–१
ϒ
▁पहुँचमा
▁लेखापरीक्षण
▁मादक
▁चिन्ह
&#8221;
토
सम्बन्धि
唱
▁डिपो
▁व्यवस्थापन
क्ला
ਣ
吞
लिन
▁घुर्
▁पेन्टागन
▁खानपिन
▁।
▁धरोहर
▁फ्रिकिक
▁डेन्टल
5%82%E0%A
授
🎹
▁डिसेम्बर
बीएस
िंदा
І
▁आयुष
▁मनन
▁सुस्मिता
回
▁बाँधे
सङ्ग्रह
▁तुल्याउने
▁प्रतीक्षा
▁जबरजस्ती
ाज
▁दम्पत्ति
▁लोकतन्त्र
▁परिरहेका
म्य
सर्वोच्च
▁स्पोर्टस्
्लु
▁च्या
▁मर्ने
mit
▁सक्नुपर्ने
▁विषयमा
▁दरभाउपत्र
帕
器
÷
▁दह्रो
२०२५
▁ग्याँस
कै
आरके
▁मजबुत
▁महाराजगन्ज
▁उपमहानगरपालिका
▁दिए।
▁आइओएम
▁एचआईभी
▁बस्नेत
▁छायाँकन
▁९०
😫
▁स्नायु
र्इ
▁निस्कने
▁पानीमा
%2C%0D%0A%0D%0A
▁उक्ले
▁बेलबारी
▁स्वावलम्ब
▁बुझिन्छ
▁खोली
▁प्रोफेसनल
浪
▁२०७०
▁घरभित्र
▁तालमा
आएको
................
▁भुस
ǖ
+sa
न्स
▁टी
▁फौज
▁बोल्दा
▁प्रतीक
▁कमैया
[...]
