##्वास
៕
चितवनको
पाइरहेका
जान्छ
ݷ
विधेयकमा
##저
फ्यान
ប
आगजनी
##पाइ
##गि
हराउने
वाइड
क्रमश
सपनाको
एनसेलको
खस्ने
चौरजहारी
옰
##रात्मक
##ἆ
过
코
पारेका
̝
##फाई
निभ
##लेख
##ेक्स
आईतबार
港
लगेको
देवेन्द्र
##rit
विद्यालयमा
उल्लिखित
##क्ष
ݹ
ढोरपाटन
सम्बन्धको
##ƶ
एउ
सभाका
##मेश
##ǧ
##ﶂ
##alled
अलावा
२०५१
माछापु
열
पूर्णता
农
मानिस
##ational
##ߴ
##뒣
##ष्ट
%
टेक्नो
अध्यक्षमा
##̅
थापाथली
प्रविधिका
##ޜ
##வ
##층
##מ
ׄ
ਦ
焦
##ali
एजे
भैँ
वर्तमान
##ܐ
##ताब
##घु
##த
##..
दण्डहीन
नाराबाजी
क्लबले
बच्च
after
लैजाँ
般
चित्रण
ज़
##जन्तु
पहलमा
絶
#.
एकैपटक
प्यूठान
अन्तर्रा
ृ
उद्घ
एज
शक्तिमा
শ
##˫
販
##बिच
ڇ
पारे
23rd
ማ
टुंगिएको
##्याउनु
पका
只
इच्छाशक्ति
समिट
ά
स्वास्थ्यलाई
##ढा
ह्वात्तै
准
२४
##ޫ
##ँदैछ
गुमाउने
आक्रामक
##ӊ
##urly
##क्कर
दिनहरूमा
युरोपका
मुनिका
##आइजी
ͯ
##ซ
क्लाइ
##ागो
##vert
˼
योजनाबद्ध
##˭
व्यवहारले
锏
सोमवार
灿
व्यवसायीलाई
department
परिचयपत्र
संसद्बाट
बूढीगण्डकी
##ۧ
##स्ट्र
ˆ
##ҩ
सास्ती
सित
##ंड
रहन्छ
##तीकरण
बुझाएर
घराय
産
##दा
##सरह
खुर्सानी
कालोबजारी
96
तुरु
थाम
अत्तरिया
गराइन्छ
मकवान
ꇯ
儲
체
##🌺
तिरेको
##ੜ
०३
##“
गर्भा
फौज
##ina
टेम्पो
眕
बिदेशी
##ण्ट
##ow
##่
##समूह
फलफूल
हालतमा
अन्तमा
##if
##hr
पन्जा
साहु
##ŕ
##ɡ
समाधान
सस्था
उदासीन
म्याग्दी
##पाले
कन
##दार्थ
तोड्ने
सयौं
ü
भुक्तानी
तेज
##ܗ
अर्का
ò
##सेवी
丝
۞
आँकलन
##सनल
हजारसम्म
##᪰
८५
ո
राखि
मिल्यो
d
मन्त्रि
पूर्वाधार
सिस्ट
##ैँ
मगर
सन्नी
नारायण
##प्रेस
##भरमा
भत्किएको
##ธ
लिएर
घटनाको
##^
ȋ
##７
कार्यालयलाई
ꕊ
विद्यार्थीहरुको
उपविजेताले
नम्बरको
ჰ
एल्
꯬
प्रजाति
##गृह
ด
नियन्त्रण
गुणस्तरमा
उहाले
##ूलक
बारेमा
भियतनाम
’,
पट
इरान
दिनहरुमा
प्रदायक
सकिएको
##ڈ
in
ऐनले
##њ
##अर
शीर्षकको
ൈ
सुख्
##͛
##nt
##पाल
䒛
लिटर
؋
राश
##ण्डकी
##क्रिया
ֹ
सिंहदरबारको
##पडी
##៨
##વ
पारिजात
महेन्द्र
##🌿
सिलग
सातामा
##ंशी
सुकुम्बासी
ঢ
##कारात्मक
ɀ
बरामद
रेल्
पूर्णरुपमा
अभ्यासमा
֪
मोटरसाइकल
बिषय
長
##ह्
🏿
तीव्रता
融
सर्वा
बुधबारदेखि
लब
रोनाल्
प्रिमियम
##न्डो
##ख
##]>
##िरा
see
맞
ȯ
पाएपछि
##ूँ
ֶ
तमोर
##ĳ
प्याक
ईश्वर
##۱
ƽ
बेवास्ता
##ѣ
प्रच
##न्दे
कच्ची
सघा
भ्रष्ट
##߉
##रक्षक
अप्र
कोरिडोर
兰
काठमान्ड
##ese
琉
अदाल
रगतको
麗
निस्केका
##¨
चाहिने
अस्पष्ट
प्रायो
हिल्
##ic
動
##लाईन
げ
##त्या
राजनैतिक
͜
शुक्रबारको
a2
##खाँच
##😢
कुवेत
छाडि
华
सम्बन्धन
आश्वास
नपाएको
होइनन्
गरिसकिएको
դ
##ु
कालोसू
syndication
हिउँद
鴈
ɠ
जोड्दै
२००९
##⁄
गुणस्तरहीन
दिदीबहिनी
हरा
在
मुम्ब
राहु
टिमलाई
मृतकको
क्षेत्रफलमा
वकालत
🙈
अपवाद
खसेको
🖕
##िरह
जेठो
9b
गम
जिस
गरेबापत
जलजला
##ौली
बनिरहेका
##राइज
जित्ने
##ठ्
##पाली
##र्चु
व्यस्त
佛
##ᑀ
挺
अर्
छर
##गान
##ன
www
##۶
ʅ
सुनु
गुणस्तरको
최
##धना
##🇺
实
##लकण्ठ
बहुल
राजनीतिका
##ݒ
विद्रो
सञ्चालकले
武
##न्डर
##59
हात
択
चेम्जो
दृष्टा
कानुनको
##푋
स्टेडियममा
風
麼
june
##ेजको
केसीलाई
炉
##मस
ϋ
##न्सी
##ाउ
##वान
निर्देशन
聖
##ंका
##लोकन
##न्डिङ
##उपर
क्रममा
ग्यासको
##नाला
##ṭ
##र्नर
2014
##सोधन
अहिलेसम्म
拳
कक्षामा
गर्नेछु
नव
इन्दिरा
एकदिवसीय
खनिज
उन
बिहानैदेखि
##iv
##िर
##😑
गाँस
वातावरणको
सिक्न
सुग
चुनौतीपूर्ण
##मिर
बाहिरि
कार्यकक्षमा
##चि
ꑝ
縄
##׬
रोकिने
##र्श
कोही
गर्नुअघि
राम्रोसँग
##कृया
विहान
##ेन्स
बेज
ِ
फेर
˃
स्वास्थ्यका
मापदण्ड
नीर
परिवर्तित
प्रतिवद्ध
##तीय
नदीले
कने
कारको
खाद्यान्न
सङ्गठ
ﴄ
पूर्वमा
निष्पक्ष
शिखरमा
喺
害
##ਧ
तस्कर
景
कारणले
दिइ
महत्त्वपूर्ण
देशले
##ď
##ठा
##ੱ
##અ
घोषणा
आश्रय
##주
सिलसि
हाम्रै
！
##۩
ज्ञवाली
종
##शु
पानामा
डाउन
मोटरसाइकलमा
##ोत्कृष्ट
##ܭ
त्यसमा
##मोहन
##བ
न्युरो
भ्रमणको
អ
##हीले
泵
अविजित
宙
किट
गराएर
奧
ڳ
चिकित्
खुट्टा
नाकाबन्दीका
पाठक
उहाँका
विश्वक
सुजन
##ۛ
##तिया
##तीत
縮
पटक्कै
वासिन्दा
##➥
स्कु
लक्ष्मी
काठमाडौ
गरेपछि
【
##हवा
उत्तरमा
项
ᡬ
कटौती
अभियानले
史
आवागमन
ɳ
साहित्यमा
担
तुरुन्त
सिंचाई
至
मध्यपश्चिम
##्ररी
##नमार्क
बुझ्ने
भल
ڶ
नभएपनि
प्राज्ञ
##्समा
वार्तामा
9f
᮱
भजन
वंश
潮
ȁ
फाइबर
〝
청
ન
킸
﹯
##धाम
भलि
त्रिपुरा
##ڌ
कामहरु
ߜ
##6
यसतर्फ
##֡
##ेसी
निर्वाचनबाट
堹
राष्ट्रियताको
बुझिन्छ
साथै
lastbuild
##ỹ
रद्द
साइबर
##밥
best
##दाताले
##बै
पाउँछन्
भारतबीच
महोत्तरी
खोज
##ाग
तहले
लिम्बू
बस्नुपर्ने
문
リ
##स्नु
##ोधन
戸
तपाईं
पत्रको
रहेछन्
🇷
खेद
थोर
विस्तारमा
२०६३
निष्कर्ष
20th
중
,’
钨
##त्पादक
##छन
जिल्लाका
परिरहेको
##उत्पादन
ٝ
विस्तारित
पौडेललाई
##िकले
नभएपछि
##ite
हस्ता
נ
霼
##17
लाग्दा
##ݑ
सिता
जनमानसमा
֑
##ीमाथि
##ˠ
##िकाले
虐
सरस
भिजन
氓
गर्नुभयो
सुन्
樓
जीवनलाई
而
डडेल्
##पेक्ष
फेब्र
।
҃
##र्सा
कांग्रेसको
क्वाटरफाइनल
त्यती
भाँच
कथामा
मेची
विरुद्ध
##무
溅
##แ
##नास
हिमपात
##र्सिलो
मैनालीले
धूम
वरिय
दिनेश
##😅
दाउ
沬
त्यसभन्दा
##पानीमा
##ị
स्वाधीन
भुसाल
पूर्वाग्रह
अर्थतन्त्रमा
##र्यो
ζ
रण
स्रोत
हल्ल
दाहाल
महिलाको
##िपरि
समूहले
명
लम्सालले
सु
箭
सङ्घ
##यता
##ाउनुपर्छ
गरिबी
ɂ
##მ
जनरल
नामको
आम्दानी
भिडियोको
㝔
tha
재
나
##डान
लाइन
अर्डर
चासोको
गरिसकेको
b0
̵
##नुपर्
陘
经
ᤘ
जून
मानसिक
भगवान
##स्थ
गराए
रोल्पाको
निहुँमा
उनीहरूमा
ct
ۜ
बनाउनका
##कुटी
लहर
05
मनोज
वल्र्ड
演
##लक्ष्मी
ओछ
प्यारो
##दुरी
##ɗ
崦
ي
ะ
##ۊ
##च्चा
प्रतिपक्षी
सहमति
##णिज्य
कार्यकालमा
बाजे
߫
बिमा
##ʠ
मारेर
सिकाउन
कार्यान्व
महानगरमा
कदम
##पनमा
छिन्
##x
भेटे
हालको
इज
निष्क्रिय
ताली
##장
˝
##ँलो
##क्टरको
जयन
तटस्थ
रैथा
##ݢ
##सेनापति
挨
गर्भपत
##ेन्टी
बंगाल
जर्सी
मध्यन
साधारण
ۦ
अत्य
##वेला
߱
सल्यान
ʙ
##ȅ
##नजिकै
उपत्य
##िइ
浮
खोज्ने
ѷ
##तरण
ԟ
तारिफ
ഘ
आआफ
गन्तव्यमा
आएपछि
विद्यालयका
##ौट
河
di
जनायो
踩
साथि
बलिउड
挩
दाङको
##착
सायद
ӄ
##भ
बी
##हाले
हट्ने
##ʀ
##गाउँ
आहारा
##्र्य
졌
अप्ठेरो
##गरमा
पुरा
##ɴ
##ीत
##ाउनुभएको
केन्द्र
डिग्री
युवाहरू
पक्र
गन
क्षेप
ф
अध्यक्षले
अर्गानिक
निर्माणका
##ڇ
अधिक
握
算
##ε
##लित
जापान
बुझाए
56
ّ
सम्
##ाइन
तथ्यांकले
##धनको
छान
ऱ
文
##मन्त्रण
适
झाडा
🙏
##ional
इजलास
प्रयोगको
##ig
##त्रि
विवाहित
##へ
बीच
सन्
입
एशियाली
##र्गतको
निकुञ्जको
##खोलामा
##टिक
۸
सामग्रीको
##ផ
सामथ्र्य
खलंगा
संज
उच्चतम
155
दह
नियमा
मोर्चामा
72
विकाश
ԫ
a0
##판
##ͅ
संरक्षणका
धारा
हुनुहुन्न
चर्का
ة
स्का
##ئ
economy
सुनुवाइ
##नीका
##रै
##र्जी
ख
अग्रिम
##तारा
बौद्ध
फुकुवा
##ż
निर्देशनमा
ﯗ
तटबन्ध
߼
परिधि
आगामी
ز
रोकियो
राम्रो
##់
प्रकरणमा
किनेको
अङ्ग्रेजी
##ियाँ
अरुणा
परित्याग
</
समीकरण
∘
ܙ
हत्याका
अधिवेशनको
बिदेशमा
विश्वविद्यालयबाट
झल्
छोरी
##act
गएँ
ޘ
जीर्ण
##5
५०
सहज
##54
भाषिक
जापानको
कास्कीको
सङ्केत
बग
##बु
तत्पर
सर्वसाधारणका
݈
जनार्दन
धर्मनिरपेक्ष
तिनै
##जको
रगतमा
##ङ्ख
टस
वन्य
##ぃ
इन्भेस्ट
##क्ति
देशहरूमा
जगतमा
बहुदलीय
फाइ
##कोटमा
रहनुपर्ने
聪
भारत
֖
अवस्थाबाट
मानिसहरुको
く
फ्रि
##दय
##मगर
##ुञ्ज
प्रतिस्थापन
##ޟ
§
समाधानका
cha
आवे
मानन्धरले
कलर
गरेकामा
अनुभवको
ट्विटरमा
पुनर्स्थापना
##योजक
मनोरम
झापामा
कुन्
संकलन
ला
ट्राभल
##ŷ
cre
˧
f
##ल
अम्बर
बढ्दो
##तक
##ɰ
पार्व
नामक
##ޕ
##필
##02
58
जनकपुरको
चतु
सक्त
##ुलि
अफर
कुम्भ
लगत
झे
मुश्
##पर्य
मिले
कफ
समृद्धि
㽳
##֕
nbsp
##ؿ
坪
򊪻
साफ
##न्दि
ڽ
चुपचाप
##जनले
##ǰ
गाइड
बिच
बुध
접
a4
渉
तिब्बती
##त्मा
पाकिस्तानको
href
जनतामा
prog
##भा
##षाध्यक्ष
फाल्
त्यहाँबाट
लाग्न
ٌ
消
##द्दी
##र्भ
लज
सिफारिश
विपरीत
सम्मेलन
ۮ
ٴ
##जनको
##썮
ki
बिन्दु
##ァ
##क्छ
दिइन्छ
पदको
मन्तव्य
अनभिज्ञ
एलि
##ज्ञा
##۫
##पाथ
भविष्यमा
##l
##ԉ
##लाइनमा
बाट
##चिव
ल्याइएका
विद्य
लन्डन
२००४
멘
΀
廊
बच्चालाई
पाई
ह्वाइट
फ्रे
वैचारिक
पोर्न
यम
##☎
बञ्चित
काट्ने
तेक्वान्दो
뛥
चौं
ْ
मा
भन्द
##भाष
##विज्ञ
गोलरहित
भित्रका
##근
##विनायक
जानै
विरोधका
👱
आउँथ्यो
सँग
रोटी
सिल
डिन
महिलाहरूको
छोडि
एकअ
##θ
׼
भएछ
मिठो
ԉ
##र्षिकोत्सव
輻
घटनाका
तिल
their
##arma
対
विराज
उभिएर
##ɑ
संसार
##ӣ
##eat
##वर्गीय
惧
修
펥
आयकर
##रिङ
##बक्स
##و
##टेनिस
灑
##दर्शन
गर्नुपर्नेछ
##᤻
##󠆶
देखाई
雷
듖
##न्जा
निमित्त
निकायले
पाएर
##ュ
वृह
ʻ
蒙
biz
मूल्यवृद्धि
##、
सुम
◄
गोलमा
नक्क
##बुबा
##त्ताको
潟
##िल्लो
ब्रह्मा
भ्रष्टाचारमा
झुन्ड
मनोविज्ञान
पचास
पुल्
改
갥
≡
##ė
सन्तुलन
##ियान
अ
पानीलाई
##េ
##्यमा
सुबिधा
ड्य
##🏼
कम्तिमा
निर्देशनालय
फरवार्ड
भक्ति
##टनगर
सूचक
चाउ
लेखापाल
काली
comments
##ang
शोषण
खन
音
रुसले
##यौँ
अलिकति
साइड
माले
##for
विरोधा
##ҙ
ɡ
##ma
##담
घन्टा
नभेट
मधेसमा
##लीका
आया
गाउँको
##पुर्ण
भ्रष्टाचारको
कोल्
प्रशस्तै
तस्क
अभ्य
गराउन
७
##हाल्यो
##da
why
##जाग
अन्तरिक्ष
सूर्यको
मञ्ज
पुरातत्व
रेन
##नेल
बेवार
経
नहट
आध्यात्मिक
बे
؆
##గ
减
वरपरका
国
송
##ォ
जनजातिको
नाचगान
ǝ
##׋
अस्पतालको
##ち
##ोषित
##ߞ
##ct
चकले
पश्चिममा
艕
##सेन
शुभे
听
परीक्षामा
##कृति
##भंग
말
##लाल
##ᤗ
नियाल
प्रस्ट
##per
##˛
##ん
तटीय
एकको
बढाए
मनाइ
मानव
टेलिभि
सामाजिक
स्प्र
摘
वीर
ԕ
खसीबोका
ट्वि
रुपैयाँको
防
繰
##16
बुझ्दै
विभेदको
し
आँखाको
सिमित
ը
##똖
2015
कोरियन
त्यसैगरी
भत्काएर
##m
हेरौं
ใ
##िदिए
テ
##साट
मनस्थिति
हराएर
कब
एकेडेमी
शिक्षकलाई
祈
##रिक
-‘
ताम्रा
##यन्त्र
##यात
जलस्रोत
##थलो
##ݡ
##ថ
अवि
晦
जनाको
ច
θ
साब
हैसिय
कावास
##साधन
##श्मा
खेर
##राउन
椎
##ϼ
दिनको
me
߸
अनुहार
မ
ហ
##ट्टा
ʽ
wed
##साब
##कुट
##।
╟
##न्टन
##ŧ
आएन
##߯
##पातिक
नपा
व्यक्तिलाई
सिस
computer
बाणिज्य
##ical
##삼
##फोड
क्लिन
पागल
विमानको
हेर
##ҏ
वीरबहादुर
##धारण
लिनुपर्ने
दुव
9
सक्नेछन्
san
साकार
‒
##कमल
epis
救
##स्पति
२०५४
कार्यभार
束
खोज्दा
납
皮
कनेक्ट
कर्त
प्याराग्लाइ
बिस्फोट
༺
2nd
कार्यक्रमहरू
सहयोगमा
जोम
दोब्बर
सेफ
ग्वा
फ्ल
ߎ
##le
晙
谁
##नीकरण
##धामा
बनायो
##ு
##ुरको
घर्तीमगर
##ܑ
अर्जुन
ӂ
जस्तै
गराउँदा
शब्दले
महत्त्वका
ޛ
will
अप्रत्या
हरिप्रसाद
##यत
##बन्धु
凹
ら
##ȥ
👇
##ʉ
तीव्र
ɗ
खोजेर
##देख
μ
श्याम
##ά
ॊ
社
शाक्य
##mber
चीनका
##ེ
विषय
बद्
斜
##ल्दो
ﹾ
##रात
जुन
दी
स्थलगत
201809
टेक्स्ट
错
रामे
आइफोन
दायित्व
გ
सर्वसाधारणले
##द्र्
ड्र
सयपत्र
茨
कप्तान
गठित
##ारीको
⤡
वारेमा
##forma
लामालाई
艾
##कालीन
नाक
##तमा
##लीले
##트
पड्
एप्पल
सध
काठमाण्ड
虚
##13
##िँदैन
प्रविध
劝
##लभ
嗯
भान्
एक्सचेञ्ज
##धारमा
सन्तानले
डलर
##ի
खरी
जित्दा
清
स्टु
part
###
आयोजना
सुनिता
栓
उद्यमशीलता
月
##🤚
दिनहुँ
पानीको
間
चिल्लो
##˦
वस्ती
पेसागत
֨
नगर्नु
प्रशंसक
≠
यहाँबाट
ग्राहक
##स्टर
नाइके
अधिका
##ष्फोट
आडमा
गर्नुपर्दछ
##गन्ज
##ेती
##प्ने
##ా
आधु
जम्मा
तिमीले
सुन्ने
✴
अत्यन्त
##ेजस्तो
##सके
६०
सम्रा
अचान
विभागबाट
किरा
phot
स्वयम
मन्त्रालयले
返
준
कार्यल
आम्दानीको
सोहि
##न्न
लिम्बूले
महिनादेखि
##ڣ
यस्तै
kas
दसैंमा
##ष्ट्र
ែ
##बाहक
##֚
##तिरबाट
सांसद
##्याट
吞
##ܘ
आत्मा
ു
##ियाको
उसले
एभर
##ⷙ
पुर्व
·
##ro
##਼
नील
मृत्यु
##itter
##э
विदेशी
஗
##हल्ला
同
पावर
方
कार्यका
##ｔ
परम्प
बचाउ
饙
##ेस
महतो
स्मार्ट
##ỡ
##पुरको
ת
列
नन्द
संगी
##̡
全
赁
̆
निर्देशिका
近
भी
͔
फागुनमा
खसेर
अग्रसर
कञ्चनपुरको
गथ
喪
繁
दाजु
##शै
बताएको
गर्ज
##लाखेल
चप्पल
दलका
祺
##🏡
##चाप
गुर
##दशा
妻
##रह
पूर्वीय
खानेपानीको
aba
പ
महिनायता
दाहालले
मधेश
छोप
死
##्र्याे
##ژ
##रीका
टोलीका
याे
सरसफाइ
घरका
बलात्कारका
##सम्ममा
उज
false
😊
##ठे
यससँगै
##टिको
力
ī
##जाम
अधि
##ments
एकताबद्ध
जनवाद
##बको
कारण
##ш
##डेट
परिवारलाई
फेरबदल
छोट
׵
հ
अरू
तालिका
भोग्नुपरेको
ԛ
🎥
मापद
澡
界
स्वा
बासस्थान
##म्भव
##ȍ
##वाकोट
##😶
तै
मनो
जन
減
तोडफोड
नीतिले
##¢
एआई
##काको
शरीरको
ხ
済
##मानले
आत्म
🎶
just
updateperiod
औष
एनआरए
दिइरहेका
##ट्ट
आत्मघाती
꣕
螺
##ʹ
צ
##गञ्ज
##ोरी
उद्घोष
चलन
२०२०
आएको
तल्ला
शाहीको
##बीचमा
विषयले
विश्वास
##0
सभापतिको
सम्पर्क
बस्तीका
##हरुमा
##hil
##हाको
##संगै
֡
सुवेदीको
##݂
जस्तापा
डिम
डे
सङ्कट
##ើ
बौद्धिक
कवि
##͌
򃃺
करु
खाल्डो
☆
ᇟ
मन्त्री
ˉ
򊼱
##ेलाइट
भोगेको
գ
गिरफ्तार
आयआ
उचा
##ռ
│
परि
场
黎
ី
##ड्रो
विसंग
सक्छौँ
ร
##ӗ
共
##िनुपर्छ
##ী
बहाल
ს
从
अध्ययनरत
静
##क्रान्त
骗
낭
命
##ick
तोरी
स्तरोन्न
सकेन
हुरी
ᨵ
आफूले
युवक
हार्ड
##rish
ټ
ठूलै
फेडेर
ꅕ
ष
##ˏ
##म्यान
दर्श
खेलिरहेको
##ह
थल
मर्मतसम्भ
##िएला
महोत्सव
नमिल्ने
##ेड
२०५०
##तिर
进
##लिज
चौरमा
##ामक
कुमारी
##जोर
ईयू
बाढी
ड़
##opost
ע
पाएकी
देखिन्छन्
限
विविधता
회
langu
आएकी
伏
鴱
यसपल्ट
हुन्छन्
耍
निधन
कन्ट्र
दलितको
टेलिकम
निवारण
റ
धौलागिरि
पुर्पक्षका
##र्देश
##मार्टम
आन्दोलनकारी
परिर्व
प्रक्रिया
घर
##ぼ
एयरको
##छुत
तोकिए
##काव्य
आयोगको
आफैँ
बढाई
##con
##ル
गर्नु
मुहान
विस्तृत
ೆ
##ớ
अभिलेख
##र्तमान
उत्पादनका
ϫ
##ɨ
위
खानेपानीका
चै
##ŭ
ͳ
हरियाली
प्रेरणा
प्रतिवाद
वर्गमा
खोलाले
यौ
तराईका
कार्बन
encoding
##वादका
जाँदै
ठोक
पद्
ब्राह्
指
##ase
彼
鉄
सातवटै
57
गैरआवासीय
##याउने
dhar
राजदू
##तालाई
##नजिक
##र्दा
मजदुरी
चल्यो
रोल
##्याग
##ٟ
##दै
अनुशासन
ठेक्का
पुग्नुपर्ने
शाखारहित
कोषको
અ
✌
उत्साहित
##작
क्षमतामा
सफलताका
देशबीच
我
पाण्डेले
कभ
पुज
विकासका
अनुकुल
##ach
करारमा
बनेर
इरा
##हिने
७३
ត
留
याउन
हत्यामा
##मे
##ree
##केका
औद्योगिक
##노
जुटाउने
दयनीय
वर्षा
सक्दैनन्
टु
दुर्व
##߹
##लेका
##हिटी
छुटेको
宗
##et
##सलाई
##क्का
मसान्त
區
##लाका
आवश्यक
뒭
뒲
##थिल
복
居
साना
पहिचानको
निर्देशकको
डब
सूर्योदय
##सतमा
मुस्लिम
ٞ
##ear
सलमान
ര
परिवर्तनको
##ाएको
फेरिएको
क्याम
ബ
祠
अपमान
##दृ
गर्नुहुन्थ्यो
भनेजस्तै
सर्तमा
##sp
##܂
##ेरै
टुक्र
लोडसेडिङ
##न्ना
ং
##ӆ
α
कक्षमा
गोरखाका
वर्गीय
ओगटेको
州
খ
जिन्दग
सुनाउन
起
उदाहरणका
##ober
ताकेता
+
##ߏ
दैवी
बराब
##ņ
᪰
##देस
##हेरी
अनुत्पादक
##हरले
चारै
भन्छिन्
ताप
depart
राजस्थान
मतदा
ߊ
##नारायण
치
##🙏
##ছ
##कालदेखि
ׁ
स्पिनर
##ball
समाजका
बढ्न
##आफ
स्वास्थ
अमानवीय
दिउ
पाइरहेको
नेदरल्यान्ड
##ぎ
##징
सोहीअनुसार
😢
##रहेको
पहिलो
##बाह
ޏ
##41
ऐन
गर्दैन
##ism
##नमा
धातु
##खाप
निर्णयको
पायो
रुकु
碗
##बिन्द
इन्जिनियरिङ
##х
काठमाडौँको
##अलि
पोशाक
हड्डी
शास्त्रीय
लाभांश
हुनुमा
प्रकाशक
ऊर्जा
डेभिड
메
पहिला
कमिसन
##िंग
निःशुल्क
प्रचार
आश्रित
काय
ʈ
８
##é
##धारा
कहानी
ざ
lo
कृपा
विषयवस्तु
भर्स
咽
गिरीले
##न्यो
इँ
##स्ले
पर्यटनमन्त्री
##फ
चुनावपछि
थालनी
कामहरू
ग्राहकको
माल्
नगरका
मीठो
देख
पत्रपत्रिका
##कृती
दुनियाँ
कार्कीले
##д
so
बेद
पन्त
##급
हारेको
आशावादी
##राले
##लगायतको
देउसी
ڌ
लक्षण
ɲ
##ི
पदमा
##न्दैन
बेला
श्रीमानले
सालपछि
ͦ
कार्यत्र
प्रहार
व्यापार
್
##मू
##gar
बेच्ने
सम्वन्धित
##तन
डलरको
##ǵ
कहीं
मुख
उहाँले
ग्राभेल
द्वितीय
##ish
फ़
##पुर
销
합
##क्षण
चम
भूमिसुधार
मोदीले
क्रियाकलापमा
ध
घन
🙋
ݶ
題
टक
##्नै
##ഞ
दुईको
が
सम्मिलित
जवाफमा
華
थापालाई
बढाइएको
गोल्
ट्र्या
दोहन
##ग्रो
##लिंगी
खट
포
घोष
顺
##टक
节
##ेलमा
लेनदेन
##ჹ
किलोम
ষ
✋
ललितपुरमा
नजिर
अर्थतन्त्रको
डाँडा
।’
रहस्य
मुस्किलले
##क्पा
##미
प्रशारण
उनीसँगै
色
खेल्न
컬
कार्कीको
##ंग्रे
थालिसकेका
लगाउने
ド
पुरातत्त्व
都
पाठकको
महसुस
परिवारका
विराटनगरको
महाराजगञ्ज
##लीको
ĩ
😦
ސ
अर्धशतक
नआएपछि
법
हङक
औ
सीमान्तकृत
खेलको
释
फौ
##ब्जा
दोहोरी
##वर्क
ढकाल
##डेर
तर्जुमा
##शाली
ช
##̘
त्यसपछिका
होइन
##ॊ
ढुङ्ग
सन
ब्राजिलले
बमोजिमको
भरिभराउ
##त्त
हस्त
व्यवसायीका
##रण
关
विकेटका
छानबिन
ढंगबाट
##ྱ
प्रकारका
बारा
बुधबारको
‰
हत्याको
अड
मज्जा
##निट
हत्यारालाई
##वादी
मना
प्रष्ट
अनेरास्व
मेक्सिको
ڔ
बिष्ट
शरीर
बाहिरिने
निल
महादेव
##ञ्चन
##42272
सुरक्षाको
##उद्
##ֳ
##र्दी
एमाओवादी
##ܖ
ԩ
न्यौ
##रहने
घोटा
瞪
निर्माणले
पाइएको
व्यवसायीको
हल्का
शेष
रगत
##नेपाल
##ैर्य
काग
हिंड
郵
थरु
भाजपा
##ӑ
##इएको
भेटवार्ता
भृकुटी
रौन
मार्केटिङ
कोसिस
व्यवसायीहरू
别
रुस
प्रतिकूल
सूचनामा
जितका
律
##डि
लोभ
##⚠
##खालको
통
甩
पूर्वतय
अण्डा
नपुग्
拼
##൓
जङ्ग
答
जितेर
ގ
उस्तै
बाँकेको
क्याम्पमा
##ƥ
##ޑ
##क्ताको
महानगरपालिकाको
ₒ
नागरिक
򎐃
फर्किएपछि
घना
दर्शनको
सर्वे
ě
##™
आव्हान
㝞
##िसक्
##̛
op
प्रजा
ब्यापार
초
राख्छन्
##■
##ڑ
##अगावै
कर्मचारीको
चालकको
##🇴
##शू
सहारा
हटेको
##लागी
टीका
##पन्थ
##न्ता
कलि
काशी
नागरिकले
संस्थापन
शंकर
##ेशनमा
घुइँ
मिथिला
विकेटले
##क्षेत्रीय
##बि
̓
ј
जाँ
भावनाको
苏
फूल
預
विषयहरू
ज्व
##̜
ᤀ
भनाइ
लोकतन्त्रलाई
अधिकृतले
पल्सर
##ɛ
##न्जेल
किरिया
चरण
भ्रमणका
##अध्यक्ष
अंक
कमला
֝
##ਇ
नजिकै
创
यार्चा
朝
नेपालीहरूको
नतिजा
पूर्वी
सम्बन्धलाई
69
सिकाउने
##वर्ग
##🙁
गिरिराज
बढाएका
टिक्न
राखे
嫌
इन्स्यो
##ञ्
सिग्देल
ʺ
विवरणमा
##मिङ
ÿ
रोम
サ
##शालाको
ដ
##जाउ
##क्रा
ह्वा
栃
विश्वभरका
पारिवार
माथेमा
डिसे
हकप्रद
एयरलाइन्स
##92
जितसँगै
##मी
ढकालको
##rom
फलो
##लेर
童
***
剰
फूलबारी
सजायको
##णिज
०४
最
##घ
वर्षीया
जनम
स्थानीयवासीको
अधिवेशनमा
सम्मेलनमा
बगैंचा
ж
जीएस
％
शुन्य
मुनि
रावल
अन्त्यतिर
यसबीच
पुष्टि
मानिसहरु
उषा
⟳
🎁
लगायत
त्यसैको
능
##ष्य
भोकै
स्तरो
➥
फिलि
##हार्य
पोर्चु
##ɋ
घण्टा
अप्टिकल
钥
શ
भत्काउन
संख्याको
प्रणालीलाई
挪
##परिषद्
कुराकानीमा
##금
दाहालको
##ώ
जिल्लाहरुमा
⭕
रिचार्ज
सेवाग्राहीको
माध्या
आशिष
ԝ
रित्
##परित
मेगा
߶
कृया
裏
विज्ञापन
柄
ɺ
##ेन्ड
##ざ
साथबाट
##बस्त
時
राति
##ϸ
एप्लिक
ट्रान्स
भानु
ۙ
अंकुश
गिरिजाप्रसाद
हर
बज्र
मान्छ
##토
##ߔ
##िमा
⎼
सङ्ख्यामा
जनकपुरमा
प्रभावशाली
呈
##ाउनका
模
त
##lo
उपसचिव
खुल्ला
राइ
堯
राजनी
chairp
##ܺ
संघिय
ಡ
विफल
##फिल
अवस्थित
कञ्चनपुरकी
तम
݊
##र्चा
##लीकरण
नेताहरू
पाँच
रहि
##며
खेलाडीमा
अक्स
७५
⚠
आइडल
खोजत
ݑ
जरु
रामचन्द्र
समारोहका
दब
बज
䉉
##정
ꊳ
अवस्थ
नृत्य
राखिने
पुराता
##चे
ओभर
रिपब्लिक
सयदेखि
हिन्दी
भोग्न
因
̈́
दाङमा
भन्नु
ब्लु
प्रत्यक्ष
पुस
दक्ष
युरोप
बेल
目
छात्रा
जीवनशैली
तत्काल
##त्रा
नपर्
माउ
https
कास्कीका
##о
ព
偶
भविष्यवाणी
##]
नराम्रा
बेलाबखत
रोशन
पूजाको
婦
ʗ
सुगर
गरिँदै
संसारकै
##ế
इजला
सफ
##ंगा
छलफल
ݛ
प्रतिद्वन्द्व
चित्रकार
##मूल्य
काठमाडौंको
۫
बझा
वित्त
स्तर
प्रतिनिधिले
१४
񤔇
đ
℃
##ᤔ
उनमा
ठाँउ
अनुमोदन
##탄
##याको
##र्मिक
अनशनमा
बरा
रङको
असक्षम
स्थापनाका
##्यौ
जनसम्पर्क
सान्
यथा
腰
थोपा
हाजिरी
##फाइ
链
##굼
गार्ह
जनप्रतिनि
चौत
ћ
अभिभावकलाई
लियो
ݾ
घण्टापछि
##कला
गेटमा
चन्द्रबहादुर
등
##तान
##पुरका
ܳ
लेखनमा
无
बज्राचार्य
##ԣ
##ड्
##🇱
##ंै
यहाँ
ins
);"
##महल
गौचन
सर्वहारा
अधिकारीहरूले
नाघ
भैंसी
कैयौँ
##वित
86
एन्फाले
मुल्य
रेक
मुटुको
सबैका
मापन
दिनदिनै
制
##name
##कुलपति
परिषद्मा
बिग्रिएको
ɛ
##शिक्षा
ғ
स्वयम्भ
अमेरिका
##अन्त
बूढ
ठाउ
挀
स्वीकृति
आना
##दूर
किन्दा
घटनालाई
᤻
##नेका
पार्किङ
१३२
संबिधान
##चले
नेदरल्याण्ड
विमानस्थलका
บ
हँुदै
कम्पनीलाई
ओबा
भाषाको
½
ቢ
##ठान
नाति
गतिवि
आखिर
##ठ
डुबान
सकेका
ਸ
कर्म
मुद्राको
入
势
मारिए
##व्
葡
阶
##डा
देउवाले
ڤ
ട
!”
अभिय
ު
लिइएको
बाँडफाँट
##ैले
##यास
प्रतिमा
ڈ
अनुदानमा
याङ
हेटौँडा
बाढीपीडित
##ry
##सक्यो
उपमेयर
तलमाथि
बाहुन
registration
̀
अर्बौं
फेसबुकले
सेनाका
संस्थाहरूले
##बेल
कृति
ཾ
सदुपयोग
कम्युनिस्ट
ܶ
जीवनया
##मतो
स्वीडेन
競
##ԕ
हुनै
ब्यू
युनाइटेडले
车
सार्ब
तृतीय
पाउनेछन्
##होस
उपत्यकाको
मोबाई
खोलेर
अलमलमा
它
बिक्रे
##𔻹
अनुदानको
##डोल
पदाधिकारीले
लापरबाही
##ۑ
˯
पुस्ताका
बेलायतमा
भाष
वर्षामा
ꭹ
##ڨ
##ेटमा
कोषाध्यक्ष
##आम
##ầ
ph
टुङ्ग
परिषद्का
क्यालि
सप्ता
##ब्बा
웩
पाकिस्तानी
april
基
양
बढेकाले
बलात्कृत
सामानमा
होलान्
अपन
सँगै
斗
沉
##ȏ
宵
;&#
ने
उर्जा
संस्म
प्राकृतिक
们
सिक्किम
數
ݙ
युग
ܰ
आफु
भेलाले
移
습
«
एक
कीर्तिमान
ٺ
##यक
##v
तिमल्
##याे
却
विमर्श
##हारीक
शाक्यको
莦
##rat
उपभोक्ता
典
##¸
तपा
वस
##शीलता
रहे
अभियन्ता
मौज्दा
안
##ǖ
कारा
##ध्य
आजै
बिस्त
노
##डिया
##과
৩
##ॉ
प्राइ
लाम
सहमतिको
पुनः
केसीका
踹
抢
अगुवाइमा
शेयर
तीनवटै
म्याराथन
‹
##क्ल
ڒ
किसिमले
प्रभात
⋆
ڑ
१६०
ṏ
क्लबको
people
नउ
卖
रोजगारदाताले
चाइ
划
##म्बो
बाग
वृक्ष
频
񬊾
##ա
##वालिका
छुट्याउन
अबस्था
अवरोध
काल्पनिक
पोर्ट
खसी
सहमतिका
contact
टर्मिनल
##वश
फर्केपछि
##डेल
कत्ति
ॅ
😲
##िती
२००३
नक्कली
ब्राह्मण
诺
जन्ती
मो
संविधानका
पिउन
अर्थशास्त्र
complete
पुनर्निर्माणका
त्यसको
बद्री
##사
ส
##ʶ
पारदर्श
लैंगिक
##こ
सोचेर
उद्योगको
##पश्चात्
देखाए
बेका
##람
##킹
स्वयंसेवक
ਭ
楯
छात्र
एचआईभी
##77
։
मेरुदण्ड
एकतर्फी
##♥
निर्मलाको
##ʷ
܎
बर्बाद
एप
खर्ब
陕
##ʟ
蒂
उपसमिति
स्टेशन
ण
तरिकाले
##शायी
ⲁ
##खानामा
˚
भूकम्पपछिको
मिलापत्र
ź
ᤐ
##नको
48
खाँच
##ކ
जीवन
ʩ
拾
can
降
ԧ
##राइ
##ฟ
घरमै
पक्षबाट
भेट्न
बहुआ
ป
䪩
##ट्यान्ट
लैजाने
##प्न
##ฒ
राजाराम
दिवसका
라
हिना
गोष्ठीमा
ᤛ
तवर
नेतामा
मौलिकता
##ation
उपत्यकामा
햵
तिर्ने
ध्रुव
##ƅ
##ст
विरोधमा
संस्थाहरुले
४०
##ौलाले
निकायहरू
चित्
ज्या
सिरिया
हाकिम
सूची
##߬
##。
##😫
##डाको
톬
整
립
̑
##हको
##ས
कसुर
चेल
मामिलामा
पुन
हाम्रो
床
ｫ
##rip
२०११
समानता
no
##ݛ
सेन्टरको
विपरित
सेवाग्राही
##โ
ẵ
पराजित
##खे
संकट
##ۄ
=%
क्रिया
निर्वाचनको
㢙
##ញ
ha
##क्सि
इन्जिनिय
चरणको
गल्ती
हलेसी
##दूत
एउटै
##조
त्यत्रो
गण
निलम्ब
##ारण
शुरुमा
रुम
##िरहेकी
ு
उत्पादनशील
ە
धनगढी
सिर्जनात्मक
##ラ
##ꑿ
右
फुटब
पाचन
##द्वारा
##ݩ
गरिएपछि
##प्ट
應
भारतीय
नवजात
मात्र
durbarmarga
ї
系
औचित्य
##न्तुक
नेपालबाट
##सीलाई
##93
ԓ
पिछ
गुगलले
तोक्ने
##la
गराएको
युरोपियन
粤
਼
रामकृष्ण
ད
कन्ट
頭
दार्जी
ƴ
अघिल्ला
अपराज
करुणा
љ
##뛥
歌
ৰ
बीचमै
शुल्क
पलाएको
लेखमा
ặ
नाच्न
सम्मान
##erai
媛
##अघिसम्म
मिनेटको
कृषि
घन्ट
गरिरहेकी
カ
दृश्य
䧂
र
for
अजय
ध्यानमा
視
तरीका
##यौं
레
पुगेकी
##٩
ऒ
कमाएर
प्रतिशतमा
यत्ति
##ञ्जा
׆
भत्काइ
रान
यसअघिका
सुन्दै
##०
腕
मौसम
##ϟ
##ᤘ
ل
दाँत
निकटतम
गभ
##न्च
##ुलीको
पोखराले
##ण्डा
अभिमुखीकरण
##कोट
गर्थे
##퍦
न्यौपानेले
ޕ
##ě
चुप
発
अस्
पार्ने
अर्थमा
##ͧ
शिल्
६९
##पि
तालाबन्दी
ਬ
##｀
##भाउ
bad
भेनेजु
लक्ष्यका
नविन
㍕
보
##कृतिक
लैज
842
खिचेका
संस्करणको
आगलाग
गोदा
कार्ट
मन्त्रिपरि
सुर्खेतको
मञ्चका
प्वाल
##लामिक
##स्वरुप
योगी
##पले
&
बहुप
##ุ
बेरोजगारी
贡
श्रेष्ठ
कार्यक्रमबाट
इटालियन
सोधेको
उहाँहरूको
they
चुनौतीको
शहरमा
##ي
##̮
##नीमा
भव
दिन्थे
ट्वीट
आफूसँग
##एफ
##िसक
##ϲ
##रहे
##な
सिक्क
##्याउन
कायस्थ
मुट
熊
##ect
ڨ
featured
दिनानुदिन
आरोपी
‡
##ར
禁
नेपाली
##ز
ढु
माला
##ల
΍
##ंन
𯪰
हेट
मूलत
त्रिवेणी
ɨ
##त्विक
##ỉ
त्रैमा
सहुल
रोनाल्डो
उपाध्या
अस्ट्रेलिया
समी
सम्बन्धविच्छेद
साह्रै
ゼ
참
ठेक
विषयको
##👎
रिक
##0c
कैलालीको
उद्देश्यका
चोर
अगा
##बहि
२१
समितिको
औचित
तत्
माथ
राव
询
プ
າ
आप्m
រ
ړ
जग्गामा
##🤣
##ियुक्त
उत्पादनले
चक्र
##प्ला
उपल्लो
बाँचेका
##्यापी
違
रूपमा
局
कर्मचारीहरू
ब्याटिङ
আ
⇐
##ger
乡
##ामिन
##टिलो
भन्ने
ݐ
पढेका
प्रस्तुती
##ʿ
प्रधानमन्त्रीको
##त्
##ּ
झडपमा
संस्कारको
टाँग
##ia
पाना
काठमाडाैं
##ep
केहि
रुपैंया
स्वाय
बाजा
झिका
परियार
ϗ
भित्ता
उपप्रमुख
ऐतिहासिक
aadha
##ヾ
शनिबारदेखि
##डब
बहर
कु
विदेशका
##र्तित
##ល
##वानको
तथ्यांक
##परि
एने
飾
लागि
प्ले
##टाएर
खेल्नेछ
"?
झो
##ानाले
मतदाताको
पुण्य
सम्पादकीय
##접
टाइम
भाडामा
##서
चेकजाँच
अभियोगमा
स्वय
ぎ
gre
हुनसक्ने
सदस्यहरु
दुबई
##ाल्ने
दार्चु
बेहु
瓴
##써
ꌍ
स्मृतिमा
🇬
ͭ
गोलभे
गर्दछ
䳧
सुरुआ
##इट
̤
##पुग
##नागर
आकाशे
क्षमताको
छर्ल
भारतको
##दको
##भी
नोभे
अँध्य
早
##मिना
अंग्रेजीमा
##ʢ
##👨
नदिँदा
ind
भन्छन्
सुध्र
镜
க
पार्थ
κ
##̎
##ेषण
##ﾎ
चरम
मत्स्य
आर्
वृद्धिको
[PAD]
mail
##ूपमा
##ן
चन्दले
विशेषत
नम्वर
बिजे
चैनपुर
गीत
इन्टरने
##चर्चित
पुरुषोत्तम
पर्खाइमा
आवधिक
स्ववियु
प्रस्तावमा
sad
鞋
##ߵ
बेहो
ऐनमा
##पहा
कानुनअनुसार
समाचारले
बसाइ
з
څ
##ानीले
अर्थतन्त्रलाई
सुन्त
##सक्छ
え
ഖ
##એ
##중
प्रतिष्ठित
यसबारे
##ݜ
ठप्प
प्रतिवेदन
सकेपछि
密
##स्तु
श्रमदान
झन्डा
इस्लाम
मधेसको
यिन
##काका
##ूरो
ซ
嗤
बोलको
##तेदार
ݩ
आफूखुसी
ؔ
नजिकैको
सुरुङ
向
पराजय
सन्दर्भमा
޾
粟
##फत
लामिछानेले
सीधा
##լ
गर्भवती
१९१
##मरी
##एकै
##ाइयो
नेतृत्वका
मूल्यको
##b
##पुत्र
##मौ
बिग्रेको
ƚ
भाइ
१९३
mod
ા
##चारु
सोभ
##मारी
जनचेतना
भड्
गम्भीर
紡
समीक्षा
गतेभित्र
माथि
सात
आउँ
मुलुकलाई
折
##લ
क्
कत्तिको
बच्चा
भनेपछि
अनुगमनका
रोनाल्डोको
孕
div
परिवारले
##चानको
उहा
향
आतङ्क
##ेट
ז
विश्वकर्माले
उद्योगहरू
उन्
##진
ŋ
नाय
पुरातात्विक
##सारी
शरणार्थी
##%
निद्रा
बन्दैछ
रही
ள
##od
ﾌ
相
##दलीय
tue
day
ٵ
##चर्या
##भि
##견
连
२०७३
मन्तब्य
##भारा
अन्तरले
स्वस्थ्य
╪
पिछडिएको
मध्येको
##स्तरमा
हुँदै
岛
须
##विज्ञान
दाजुभाई
फाई
बृद्ध
कपिल
कौशल
धाद
गीतकार
##्रमा
बजारका
राजीनामा
गुज्र
बुबा
ἀ
##खामा
kn
nepali
मङ्गल
##ाइने
जोडिने
##लास
युवाले
ح
दिल्लीको
बोलाउन
साहस
㍅
و
ػ
針
आपत्ति
लेख्न
पीडक
बब
䈻
彩
फाँट
त्यसो
##itu
##ფ
͌
ۍ
नेवि
सिंगापुरमा
भूम
ა
सुदर्शन
दिलाए
򤨪
लिएको
फसेका
हारा
##ׅ
पर्यटकहरू
##ery
##यज
##वाटको
जातजाति
मतगणना
##पल
कम्युनिकेशन
रनर
ী
गर्नसमेत
सम्बोधन
##लेको
##ម
दोहा
##निरपेक्ष
ȶ
उहाँसँग
मारिएको
पिउने
##कू
जाति
नियमावलीको
##वादले
##ݨ
λ
##ous
एकताका
ય
तिवारी
##߫
लास
##ឈ
अवसरको
कुखुरा
ഏ
##नैतिक
͡
काया
杀
खड्कालाई
##સ
archive_file
##ब्बर
兴
खासै
##ement
##ाग्र
विखण्डन
दूतावासका
चाड
姉
##परेको
साँझको
战
ં
हमालले
मस्यौदा
पेशामा
इजरायल
##जीवी
##लायक
谈
##ब्स
##वानी
##गुरु
उपलव्ध
नाली
##ػ
हस्ताक्षर
ऋण
盆
आवरणमा
业
襃
##डित
कहाली
शशि
ً
##वक्ता
伐
證
बढाउनुपर्ने
सके
टोल
ब्यवस्था
竹
##위
अनुमान
भ्यालेन्ट
राख्नु
२०६२
涂
सङ्ख्या
हटाइ
å
पूर्वराजा
हैदरा
मेलाको
##बासी
##ीपको
##֭
अनुत्तर
बहुआयामिक
पछिको
##쓋
##दण्डको
##소
aa
पश्चिमको
##o
कर्णले
थाले
##셔
##co
##बिना
ओभ
हुनेगरी
ဗ
विवादमा
䰟
🇺
##निस
भाषा
चाबहि
##व्यस्त
##चार्ज
##ल्प
##केर
##ゃ
दीर्घ
अफगानिस्तानको
##प्रतिशत
दशमल
##डारी
बत्ति
कुरेर
##ानै
थप्दै
जनयुद्ध
काँकडभिट्टा
į
##ालीले
आफैंमा
sam
ԗ
##モ
आयोगबाट
पदपूर्ति
सञ्जीव
##ઝ
लोक
ឲ
आरोपमा
राजवंश
訊
बढाएर
मिलेमतोमा
बाज
कलाकारले
ब्यूरो
शेरबहादुर
##यात्मक
त्रिशू
नपाएका
”,
ή
जोरपाटी
尿
व्यवस्थापनका
产
ڂ
चढ
র
ි
덌
तान
खत्रीले
冥
मनोनयन
师
##💌
समुदायलाई
भ
##बाहेक
पहिलोपटक
तराई
쪇
टि
रोमाञ्चक
##֬
लडेर
मान्यतालाई
राष्ट्रपतिको
चुस्त
समयपछि
✔
३१
गर्नुस्
तालमा
विद्या
##り
ば
光
समसामयिक
प्रको
कल्पना
नियमन
##स्स
##ਚ
##i
##वी
कोषका
लगाउँदा
नारायणगढ
营
##ف
##चीमा
ه
जवान
##्याल
##ホ
##ञ्जली
अक्सर
मोदी
ះ
सही
##शरण
🎊
##so
##광
##ﶲ
तामाङको
鸿
ललितपुर
ؙ
##қ
腿
यातना
##वाहित
##धिकारी
सिङ्गो
##पीओ
सडकमै
꺂
团
関
ゅ
ߺ
##बलमा
खर्च
आत्मीय
जितेन्द्र
ऽ
मानिसहरूलाई
लाखौँ
美
१९९७
समेटिएका
##ƈ
##िग
सदस्यहरुमा
भाका
अन्तःशुल्क
##पै
सम्झौ
रोजगारदाता
##ך
विक्र
##ीनगर
अत्यन्तै
2005
ŕ
निम्तो
##ुद्ध
कोहलपुर
##ild
सीमांकन
रिया
##ेन्ट
समाजसेवी
##चिन्त
जयनगर
सम्मेलनले
孔
##दिशा
##ब्लू
जगदी
थुनामा
छाती
आकांक्षा
##/
बढेसँगै
च्याम्पियनसिपको
旅
खोला
लत्या
##गर
गोल्छा
परीक्षणको
曾
߲
##वाहक
##ΐ
अव
द्रुतमार्ग
लोड
महिनामै
b8
जलाधार
दिल्ली
ल्यापटप
핏
ट्रफी
it
आउनु
ग्राहकलाई
##ɔ
##κ
छौ
可
बुढाथोकीले
वामपन्थी
##ை
हल्ला
##वट
##겨
##-
बसपार्क
उपलब्ध
…
अर्कोलाई
衰
गृहमा
when
राख्यो
आदी
आफ्नै
shrestha
आर्मी
ब्यान
##॰
η
'
सस
सार्वभौमसत्ता
भरपर्
चेल्
##►
थपिएका
##ूले
एसोसिएसन
दशैँ
लेग
वैकल्पिक
हित
讓
##ञ्ज
##र्घा
##ारको
शासक
जल
सरकारी
選
माथिल्लो
湖
睛
नउठ
ʉ
##--
##स्थिति
##ग्ध
सुवर्ण
पुनस्
##ूत
¥
तातोपानी
फर्काए
##नामै
##ाइटिस
##नाउ
##खेल
##द्धारा
##🇲
तता
शरण
幹
ু
ऐ
✓
##वर
##ؤ
##लको
तरुण
सबैजना
a6
六
고
香
अराज
##िरहनु
##शैली
##្
वित्तिकै
ज्ञानेन्द्रले
山
##ुरी
##च्छे
##िलै
##ोका
##ங
अर्याल
चित
##सक्नु
पश्चा
सागर
उत्तरदायित्व
आफूहरुले
नाराका
गुलियो
##विकोपा
मकालु
##लु
तुलाधर
माछापुच्छ
काउन्सिलले
मुसलमान
式
प्राधिकरणले
##मको
##त्सा
##िसम्म
߾
##˓
आज्ञा
ओर्
हिमा
अनुशासित
मातहतमा
##निकीकरण
कर्मचारीका
दिनभित्र
अन्ति
सहभागिता
##छौँ
भन्दै
##ܛ
गर्मीमा
सेनाको
苦
식
वर्त
उपयोग
खाने
लेखेर
आर
##तिय
##ृति
ठिक
敢
##ेम
बानेश्व
མ
टोलीमा
आक्रमणको
##ǝ
##िङका
months
उपमहानगरपालिकाले
यसकारण
सञ्चारमाध्यमले
राजवंशी
सुधार
##ुवा
##िनेट
##गुना
युनियनका
べ
##कांक्षी
जमीन
监
ﭨ
##ใ
😎
पुँजीको
м
पुनःसंरचना
केटी
निकुञ्ज
भेटि
##nda
rel
दशमलव
##टाई
एक्लो
देशभरका
㤱
पह
सिलवालले
##ेजति
दौर
नर्व
नेतृत्वको
此
एडि
##빙
पोखरेलले
wonderful
嗷
जानुपर्ने
पेशागत
##लार्इ
देख्दा
सुदूर
眉
अवसरमा
बडी
##ɵ
##쉠
##चान
पाठेघर
상
दिनअघि
##ੇ
मांस
ٻ
қ
कृषकलाई
खाद्य
अशोक
क्षण
##ْ
##ਗ
lai
ग्याले
若
٫
ま
绅
##ीको
[UNK]
##🤩
福
##c
̮
##हीन
##पिच्छे
प्रतिवेदनअनुसार
##ुण
फैल
परिण
रहयो
भ्रष्टाचारी
हिन्दु
बोर्डिङ
##ؠ
或
१९९८
服
रक्सी
っ
सक्ने
##🐒
##पात
कम्पनीहरूले
मानौं
##सिम
अयो
युथ
आदर
javas
ណ
सदस्यहरुको
उपत्यका
##ӥ
मोबाइलको
सिकेका
दन्त
समकक्षी
हुन्छु
रणनीतिक
थाल्छ
##न्दर्भिक
##्रोत
##र्जे
जुटेको
哽
तपाईंको
##घा
腐
##एसपी
जीव
माथिको
ภ
पदाधिकारीलाई
मोर
डिट
देशभित्र
##वत्
ښ
कम्ब
ढ
प्रतिकार
##अ
##ज्य
पुगेपछि
##गर्ने
धनाढ
##ल्क
creator
शाह
ə
मर्या
õ
सञ्चार
बर्सेनि
##िफ
򷪵
अनिल
मझु
##ुप्रसाद
##90
स
विश्वकै
澥
##ข
##बाल
नपुग्दै
साथी
魔
आकाशमा
भन्नुपर्छ
सिन्धुपाल्चोक
लमही
ẽ
##िसक्यो
मनमा
ϩ
##स्वर
##ỏ
पैसामा
देश
ヘ
ብ
बिजुलीको
बलात्कारी
बिगत
नद
៊
田
महानगरपालिका
##वेल
संसदको
विमोचन
जै
呵
탑
񾘤
##ڥ
##߸
##ҹ
##ीर
निया
स्पष्टीकरण
पिक
ढि
##ԍ
च्यान
निर्णयहरु
##̊
##रीक
राध
##울
金
बढ्
布
葉
람
nov
कानमा
तुलनात्मक
टहरा
थु
边
##ޭ
तलब
均
##त्सव
खेलाडीहरुलाई
ڕ
総
ѳ
गर्नुस
बाध्यात्मक
श
बिता
😓
##ेखा
##ext
㻖
##बापत
##ᠽ
प्रतिष्ठा
##ेमी
##कहाँ
ŗ
ピ
अलपत्र
##date
##ੁ
##ाग्लाइ
चलाउँछन्
👉
##पन्थी
नं
आयोजकको
##बेश
मार्क
अवार्ड
दुष्
दह्रो
आइलाग
##िमी
##दन्ती
सैनिक
महाभूकम्प
सेवाग्राहीले
##सिया
उनीसँग
##ेकै
҈
##ass
##차
कथित
भित्रिएका
ム
록
官
##ेरिया
ទ
he
##तीले
डिल
识
##ɳ
केन्द्रीत
पदार्थमा
तथ्याङ्क
सँधै
{
त्रिपाल
चाँहि
धेरैले
मूल
नित
भद्रपुर
unicode
lang
फिचर
आयोगलाई
1
बच्चाको
##ष्णा
लड
प्रतिनिधिको
सादा
व्यक्तिहरु
例
नसकिने
श्रीलङ्का
##कडा
##णु
원
##दित
##ঠ
चौडा
जनक
धरानमा
पच
##बन्द
##हल
यहा
##ټ
underst
ठेग
嘴
##पश्चा
गराउँदै
नोक्सानी
沈
त्यसबेला
ब्राजिलको
सम्मानित
##ारा
भ्रा
पपुल
शिक्षकको
थान
उनीहरूसँग
织
सम्झौताअनुसार
##ವ
अनु
बुढी
सहजता
##र्स
##स्का
##हेल
ध्वस्त
##ű
छिट्टै
शिकार
विदेशीको
सार्थकता
म्यानपावर
filename
पूजा
रच
##राव
आश्रम
कागती
पाइन्छन्
##う
##ٵ
##ण्डर
##ाध
संगठित
सकस
##✊
##त्तम
धरात
तेल
आगन्तुक
गृ
नसकेको
##ग्लै
lead
अशक्त
विमानमा
गहना
लगाउँदै
ौ
ठूली
##ˌ
बोलाएको
मूल्यका
हान
यात्री
आयोजनालाई
अँ
भाग्यमानी
युवकको
刷
##ܙ
说
且
जोग
बासिन्दाले
नभएको
केन्द्रले
सद्
मुख्यमन्त्रीको
स्वरोज
叶
xmlns
ؾ
##ğ
उहाँहरु
ɍ
आवद्ध
बोक्सी
׌
पाउ
孫
##सरकारी
गोदावरी
मेलामा
०९
from
##रोह
बढीमा
##enc
निस्क
##91
आम्
क्रिस्टियानो
धित
各
डाइर
चिज
॔
लोकमानसिंह
नियन्त्रणका
चो
डिपो
उनीहरुले
प्राथमिकता
बन्छन्
१९
हुनुपर्यो
##ꠒ
##उनुभएको
राजस्व
岐
##ø
छैनन
##तर्फको
पुल्चोक
योजनाका
չ
善
尬
##ミ
थप्ने
猫
##लक
##चक्र
##42
##ｅ
साबिक
##ख्
ۡ
विद्यार्थीहरु
अजित
##हेको
##conom
##ઇ
ǻ
##ople
अनिय
ტ
##प्रश
डिप
यि
विस्थापित
सिन्डिकेट
नचाह
##74
वाणिज्य
##ᤏ
##래
##तामाथि
नसकेर
ट्रेलर
बलिया
川
ẹ
##सेवक
做
##खाले
अध्यक्षसमेत
आतिथ्य
##ाग्रह
##सम्बन्ध
खै
🧬
##ѽ
)–
##ឹ
ɞ
##इड
##ें
ņ
गुणस्त
भण्डारण
ؠ
महान
##w
छुट्टी
템
##ച
201802
##स्दा
泸
##पछि
परिस्थितिको
##적
##रलाई
विरोध
##epal
सरकारकै
歇
उद्यमी
याता
पोखराबाट
परेकी
सिंगल
रोप
##नियम
तयारीमा
##ོ
बक्स
धम्
मासिक
##निय
खटाएको
ブ
##शक्ति
̼
##तर्फी
माफ
विपत्ति
संगम
डायमण्ड
台
काटेर
राज्यबाट
##ς
##तको
निर्ध
मनु
माध्यमले
票
##ालमा
भन्यो
जमात
穫
we
या
कात्तिकमा
रसुवा
शिविर
हेर्नुहोस
माने
उत्तरी
##न्दा
##법
जनस
##भयो
बोलेका
處
क्षेप्या
##ml
##उन
尤
条
︢
ओहोर
रजिस्ट्र
उत्पादन
त्यसका
छँदा
क्षेत्रका
र्याली
कानुनबमोजिम
बस्नेतको
ៃ
अन्सारी
निकाले
昧
कोरियामा
##è
कहिल्यै
chha
आमिर
पठनपाठन
来
棉
कारोबार
दस
##टिन
ê
筋
लेगमा
महानगरी
सं
पहेँलो
護
##port
##ꅵ
पाटन
खाँचो
##튼
सडकले
साइट
ù
इन्धनको
घटनाक्रम
##--------
层
##हना
##्रेसन
नयाँद
पदबाट
ঘ
बताउँछिन्
प्रवाह
エ
鹿
भेटिन्छ
कम्पनीहरू
##पादन
टुँडिखेल
##ȹ
##avas
##थल
प्रशासनको
##हिम
दिइनेछ
हनुमान
껴
##ồ
राइनोज
बालबालिकाका
##वाले
͓
は
##टिक्स
निर्माणकार्य
आइसकेको
विष्टलाई
जुडो
才
݋
अमानव
एण्ड
निश्च
स्टोर
गरेकै
ꩵ
टो
दुईजना
मध्य
कार्यमा
टेलिफोन
फल
１
नछाड
##यण
जनाएको
पम्प
बनाइन्छ
दिनपछि
बढा
प्रतिशत
शतप्रतिशत
抜
थिइनँ
पाहुनालाई
पुख
肖
सोना
खायो
बस्तीको
किसिमका
उज्यालो
०७५
##किँदा
̠
##߇
डडेलधुरा
छिम
पाएनन्
रामप्रसाद
काभ्रे
देखाउनु
गो
##as
##ő
१९५
ओसारपसार
##उरो
श्रो
इमरान
##２
##ϻ
##भान
pradesh
जाडो
नहु
队
न्युज
见
넉
भना
लापरवाही
उपदफा
प्रतिष्
हातको
蒲
##न्सको
ィ
घटनास्थलमै
##दिम
##낭
रहनुभएका
दयाहाङ
##ीया
रेष्टुरेन्ट
देखाउ
ओभरमा
भर्ना
##विरोधी
##ईन
##ਸ਼
पुर्याइएको
呼
राईले
केकी
एड
पञ्चायत
लडाकू
इंग्ल्यान्ड
[…
विमानस्थलको
सुनाउने
सेवनलाई
國
资
##बाजी
संचालनमा
䣷
##ｬ
##लेक
हक
##जिङ
##ुट
ճ
अदालतले
׬
रूपा
##ᇡ
लाग्छ
##ुन्
장
ُ
पितृ
##ुति
ố
͝
सेलिब्र
##џ
公
儿
ल्यायो
विन्दुमा
उद्धारका
हातमा
변
जनता
विद्यार्थीहरुलाई
ɻ
ʸ
पूर्वपश्चिम
🤪
बार
##の
आवाज
निकायको
मसा
##र्पित
खानेकु
sp
न्यु
रहेकोछ
उल्ल
मान
मेलम्चीको
रिसा
##्यान
ƙ
##ीका
प्रो
link
##चोकमा
##म्व
भर्
不
तरकारीको
参
##ށ
दुखाइ
जि
मान्दैन
लियोनल
दिलाउने
क्षतिको
आराधना
पाएका
रमाउन
④
नवि
असाध्य
##हर
उन्मुक्ति
倾
##कर्मीको
really
बर्ड
बाबा
दिन्छ
२००८
##गढी
तुलनामा
##म्का
econom
嵕
##ल्यान्ड
##💯
##uk
गर्नुपरेको
टेलिकमको
ᇎ
办
जोगा
जनजाति
अवकाश
पुरात
फेसबुक
处
कुलो
दिएनन्
##दाताको
##भाब
बुझाउने
慧
रोमा
##व्यापी
रक्षाका
##ു
##कडभिट्टा
계
बढ्दा
तथापि
##han
ग्रसित
भोग्नु
परिमाण
##सहितको
मानिसका
भूगर्भ
削
##र्ती
##बरको
##अनुसार
विधानमा
९९
##तावास
desh
##앙
##भाई
किसानले
कुलेख
यात्रालाई
दशकमा
##ᤓ
##ቧ
ƕ
फू
ˌ
बताउँछन्
पत्ता
स्मृति
नाटकमा
##चाउ
##प्ले
变
ठेगान
##गार
##쳎
साहित्य
बिताएका
भान्सा
युवाहरुले
सिन
बढ्नुपर्ने
आप
##ेनर
अविश्वासको
निर्म
##ुकूल
##िच्युट
ߓ
नीलो
नैतिक
सकिरहेको
हाट
उजागर
कयौं
賤
##केमा
महानगरपालिकामा
गराउँछ
सहकार्यको
##लेज
आशामा
##लुका
खाना
गुज
प्रधानाध्यापक
फिर
सम्झौतापत्रमा
诊
##ー
術
time
कुमार
##ञ्जना
परम
##븳
com
परिषद
ϒ
ǿ
शशांक
विविध
##्न
रंगशाला
लगाइयो
सुविधासम्पन्न
चर
प्रभा
जोशीले
굝
ә
अड्डा
फाल
떻
##िमिर
पेनाल
耐
##̉
उत्कृष्ट
सारेर
##रहन्छ
अर्ब
患
दिनेछन्
##g
विष्फोट
寅
｀
एजेन्डा
范
सुनाए
संयो
पराजुली
अद्यावधिक
ั
धौलागिरी
##ỷ
逾
##बीले
##ސ
է
खोजेको
डाउनलोड
ΰ
kam
##erson
दशकको
धरो
ṃ
दर्
’
कामकारबाही
दाहसंस्कार
쓋
चुनौती
खारेजी
堂
##޽
सेन्स
वासिङ
फाईदा
ताका
##ियाबाट
误
##प
ߵ
गरेकोछ
सुनौ
विजुली
लेखेकी
##पमेन्ट
##खबर
webs
जन्ममिति
साटा
माक्र्सवादी
सुदृढ
लोकसेवा
##नी
栗
##वापत
रामेश्वर
##वाङ
ؘ
ko
̌
##erv
.</
##ीक
##̃
नगरपालिकाका
आलु
onlinekhabar
अनुरोध
छुट्याउने
बढ्नेछ
ٽ
त्रिभुवन
पा
٨
रेख
ལ
′
##is
΃
##बारी
##😭
मलजल
त्यस
##न्थी
खडेरी
暂
##निर्वाचित
महानिरीक्षक
肩
##बारीमा
पेय
ൂ
कामको
हालसालै
बिही
जबकी
##ेसनका
क्वार्टर
ｵ
दलहरूको
ﷺ
विश्वको
उद्योगीले
माग्न
पूँजीगत
ａ
##नुपर्दा
प्रश्नको
व्यक्तिका
सोधपुछ
##स्वरूप
प्रान्तको
##ϔ
##युक्त
छाडे
रौनियार
覩
##ﻘ
जाहेर
आण
प्रकोप
<?
30
एकले
##oo
##बराब
यात्राको
संवेदन
識
अभियोग
##डो
##अधिकार
वास्तवमै
दुतावास
सांगठनिक
स्थायी
?
पुडासै
##ন
##निज
रुख
आश
##घाटन
##न
आचारसंहिता
संवाददाता
कोह
和
##स्मा
धान्न
पछी
牌
औं
घिमिरेले
चाइनिज
banking
उसै
थालिएको
कोइरा
गर्नुभएको
衃
२०५३
गरिदिने
退
विवाहको
कीर्तिपुर
polit
कार्पेट
मार्फत
आप्र
देखि
नक्
##हलमा
पं
दलाल
धक्का
धुलि
##्दा
##ঁ
मोडमा
पुनर
प्रदेशको
सेनालाई
顔
भिड्ने
पर्यटकले
२०६१
मंगलबारदेखि
林
बस्ने
##ोकै
राउन्ड
औषधि
##좒
ẻ
ʿ
माध्य
वली
sy
##त्न
##ɞ
##ត
भागको
सोसाइ
यात्राका
जन्माउने
黨
केही
प्राप्तिको
निरीह
##ung
##΅
स्मार्टफोनमा
ƨ
परदेश
प्रशिक्षणमा
៏
प्रणाली
##क्रमण
##٬
अलैं
किनकी
पर्साका
##ष्कार
स्पर्
सत्
৭
##ब्रा
जिन्द
##ͼ
सामग्री
सुमधुर
##शन
जनामा
ॄ
་
レ
完
चनाखो
ख्रीष्ट
पारस्परिक
ロ
阿
##ुधार
अन्त
पशुपन्छी
##😯
सञ्च
##ail
बबई
♫
उद्धेश्य
##ò
घाटामा
मुसि
हजुरआमा
戻
३६
इन्टरनेट
गाउँ
राख्ने
उत्तिकै
बलात्
मक
涢
##봉
髅
##ਈ
पृ
धाव
ᤩ
सम्झन्छन्
बसाइँ
सम्हाले
मुड
##र्ति
为
उत्तर
##क
##हरु
घटाउन
🌎
阪
##लोक
##ಬ
होमस्टे
मुकाम
हामीले
रुपै
##क्सको
썮
हैसियतमा
देउवालाई
क्षेत्रभित्र
विपन्न
सुझा
करोडभन्दा
मोती
लिमिटेडले
ҕ
हि
रोका
समस्याका
अस्ति
कटु
सत्तारुढ
नटआउट
##जिम्म
महत्वका
चेपा
बनाउनुपर्ने
मृतक
यादवको
स्वीका
؞
##ʆ
मतपरिणाम
गरिरहे
टेकेर
very
फैलाउन
##48
डाँ
##षित
दुईतिहाइ
##वीर
コ
साहित्यिक
कम्युनिक
हवल्दार
नेपथ
अज्ञा
##सार
देखापरेको
럽
पदाधिका
##squo
सुवेदी
जीवा
समेत
ܟ
श्रमिक
供
い
##ɭ
पढ्नुहोस
σ
हिड्ने
क्यान्स
चेल्सी
उजुरी
रिफर
ޑ
##फले
बेख
सगरमाथाको
部
छुट्या
रजिष्ट्र
💥
##हाइ
प्रसंगमा
##ेलियन
##ामगर
विपद
सुकु
##यर
गुरुयोजना
##मुनि
बर्दिवास
बिष्टले
##섯
##ठो
##खो
##खोला
काभ्रेको
माघ
सदस्यले
‛
##मानन्द
आचरण
借
##घट
靠
सप्
帐
惯
ܐ
बजारीकरण
張
इको
仰
लिन्छ
较
बढाइनेछ
##˪
politic
शिक्षण
##46
##थरी
काइ
दिइरहेको
स्तरमा
׍
ג
##निक
##º
चपे
रोजेको
सानातिना
सामन्ती
ю
कोड
േ
नियन्त्र
ꁰ
प्रचण्डले
##ाधिन
ड्राइभर
बिभिन्न
ㄚ
ʼ
স
विचार
##ย
भूकम्पले
झगडा
##들
##꯬
ב
सदस्यहरू
मिस
लेखाजोखा
हुनसक्
चु
कस्तो
झ्या
बताउनुभएको
##ामुखी
रेफ्री
##थम
प्राल
सम्झौताका
पश्चिमाञ्चल
केमिक
चिम्
धा
##ालयमा
##्याइएको
बलियो
व्यवसायीले
##हरुले
लोग्ने
##통
जात्रा
मुद्रा
트
##ʈ
💦
##ड्दै
बमोजिम
##कपा
՞
नज
उत्ते
मिलो
प्रतिवि
住
त्यति
𗲜
गाडि
##ir
साख
फलामे
बजेपछि
##져
अन्तर
छेक
कमिटीमा
n
देख्
हिसाबले
ड्रा
##ौलाको
##ताबाट
##ッ
कुमा
搜
##सीन
˸
##ःशुल्क
तयार
छात्रवृत्ति
👈
सातौँ
पेन्सन
अन्न
प्राविधिक
##ेना
##ĕ
##राष्ट्र
उत्पादनलाई
पिल
##ܼ
स्वभाविक
उज्याल
दिगो
##ذ
बताइ
हेन
##श्वास
37
पवित्र
फ्रान्सको
सम्मको
蚀
गरिने
भक्तपुरका
##ff
परिसरमा
रेग्मीले
##दल
भास
܋
##विन
लुम्बिनीको
डीपी
रहेकोले
２
अखण्ड
##ベ
किश
हालेर
करिअ
吃
##ेलले
घरधु
संरचनागत
##ハ
##ndu
##ﴼ
डिस
尋
भ्रमणलाई
पछा
裕
##कवि
֒
गरिनेछ
इकोनो
प्रकारको
処
##दाँ
थन्क
##िकमा
ゆ
सरिक
府
रारा
अमेरिकन
점
त्यसैले
찾
##ch
##स्थानमा
馆
चिकित्सकले
##ानले
##र्याउने
अनुसन्धान
궁
बदलि
मुकेश
भोलिपल्ट
समस्यालाई
财
##राको
##रक
कष्टकर
दाना
软
हितका
पश्चिमका
##रोज
नगरपालिकाबाट
ᤪ
बैंकहरुले
##ͭ
एसई
ɢ
विश्वविद्यालयमा
##घाटा
इभेन्ट
˲
वस्त
네
कलात्मक
##eli
sang
戒
भाषाका
प्रतिको
組
तसर्थ
##대
सानु
##दानी
गराएका
रोहि
}
जोगाउन
ガ
戏
सूर्यविनायक
सम्भावनाको
माओवाद
बाँकेका
बिरामीले
带
##ानुसार
##itor
##सिनाको
एमालेलाई
दिक्त
##पीले
언
गर्ल
##͑
सामाग्रीहरु
लिमिटेड
त्यतिबेला
सिका
हो
감
##लीलाई
–‘
ү
विश्वकपको
##ԫ
鬼
फर्केका
कपिलवस्तु
##इरहेका
उत्र
##즈
twitter
हस्प
##न्धु
जिब्रो
##😈
निहुँ
🌡
##﹯
##बोल
सुविधाका
स्कुले
##यामिक
रोगले
##घाट
53
दुबईमा
##ׁ
呎
##साको
穿
线
ti
थाल्यो
अक्टोबर
##शमशेर
रक्षा
बनिसकेका
निराशाजनक
वी
ईलाका
मन्त्रालयबाट
अनुमतिपत्र
नजरमा
##काले
ವ
यु
荒
विवा
ޖ
##ुटीको
##चेत
##̸
##ङ्टन
##ाइट
##ारू
निकाल्ने
##रहन्छन्
सरोज
दूरीमा
##߽
डोट
निरुत्साहित
##֠
##٨
##޲
मानिसहरुले
##😄
घोषणापत्र
छोरीको
जोडिएका
तारे
##អ
##वधान
अवधारणा
तिहारमा
च्याट
##ｰ
विम
थि
स्टेजमा
अन्तत
ݖ
鲁
##देश्य
पत्तो
直
ट्यांकी
वर्षाका
兵
ब्लड
फोटोमा
tag
खुसी
जोमसोम
द्व
बिहि
click
##67
भु
##ڒ
रोनाल्डोले
सेल्फी
群
बनाउँदै
조
chann
##ې
सुनेका
##ヘ
बस्छ
इस्
礼
血
ڰ
समस्याले
##ग्राफी
t
परिवेश
쁺
पाठ्य
##सिनाले
घातक
बय
महासंघ
राजकीय
छोरीलाई
##를
割
रुपैयाँभन्दा
粧
ӏ
##߳
##न्तु
##बन्ध
##पछ
दुबै
आफैलाई
यति
##िख
ओलम्पिक
ॆ
泪
बेल्ट
02
निगमले
महिलाले
짗
उपविजे
##세
वर्षायाममा
##सङ्घ
##मिका
मं
되
आग
तपाइ
क्रिकेटर
स्टो
##छिन्द्र
घुम्ने
सहकार्य
घिमिरेको
🤦
पठाउने
वासि
person
छायांकन
网
ܑ
मृ
ब्याट्री
फिल्मले
##जंग
हास्य
पेट
उतारच
बिल
##복
ҥ
जी
साझा
ट्रेल
##वासीको
##बजारी
गाउँघरमा
जमुना
राष्ट्रियसभाको
विनिमय
##ҋ
##अप
पारी
दोस्रो
सकेनौं
개
अख्तियारले
१७
निर्माणाधीन
कार्यन्वयन
वैठक
##ំ
##सै
अरुको
उदेश्यले
जसबाट
##ट्या
झू
##तिहाइ
##ｌ
##सरमा
रघु
##सं
updatefre
##een
##ूह
##दृश्य
ヒ
##लामी
जतिबेला
##̶
##າ
##प्टे
हानिकारक
उम्मेद्वार
आधिका
अधिकांशले
62
❤
##भन्दा
जिरो
५७
##दिभ
सीमावर्ती
߂
##ड
ō
कार्यदलले
##न्तब्य
##कल
ढिलो
प्रज
근
एकतालाई
##ेवारी
##ड्ड
शुरू
कस
सेवा
##बिज
तँ
संज्ञा
जबरजस्ती
मन्त्रीलाई
अधिकारी
जाउ
##く
बालिकाको
परिपत्र
##ere
आई
भग्
उत्ख
सुपरि
##્
भुटानी
##भित्रको
塞
पाला
गठनको
裔
##वटै
##रिक्षक
इन्धन
विकल्प
बैठकपछि
##सिं
##ほ
त्यसक्रममा
सालमा
##ाउँ
पुलमा
gh
जनगणना
व्यक्तिहरुले
행
नुन
स्वर्गीय
विषादी
##ti
दुई
खेलेका
साउनदेखि
पेट्रो
जंगबहादुर
##ۆ
##न्ह
साधन
០
æ
ʝ
##चा
असली
तिहा
प्रतिकिलो
तोकेका
작
्
杯
राजपाका
नसो
टेष्ट
धर्
श्रीमतीले
सज
刂
अपहरण
##काई
특
भोक
##׊
डी
##क्वि
##्नासाथ
प्राप्त
राजाको
सम्मेलनका
陛
तर्क
महाकाली
內
##в
##तिक
##ेजस्तै
उर्ला
रोयल्टी
鵍
टिभी
संविधानमा
城
कन्ड
अपरा
##सामु
##नले
महेन्द्रबहादुर
##भच
##लमा
मिश्रित
थिई
टाँ
जान्थे
असुर
##बमोजिम
खेती
पातलो
निकायका
गुमाए
액
संवाद
##सचिव
##mo
संसद्को
##क्क
विवादले
##िभ
सेके
㩪
सम्पूर्ण
चेन्न
चल
हिमालको
राष्ट्रसङ्घ
घटेका
श्रेष्ठको
संकलनका
सीके
##부
मोह
हिरा
शिला
पाईन्छ
राजनीतिमा
隐
塔
##👈
##सम्मै
सिद्धा
कार्यवाहक
दुइटा
स्ना
सिद्धार्थ
मसान्तभित्र
दिपक
निर्वाच
ở
ڮ
खतर
गर्ला
##श्रो
बेलैमा
धमाधम
तार
कुसु
शल्य
पसिना
##̋
क्षेत्रसँग
दशक
उद्योगका
週
चारजना
सीता
##पाठन
雑
इन्ध
बोर्डका
खनाल
कालीमा
लिँदै
##ोरियल
##ج
बेस्ट
र्याप
##परा
दुखेसो
फर्का
##र्माले
सारेको
बसे
पुर
सुप
##नाइटेड
भेष
प्रश्न
##ર
थियाे
##बा
ڟ
लालपुर्जा
隅
##प्रसार
##љ
ܬ
伝
पारवहन
##까
चित्रमा
娩
##नाथ
##ेनको
ˊ
##ᤖ
प्रत्या
रुपैं
यसवर्ष
वाङ
##uld
è
##ेरा
चिता
##्रीष्ट
डिसी
दिनभरि
堀
羊
##ʅ
##भिजन
आइपुगे
चारवटा
बेच
bizmandu
घट्न
जो
ਖ
딩
҂
##의
##तिनो
惊
चिन्ह
डिएनए
义
बालेर
व्याज
इञ्च
##on
##माई
टाउ
घटाएको
図
##जाको
च्या
आश्रममा
जुर
凝
पढेर
##खाने
अन्त्य
##ad
ȟ
注
¬
##ee
##kar
उपाध्यक्ष
चौधरीको
वर्षभरि
तीत
##̬
ォ
मौका
रहँदै
निरपेक्ष
ۨ
러
असन्तुष्ट
##ž
लाभग्राही
साथीहरुले
गाउने
डढ
##カ
セ
##राह
संकलित
द्वन्द्वमा
क्षेत्रमै
##ο
⁄
##__
प्रर्द
गर्नको
मेसेज
##😍
वर्षौं
सरकारप्रति
कदर
सङ्
悚
बढे
???
रुपमै
३२
जंगलमा
क्विन्टल
##है
पेर
##िकाको
हामि
उपकुलपति
बुझ्
पहा
##right
##खत
im
हिसावले
धावनमार्ग
नवीन
कलम
सान्दर्भिक
उचित
you
नाटकको
मस्यौदामा
दातृ
ut
諸
##ेष
कहाँबाट
विवरण
महिनौं
b
सिंगो
拠
##नेट
铁
पाउनु
सिपाही
अष्ट्रेलियाको
##लेखा
ҙ
चक्रपथ
पर्या
जारी
͑
收
कैदी
##ाएका
##म्न
सुनिश्चित
##ारीका
खतरा
केला
##ेण्ट
यसैमा
वनमा
ठुला
##ंदा
級
񩈔
卫
撕
भार
परिस्थितिमा
लगायतका
सेती
境
हुँदा
澳
##ञ्छ
҄
ޅ
गुप्ताले
यसै
मिडियाको
अन्तरराष्ट्रिय
पाल्न
तले
जित्न
##स्तानको
प्रावि
बिहानै
सम्वन्ध
ओझाले
環
##체
औंला
परित
粒
好
आकृति
अधिकार
नेत्रविक्रम
तपस्या
कोशी
विरलै
अनुभ
हालेका
宣
.+
मर्का
समर्थनमा
##я
लल
पूर्वसन्ध
यातायातमा
##ोस
आन्दोलन
##ߛ
सरु
लगायतको
时
##ล
बढाउन
##😖
एम
जुनसुकै
̃
##स्पो
उमेरको
मैदानको
ỗ
呆
傳
a5
छँदै
️
अफगानि
फुटबल
투
लगे
쌶
##ोत्त
##ರ
ן
प्रयोजन
##パ
रंग
٬
भेटिन्छन्
पछाडी
##एक
गार्हस्थ्य
##أ
आतंक
उनीहरूका
通
समस्याबाट
途
##ϳ
##ߌ
अहं
##र्दिक
障
खुलेको
किबोर्ड
##आ
मेरा
आइड
जरूरी
e
ন
बहादुर
कला
अर्थात
तेक्वा
समग्रमा
स्कुलले
䣰
ͅ
҉
क्ल
ब्ला
##ി
業
ԙ
売
##회
अलग्ग
सम्हा
##लगायत
अस्पतालका
尊
चित्र
睄
试
राजेश
##ū
कोरियो
ር
मदर
u3hrm0cpbdg
भाइरल
वै
ྤ
प्याड
##😔
दिला
##श्री
##항
मज्जाले
ཆ
😛
जानेको
सालदेखि
##ैंचा
##्याङ
देशै
##dg
連
हालेको
ɉ
नक्सा
बग्
##कारिता
##त्यक्ष
賃
##ागाउँ
अवस्थाले
माया
वेस्ट
##ݚ
##ৰ
विभिन्न
संयन्त्र
##̪
देखिएकाले
विल
##ʭ
सरकारलाई
स्थानान्तरण
उक्त
迅
盖
सञ्जाल
घटनाहरू
डिभिजन
पौरा
先
##हिद
##चमा
ス
ਆ
विस्त
ュ
भारतलाई
##फाम
##कार्य
##թ
侃
काे
##ङ्
모
समित
मूलका
##͙
洛
निकुञ्जमा
बेलासम्म
तिम्रो
चिसा
हाजि
朋
पुर्य
##߲
##ढि
ȱ
म्यान
彦
권
भएर
समृद्धिमा
प्राय
ই
##ɦ
##तान्त्रिक
स्टा
##चाहि
暖
仿
खोलेको
बोझ
तलामा
ៀ
खानामा
##वृद्ध
##ᤜ
बेर
पोर्चुग
応
ठाउँको
साइकल
नमू
##पीएस
बिर्सन
##ɩ
सम्झेर
##न्सन
##ते
ञ
ᎆ
विपिन
##✌
बेस
想
व्याख्या
घट्दै
軌
घुमा
पर्वलाई
हेलिको
पर्न
##덌
प्रवद्र्ध
##শ
존
##स्कृत
ɿ
उत्सव
pa
##ủ
##मद
##ागाई
##ुराँ
##ń
##माथि
##ழ
##ᤋ
नाला
सम्पन्न
chairperson
访
अनुसन्धानबाट
##띵
बिरालो
►
आत्मसमर्पण
飞
पुस्ताको
बर्षिय
राजदुत
##हेर
सुखी
राखिएका
##ice
##नान्तर
सुरक्षामा
##÷
घोर
उर्व
बह
लागुऔषध
उन्मूल
स्याटेलाइट
जनही
##ਸ
ۄ
तारिखमा
फर्किए
##सुलभ
कोले
##्वा
नीति
हिउँ
०७३
马
news
नथ
आउँदैन
लगाउनुपर्ने
復
उही
सेन्ट
तपाई
अध्यक्षतामा
सङ
शक्तिले
㗣
##ה
क्रोएस
बरिष्ठ
##ालिका
追
डुबानमा
##え
रिपोर्टर्स
##ंदै
ต
三
बेलुकी
##च्छ
garne
੍
ว
सुनाउँछन्
♔
जस
♡
ग्रुप
ө
때
कालिकोट
करका
##क्ने
狀
탄
8b
भोली
९१
##ऊन्
पुग्
wh
मञ्चको
विजया
लाखभन्दा
̭
ख्याति
पाटो
##मण्डप
##˨
हटाउनु
वैद्य
प्राथमिक
##み
##ैबाट
आख
चिन्ता
निगम
搏
宅
परिवारको
謝
##ķ
##💐
##मामा
##कांक्षा
डिफेन्स
##ẫ
पाटी
मृगौला
』
ǯ
🙁
##स्तरीय
घाउ
##----------------
dr
न्यूज
भयो
मनोन
संस्कृतिको
##ंसा
निर्
पाहुना
भन्थे
##ike
दोल
नदिई
तानाशाही
##हाङ
डोर
मन्त्रिमण्ड
##ャ
सम्भावनालाई
##कुल
धके
##वहादुर
##प्र
प्राविधिकले
प्रवर्द्धन
सम्वन्धी
उचाल
弹
मिलेको
घोषण
महीना
अस्वीकार
एन्टी
ޜ
एन्फा
खेल्दै
쭜
契
##ज्जत
悟
정
##यनमा
##रणको
##ुश
##😘
##ش
##दरमा
##️
##हुँदैन
##ियर
##ɇ
##पूर
##मेर
साताको
फलामको
¾
##म
प्रार्थ
सहयोग
##यात्रा
शताब्दीमा
जतिसुकै
##झैं
कर
##ৈ
##चिलो
मुहार
सफाइ
”
नयाँदिल्ली
##थित
寄
##́
##생
本
##यम
राज्यकोष
संस्थानको
##टाले
(
##सितको
गर्नेले
##ॠ
स्वार्थको
##विध
समस्याहरू
क
皆
##&
सकिने
वेबसाइटमा
अडिसन
##हरि
##पेच
페
##्लिस
񄔁
मतको
##방
छुट
蔵
२०६९
败
##िरु
त्यसतर्फ
जात
##केट
विरा
घरपरिवार
दम्पती
##ҭ
##्यु
හ
١
適
गाविसका
##................
पद
##मनमा
पोसाक
मनोनित
नवीकरण
संक्रमण
निमार्ण
##̭
管
ց
ҝ
##sto
नाटकीय
पिप
लाख
माछा
गगन
शुक्र
##प्राप्त
##म्मा
परमेश्वरको
##독
##ﭧ
हुर्क
##ड्डी
##प्ता
सिन्
##फुल
सीसी
ც
##ंगी
35
##सङ्
##ब्द
##भिन्न
अनी
हजारको
अन्दाजी
领
##यिक
मता
##स्वास्थ्य
ओल
घोड
##मात्र
गुण्डा
##र्नुपरेको
##मै
##හ
锈
कप्तानीमा
स्वर्ण
##उँथे
रा
दक्षिण
##ট
⚽
क्यार
՗
५००
##ियानो
##झा
चेल्सीले
##ԇ
कसले
वटै
दिपेन्द्र
स्पेन
##ोषण
कोदो
चीनसँग
##वाग
फोर्स
कलाकारको
鼠
झर
ް
齢
अमर
टाइ
##ट
परिप्रे
티
##ʑ
##ึ
साप्ताहिक
enc
जोडि
फाउ
शेर्पाले
##ˈ
##मित्र
किनि
कृषिका
##छुट
पुनर्ग
गर्नुभ
##ڔ
##....
बोतल
##वृ
##׀
सम्पदा
##पाठी
##ث
態
履
युक
प्रदर्शनको
争
##じ
ट्रयाक
ٹ
खटिएको
##바
राख्नुभयो
post
##ᤃ
कोठ
आजको
आदेश
उग्र
छाड्
झापा
त्रास
##ized
रौतहट
त्योभन्दा
##सि
फिल्म
ड्रो
नरो
प्यू
भइसक
हैर
उनकी
拝
सरकारद्वारा
foot
↓
गुमाएर
##करणको
पवन
रिसर्च
ֳ
समितिले
तालीम
##कुरा
उन्न
##ौन
जोन
सुधारमा
२०२२
असमान
##खोज
लज्
##ֈ
एउटा
##ँध
પ
ｎ
##샵
डेभि
विश्वभर
नसक
चिया
चहल
館
चालु
गोपनीय
सचेतक
सांग
।‘
सक्नुहुनेछ
बदमा
階
##शो
अभियुक्त
##डाले
प्रस्तावित
फोहर
भीमदत्त
अन्तर्वार्तामा
ǁ
ह्यु
ジ
ዢ
लेक
##डुल
刮
सभाग
##र्तामोड
जिल्लालाई
देखियो
##ೊ
##ष्मा
सान्त्व
ज्ञानको
##ト
०७६
सामूहिक
येश
w3
जय
គ
宰
सन्तु
懸
धिमा
犁
疆
बालविवाह
癌
उपहार
ݍ
टेलिकमले
##प्स
प्रशि
बलात्कारपछि
शल्यक्रिया
मतपत्र
##क्षक
##ाउँदै
अनुपा
भइसकेपछि
चिन्न
ŧ
सोच्न
扣
bi
ׂ
डीएसपी
नपाई
सभामुखको
##िए
भूमिस
ể
रमणीय
नेपालगन्जमा
##փ
##न्त्र
धरौट
##िटी
##न्सिल
कार्यक्रम
भैरव
भन्न
रमाइ
ह्यान्ड
फल्ने
तरिका
कांग्रेसमा
ओनसरी
पर्वका
एकिकृत
ഇ
घण्टामा
आमा
प्रस्तुत
पहिरन
फाइभ
वृद्धिदर
व्यक्तिले
##પ
व्यय
##नीयता
##ob
संकटा
##왔
संका
हुनुले
߬
##ș
पहल
उपचारपछि
राजनीतिलाई
कमिट
विकासलाई
##된
況
दायरामा
豪
औंल्या
बल्
शिविरमा
##खेत
##µ
पोषण
उद्घाट
तस्वीर
title
##활
b9
朱
##ꞗ
सोलुखुम्बु
करमा
##!
爱
՚
सावि
टुंगोमा
दार्शनिक
##िभि
बिमस्टेक
सेन्टरमा
迂
दै
प्रचण्डको
##َ
लु
ल्याउनुपर्ने
##い
再
अवगत
sat
##ारम्भ
बढाउ
߉
##🐽
ん
##ुरू
किस्ता
सरोकारवाला
##har
जुलाई
ढाड
मलेसियामा
ज्ञा
ent
मध्यरातमा
टिपेर
यसलाई
पछ
समुह
##ӹ
🐾
सर्वत्र
😀
##चाहिं
सोनाम
यथार्थ
##asi
##ची
भैरहेका
##߰
ட
红
novel
भन्नुपर्दा
##ત
आधाभन्दा
混
गरि
मरा
राजदूत
बढेपछि
크
विद्वान
क्वालिफा
ۂ
पद्ध
##खिक
चुक
##😡
भित्र्याएको
लेख्नुहोस
##um
परीक्षा
हस्पिट
विसंगति
घेर
हर्कत
##नेर
मतल
价
##वर्षीय
##ག
##खेर
ऋणपत्र
develop
पुग्छन्
ब्याग
भए
विद्यालय
दुरु
胶
झै
##40
##ंशा
##निया
##क्कै
देखिएको
निकाल
उपप्र
महानिर्देशक
商
out
छाउ
##रोग
आक्रमण
भनिन्छ
努
##दारी
परिदृश्य
पुरुषलाई
बोसो
母
शाखाको
निम
龍
संशोधन
##ѿ
प्राप्
रिज
˴
ޫ
धार्मिक
दुव्र्यवहार
##बर्ष
श्रेणीमा
##߾
सुनार
წ
##경
˓
एसएल
अभिभावक
परिमा
##ʃ
成
##मीले
रहेकोमा
##01
ĳ
##청
कुकुर
욎
##यरिङ
गर्नेगरी
वकिल
##🤓
痩
दिलीप
厥
##0cpb
##׿
##٣
प्राथमिकतामा
王
राखेको
##eri
刚
##ik
कमेन्ट
अनुहारमा
##रत
एपिएफ
विश्वमै
समस्य
秩
गोलकिपर
वास्तविक
##्यास
जीवनका
##˚
ར
##제
߰
बासिन्दालाई
बनार
बहाव
»
व्यवस्थित
चाहेको
बुझाई
बिकास
गएरा
महानगरीय
कूल
छाडेर
待
दिएका
ė
辽
##साध
लोकप्रिय
െ
प्रवचन
陸
##ेखोला
होट
異
politics
घले
##प्टरमा
##प्त
अवलोकन
पेस्तोल
महो
##न्त्रिक
एकपछि
☎
##क्रो
֍
वर्षबाट
##յ
##ग्र
##ẽ
उल्लङ्
으
सौराहा
दरि
साट
तिनले
दाबी
活
索
टिभ
##51
⫎
सोसाइटी
सृजना
अवशेष
ढुवानी
秉
सञ्जालमा
स्टेसन
जोशी
##cha
रम
रातको
푫
good
환
ˬ
खेम
गराउनका
अग्र
एकमात्र
मण्डलले
फुड
ج
म
면
प्राचीन
दिव्य
गरेकाे
किर्ते
##ห
संस्करण
कागजात
यार्सा
獅
##국
##न्हो
##एस
##खार
[SEP]
असुरक्षा
सरोकारवा
##을
सुदूरपश्चिमका
बेल्
जरुरी
##˅
त्यसै
कार्यतालिका
味
려
सर्वसम्मत
##ջ
एसियाको
विजय
hun
春
पहाडका
##베
江
ु
परीक्षण
##रूपमा
##͞
अनुसारका
पासपोर्ट
बर्षीय
रेडक्र
##ݲ
##कुर
पहिलोपल्ट
मृग
पाग
ܨ
सता
राजभण्डारी
संयन्त्रको
सिम्
उल
क्वि
„
##न्सका
ܫ
##मेक
कहिले
काठमाडौंबाट
##वाल
देखिन्थ्यो
롨
टेनिस
बुझाइएको
कागजपत्र
函
ܞ
##ã
चुनावको
##ale
🇻
添
मध्यमा
##खु
कार्या
kura
निख
##थ्यौं
बिना
워
target
दुव्र्य
त्यहा
न्यायाधीशको
##अधिका
##ta
कुशल
##नाम
बाटो
बिहे
डाक्टरको
नगरपालिकामा
पुनर्निर्माणको
चलाएको
ठाडो
प्रशंसा
चिनी
बनाउने
महाअ
##हाकार
अमन
कसर
資
##ɫ
विमला
##ǽ
काठमाण्डौ
蜂
̷
質
런
शेरधन
हामीकहाँ
格
##╪
दिनुभयो
बुझाएको
प्लाष्टिक
विश्लेषण
ब्यवस्थापन
दैनिक
नदी
˿
प्रमुख
बसी
विवेक
सञ्
त्रिवि
·
नेताहरूको
चाल
गौरव
َ
जेठी
सुव
पटक
娴
##नेता
काठमाड
ठोक्
बलात्कारको
##ә
##्याएर
圈
##र्समा
##भएको
ங
सेक्य
केसीले
शता
नभएसम्म
लाइनको
##कुमा
फलानो
##हरी
बाँकेमा
ब्यक्त
खुकुलो
##धुरा
विकेन्द्र
##ृद्धि
推
##ߨ
ൃ
ctrl
लाह
유
🇧
ट्राफिक
##리
##द्रामा
##：
मार्चमा
विषयलाई
##ｂ
पुनरा
##ुलु
चैतमा
ധ
मनिषा
戯
फुट
उसको
##नासाथ
ﾟ
प्याकेट
निशा
##चो
脳
isper
संगीत
威
७७
##ट्ठा
प्रतीक्षा
रहेकाले
警
व्यवसायी
##ブ
फाराम
साम्य
महानगरका
及
##kud
उद्
利
##̤
नेपाललाई
##it
जमान
ܽ
##याममा
##िंदै
霊
भ्रातृ
समुदाय
##ितीय
देशबाट
वैध
##बीर
खाले
गरेजस्तो
दुर्गन्ध
गाउन
##आउ
##फिर
##44
劲
जेट
दिनयता
ầ
##आफ्नो
継
सकारात्मक
४७
##चोटी
##िएल
黑
##ȱ
##ِ
坚
निष्कास
ǰ
थाह
पला
चलाएका
##๊
##ޏ
ताज
એ
स्वरूप
रिफ्र
आदिका
रहेपनि
庫
नब
सैद्धान्तिक
अनिवार्य
उद्योगी
出
##pe
जीडी
हुँ
66
माफी
##@
अत्याधिक
खत
हातेमालो
ȍ
नहर
भेला
६५
મ
आकर्षित
ढुक्क
सर्लाही
मिल्न
हुम्
फैलिएको
गएकाले
##ति
चीन
बहुपक्षीय
##वार
##र्इ
लोकेन्द्र
बनिरहेको
83
##종
प्रचुर
辉
प्राज्ञिक
स्ट्रो
डिस्
राम्ररी
ږ
聘
बनाए
बहानामा
ट्रष्ट
կ
बारी
बर
开
甒
साइपाल
靼
निकालेर
हिँड्दा
असन्त
륲
##त्कार
विप
##चार्य
夠
मेर
एचआई
##ִ
अव्य
चापागाई
नेपालस्थित
खुम्च
ब्याटिङमा
##ठाउँमा
महासंघले
##ゆ
भनेँ
श्रीमान्
##ढे
सजिलै
पश्चात्
बहाना
##सिय
दूरसञ्चार
‘‘
एमालेको
ਸ਼
##मानको
故
हुनेको
प्रदेशबाट
##नुनी
मार्गमा
##गर्न
坂
options
##झै
पुराना
प्रक्रियाको
पेशा
罠
क्षयरोग
업
बिदाइ
informa
झा
लुट
甚
बीबी
##ѱ
लघुवित्
イ
bana
厳
घट
भाले
विकासले
अवस्थाबारे
##लोभ
न्युनतम
🇯
##ˣ
त्यसैमा
लगाउँछन्
होड
##ग्गा
##दत्त
गर्नैपर्छ
लगानीकर्तालाई
देखाइएको
ä
सयपत्री
समग्र
##सेन्स
##72
##হ
बन्न
अहिलेका
सत्त
नगरकोट
मूल्यांक
№
##जुरी
कस्
दुनियाँमा
जातजा
##！
स्पोर्ट
पछिल्लोपटक
##खाल
ާ
मिनाहा
res
अनुदान
ढलान
पर्यटन
##्वाइस
##˹
##त्तिको
पुस्तकमा
##ന
अवलम्बन
庉
合
##˘
तय
पवि
ǂ
影
姐
ٳ
क्याम्पसको
महœव
wrap
सेकेन्ड
फेरब
पुँजीवाद
##ց
##चनले
##ण्डित
##ꭝ
कतिसम्म
गोकर्ण
ढा
विदा
सुरज
勒
戴
##त्रु
होटल
पाण्डेको
種
擔
अञ्च
哈
नेपालसँग
##޻
किराँत
मानेनन्
##न्द
इमा
संरक्षण
##स्रा
बजार
दृष्टिकोण
लगेर
शाहरुख
む
泡
मूल्यमा
##가
##ोजिम
懲
एकाधिकार
पाँचथ
उजु
##परेका
網
##п
निद
휴
म्यु
##देखिको
खुल्यो
सै
߯
ʬ
ᤔ
н
न्यौपानेको
纤
↩
बाहिरिएको
मेस्
गैरजिम्मेवार
फिफा
रानीपोखरी
सुत्न
फर्के
चरणमा
एनसेल
बिहेको
पोलिट
समाजिक
समेटिएको
बढ्दै
दर्शकको
मार्केट
##लेन
##वाँ
##न्ध्र
उपाध्याय
कार्ग
##ׂ
¸
##मण्ड
कार्यालयका
घट्ना
##ाग्
मान्य
##द्वी
##हरूका
##रालाई
मानवीय
हिसाबमा
सेर
दमन
##ुकी
अपनाउनु
काँग्रेसका
हेर्दा
ོ
换
##इ
##ら
##ヒ
बसो
दीपेन्द्र
सम्पाद
既
滨
युट्युब
उद्यम
##डाँ
काभ्र
मुस्कान
ި
प्रतिनिधित्व
उचाइमा
रसि
वडाध्यक्ष
रेडक्रस
अनुचित
ऎ
नपर
मनोवैज्ञानिक
♣
ゴ
##अन्तर्गतका
##बिधि
श्रीराम
亡
唯
ओखलढुंगा
वा
अक्षर
##हाउ
तपाईले
拟
09
मंस
ស
उठाउँदै
कलाकारिता
परेको
0d
봉
एटी
चितव
शताब्द
ᤃ
हटाएको
ϵ
सातवटा
##जुक
##वेक्षण
风
जडान
कोइला
स्मरणीय
दलबीच
##ヶ
बेचबि
बाला
១
晚
薄
अखिल
खग
##ara
##ita
##߼
तो
निष्काशन
प्रतिवेदनका
份
पिछड
問
##मानव
鳴
译
##ya
तोकेको
##㍺
अवध
अरु
##क्
मुख्य
口
देहा
कहिलेसम्म
लाभान्वित
राखियो
उठेको
निकासा
嫓
˻
##पात्र
##bu
##कीय
##कारण
##め
##गोल
प्रस्तुति
व्यवस्थापनमा
܀
##िएकी
ἆ
कार्यविधिमा
गौर
##age
अथा
हलि
खतरामा
धारामा
##🏽
परिवारमा
##함
ݘ
असमझदारी
बढाएको
##𖾄
##च्या
अबस्थामा
घर्ती
भूकम्पबाट
केबलकार
📷
चढ्न
पुगेन
फै
हाबी
धरौटीमा
##ิ
गिर
उडानमा
##ˀ
거
वर्षमै
चल्छ
कल्चर
##ל
निध
रुचा
ʾ
प्रदर्शनमा
संलग्नलाई
अवस्थालाई
our
चलाउँदै
हुँदैनन्
##म्
##विद्यु
##되
उठाउने
##न्त्रित
ग्रान्ड
थिएँ
पत्रकार
ѻ
वरि
सदस्यहरुले
遊
##ƻ
ⴚ
अनगि
##க
सार्वभौम
सार्वभौमिक
浜
##मा
झर्ने
##उनु
कठिनाई
##ü
।”
आफूहरूले
建
एकसाथ
विघटन
##बाहि
＆
पोइ
षड
ब्याडमि
प्रतिपक्ष
करा
प्रेमबहादुर
##संस्था
महानगरपालिकाले
##un
हेल्थ
कोरियोग्राफी
गान्धी
सिध्या
##हे
९
लाग्दै
देखिदैन
##दे
आएपनि
युवाहरुको
वर्षे
अपराधमा
सेरोफेरो
##खान
교
##िनो
##द्
यदी
奴
##त्साहित
tour
ब्रेक्जिट
कुकुरलाई
对
ୋ
प्रयोगले
किनबेच
勤
कानू
नेपालीले
欣
络
##स्को
अधिनायकवादी
रिजल्ट
##दामा
परमाण
पुजा
##”
##लाइ
संघमा
##̾
सुवेदीले
हलो
साढे
##adi
##र्कीले
##ʦ
##ः
露
馩
मुलुकमा
##शत
द्वन्द्वको
सन्दीपले
֏
014227242
मन्त्रीले
सम्माननीय
##֖
##៏
रहेर
क्षणिक
दाग
k
贸
गैँ
##😤
ऋतु
पक्षीय
47
ώ
□
##व्य
रहेनछ
દ
은
花
##स्त्र
स्वयम्भू
せ
津
आत्मनिर्भर
എ
प्रबद्र्धन
##गण
ǣ
आणविक
गणतन्त्रको
##तर्फ
सी
嶗
सूर्य
##ː
पाँचौं
तेश्रो
समयसीमा
भिम
मानस
बदली
##ance
नराखी
##ר
##सिन्दा
प्रवाहमा
पूर्वस
मनाएका
रुस्लान
विशिष्ट
खाली
标
邮
͸
भन्नुभएको
九
मान्यतामा
ợ
퇻
सार्न
१०८
##9
19
͛
अघोषित
फुटबलमा
##पोर्ट
विमानस्थलमा
##र्मा
बन्दर
च्याम्पियनसिपमा
क्रोएसिया
आउनुभएको
##गर्दा
निव
籸
##स्दै
अनुभव
##साहित्य
##ൈ
अत्त
बनाइ
वर्षकी
लाखौं
浙
मधेशी
share
कतिले
आइरहेको
훑
हुन्छिन्
आन्दोलनले
##ग
ݞ
कुण्ठित
##बम
पढे
अज्ञात
材
##ǹ
झ्याल
तिम
गुप्
删
मौकामा
गौरवको
##माथिको
##ծ
महिलाहरुलाई
कामबाट
##у
ď
मासुको
##eriod
##ेत
ӧ
ߑ
त्रिपुर
लोगो
आधारित
##म्म
ԇ
##सिन
जमरा
##सभामा
##ぞ
तेक्वान्द
नीतिगत
२०२१
मास्क
元
人
##नाव
कारणबाट
##۾
बोला
writ
##ƾ
##िनियर
忧
##ाउँमा
हुनसक्छ
३
ɏ
व्यापारीले
प्रशासनिक
बसेका
चुर
विजु
##ool
##आज
गार्
शास्त्र
सुनी
##ۨ
गुजरा
##쉬
##भग
幕
नाग
स्ट्र
##नायक
घाँटीमा
धर्मावलम्बी
##चौरमा
##ष्टिक
अफ
जेम्स
स्वाभाविक
कम्प्युटर
सजिल
आईसीसी
ढुकुटी
じ
गाउँपालिकामा
भएता
##लाउने
आलोपालो
酶
प्रदर्शन
प्रतिस्पर्धात्मक
औपचारिक
साँखु
झुटो
泯
संक्रमणकालीन
🇭
ज्ञवाल
सुविधाको
##ঃ
毫
外
##ढी
समापन
तेह्रथु
##षे
ओमान
ꑿ
±
निरु
##ाइरहेका
##ामन्त्री
साउ
यौन
##ム
नसक्ने
श्रील
##ᚔ
##월
##ビ
ढिलाइ
चले
मेगावाट
२०५६
अल्पकालीन
त्यो
बिर्तामोड
डुडल
मोबाइलमा
पूर्वअध्यक्ष
मिडिया
𘡎
channel
̥
概
##रुप
कुलमान
##शीला
तिलो
बढेको
##रुवा
दुईवटा
गम्भ
莱
##भित्रै
अली
पूर्व
अर्था
と
मातह
0a
십
बापत
प्रयोगकर्ताले
ब्रत
रू
कर्मचारी
ত
चिठी
मङ्सिर
##ਭ
चुनाव
पार्टीले
भवनको
₋
##िको
##तीका
幡
चिह्न
प्रधान
##ە
ĵ
फौजदारी
सनराइज
种
##ฮ
सम्बन्धित
दुरा
दोलखाको
माग्दै
भाग
##ेसम्म
परिचालित
वितर
8
मण्डलका
समाजवाद
̪
🚁
##प्रताप
ྟ
नाइट
##धिस
##ऴ
ߧ
एक्सचेन्ज
도
##🚩
󠅌
##ѯ
ڙ
गर्छन
समूहको
埼
##चनको
闹
garnu
उर्वर
##संग
रासायनिक
आव
लेख्नु
##ʌ
ყ
##यौ
सुविधा
मदिरा
キ
गर्मी
烟
バ
鹹
थारु
स्थगन
##स्यक
##׫
达
##rl
##भरको
नकआउट
भने
बाहि
राजनीतिबाट
लाजि
##ेक्
秒
….
निर्वाचनलाई
हुँदाहुँदै
剩
##ave
गरिमा
हिमाल
쯬
दिनुपर्ने
तेस्रो
87
##よ
##>
प्रांग
केटाकेट
۶
यी
बैंकिङ्ग
ে
कन्
माओवादी
स्थिरता
守
##चर
##शित
अनाव
व्यहोरा
27th
संविधानसभाले
क्षे
##निका
##सम्मान
लम्
कतारको
महिलाका
नोबेल
सबैतिर
##उँछन्
विगतका
##ְ
सुरुका
茧
उनकै
पान
ไ
##हरे
##cess
अरुले
आजकल
जनाए
##चाइ
त्यसकारण
छली
तिर्नु
पोखरा
लम्बाइ
गम्भीरतापूर्वक
अगुवा
उपलब्धी
आरि
अनुमति
##ׇ
महोत्तरीको
कटान
##बास
cong
##cript
खेलमै
मञ्चमा
संविधानको
##टको
器
祝
टीभी
संकलनको
น
नाफामा
बजारलाई
सहकारीलाई
सकु
##पानको
掏
᡻
सर्व
कमाई
वासिङ्टन
दश
बीबीसी
बेइ
पर्छ
सफा
᭴
##ড়
##च्छा
सखाप
冤
ۊ
कर्ण
भारतबाट
परियोजनाले
ܮ
सचिब
मन्त्र
टाइम्स
驶
##ाइएको
डेरी
सञ्चालनका
告
सेव
##्यांक
अग्रता
टुट
भिडियो
##참
भएकोले
机
बेथिति
प्वाइन्ट
##किने
मिटरको
पुरै
जोश
स्वामी
मण्ड
覚
बायाँ
##ीकै
छिचो
गुल्
आयुर्वेद
दिन
यो
##िरहेको
##ग्न
खुला
उपस्थिति
एभरेष्ट
दसैँ
##बस्ती
रहिआएको
दुर्इ
लिच्छ
낣
##26
##ालय
て
दोहोरि
गर्भ
⒖
얘
युवापुस्ताको
回
चुम्ब
हौं
ȗ
##गाई
烧
##डल
चकित
英
##ง
攻
लालीगु
बुझ्नुपर्छ
ᶣ
##ज्योति
##इरहेको
##र्तिमा
ल्याइ
०००
पतिको
this
लगानीमा
##स्पद
##더
आँशु
चिन्ति
मागअनुसार
दशकदेखि
बहिस्कार
आईपीएल
नबिल
सम्पुर्ण
आयोजनामा
अख्तिय
आश्वस्त
ជ
←
यसर्थ
ລ
叫
रीति
२०४९
闲
##रोप
राजधानीका
##स्रो
##ीति
एसएमएस
नेपालकी
आमजन
增
ओम
दीपकराज
ब्याट्
पोष्ट
भावनालाई
पथ
सोसल
2016
##ڲ
गुड
मसला
##ℑ
यसैगरी
lag
शुभारम्भ
पाइला
सहायक
诉
एक्सचे
जाने
देशैभर
९३
सक्छु
विस्फोटमा
टमा
傜
走
पोखरीमा
सचेत
##उँ
ұ
##खण्ड
ִ
नेतृत्वमा
सिरहा
##प्रधान
सकेमा
यथार्थलाई
समितिमार्फत
शानदार
सिनेमा
##राका
हिस्सा
##यको
सुरक्षाकर्मीले
देऊ
मुलुकको
पुर्या
सामाग्री
##नेको
##वाफ
ۈ
##up
परेकाले
कम्पनी
पुछ
भनिएको
उपचारका
अन्तर्
兜
प्रभुत्व
निर्वाचनले
##इन
आमन्त्रण
हावा
दिपायल
淡
ठाउँबाट
##मिटर
##ूर्
̫
結
नेपालीका
खेतबारी
⋳
वर्षकै
宇
분
नेम
बताईएको
##͍
ផ
नवयुग
×
ani
##14
##ंख
आवेदन
भरतपुर
ʛ
斓
##۞
पराजुलीको
##मोर्चा
बिगो
##जी
प्रहरीले
取
💖
बस्य
ψ
🐒
##ោ
पोशा
किम
सुनसरीको
##malink
ʥ
तुलाध
旱
趧
आइपुग्यो
उपन्यासको
पेसामा
ब्याड
##コ
au
बर्ग
ā
एकज
ȭ
##्युत
8216
मनपरी
कँड
##ट्जर
޲
##वरीमा
तोड्न
##ian
ã
नदेखिएको
बोल्ड
मारेको
अफिस
मानिसहरुलाई
सक्
दास
बयानमा
२०६७
सुदृढी
वितरण
##ष्टि
रूस
भक्तपुर
ớ
某
सम्ब
ब्युँ
##ਪ
,”
दुर्व्यवहार
विजेता
博
यहाँका
##ਨ
कार्यवि
सुदीप
सहरका
धमा
विदेशबाट
बढाउनु
假
वेब
瞱
उप्
📻
सुट
बजेट
##रुपमा
ठेकेदारको
नागरिकका
बाढ
बैंकको
रमा
jul
##्ञ
दिइन्
सकियो
बखत
0000
बताई
##पन्न
पुनरागमन
खरा
बेमौ
विभाग
##҆
सभ्यताको
##रो
भुक्तान
12
巅
##दैछ
##ेको
ठूल्ठूला
凡
मानक
मै
अदालत
धनुषाको
रातभर
##ally
देशहरुमा
th
संघको
霤
##होला
게
स्तम्भ
प्राध
##बिधान
##फाइल
讗
##,,
वर्षाले
##नान्स
गर्नुभन्दा
मसिनो
जोखिम
मेहनत
तमा
म्यूजिक
##दिन्छ
然
忽
सुन्द
कोण
सेप्टेम्बर
问
आचार
जिम
भित्र
##̳
समानु
bhan
कार्यपालिकाको
चालिस
##न्ते
सत्यतथ्य
鶡
하
##्रेज
निरन्तर
गर्भव
पेनाल्टीमा
##쮧
̧
गरिनु
सप्त
##नुभएका
लोकप्रियता
ढिलाई
हेरिएको
पठाए
勺
规
##ोटि
एसिया
##पदा
माविमा
सदाचार
मुद्रामा
वीरगन्जमा
सार्व
😒
char
##ग्
##दीको
copy
##̄
##data
his
महामारी
झलनाथ
ब्रेक
पढ्नु
ताजा
नबि
多
##ba
##्यारी
😥
समेट्ने
複
पत
##롨
प्रचलित
विप्लव
नेताका
情
नराम
提
यहीं
##बाटो
नमिलेको
##पछिको
निरीक्षक
##जियम
ګ
पिडित
मूल्यांकन
涨
घोराही
स्थगित
●
रेशम
奖
बने
##ّ
##ꦖ
आतिथ
##कली
घोडा
आविष्कार
भरमा
लगाएपछि
२०७६
##वृद्धि
मेल
महासङ्घ
聾
खेलाडीलाई
स्मरण
ȫ
##खमा
##닦
##݈
׎
झन्डै
ӟ
##शिल
##ঘ
shre
चीनमा
विधिको
##럼
##द्र्ध
एवम्
मुख्यमन्त्रीले
ݭ
̺
मूल्याङ्कन
आप्
टेक्
ค
##िस्ट
गर्दछन्
समाजलाई
##टले
अर्थमन्त्रीले
नमुना
स्थापना
रक्षामन्त्री
##मुना
नत
.,
मान्छेको
自
चाहे
##मनै
चुरे
##ͯ
##िरहन्छ
सन्तान
कपिराइट
##जनी
物
##‚
छानिएका
∕
##🌻
बिद्यार्थी
माविको
##ގ
अनुकूल
चिन्ताले
प्रवृत्तिले
46
बताउँछ
विष्टको
किमि
##ॄ
september
ల
冕
खुवाउने
पहाडमा
म्यान्
सूच
शासकीय
kathmandu
##ंसक
##तावरण
उम्मेदवारले
कञ्चनपुरमा
गहुँ
##ुत
कालोसूचीमा
धर्ना
हर्म
##³
臓
##ツ
曲
गर्व
प्रसारण
रक्तचाप
##बजारमा
市
उहाँ
員
ஸ
##मति
भित्र्य
वृत्त
जोहो
##ษ
सुरुवाती
##ख्य
##र्द
भेटिए
गरिन्छ
##था
##लाले
##ारीमा
##्रक
जिन
⦮
##ԟ
जगा
अग्लो
बल
फोर्
साउद
∙
सल्ला
##ेटिङ
तिर्नुपर्छ
##ud
##िनले
##श्यक
##कन
पुगिसकेका
##न्तरको
धौ
gener
ߛ
##पावर
##लग
暫
##कार्ता
##쯬
सुधारका
प्रणालीबाट
तैनाथ
免
##led
कक्ष
नदिएर
宫
운
देवानी
युद्ध
आप्रवास
##हरुमाथि
इंग्
##짱
श्रीमत
स्कूल
कथाकार
प्रदान
सिक्ने
पाउँदैन
आपत्तिजनक
##ള
尭
आंशिक
मान्छे
##वियु
払
do
चुक्ता
ध्य
##ֶ
##ष्ठा
पर्दामा
व्यवसाय
काउन्सिलको
भीड
टेन्डर
अमिता
फर्किन
望
अनुसार
राख्न
लागेकाले
उम्मे
मद्दत
विराट
मोडेल
##श्रमिक
##∕
बिज
२
##स्ने
सिंगापुर
स्वाद
भेट
सूचीकृत
如
##े
उद्धार
##ം
आँच
٠
抵
월
ニ
उनीहरूको
पानीजहाज
験
अमित
बुधवार
##‐
##ド
प्राणी
斎
जमेको
कन्सल्ट
बहुमतको
पर्ने
भन्नेबारे
परमाणु
द्वन्द्व
ݲ
स्रोतबाट
##đ
गरिरह
##विचार
¡
त्यसले
पार्छ
बोहो
बाँडेर
동
बढिरहेका
៍
##र्खेत
본
एभरे
##ङ्गमा
कृत्रिम
अघिसम्म
मिल्दैन
प्रचलनमा
კ
ह्या
##नीत
जिताउन
कल्याण
徽
नराख्ने
##ǭ
##im
शरीरलाई
कार्तिक
##ₒ
उपलब्धि
##ო
겹
निमन्त्रणा
शारदा
फर्क
र्
豐
##लाई
帕
?’
##गमा
पूर्वमन्त्री
धर्मा
बियर
गर्न
दमा
एक्लैले
帽
摊
痛
ग्रामीण
দ
##वारि
मतदानको
समाचारको
तवरले
हारेर
作
आइ
❣
##ेसर
सुरुवात
ra
नलग
सम्पादन
कारक
奶
##सक्दा
टाढा
ka
सेमिन
पर्सामा
खस्
गुफा
##ौडा
रंगमञ्च
?'
伪
所
आदर्श
पैसाको
भाँ
句
भत्का
गर्दैनन्
देखिँदैन
प्राधिकरण
##वासीलाई
##99
दिउसो
राजु
विखण्ड
##׷
[…]
##निकल
##तिरै
放
वैवाहिक
बजेको
राष्ट्रलाई
吾
迷
##ॽ
܁
##フ
तस्करी
भनियो
प्रदू
राम्री
मधेसका
advertis
चेप
랩
चुन
##ญ
बुझाएका
##द्रा
स्थापित
छल
់
##आइ
नेतालाई
पर्यटकीय
##っ
bec
ब्याज
सदस्यमा
बाहिर
##ﾧ
दावा
तिमिल्
##दन
##ैनिक
बू
चौतर्फी
##ाको
एच
अध्या
काका
സ
बितरण
भक्तपुरको
भर्जिन
##96
##ठ्ठा
कुनै
फर्काउन
भारतले
##98
दिइने
विदेशीले
◀
##ालगायत
जन्मा
##हरूबाट
टोलीको
##튜
ह्विल
अन्यत्र
हुनुका
समस्या
##٥
授
समायो
editor
ब्यान्ड
##ंसेव
भइसकेकाले
आफू
##्मा
वस्तुको
पुगिन्छ
चाँही
##ೆ
ത
以
뎾
like
׋
घडी
##α
י
मंग
构
कतिपयको
लैजान
आमनागर
संयम
पर्नु
##उ
पक्षलाई
साल्ट
##दशी
##ഭ
पोखरामा
##हाँ
इनि
नसक्
##혜
बिक्रि
##ṃ
##सँगको
इमर
तुल्याउने
मारिएका
买
चीनसँगको
仪
助
पूर्णिमा
艗
写
अरूको
सुझाब
逼
करोडौँ
नाम
आइपुग्
ീ
ঙ
मस
ॠ
##□
विजयी
घर्तीले
चलाइ
##न्थ्यो
दोलखा
ổ
水
##म्बा
बित्
तिरेर
फिलिपि
सामुदायिक
쇁
##ժ
corpor
##뚻
##न्तरण
नेपालीहरू
दूतावासले
पाठ
原
к
習
玫
ݸ
##ٌ
प्रशासक
토
##प्लो
प्रिन्स
ˡ
बुझाइ
खनालले
हर्
धम
漸
##क्ष्यमा
न्यायाधीशले
##घाटको
भैरहवा
शताब्दीको
##्य
केन्द्रबिन्दु
संगीतमा
教
मार्गदर्शन
न्यूनीकरणका
ణ
भ्याल
हिंसा
##꺂
भुक्त
ކ
रचना
कहीँ
隊
चौतारी
आशि
एले
##១
##ईको
##तीमा
चे
##ப
वेद
कार्यद
आन्दोलनको
械
छाउपडी
फेड
पूजाआजा
विर
##ӳ
फेस्ट
निदान
bha
##ue
आर्थ
चलेका
वटा
้
ॡ
##도
ಕ
ٲ
सम्पादक
##न्यु
अस्वस्थ
सन्तानको
औँल्या
##लान्
差
盏
बढदै
चेताव
सिन्धु
प्रादेशिक
भट्टराईको
##press
*
कमैया
तारा
##ǆ
健
आस्था
ц
थै
ab
परिक
ӑ
广
पशुपतिनाथ
##![
##ीतर्फ
##어
काउन्टर
##ost
लागिसकेको
संगठनको
अस्पतालले
ब्रिटिस
##पुल
सिरियामा
##मन्त्र
##ुपमा
विहार
##शमा
समन्व
##साथै
ｬ
튼
##ទ
費
##न्जर
##ियरको
अमृता
रसुवागढी
सश
तिव्र
एकात्मक
##ߐ
◆
ख्वा
㣙
##ᤆ
##वको
राता
υ
##वरमा
🌾
##39
亲
##ܰ
fin
##타
जग्गा
२०१७
木
##ƽ
समयमा
##बस
नेताहरुलाई
केसी
गाडीको
बुर्ति
वाम
राज्यमा
##ザ
बडा
हटाउन
褍
##स्टिक
एक्सरे
आड
##ა
संयोग
दिशामा
स्वच्छ
थ
पौडी
##yo
##र्ख
मनमनै
लाली
ベ
依
##कुमार
बजारमा
面
देवता
공
परिचालन
not
##भने
##ລ
仁
##ित्र
5
सन्तोष
त्यसमध्ये
據
नगरप्रमुख
जितमा
ढिला
बिक्रम
73
ब्राजिल
फोनको
सहकारीको
सहितका
旺
##वादलाई
##साधनको
अठ
ब्रा
सोही
जिवन
##ङ्गिक
समझदारीपत्रमा
जन्मदिन
लिम्ब
ҹ
अपराह्न
किसान
देउ
∆
##छु
जगे
ࢎ
##ś
अर्ध
काल्
##उँदा
##णी
स्वार्थ
##र
##ी
##निष्ठ
##विहीन
危
##न्त्री
गरिसकेकी
पृथ्वीको
##͔
照
राप्रपा
ͫ
तम्
सोझो
晋
पुगे
फोर्ब्स
ゃ
##ਢ
आकस्मिक
##te
जुटेका
शासन
दशरथ
熟
ˤ
陆
ᡱ
रोकेका
डाइ
दरबारमा
धान
लक्ष्
आवमा
9a
##जिर
अत्याधुनिक
##कालमा
आशय
宁
飣
尴
ڷ
बसा
बिक्री
चुरोट
̖
##िज
책
संस्
##९
##다
श्रे
グ
यिनै
२०१९
आयोजनाले
कोलका
够
झार
ठ
असु
﮷
साथीभाइ
आउनुपर्ने
जलवा
星
舌
β
अविश्वास
किनारा
लाग्यो
हानिकार
कालखण्डमा
६२
##í
##ke
मामि
लोपो
२६
##लम्ब
久
बार्सिलोनाले
उडाउने
चीनबाट
慢
##ý
##ज्ञान
गएको
##मिति
##सिङ
##र्ज
बनाउनु
##टीको
##णि
77
pvt
ल्याउनुपर्छ
रिट
۷
ה
##बिन
युद्धका
##ߍ
स्वतन्त्र
##˜
质
सुति
##eed
शक्ति
##साएर
मार्च
मधेसवादी
ब्यानरमा
😃
ツ
##मका
लगाइन्छ
㠷
智
##निस्ट
हरुले
भोज
टिप
##ݪ
सवारीको
##ङ्ग्रा
##ार
रास्ट्र
থ
##्रत
सिभिल
बोक्
समता
π
##जका
##केला
##ă
##ݖ
邀
##तामा
पुग्ने
जयन्त
##राजनीतिक
कैद
पाप
बन्छ
हेर्न
上
΅
층
क्यान्सरको
वडा
##ċ
##सग
पेट्रोल
##್
ϸ
प्यान
ă
स्वामित्व
आदेशमा
证
해
##36
##िमण्ड
त्यसपछिको
##ї
बङ्गलादेश
लगानीका
##ភ
खन्ने
झाँ
##햇
काभ्रेपलाञ्चोक
तिव
##िला
पाठकलाई
拍
##टेल
##ē
कोरियाली
फाउण्ड
##ग्रस्त
टेलि
##सरा
अन्तरक्रिया
विज्ञा
खेल्दा
नोक्स
लुकेको
##द्रिक
ˠ
पूर्वा
विशेष
ៈ
सुन्तली
विष्णु
হ
ѵ
अनुरूप
प्रि
सङ्गीत
吉
कोइरालालाई
बजाउन
लेखक
##ͪ
ཏ
涌
खार
गीता
##ܹ
जथा
##नै
ढुंगाना
铃
जुम्लाका
डलरमा
आयोजित
गहन
弄
##र्जा
उपाध्यायले
##राखेको
गतवर्ष
जनाले
́
भावी
##िरहेका
गतिविधिमा
##मला
##jal
΢
शेर्पाको
##pl
feb
शैले
##मेण्ट
मन्त्रालयमा
য
खाल्
नखु
प्रवृति
फड्
भएको
̏
डर
युव
लचिलो
व्यापारिक
दर्शकलाई
मार्मिक
転
##😎
कञ्चनपुरका
सपना
किन्न
छनोट
मार्स
“
##ोक
??
बसाई
ल्याउँछ
जातिका
##ں
सुझ
कर्णालीमा
##एर
असामान्य
##उने
febr
खोक
##ф
मज
म्याने
जन्मस्थल
अभ
रहेन
##कान
៌
##चाँ
सेक्स
橘
चिरञ्
कनेक्टिभिटी
कान्छी
synd
निस्कने
ӵ
रोजगारी
गुमाउनु
ा
騒
떨
仍
न्यायाधीश
##ab
##lect
जुनियर
談
pro
नहुँदासम्म
۠
खिचेको
ঃ
厨
肾
##rg
##पना
क्यानाडा
ͬ
विषेश
प्रतियोगिताका
该
id
कथाले
墜
छेउमा
सभाको
से
च्याम्पियनसि
बहुमुखी
22nd
͖
##द्ध
स्वचालित
ਕ
##ق
##सेक
अनलाइन
ঁ
दशकौं
܇
##ٻ
सीडी
⩌
ូ
##ल्छ
सक्छ
ך
चना
##̥
朵
प्रवृत्तिलाई
खल
बजेटको
दूतावासको
हनुमानढोका
गराइएको
##व्यक्ति
##ृद्ध
सरह
ȃ
ـ
नशा
統
##񵒋
अझ
होटेल
##फोर
चौमासिक
भाडा
२२०
एकदम
चलायमान
ᤋ
एकीकरण
##olog
यात्रु
ढुंगा
स्नेह
कानुनका
ع
पुतली
साहको
आकारमा
泌
##ｈ
##खी
भनिन
쑔
😋
परिसूचक
##लेस
##უ
उठाउन
दिउँसो
वितरणका
##भिल
##ค
##‘
राष्ट्रियता
गाडी
##ˡ
##μ
टोकियो
भेटमा
रामकुमार
금
फ्रान्सेली
बर्द
ộ
##ả
##मत
चिन्
पोलिटब्युरो
लमजुङ
गुलर
##두
##̏
##टी
नोटिस
##इसकेका
परिषद्
ǌ
##र्जिन
##प्राय
##ध्यम
栅
फितलो
प्राइभेट
मन्त्रालयलाई
##ाइरहेको
अब्बल
एघार
##क्ता
˨
ԯ
भ्वाइस
ﾀ
सर्प
पुलको
फेरी
ŝ
ឡ
强
##लियाको
लामाले
बसन्त
काङ्ग्रेस
##ियु
जसरी
सुवास
##सम्ब
##uda
ǖ
嶽
संचालक
##ण्डी
मनी
शुल्कमा
हेमराज
##ð
नैतिकता
पार्टीमा
अपार्टमेन्ट
गुमा
設
##ाँट
समाजवादी
裤
मलेस
##겠
載
節
encoded
宠
आइपुग्दा
जु
ᤜ
निर्या
莅
government
चट्या
ताके
अष्ट
तीस
सजिलो
##साथ
##राज्य
राजन
पुनर्वास
पैदल
##ex
बाँच्न
ફ
मुल
##ुक्त
भण्डारीको
माथी
गाएको
##ंदैन
##ूको
घरी
##민
निर्देश
रु
कुपोषण
पसल
बजेर
लाग्थ्यो
⬇
नति
लिगमा
तिमल्सिना
प्रणालीले
साँ
वस्तुमा
##गाढ
चिन्तन
धितोपत्र
究
##भिङ
अस्त
तपाइको
124
google
विश्वस
㡑
सीमान्त
##ナ
부
##07
सांसद्
##영
राख्नुपर्छ
##लालले
ⷲ
गरिएन
რ
त्रिव
##േ
रस
फ्रान्स
##संरचना
##뒭
उपेन्द्र
kar
हुल
फुटपाथ
खरिदमा
##ÿ
शर्माका
अरूले
##्रम
यूके
काठमाडांै
##क्सिको
##लान
आर्मीका
नपाएपछि
रसिद
##िमूलक
उठा
##कृष्ट
संगै
##केको
ϣ
एकछिन
पाइनेछ
दूतावासमा
जफत
गरिरहेका
दुवैको
##ौरा
เ
##chha
पहिरो
祖
जान
婲
##ग्य
##दिएर
##ﳃ
##िन
पग्
पाएँ
ठूल
परिषद्को
बिताउन
積
駅
##ۚ
गुम्
२३
चेपाङ
अनुपात
##86
दलीय
जनतालाई
सुनेको
##एम
##ር
कालमा
聊
##۷
##निम
चिकित्सकको
➡
जन्मेको
驩
सिन्धुपाल
##पनि
##ݾ
##िएफ
दुवैले
표
झोल
ɔ
޿
रेलवे
घरदैलो
ฉ
सूचीमा
तिर्न
अंश
読
घटना
प्रलोभ
##😮
been
##फाइनल
##ुरेन्ट
##ल्
नवन
हिँड्
सूचनाका
扶
प्राप्ति
##कप्त
लचक
##ǌ
##ʴ
##֑
सर्त
सचिवालयले
##そ
असन्तुष्टि
अस्था
년
##जल
˾
##एमा
गच्छ
बग्ने
उप्रेतीले
##डियो
लक्ष्मीप्रसाद
०६३
भयानक
##पथ
अगावै
‑
लगेका
ｏ
चिरञ्जीवी
स्टिल
##िसी
सव
वर्ल्ड
属
##•
‘
विहीबार
##ή
आयातित
क्षेत्र
प्रतिवेदनमा
भावनात्मक
सम्वोधन
२०५५
कास्की
흜
##レ
शीघ्र
गणेश
पुर्यायो
संरक्षक
मधेशको
लाखमा
अवैधानिक
##पू
अभिभावकले
नवनिर्वाचित
मोवाइल
ŉ
रुपैया
शीर्षक
##런
कलाकार
सप्ताह
भ्या
##ѡ
##օ
##न्चाइ
ب
सचिवको
ក
犬
तपाईंहरू
आसपासमा
쐎
##ᤩ
##は
প
##ौल
साधनमा
समारोह
बक्यौता
मेडिकल
で
##ेवर
जनविश्वास
##뷶
गुरुङका
तपाईँको
##ङ्गले
##्वाइ
##ᤰ
मन्त्रालय
अनुप
सास
##ेश्वरी
मेन
ऋयखभच
ഭ
कठ
##わ
##न्दामा
फ्या
प्रत्यु
कुराहरु
दिनुभएको
बालबच्चा
घे
##वृत्ति
貌
##विक
उपलब्
##जिअ
ۇ
##स्ताब
न्यू
महाधिवेश
तारेख
評
unic
##업
##ҵ
कुखु
शोमा
##ज्ञानिक
##18
##र्ध
̰
कान्छो
खासगरी
निस्केको
पूरा
ׅ
##̒
ߌ
##चित्र
गण्डकी
पैदा
##ј
विष्टले
航
##चालन
##ोदर
ੱ
दौडध
सुन्दर
##̖
hamrokhel
डेभलपमेन्ट
ढाक
दुःख
જ
काठमा
बिमाको
दोस
遺
खे
कम्बोड
सिद्धान्तलाई
纸
을
##ڙ
##िप
छाएको
विद्यावारि
मासु
##धान
नक्स
##ຯ
कार्यदल
रोकिएको
##ྴ
वैशाखमा
हालसाल
##֨
हासिल
धेरैजसो
महाशाखाले
##छौं
टुङ्गो
सूर्
हात्ती
લ
योजनाहरु
ल्याण्ड
見
##म्स
प्रस्तु
##विराज
यहाँको
88
गरिब
नाताले
कस्ट
῟
##मानमा
दैनिकमा
ठेकेदारलाई
खेल्नु
##ेक्ट
सर्वसाधारणको
काभ्रेप
आतुर
चिनि
अनियन्त्रित
मान्दै
खिच्न
वायु
भैसकेको
##ȓ
निशान
##🇷
##ܒ
ީ
##않
भयावह
͐
##रेको
उड्ने
साबित
间
##agarma
忙
颈
august
##💃
इत्या
कर्मचारीतन्त्र
प्रसू
एन्ज
इच्छुक
मन्दिरको
##ून्
जलवायु
पञ्जा
º
ओढ
##म्वा
##ϙ
幼
अपरिचित
विकराल
सपोर्ट
एप्प
##र्त
寝
##ाउँथे
मधेशमा
##ដ
ম
##͡
##ेरो
तालिम
प्रतिलि
֕
##ܽ
महासचिव
##पनको
कारबाही
##ǎ
##ठ्ठी
##격
॓
रंगशालाको
पेजमा
##🇳
ാ
बढीभन्दा
##ƚ
दृष्य
##पश्चिम
आयाम
सुनेपछि
लक्की
##जीमा
आयोजनाहरू
समावेश
समाहित
५३
अने
ग्यारेन्टी
डाक्टरले
नगरेपछि
°
##ﾟ
植
##ानु
ص
ट्रेन्ड
दुवैमा
२०००
दुवै
㛌
▷
धरौटी
##प्दै
̟
¨
बाइ
तपाईंलाई
预
##जय
पूर्वप्रधानमन्त्री
##ण्य
बस्नेतले
對
##ॴ
##दीले
##श्या
##ក
लिएका
सक्रियतामा
विजयकुमार
19th
खोज्यो
आधुनिकीकरण
着
##कान्त
थियो
##जातीय
腊
##कर्ष
धरातल
ठूलो
राजकुमार
ܓ
कुटपिट
讲
辠
एनआईसी
##//
गुनासा
अक्ष
वातावरण
##सभामुख
##ട
त्यसबाट
ᤢ
जित
׀
u3hrm
ĭ
##हरूसँग
##रल
अमेरिकाले
ာ
युवाहरु
गान्ध
शिशु
##छी
अा
पुस्तकाल
तिनाउ
आवरण
विद्यार्थीका
सगुन
कार्यकर्ता
प्रक्रिय
##सना
नाकाबाट
梯
##þ
बेलायतका
默
గ
......
##वै
प्रतिष्ठानका
##ყ
##फ्लु
良
गाविसमा
##नन
##ี
타
→
खानेपानी
कडाइ
परिकल्पना
##φ
##탁
##पय
fal
##ք
आउँछ
थियौं
魚
उहाँको
贫
ठहर
दिइसकेको
कागज
मनोबल
󠆶
सोलुखु
##an
मिलान
娱
（
अटो
बैक
╨
儀
##न्तरमा
जोमसो
बाबुराम
सुरक्षाकर्मीको
हद
##पट्ट
ʃ
समाति
लोकतन्त्र
देखेका
कोषमा
चुहा
धारण
नवलपुर
बेक
परिपक्व
पठ
शर्मा
श्रमिकको
परिक्षा
विकासको
킹
सक्ला
श्रीलंका
रात्र
जनसमुदाय
事
##ዢ
आइपुग
委
骟
लेखकले
हट
अनौठो
परियोजनाको
बदल
राजभण्ड
##ालो
³
इतिहासमा
##ه
##नस
##ô
गराई
ං
रोहित
मनाएको
ex
आठौं
धनकुटा
आकर्षणको
राज्यमन्त्री
कोषले
नगरिएको
ޥ
सेवक
भयान
##ेटी
妊
跌
जनासम्म
त्यत्तिकै
##लोन
ʳ
ӫ
##मय
जालो
##गरि
निस
؊
विवाहमा
##लिस्ट
समर्थन
ਿ
ͤ
चेम्बर
ើ
##ग्राही
मनलाई
सालिक
मोर्चा
प्रथा
मधेसी
शत
醒
ʴ
##लादेश
अन्तर्राष्ट्रिय
तालिममा
##ʁ
तारिख
बेलाबेलामा
दौरान
अघिदेखि
जन्मेका
श्रीमान
हमला
२०१५
貸
🐍
व्यवस्थापक
1st
मिलेन
निलम्बन
प
贊
हुलाकी
औषधी
##ततै
नगद
##ढाव
सम्प्रदाय
##रले
##ˋ
भोजपुरी
##ष
##)
गाडीलाई
觉
ߙ
ພ
बीस
##だ
भरिपूर्ण
)
ब्यार
खु
हुनेछन्
धोका
##ेशनले
##लिम
##जात्रा
ޯ
रुपन्देहीका
मरि
भिन्न
##तान्त
पृष्ठभूमि
##लियो
##ॅ
💋
##च्च
झिकेर
ल
लिनका
विचारलाई
每
講
गीतहरू
प्रालि
लह
❹
篇
화
##प्ल
=
जताततै
झु
फैला
शान्ति
##of
हप्तामा
बीर
##ʬ
##›
खोलामा
उच्च
मन्दिर
रणवीर
##नामा
研
आत्मसा
ɱ
##भास
妹
乔
🚫
परामर्श
##यख
बिस
##ꁰ
सर्ज
##ந
दर्ता
ம
शुभ
भिडियोमा
अभिव्यक्ति
खिच्ने
##"
खान्छन्
##द्या
गौरवका
नरहने
##णाम
राजनि
प्रलोभनमा
##नुपरेको
..
सभापतिले
ㄩ
##ӷ
अवतार
##۔
о
ੇ
##t
खोप
गरौं
##2
बाध्य
##ित्तिकै
सामान
हुनुपरेको
┍
認
गाउँबाट
थुनि
巧
##탑
##बहादुर
सदस्यहरुलाई
她
आन्तरिक
##टाए
जापानका
##ight
jun
लामखुट्ट
गाविसको
५५
मू
द्वारा
सटही
采
##,
##ोने
कमसेकम
##50
児
客
踑
निरुपण
##ԯ
##습
##☺
हजार
##क्यौता
##कृत
घिसिङले
टोटन
##ワ
सघन
ब्राण्ड
डन
围
ơ
देउवाको
नपरोस्
नर्सिङ
濟
अध्यागमन
कडा
ľ
content
पुरातात्त्विक
यतै
##ैं
ओभरको
ब्य
बाग्लुङ
६३
शुद्धीकरण
佀
인
##म्फ
रिसो
閲
##߮
##ेलको
##😉
असहयोग
जनआन्दोलन
लिइन्छ
##ӭ
उपनिवेश
स्वरुप
छेउछ
׹
##ʻ
महोत्सवको
닝
##तथ्य
विज्ञहरू
भेटिएका
##पुरा
नाकाबन्दी
぀
under
■
##५
##क्षि
छोड
##ऱ
feelings
##ҁ
चरणका
चौधरी
नगरपालीका
ç
५१
丈
##देखी
गराउनुपर्छ
शिक्षा
निर्णयले
##ۖ
trigger
.
जाँदैन
पञ्चायती
शुरु
संसद्ले
ᤴ
##nn
व्यक्तिहरूले
कारोबारको
संरचनामा
ồ
뒣
बिभाग
जोड्न
रणनी
प्रमाणित
##동
खानाको
बालक
सुना
वे
##최
आयोजक
हिन्दू
जादु
शिक्ष
चालू
रोजगारको
मनाइएको
इजिप्ट
##मण्डल
##कानी
何
꨾
##सीसी
펭
हैन
্
फिन
##one
एक्सन
##का
गरेसँगै
՝
行
तान्न
##िङको
दार्श
बटु
##जानिक
##दह
##ۼ
बैङ्कले
सम्पर्कमा
##ould
झाको
ൻ
ீ
ો
त्या
##ियालाई
अपरेसन
दोहोर
टी
##श्रम
सघाउ
oth
##जोरी
##ে
##्यो
##र्या
ݺ
संविधानसभामा
क्रेज
##थेँ
ठोस
बाँस्कोटाले
भन्नुहुन्छ
ユ
̿
भित्र्या
82
ջ
終
पन
񵒋
##ն
址
##տ
सेनापति
沟
##ٷ
डेनमार्क
गर्लान्
प्रोसेस
შ
बाँड
##」
##ht
निर्ण
आक्र
खर्चको
कठोर
##सम्मत
际
##न्तिक
ल्याब
विरुवा
##݃
큰
昊
##ेकाले
ͩ
実
ﶂ
ວ
माइतीघर
माघमा
树
प्रयोगकर्ता
##३०
महिनाको
##ढोका
सिंह
##हुने
स्व
कर्मचारीहरुको
शित
प्रयोगशाला
अभिभाव
ϙ
્
कोहि
जटिल
伙
नेवारी
दियो
पुगी
डिसेम्बरमा
要
बाँड्ने
भेगका
हदै
鮨
֧
कर्मचारीलाई
##ぴ
कोर्ट
फरा
紀
गोल्डकप
सासू
सिके
駄
##മ
भइरह
##ҷ
##र्ने
बाउ
बिहान
डटक
रुट
##ݕ
ʲ
##ｒ
जाव
पर्यावरण
जातीय
मगरको
˅
##दश
巴
सत
उनको
बनाउँ
🐽
कलक
छाया
##̀
֬
व्यापारी
रेकर्ड
$
䶾
जना
##ट्स
져
महानगरले
hamrokhelkud
मिटर
कैलाश
##ম
##पानी
बिरामीलाई
सर्वोच्च
##rap
្
##ǜ
##ँस
##メ
सकिएला
ɖ
फर्कन
म्यानेज
योजनाले
׭
सर्वाेच्च
पुनको
##॑
तीतो
बिचमा
##बेदन
सीमामा
耳
碳
भव्य
fri
देशको
योसँगै
哲
मार्क्स
##क्दै
##वु
खुलेर
देशमा
##യ
निलम्बित
##िँदा
掉
##ऑ
ˣ
गठबन्धनमा
##नोस्
चाङ
भृकुटीमण्ड
तनावमा
राप्ती
पाउन्ड
##ेष्ठ
खोले
)।
घिमिरे
७०
笑
क्लबका
कर्जाको
लम्साल
遂
प्रतियोगिता
सत्तारु
बजारको
ल्याउँदा
##पूर्वी
पुनर्विचार
恥
जलमार्ग
村
##प्रण
##पामा
अधिवेशन
अधिकारीले
##ए
कति
टोपी
##ז
देवकोटा
लख
सचेतना
##?
##여
बन्दा
🇰
खेलकू
##34
##ӟ
##ध्यक्ष
痖
😮
##ʝ
बाँझ
कार्ययोजना
##बुझ
比
😝
##ɣ
薢
専
झलक
जिति
गर्दै
##नाइट
खुश
अन्तरगत
परेर
᎟
尽
##ˇ
सरेको
##एसम्म
酒
भू
राजालाई
बर्ष
卵
मेम
बाँधेर
पति
सिमानामा
घृणा
डडेल
##ྤ
फेस
޶
कावासो
升
पर्यट
बुझा
झनै
ђ
##ȋ
अस्थिर
समयदेखि
डरले
##विधामा
##हाल्छन्
गरिरहनुभएको
निक
सिकेको
繁
##ू
सिंगा
रिमालले
8212
नियमको
技
जागिरे
utf
आभार
家
उत्तरदायी
ताम
अखण्डता
व्यवस्थाको
##mb
##책
寿
闊
फड्को
由
##십
भिज
गरिदिन
䒵
१९४
비
镀
दवाव
शंका
׽
गाभ
##ٮ
##ឲ
का
황
समूह
##ބ
नामबाट
ƫ
इञ्ज
##जुमा
एभरेस्ट
ぐ
सञ्जालको
##त्तै
##ेज
उब्ज
गड
ܡ
झल्कने
नचाहेको
बैठकमा
संसद्
सुरुवा
##べ
ѯ
غ
अख्तियारको
मागेका
सूचकांक
##वलोकन
4th
विभा
अन्योलमा
व्य
><
筆
필
सम्बन्धमा
##_f
बनाइरहेका
सामग्र
##हिल्यै
##प्रमुख
एकेड
कस्ता
必
कोलकाता
कक्षा
汽
##관
##र्पण
नेपालगन्ज
现
##ུ
##किम
性
तथा
##ۀ
रकमबाट
मेड
रक्तदान
जोशीको
खेलिरहेका
एम्बुलेन्स
##¶
##あ
लडा
##ằ
##इने
मनोर
मापदण्डअनुसार
##पाती
ਡ
圄
बोल्दै
સ
जनताले
##ড
मुस्ताङको
स्याहार
देशव्यापी
पर्यटनमा
##हरुमध्ये
एजेन्ट
켓
평
निर्मल
ũ
##ك
तन्नेरी
速
भनि
१०
मुना
##फिक
चन्द्रागिरि
सहकारीमा
ओली
献
दक्षिणी
दुर्गा
##्नुको
##라
##लिप
आउला
आश्र
शे
˽
पाँचथरको
हेरिरहेका
帮
भएकी
छोराले
घट्यो
ы
मास
जलविद्युत्
ᝳ
ʌ
##नेपछि
##तास
घुइँचो
##टामा
##ङ्दी
नै
हस्तकला
बस्नेत
##पहिले
ऊ
व्यक्तिमा
मंसिरमा
ढकालले
##ൃ
##¼
🌍
प्रतियोग
अनुपातमा
उपत्यकाका
##हतियार
स्मार
ɇ
##ݘ
थाइ
##05
ट्रान्ज
##मर
##दिनँ
काठमाडौंमा
ओत
प्रदर्शनका
अपांगता
##ाउँदैन
गैर
##ult
अपराधका
रविन्द्र
उत्पादकत्व
दिनका
߄
##ेलियाको
##उनुपर्ने
##डी
य
##कारको
घरको
##्र्यो
##स्च
विश्वकर्मा
##पालो
क्षय
∀
͋
दिँदै
鷣
बुटवल
東
चार्ज
ų
绸
##दू
सरल
##ur
##҄
##០
भनिने
यमन
अरे
##る
##छिन्
瞬
続
##टे
##˧
##릎
झुण्ड
आयो
##֪
##크
ܾ
विराम
##स्कार
झन्झ
माविका
भन्छ
मानिन्छन्
हातले
##आएको
ず
एएफपी
नपाउने
打
लेखकको
माओवादीको
छवि
पासमा
गभर्नर
넓
##विकास
##बोर्ड
##एको
आय
!’
倒
कर्जा
कुरा
2019
选
bato
##८
á
कामदारले
सको
##पीएलमा
##मैत्री
##ीण
चलनचल्
दिनमा
हुँदैनथ्यो
रियालिटी
एयरलाइन्सको
##रिक्त
##न्देही
नरेश
विन्दु
פ
延
##공
##यी
खबर
अफिसियल
don
महाभियोग
म्यानचेस्टर
सहप्र
आँगनमा
ԑ
##भक्त
##मालले
衡
##हले
घ
संसदका
यूवा
绿
滞
##ھ
शिर
बूढी
##ꍣ
##िएकै
牧
磅
勿
२००१
गोदाम
लागेर
##औँ
यिनीहरू
स्टुडियो
##लाएर
भोजपुर
ū
隧
नाउँ
##ata
दिएमा
कारो
भुइँमा
चाहिएको
स्थानीयका
ў
ब्यबस्था
सहभागीले
उपल
发
##٪
夫
ݴ
##ust
##पाद
р
٭
शंक
प्रशासनलाई
鞨
लेखापरीक्षण
शही
सूर्यबहादुर
दरवार
##िना
अभिनेता
##गाँ
मोडलिङ
xa
नाश
जोखिमयुक्त
मर्ज
हरेक
आजभन्दा
##हरुलाई
ठाउँ
व्यथा
##ृह
बालबालिका
हेलिकोप्टर
75
ज्याकेट
##ri
नगरपालिका
मानिसको
रुटमा
नम्बर
ậ
##ड्ने
##आमाले
##वसाय
÷
याद
धर्मको
सेत
##र्नुपर्छ
आजदेखि
इन्टरनेटमा
एट
बाजु
##गंगा
##१
धर्ममा
मर्न
जुम्लामा
स्वास्थ्यमा
अहिले
##rishna
܍
۾
##غ
भइरहने
ग
नबन्दा
ף
तप्
##🇹
0545
नसक्दा
ढिलासु
##ヤ
##ेदारी
इन्डोने
в
वर्ग
एव
ap
##ԓ
अमेरिकाका
सर्भिस
जितको
लामिछाने
गर्नेछ
##बाहेकका
क्यान
बनाउन
डुबेको
##पको
##ྟ
##दिन्छु
查
बनाउ
##भाषी
चट्याङ
##डेल्
##प्रदान
͟
खगेन्द्र
फाइनान्स
रोकथाम
माउन्ट
##मुल
आफूहरु
पोहोर
##क्षर
##म्मद
ठड
बध
मानवता
मध्यमाञ्चल
##11
##륲
विमान
ले
բ
बाढीले
##ल्याण्ड
丽
싸
तपाइँ
="
##्दै
साउन
察
सुत्
😶
मिहिनेत
##؞
##ӏ
##ҿ
file
锤
##æ
नगरपालिकाले
छोराछोरीको
敏
##ूमा
भुसालले
2
आलम
幸
मानन्ध
सदस्यीय
##ா
##ǐ
##लले
मेरी
檭
min
菲
##ल्का
निजामती
भुस
艤
ल्याइएको
चौकीमा
##ठनिक
पुर्याउने
ह
征
##💔
पठन
ट्याक्स
##ԥ
दिवसको
जबर
स्वाभिमान
ē
घुम्
##ेटको
持
##रहित
##🇮
पालन
托
ނ
##ख्रा
ज्ञापनपत्र
मनाङले
快
परिवेशमा
έ
##म्मे
##ᨵ
##ग्राफ
##हुन्थ्यो
―
अहम
प्रकाशमान
एफएम
យ
दाजुभाइ
ぞ
आग्रहमा
भई
गाउँलेले
गोलरक्षक
कट
##td
##็
कुँवर
##्री
एकल
##บ
##me
##7
कार्वाही
जबसम्म
दमक
rsquo
،
弁
##पान्तरण
धरावासी
##नुपर्ने
##ीय
岳
फोनमा
迭
##٢
नाजुक
शुक्रबार
环
हिर
##सहितका
शाल
घरघर
लोग
माग्ने
वर्षभित्रमा
##्वाल
職
論
##ध्वज
##দ
दुर
##माले
श्रावण
藏
##ाउँदो
यसैले
बिराम
급
܄
रेलमार्गको
##os
᢬
गर्यौं
बड
##ۇ
##ə
##धन्दा
चिन्ने
पर्यो
᫞
रुसी
##４
w
##ύ
밥
##ロ
आह
चिकित्सा
##दमा
पुरुषोत्त
5th
समा
##ुल
अनसन
##स्टार
खप्त
वाल
सक्थ्यो
२०२
बढ्यो
##🙌
उन्नत
निमन्त्रण
मिलाइएको
विषयमा
##ेदी
##ेपछि
ǀ
भेलामा
पेस
बिद्य
ӽ
##ग्व
वर्
##सभापति
##보
छिटै
वरिष्ठ
बसिरहेका
##ानीलकण्ठ
डाटा
बढुवा
नाच्ने
२००२
##समेतको
輿
pubdate
##लिंक
विमा
पत्रकारिताको
##बाटै
##😆
प्रवक्ता
बुद्धिमा
सम्म
氣
##׹
##तमार्ग
ۑ
राख
कर्पोरेट
सदै
किशोर
सबै
収
बुटव
rights
專
##षक
वित्तीय
輕
वर्षपछि
अमलेख
निलो
##ϝ
महिलाहरु
सातासम्म
内
विज्ञप्
##ॣ
हुलाक
पालेका
यसबाहेक
΂
मानिन्छ
कलेजो
##्याङ्क
मान्छेहरू
a
मानेको
##ीमा
साप्ता
チ
खुट
##ş
मन्त्रिपरिषद्
खर्चमा
उदेश्य
的
##गेट
अनलाइनखबर
dur
여
यसैबीच
##दैन
##ề
##िनुपर्ने
इटहर
प्रचारप्रसार
रेखदेख
##मि
##टिङ
##लेक्ट
##ؾ
##ど
दिपा
प्रकृति
हड
ం
अनुसन्धानको
##ink
घटेर
##जीव
좒
##सिस
##¬
##चिङ
रिल
##စ
टुक्रा
सहयोगले
बुढा
जीउ
वाक
##׃
証
ί
💐
##ढुङ्गा
बाहिरिएका
##स्य
republic
निष्कासन
##ݝ
फाँ
ށ
ئ
रत्ननगर
##ालको
ਜ
खुकुरी
टर्की
जुम्लाको
आवश्यकता
井
##ி
लुम्बिनी
岗
##ক
विचलित
##ाँ
कलाकारलाई
ڦ
धेरैपटक
##न्याय
अन्
अभिनन्दन
दया
भिड
हुनुलाई
आसपास
कां
भग्नावशेष
##वीन्द्र
स्ट्राइ
같
姆
तेक्
極
त्यसलगत्तै
सकिनँ
##लेन्स
संग्रहालय
求
ʁ
निशुल्क
उभिएको
हेक्टरमा
ᄋ
##्ट
कालखण्ड
वित्तिय
अन्तरि
चलाउँदा
क्षमता
जानकारी
##ถ
##ɱ
##तारी
##พ
##िलाई
श्रेष्ठले
लगाएका
हराउन
ӥ
रानाले
负
भुव
ӌ
##पश्चिमा
##ӌ
##ม
दय
ំ
摆
猪
##ഷ
दृष्टिविहीन
व्याप
चितुवा
##नेन्द्र
सबैखाले
करोडमा
गइसकेको
प्रसाद
फेवात
##हीं
##식
##हार
भाई
साम्राज्ञ
″
नारा
ispermalink
ѹ
बढेका
शारीरिक
∞
拉
रहस्यमय
##क्र्या
ϯ
##यमा
##जू
चिनाउन
४९
सडकका
pol
｜
साँच्चै
攝
ۉ
##ؖ
तीनै
ވ
##संग्र
##सुन्दर
तेस
##՘
##घाटमा
दिनसम्म
राम
हानी
##धार
별
पौ
फ्रान्सका
right
प्रोफ
अवधि
हुन्
42
स्वीकार
सम्भावना
ठ्याक्कै
सिक्
दूध
विकसित
わ
काभ
ও
६१
||
##し
##पत
郑
पीडितलाई
सायदै
गायिका
झन्झटिलो
प्रधानमन्त्री
एक्
##ode
柯
खटिने
नजिकबाट
ग्रस्त
मिलाउने
वाइ
अमिताभ
जोङ
निर्वाचित
ű
सुझाए
दिवा
##डाका
아
##ंसी
##ე
भित्रको
पाच
मञ्चले
नु
խ
पारिवारिक
मसान्तसम्म
##ेश
प्रदेशसभामा
सुझाव
뚻
##लिक
राउतको
##र्फत
मधेशका
##ƨ
뚢
आकारको
😹
स्रोतसाधन
त्यत्ति
शुक्लाफाँ
##כ
##कुन
ग्री
दिनदेखि
##ther
अपनाइ
३५
石
लमजु
##डक
नगर्न
डिआइजी
व्यवसायीहरुले
सप्तरी
चिकित्सक
मेक
आउँछन्
gover
खोल
औँ
मिटरमा
##रे
##김
खोजिरहेका
पहेंलो
बि
願
##ेह
क्ष
डाइभ
गरिदिएको
रामपुर
नवलपरासी
##ỳ
इन्टरनेशनल
राणा
##स्थान
##일
!</
पुस्त
साम्
니
##̌
स्थानहरुमा
##ेटिभ
गृहमन्त्री
터
बन्नुपर्छ
मार्गको
कार्गो
##ٴ
रेलमार्ग
सर्वोच्चले
नदिने
भइरहे
##वीकरण
ٜ
##ӯ
##हाल
राजपत्रमा
似
##लिखित
then
छा
欵
उप्रेती
##पटक
म्यारा
अस्ट्र
##−
आरोपित
प्रिमियर
बनाएको
मतदानमा
艳
##ो
मेस
幅
तामाङ
##र्देशक
काउ
भइहाल्छ
माय
चाडबा
कानुनले
अरूलाई
۲
गर्भपतन
मार्ने
थिए
मितव्य
##सेवा
काठमाडौँ
पहुँच
संकटमा
पठाउँदा
मतदातालाई
इलामको
बताएकी
शिखर
￥
धूलो
##साइ
आधारमा
उहाँहरुको
गर्दैछ
तहका
ɼ
केटाकेटी
त्यहि
स्तरको
०७१
老
छाडेका
,'
ٿ
##म्बन्ध
डेटिङ
##ё
मञ्चन
शेर
##간
फरार
ぜ
##तापूर्वक
प्रजनन
##ผ
愛
गोरखाको
नाम्
##œ
सम्मानजनक
नाटक
##ָ
ヨ
स्या
cd
सबैले
##껴
##irp
##ɯ
秋
कुरामा
극
##न्छन्
##र्याएर
lastbuilddate
चट्टान
पुँजी
निश्चय
दबाव
शताब्दी
##्याप
dharabasi
देखेर
##ून
आफूमा
ए
महासन्ध
##ី
##र्षिको
ر
चप
ठेगाना
谷
##चनमा
स्थानीयवासी
检
दशैंको
##ಣ
##і
द्वि
मानसरो
😯
जम
पक्षको
##रिव
充
捐
हालका
सद
欧
族
अधुरो
अहो
##तम
फलफ
trig
落
तोकेर
सरी
तद
ε
चलाए
कोटा
##्यानल
राज्यले
ग्राम
सिमसार
##एमई
##हादुर
चाहने
हटाइएको
##लाइन
लागू
##オ
मोटर
बढाउनका
ª
अबको
रत्
##ݫ
塾
टावर
देखिएन
केभी
##नुपर्दछ
चाहेका
',
प्रचण्डलाई
सुधारको
##त्वमा
##ネ
##राँ
गोल्ड
短
उत्
##en
नभएकोले
संसदमा
अनुपस्थित
यश
險
##qu
康
##ت
मात्रा
सर्च
##घ्र
void
ӆ
गरु
##सय
प्राङ्ग
##राष्ट्रिय
##ͬ
랍
ݨ
सदरमुकाम
जनाउने
जित्
स्कुलको
माओ
माइक
हड्ताल
##는
हरियो
蓮
##op
खुलेआम
糸
सक्दैनौं
सङ्घका
淀
पाउँदा
kh
ল
गर्छौँ
##ફ
नग्न
जोडीले
गाउँग
झोला
बाली
ल्याएका
ੰ
मनपर्ने
术
la
##ۻ
तत्कालीन
##नु
##रुम
##स्थितिमा
##हरूबीच
##ៈ
ݤ
असोजमा
जोडेको
पाँचथर
कोरिया
शहर
८०
##सम्पर्क
昌
आलोचक
निम्त्या
##ٽ
分
गच्छदारले
##ms
##ka
##ुरे
अग्रणी
जनाएका
धमला
गज
इ
कामकाज
##जिकल
##ۉ
##￼
जानुपर्छ
##खोकी
其
महसुल
कालोस
कू
##डीले
सिमरा
ೊ
हुदै
हिलो
सिंग
नोक्सान
##🇻
∏
##नेस
३९
ŭ
##ݱ
##학
जनकपुर
डुड
तोला
##भार
##संस्कृति
सकिएन
सापकोटा
##कासहित
##मुदाय
2017
नर्स
高
യ
वामदेव
खन्न
##ौं
गाँजा
洲
छोड्ने
मनोनीत
प्रतिशतले
##ਠ
##बन्दी
सम्भवत
##र्थीको
##１
##گ
त्यसपछि
सक्दिनँ
स्याङ
ӯ
##ाउँछ
##सको
जगत्
##तम्
मन्त्रिपरिषद्मा
छिमेकी
##घार
##खास्त
##ठी
परिसर
विश्लेषक
सुन्नु
सवाल
兩
सञ्चारमन्त्री
खेतीयोग्य
शान्ता
帶
货
साथीको
अनुसूची
घडीमा
हलमा
शब्द
##हरूमध्ये
स्विट्जर
दिवसीय
बुद्ध
菌
अचानक
##ٸ
स्रोतको
た
टेलिभिजनको
亚
सिक
पार्टीलाई
घटक
generator
##ި
आफूलाई
z
had
##음
टीम
मूर्ति
##्रेजी
##फरक
जित्नु
##ᤢ
खास
हनु
मस्यौ
गल्
मुसा
चाहन्छु
##लियाले
##ष्टा
##ਥ
अम्ब
ल्याएपछि
समेट
##िसक्ने
कार्यालयहरु
जीवन्त
पालो
ब्रु
当
ठेकेदार
नहोस्
##सेव
एक्सप्रेस
महिने
व्यवसायीहरूले
पेनाल्ट
होटलमा
न्य
वास
बालुवा
भएकालाई
⋅
##॥
ʒ
विश्वयुद्ध
##ព
दलहरुको
अमेरिकामा
पठाउन
ł
न्युयोर्क
##۟
##नलाई
लागे
व्यवसायलाई
ナ
県
पार्टनर
मिनेटमै
##ふ
ϲ
vay
视
फस
केशर
##सक्
डेमो
##भावी
ज्योतिष
2c
📢
केन्द्रीय
संरचनालाई
जिता
व्यवस्थाप
##पर्व
बजाउने
port
छालाको
समर्पित
##यले
संघीयताको
मानेका
application
बैतडी
पिरो
##तीर्ण
मसँग
积
胞
असम
should
ک
क्यालिफोर्न
सोल
课
普
##ɸ
विवश
नमि
##रस
कक
डिस्ट
पढ
ޣ
विचारमा
ø
अड्
repub
##ਹ
##려
index
गरेका
तिन
ֲ
ល
प्रक्षेपण
拘
##विद्यालय
रहनेछ
##ℷ
##सङ्ख्या
महाअभियोग
##श्य
ភ
##िएन
##सीको
ची
सरोकारवालाको
惑
नेतृत्वले
सुमन
##dha
जट
परमेश्वर
##धाई
html
असल
इर
नाकामा
यता
थियौ
सत्तामा
##མ
आति
डिजाइन
已
घट्ने
यतिका
排
##ोस्
सफलता
सशस्त्र
हिउँदमा
##ό
बाब
सापटी
डोटी
ߒ
मेलम्
pahil
##ਰ
समस्याबारे
अवैध
##पारि
मिति
कसलाई
सेटमा
ᤍ
बिहीबारदेखि
##ޥ
##ܨ
अवसर
##सिलो
रूपैयाँ
##एई
##ितर्फ
आइएमई
##कर
##वस्थित
##ʲ
फिल
##굝
진
काफ्ले
दलहरू
६००
बारे
購
थाल्छन्
ब्रोकर
##ނ
##धिकार
##हट
##ا
असर
सक्दो
सिँचाइ
उत्स
उल्लेखित
नदिनु
पत्रकारको
गते
अँग
२०७२
箬
##ानन्द
चौबी
जोर्ड
४८
सेवाग
पाउँ
##थें
अबेर
किराती
##बाली
##ą
##कुन्द
߇
मुछ
सल्लाह
##޴
##क्टरमा
,
त्यहीं
सामरिक
셔
릭
नेपालगञ्ज
cld
##🌷
双
ॴ
कार्यलाई
गर्नुहुन्छ
नदिए
गन्तव्य
बिदेश
ब्रान्ड
##ेन्सी
निका
प्रेस
ঝ
##̇
##हरू
दृष्टिकोणबाट
सहभागितामा
आबद्ध
५२
छिट
पर्थ्यो
##ꍱ
मुआब्जा
磁
नभई
बिका
युवराज
बेलायतले
显
؉
कानूनको
९२
ị
समुहले
##िलो
सर्भ
आए
सम्पदाको
ब्रिट
अन्र्तगत
ુ
विदुर
दुरुस्त
受
硕
霸
##लर
##ӡ
बोक्न
##ڡ
稍
आर्यन
携
##aya
##ޢ
घटनास्थलमा
मेडल
५६
आपत
सरस्व
निम्त्याउने
विमानस्थ
रोबर्ट
फेब्रुअरी
शीर्ष
लिमिटेडको
निषे
मीना
शिष्टाचार
╘
आयोजनाका
赥
33
ș
##ى
扬
##हक
##ह्न
कन्ट्रोल
ߍ
##शमशेरले
ǳ
संसदबाट
崎
##एकी
ᠽ
##ज
ܧ
रामवरण
生
즣
वैदेशिक
##ले
बजे
##कदा
##साल
मन्त्रालयसँग
व्यवसायीकताको
रियाल
ć
अस्ट्रेलियामा
띱
अन
##ệ
आँट
आफन्तले
नुवाकोटको
##؊
away
गएराति
बस्न
home
764
##ڽ
सहानु
ˇ
भुजेल
प्रयोगका
##ꍽ
뇄
प्राधिकरणका
巌
बहि
टिक
पण्डितले
e0
蕉
##ुवामा
果
##धर्म
##बद्धता
years
पटकको
胜
उल्ट
撮
##ീ
पर्यटकलाई
यसको
नुवा
##पे
गङ्गा
##बोका
##दुर्गा
ť
म्याक्स
इनार
गराइरहेका
##रोगी
छाडेको
झिनो
ڵ
उत्साहजनक
ओग
पत्रमा
परिचय
विस्तारै
फाउन्ड
लिइरहेका
ਮ
रामेछा
साह
घरहरु
नेपालीहरुको
थालें
कब्जा
拿
मुस्ता
楽
鬆
扱
खतिव
परमा
बैंकहरूको
##d
##ꗿ
काठमाडौँः
सेवाले
अर्जेन्ट
ｋ
मकवानपुर
缘
माग
ओखल
दम्भ
म्याराथ
राजाले
रौनक
##न्या
##ारामा
ओसा
##पसमा
तान्ने
ื
नगरि
प्रविधिको
##सिट
गुप्तचर
##iew
छापेको
给
चाहिँ
ڹ
रेग्
烌
जङ्गल
जोखिमपूर्ण
वाट
वञ्चित
##्रे
切
##नात्मक
बैंकका
तिवारीले
##र्चस्व
guid
चुनावमा
少
今
ę
🇴
आधिकारिक
पत्रकारलाई
परकम्प
सिटौला
##스
ழ
एकलौटी
##와
##ٗ
अवकास
गोल्डेन
थालेकी
भद
तनहुँ
##ricket
मान्दैनन्
##न्सले
some
त्रसित
सार्वभौ
स्वस्
मैत्री
क्रम
नजिकिँदै
##ា
##ﾀ
##ﾥ
फाल्न
रौतहटको
《
कम
互
ꞗ
##ӓ
沿
निचोड
२०५९
संघीयतामा
टे
निरी
朴
##ुङ
##सनी
लाखको
##놆
##विवाह
पढाउने
प्रय
钮
इन्ज
##č
˘
उकालो
पालामा
सम्भाव्य
अँध्यारो
##त
##यान
##कम्प
गुग
##त्मक
छिन
ぶ
3f
ṛ
सिनियर
श्वास
वसन्त
##मैला
##्राही
योग्य
##ঝ
解
म्यू
ⳁ
##भाषामा
पछिल्लो
archive
जनशक्तिको
क्रान्ति
पुष्प
ं
ছ
ｍ
ം
लयमा
sab
##राज
नगरेर
समानुपातिक
मंगलबारको
讨
ڍ
##ل
游
##??
##ब्लु
ǽ
पूर्वका
सरासर
##빌
हौँ
15
##विजे
नदिएपछि
फारम
मानिएको
प्रवि
##22
##मलेन्द्र
##육
##ゼ
##†
सर्भे
सल
लुइस
प्रमाणपत्र
ݦ
सहकर्मी
हुनेमा
##सँगै
🌴
बिन
܃
##ɥ
##ल्ट
विज्ञानको
जोख
##🇦
辥
##💘
पार्टीभित्र
##कड
भात
ल्या
कुल
अर्घाखाँच
तोके
ས
≧
##िस
##एकाले
साझेदारीमा
##ind
माइती
यती
##गरी
##ݼ
आकलन
자
साबुन
बैँ
हाराहारी
अपेक्षा
सौगा
अस्पतालबाट
ޠ
##ेललाई
举
凭
उठाइ
जीप
㖒
##धम
ョ
##vel
राष्ट्रपतिले
߽
ێ
आश्वासन
दुर्घट
दूरी
ᑀ
सिण्ड
मेट्रो
䗚
खुब
##थ्य
##्रता
楼
२०६८
##ेनिङ
चौध
##ж
बिहार
架
इकाई
गल्फ
राना
##विन्दु
ग्रहण
##प्रेरित
##რ
मित
欢
७४
##ंके
側
។
गर्नमा
सक्छौ
रुपमा
७२
सङ्ग
हुँदैछन्
##र्ट
चयन
##त्रीको
डेटा
बस्तु
##हानामा
##ۮ
जिप
लागत
ल्याउँदै
##प्
लाहुरे
सिँ
धुर्मुस
बढ्नुपर्छ
६६
##̰
##뒲
पहिचान
बैङ्क
सेवाबाट
֐
आयरल्याण्ड
ܷ
कन्टेनर
छापा
##ai
##द्वार
##ו
बत्ती
आकस्
पद्धतिको
गोज
रुच
定
##ח
0
##ख्यात
##ำ
न्यायपरिषद्
app
फिट
अर्बको
कार्यक्रमको
##പ
लि
कार्यक्षेत्र
##а
त्यस्तो
##송
सहमती
याउने
गरिएकी
衣
##ʂ
छुवाछ
विनाश
शार
टुंग्याउने
अभाव
ऄ
##͚
जवाफदेही
भर्खरै
दशकपछि
करेन्ट
अधिना
सभ्यता
४००
##ेजमा
##्दैन
ब्र
चढेको
##ोट
बोहरा
टेल
पिँ
##क्वे
##✋
which
व्यवस्थापनको
माटो
feed
̎
सम्मिल
記
mahana
विद्रोह
नानी
हिं
कौ
##नुसार
नोभेम्बर
ズ
##्याक
##बी
🤚
##œव
##ꅕ
सान्त्वना
युवालाई
अपरिहार्य
सहिद
##लिङ
प्रतिष्ठानमा
##ेब
##ί
सिंहलाई
हुनसकेको
चैते
भएपनि
पद्धतिमा
##ꡝ
अश्
कृषकले
दल
थालिन्
困
坈
तिलोत्त
पुराण
भन्सार
##ة
～
素
ƅ
ƭ
飽
बनाइएका
वस्तुगत
##ँगा
झन
##िनल
##र्य
ݒ
समातेर
##र्मु
##फिङ
ਰ
乳
號
##त्रो
##ල
ཁ
koseli
पिठो
##ꊳ
##र्टमेन्ट
##サ
खुलेपछि
अज
दायाँबायाँ
с
फलस्वरुप
ⷂ
©
##ने
थेग
##ब्र
गुणस्तर
हेमन्त
बोकेको
अलम
##י
एकपल्ट
##ܳ
##ंच
लग्यो
मी
विस्तारका
##ќ
सोचमा
##स्कुट
दिल्
पदयात्रा
쉠
奈
विमलेन्द्र
जोको
रुची
दोषी
सम्हाल
अंग्रेजी
खस्दा
##भरी
२०
窟
पद्म
##हुनेछ
development
मेगावाटको
揭
अर्कालाई
ॣ
पन्थ
जघ
प्रशस्त
񰎄
##चौर
म्याग्
世
उम्
놆
महावाणिज्य
मिचेर
सधैँ
戦
सहयो
गतिको
##औषध
हब
勉
निकायबाट
सम्हालेका
##्स
脉
थिएटर
##भेटर
##직
셍
##श्र
वरपर
पर्सा
लागिपरेको
##रोधी
समर्पण
추
##प्रकाश
##स्थापन
अधिकारमा
परिभाष
सम्राट
मेसेन्जर
एनआई
##야
##ूस
怀
##상
##रहँदा
वन्यजन्तु
भावना
lit
जसअनुसार
निर्माता
督
बिष्णु
मानन्धर
एयरपोर्ट
˵
औद्योग
नियम
##러
सान
##िरो
युवापुस्ता
उपभोग
सिर्जनशील
चलाएर
ठाँउमा
बताइएको
बनाई
मोट
進
11
उत्थान
विता
उत्तेजना
經
सैन्य
##रोपण
धितो
पोख्रेलले
बलि
##ɲ
अहिलेकै
हितमा
誰
<
जापानले
तिनमा
बगा
मलाई
पब्लिक
धू
भुट
गिरिजा
##प्रथा
՛
बाइक
पोस्टर
##हाज
欲
湿
##अनुरुप
हुनुभन्दा
फछ
कृष
##ाइम
भाद्र
##क्रम
निक्कै
चम्चा
राप्रपाले
##out
प्रधानमन्त्रीका
##쇁
मण्डल
महिलाहरूले
श्रम
उज्ज
आपसी
अरेब
सुल्झ
繡
तोड
महिनाअघि
😂
तपार्इ
##िएकाले
कद
तम्घा
वन्यजन्तुको
##ી
know
＠
बलको
।&
ᵤ
पुडा
##बिरुवा
##न्
##҉
ử
羁
भत्काउने
꼭
##납
##डाइ
समाचारमा
कालिमा
प्रयोजनका
##फ्तार
अवहेलना
सुर्खेतमा
##ईमा
##k
परीक्षक
मुख्यतः
कप
mon
##ⲫ
##٠
क्रान्तिकारी
बैंकक
த
:-
विचारधारा
;&
31
丸
डोरमणि
雖
##ग्रह
##पाटी
##खेती
उता
डटकम
गैँडा
हिमालय
नमस्ते
थे
one
輼
##भावना
नेपाल
圼
炯
उपज
##ร
भग्नाव
##25
##राग
आनाकानी
चुनावी
##ङ्ग
work
##ve
मान्ने
ู
add
अप्ठ
##ֵ
̜
सिइओ
##िसो
##れ
चोट
छैन्
##ᤵ
##ष्णु
쉬
ܭ
##निर्भर
##ש
अनमोल
इमान
किलो
बाँच्ने
सच्च
།
##ेन
##गणना
नदीजन्य
भरेका
अफगान
डोनाल्ड
सरकारसँग
छुवा
टिकट
##̫
##ेनि
ܹ
##न्टिक
##ष्म
बिह
मनोरञ्जन
लोकल
干
##पश्च
##शाला
निष्कर्षमा
否
##រ
मच्च
😫
##ᤠ
शू
दशैंमा
ﾥ
रिपोर्ट
##ra
##²
##♂
ѐ
ݧ
ഫ
㎡
योगेन्द्र
सुशा
टिप्प
बनाउँछन्
मिट
##करणका
आफ्नो
सिण्डिकेट
टाइगर
џ
क्रिम
ⲕ
दस्तावेज
स्पोर्टस्
##ड़
डिज
वर्षअघि
धनमा
महाम
हेटौंडामा
मेलब
ƥ
बागलुङ
㰝
##̚
राईको
तिर्नुपर्ने
हर्क
मन्दिरमा
##चार
##메
##होस्
##น
壇
सफ्ट
online
翼
नजिकको
係
सिलसिलामा
畝
यसअघिको
永
##֓
पुनराव
ĝ
-
♪
जित्यो
स्वाग
सुक्खा
撑
बिशेष
किलोमिटर
नरबहादुर
मैदानमा
असिना
मिठाई
ắ
बारम्बार
ќ
दिमागमा
भन्छन
ތ
##◆
शत्रु
ぱ
पुँजीवादी
हाड
,‘
##परीक्षण
द्वन्द्वका
नआउँदा
@
गरियो
##ᵻ
##자
##ޝ
छैनन्
फोहोर
भवि
आदेशको
介
खेलकुद
##💓
##शेष
प्रशासकीय
##ӛ
दूरगामी
विकासमा
##्थे
##기
झरना
महासमिति
##सू
नोट
##ङ्गो
##भेरी
पोख्र
२०४
बागमती
冊
पश
##ۓ
##न्क
मि
##ारोपण
नखा
##भरि
कं
म्य
##सुकै
किसानका
छातीमा
##्नुभएको
##ય
अपुग
ग्याल
अनन्त
अनुहारको
गर्नुपर्ने
煌
गौतमबुद्ध
जनप्रतिनिधिलाई
सीएम
किनेर
भरपर्दो
##िटर
व्यवस्थापकीय
ハ
सुपारी
ܲ
मकै
##ल्स
आदिको
हीरा
净
फुल
अगष्ट
हुदाँ
내
瘝
િ
क्यामरा
वीरगन्जको
सूर्ती
बताए
##ड्स
बंगलादेशका
पहिलोपोस्ट
劑
गोल्डकपको
##ä
फि
आत्मक
निर्दोष
日
##न्ति
उदार
##ैपर्छ
##85
vers
महिनासम्म
सघाउन
语
##टै
भीम
जनाभन्दा
ֵ
गतिविधिलाई
करि
विशाल
뱻
आशंकामा
पल्टन
माध्यमिक
更
##____
##निक्स
गाडीले
dh
२००६
ޓ
जनसङ्ख्या
पदमार्ग
季
क्षेत्रीय
लाङ
४२
जनै
गर्दे
भद्रगोल
##ीकृत
##ल्या
॒
##ाइड
##थि
मिसन
߻
कथाको
आत्मसात्
लिफ्ट
ऴ
準
सम्व
##ไ
##lic
नियुक्तिमा
इस्ट
तट
##न्टो
ͨ
पठाइएको
चर्चा
##ѐ
wor
गृहकार्य
विभागले
गेम
युरोपको
##ˎ
08
##केन्द्रित
इत्यादि
को
युवाको
वेबसाइ
पटकपटक
संविधानले
##सला
##ڂ
##짗
##ˍ
...
##ね
नका
ϻ
लैजानु
##क्चर
##ǟ
##मार्फत
##नाका
殿
##वाली
ⲓ
绍
##लो
मेह
सबभन्दा
👨
ऐनको
नर
अलग्गै
जनआन्दोल
##हुन
भन्छु
👻
##ì
उल्टो
##̟
芸
प्रहरीको
प्रतिबन्धित
##चन्द्र
नेतृ
##ss
सोच्ने
गर्छन्
लुटपाट
奋
देखेँ
##と
अनेकौं
चाँद
शोभा
째
एएफसी
अधिनायकवाद
盘
जैविक
नसकी
महत्वपुर्ण
##्छ
एयरलाइन्सले
बिजय
ऋ
脐
ɓ
दत्त
##भिज्ञ
##a
##सकेकी
##ेजी
मेयरमा
👍
绝
महाल
b2
अघ
灵
##⇨
फिल्मका
ধ
##꣕
മ
😜
##नन्द
लक्ष
अंग
）
##पथ्र्यो
अपांग
ग्राहकले
ब्याडमिन्टन
##ɕ
टोटनह
घट्छ
स्वामित्वको
भण्डारी
な
सुर्खेत
ड
भएन
सुर
##ﴌ
स्वकीय
81
##←
त्याग
त्यता
कूटनीतिक
💪
ģ
ど
攫
到
सेना
ャ
##नबाट
जेनेर
##विच्छेद
ڻ
##st
##̯
##किश
##ݴ
राजधानीको
##ޔ
ताइ
बाह्य
एनसेलले
##ڤ
पटकसम्म
लगानीको
शाहीले
##ѫ
##सास
चेक
##ޓ
##ण्डको
ƃ
ढाकछोप
त्यसैका
##ユ
सावित्रा
##नुपर्ला
त्यतिकै
遇
💿
##आईजी
##लेन्ट
ٚ
##ӿ
गणेशमान
भ्रमणमा
ʎ
##ेप
आमाले
सकिन्न
एकैसाथ
##78
ʚ
सुख
##जो
##फुट
बाक्लो
##यु
आले
योङ
##ȼ
牙
भन्
💌
गरिबीको
kos
आयु
肉
庭
##्ना
唐
माटोमा
执
मोरङका
क्या
पन्छ
तीब्र
विद्रोही
हैरान
펣
गरिन
##튶
बनाएकी
लखन
##या
##٫
sak
दुर्लभ
##ियल
##✔
ʕ
##ߘ
##काउन्ट
कामी
पौने
ッ
आसपा
कोरियाको
अभियान
डट
हुमा
ी
##ہ
##बाहिर
功
##て
देखाउने
तलको
मातृभाषा
５
##दायक
स्टाटस
विज्ञप्तीमा
आदिवासी
जथाभावी
##न्ध
भीषण
07
##सिप
खुर्स
१९५०
##ᤅ
उपविजेता
भूकम्पमा
##tion
67
उनी
##ګ
##ता
खोटाङको
천
धेरै
ht
##न्ने
##बिस
ư
##ឆ
##မ
सामन्त
कसको
梡
##य्या
##ল
##ӂ
##ash
##ver
क्लव
बनेका
ज्वरो
भइसकेको
qu
ѓ
ज्वाइँ
सन्देशमा
##हेक
धरोहर
उमेद
##्नु
००
गरिएमा
##נ
आह्व
छाड
垻
##ލ
गरा
नायिका
加
दरबन्दी
विद्यार्थीलाई
##पताल
संविधानअनुसार
孊
मड्रिड
##ट्रिक
हुँदैन
गुमाएको
हिरासतमा
߃
राप्र
फोरमले
फर्निचर
##vi
胡
क्रिस्ट
विद्
##सम्यान
मिथि
एकपटक
डडेल्धुरा
जुद्ध
तीन
वास्त
गायब
गोर्ख
केयर
विष्ट
л
संगठनात्मक
रक्स
##sh
सम्भ
阳
ϟ
##षद
ệ
##ϑ
बाबु
मतदाताले
安
कृप
意
ई
खुलाउन
कारबाहीको
तृ
##uc
durbar
अल्झ
युरो
##ile
拔
ᤱ
संसदले
कार्की
गैरकानुनी
मुस्
##ɐ
##निर
两
但
सार्बजनिक
रमाई
赶
संगठनलाई
तर्फ
##ਮ
8d
चैन
##җ
बैठकलाई
गदै
##नाल्ड
##कीको
url
दरले
समेतको
पाथीभरा
मिलियन
ʏ
प्रदूषण
अर्को
घटनापछि
महान्यायाधि
मिनि
चलेको
किस्ताको
##दो
काल
चाहन्न
##১
ṭ
बिगा
##ञ्ज्याङ
##ݬ
अचार
##˶
यस्तोमा
##om
##रि
बालुवाटार
목
देशलाई
उपधारा
cont
आईसी
मायाले
सुध
##सागर
雄
##ारायण
आरक्षण
दण्ड
赛
दाङका
ताना
豚
गाउँलाई
टीकापुर
##बाबा
खेले
मिलाएको
स्टिकर
##१५
ƺ
यू
##ɾ
##ुरुष
कालिका
##क्र
संभावना
महतोले
राजधान
पुग्दा
लाइफ
ﾪ
؇
विद्यादेवी
भेटेका
किताबमा
##🎁
##ub
##ɝ
##ԙ
क्याम्पसमा
梤
love
रोश
श्रृ
बन्दको
समस्याहरु
伯
प्या
尼
御
मुद्रास्
what
##शी
夕
##˺
##्नुभयो
##दान
भरिएको
푋
##ाले
陥
##फ्ट
##58
##काल
चेली
बर्खास्त
##턂
वज
详
##ř
जनाउँदै
हुनुपर्नेमा
फला
##ाउने
ग्रिन
햇
##ियम
##ṛ
##get
へ
##औ
तानेर
ԣ
पाइपलाइन
महँग
मृत्य
##प्तीमा
##सिंह
##ɠ
##޳
##ո
घिसिङ
##जु
##तिरको
##खल
घुँडा
അ
##♦
##🙈
उपयोगी
चाहियो
ट्याक्टर
##ڢ
डुङ्गा
यसबारेमा
ɟ
सत्ता
रानीपोख
जसो
पदक
##िटि
खोजीमा
##मित्व
केभ
硬
कमिस
परिमार्जित
唱
कोणबाट
##4
##ോ
##38
एमबीबीएस
低
ރ
卜
शक्तिशाली
हत्याकाण्ड
भर्ने
मिड
##nepal
आंश
सभाबाट
सिन्द
联
買
軽
विधाका
䚩
आन्द्र
आँग
सहसचिव
बिचौ
ठो
##เ
श्रीमा
ฟ
22
##87
करिअर
रुद्रा
सहरमा
चलचित्रमा
##सा
गेट
##णको
समाजमा
सेवाहरू
द
हेक्का
बेप
शै
流
तिहाई
मेलमिलाप
क्षमा
##20
##ᤤ
pub
तस्करीमा
निकालिएको
स्त
😳
कमसल
कारमा
has
दिउँ
बुद्धिजीवी
कम्पनीका
हत्य
२०६४
##प्रिय
घरबाट
संचार
मेघ
द्ध
炼
आफनो
भया
अन्तशुल्क
##ेकी
##ާ
पेज
हेरेका
瑰
##ियन्स
वैदिक
##निमा
घुमेर
हप्
बोध
मंसिर
वाद
इन्फ
蔡
पठा
निर्मम
##िकै
विधिबाट
चाहन्छन्
भोगाइ
सुनिन्छ
जनमान
तिलक
报
湾
बोहराले
फेला
क्रा
सांस्कृतिक
ȑ
थरी
草
रिफ्रेश
असमानता
鉓
左
##बखत
录
तुल
##भूत
एन
चक्
बोकेर
##र्सि
ญ
तत्कालै
सदन
##श्याम
national
##लीन
##ause
ߋ
मुक्ति
##पूर्ण
派
일
##वा
१०१
कम्पनीहरुले
##रात्र
अधिकृत
संसदीय
##चालित
##न्छु
84
䣒
略
म्यास
बुझ्न
##पुर्जा
##ive
मेसीले
फर्केको
韓
dec
पैसा
विरामी
उपनि
उत्त
छोरालाई
激
##ोलि
##ँद
ş
##टान
बोस
विघ
##ﾌ
विज्ञान
गर्नै
लाग्दो
श्रमको
ণ
जनअ
काज
गरीब
पटेल
泰
भौगोलिक
##नुको
मजा
眼
ꋗ
®
अर्गान
ʡ
सहभाग
अति
##🧬
चाहा
नेप्से
चर्क
डो
दृढ
संस्कार
ご
खाँदै
खेतीमा
गोप
बहुप्र
टुर
सर्किट
खेलाडीहरुले
ˎ
लभ
वर्षहरूमा
लण्डन
郁
घु
76
##ʙ
줏
##ៅ
घरधुरी
##🙊
मोबाइ
16
##फा
केन्द्रित
##）
##ੀ
断
ٗ
##िनी
तिनीहरूले
重
##ल्सी
करोडौं
ʋ
##िने
न्यायपालिका
ɦ
##पी
##डले
यीमध्ये
सवा
जन्
歧
##ਫ
कोषाध्यक्षमा
भरतपुरमा
सिटमा
समयअनुसार
̩
प्रलोभन
हाफको
##पछिका
भत्किएका
बादल
##15
शैलीमा
मोरङमा
##देल
##ाइएका
अवस्था
##ानि
過
肃
ν
आपराधिक
संक्षिप्त
إ
##डिओ
गे
स्र
##ारूढ
##ाई
भूमिकाको
築
गर्यो
ܱ
javascript
हुनुपर्ने
पहाड
प्रसार
牛
ब्याजदरमा
##कीले
चुना
##वेदनमा
蛋
समावेशिता
##फिया
सन्तुलित
舟
शंकास्पद
पित
ƛ
उत्तेजित
निकाल्यो
फोरमका
अभिनय
ताकि
संख्या
令
機
१००
##बार
प्रतिपक्षको
74
बिहानदेखि
बनाइरहेको
ब्लक
अन्धविश्वास
उमेदवार
दिनै
encod
ǆ
आठौँ
##मिलो
परिवर्तन
धनकुटाको
बाढीको
##परिषद
शपथ
समूहमा
淽
जंगली
##ल्ला
संगठनले
แ
कैयौं
काठमाण्डौं
कसैलाई
अफ्रिका
गाह्रो
प्रेमी
纺
प्रदर्श
##벃
सकिन्छ
緊
उर्लाबारी
##ݯ
मागे
अप्ट
##त्व
##फोर्न
##भर्स
##पीको
अपी
व्यापारघाटा
オ
प्रणाल
##등
##ҥ
जंगल
ម
##޿
##हित
अनेरा
ह्वि
ː
क्रियाकला
व्यव
पोख
##🇯
सिलवाल
##प्या
अग्नि
##प्रद
कमान्ड
पार्टीका
नेताबीच
पुँजीगत
दंग
अध्ययनले
आँसु
##स्था
परियोजनामा
दिइएको
विद्यावारिधि
भगवान्
नफर्क
स्थानका
计
？
असफलता
擅
सना
मझौला
परिपाटी
##डार
##भाइ
ɥ
शुक्ला
बेसी
๊
ь
##खर
उपस्थिती
##′
##հ
##आमा
छालामा
कान्तिपुर
दिलिप
निर्मला
##माया
महँगी
鶴
領
ગ
यसपटकको
झट्ट
संगठनमा
言
##माको
习
ऐक्य
आँकडा
##रिस
भदौ
क्याना
##झ
कच्चा
ണ
सांसदले
पूर्वाधारका
निर्भर
दे
त्रुट
ति
ब्रिटिश
孙
भैं
उपमहानगरपालिका
##س
##मशेर
फित
मध
बोलाइ
तोक्न
her
दस्त
भनेको
##शि
##वह
झण्डै
##गडा
देउराली
विधि
एकातिर
सामान्यतया
摄
淇
괎
नामिब
ꅵ
नआ
एमालेसँग
##λ
ल्याउन
##शय
##げ
##थान
केन्द्रबाट
##रोटी
कलेजलाई
राजमार्गमा
संस्थाहरूको
महानि
भईसकेको
掌
आज
击
कामना
##[
जेल
बन्नुपर्ने
रुचि
आलो
मर्स्या
歳
##हरुसंग
सडकमा
खेलाडीको
पहारी
##पीडित
把
गए
输
##ܡ
##्नुपर्छ
टेलिभिजन
##ʧ
other
y
मर्मतसम्भार
अब्दुल
ᱱ
ͧ
趣
मल्ल
17
"
शिक्षाको
嵪
विस्फोट
दिँदैन
अनेक
दिई
सप्तरीमा
आमाबाबु
बिनोद
मु
केर
क्यानडा
##⫴
स्थानमा
दिनानु
##ԭ
##ۣ
काव्य
झोलुङ्गे
बङ्ग
실
##ྒ
##बलको
दान
黖
प्रस
##मले
भइरहेको
इनर्जी
##ऩ
सोध्ने
##प्टेन
务
##ਡ
रेस्टुरेन्ट
妄
缚
क्यु
पाण्ड
फाइनल
##्व
मानिसहरूले
उत्पत्ति
ự
रातमा
氏
पैसाले
##ד
##थिको
वक्ता
ठानेर
ल्याउ
वर्षयता
᷺
भरिया
ट्रेक
पुनस्र्थापना
##र्छ
मादल
##कुमारी
खेलेर
लगाइदिने
ந
續
##괎
क्रिश्च
##कस
संस्थाहरु
##दर्शक
समितिका
विवादित
।"
##यज्ञ
##ᡱ
👏
विश्वासको
पुजारी
ർ
प्रदिप
賀
उठेर
बराबरका
मौरी
प्रबल
कमी
लामा
नरहेको
ব
गोरखा
पासवर्ड
##भो
##es
जस्तोसुकै
##ɘ
##्रल
##ide
उँ
ż
कृषिलाई
##ेर
विद्वान्
हुनुहुन्छ
雪
ݻ
ब्रो
ओइ
संघसंस्था
##ent
आदान
##ԁ
##िदिएको
रसु
##ꋩ
उत्पन्न
नचाहि
ƶ
##ँच
##बगर
ԏ
श्रीकृष्ण
##ञ्जन
##ӝ
देखिन्न
स्प
तप
निजाम
सन्तुष्ट
##घण्
एक्स
丟
ठीक
अनशनरत
##तहत
##...
इन्टरनेसनल
ब्
लेखेका
册
पार्टीबाट
##टन
भाज
दाल
सिर्जन
##32
मन्त्रीहरू
आपरा
प्रणालीको
ょ
दिनुपर्छ
बहन
मनाइन्छ
##स्ती
導
##वाद
##बापतको
बैङ्
啊
藉
ʪ
संस्थाहरुको
su
ء
남
कार्यसमिति
ट्र्याक
##ϗ
전
हँु
जयन्ती
निम्त्याएको
秤
ժ
##सीय
៨
##ɖ
कार्यहरू
प्रतिविम्ब
##ெ
26th
̯
क्रो
यूएई
चौलागाई
ថ
एमाले
गाउँपालिकालाई
मतपेट
सडक
易
जनमुक्ति
अपराधीलाई
संवैधानिक
##क्षीय
माहोल
एसियन
##त्स
छाडेपछि
पीडितका
सवालमा
##क्सी
ᤒ
उप्र
गरिसक्ने
बुधबार
ढाका
##롰
परिव
मर्म
कपडा
##৭
##ule
ӊ
निरौला
लोडस
ac
छान्ने
प्रभावले
लगातार
##ङले
##त्र
पुत्र
सेवामा
गइरहेको
सहमतिमा
पटकथा
##हितको
more
बनाइनेछ
##फि
"><
दाम
अख्
पथ्र्यो
खरेल
स्थानिय
##टार
##चित
परिषदका
सृ
राष्ट्रमा
वरीय
सार
##۸
पर्वतारो
##िनको
डिजाइनर
ʊ
##ʏ
o
##ബ
׳
दिएको
चुनौतीका
हतारमा
##चीको
लुक
ё
जडिबुटी
##सान
पौराणिक
भाट
ग़
##हाय
हेलिक
##ٹ
##ुलीले
विष
टर्म
89
डिए
ब
##ेश्य
विरोधी
】
जगन्
धादिङ
एकाध
प्रतिद्व
投
ߦ
बिजनेस
फागुन
##न्य
##न्दर
##िन्
##ग़
##मबहादुर
##ofnepal
विहि
##स्कोटा
अर्धशत
मलाइ
चिन्तित
मदन
फिल्ममा
ち
स्काइ
⇄
थिइन्
एमालेका
##जिन
टोलीसँग
कभर्ड
##लिंग
##ݵ
पानी
मुद्धा
카
##सम्मका
संक्रान्ति
डेस्क
##्टी
महतोको
##द्वारी
绣
ओख
##ियाे
##ालिटी
बुझाउनु
सरकारका
##ố
cor
##शैलीमा
मित्रता
सल्
唷
मार्ग
दूतावास
##ोत्सव
b5
पक्षले
ბ
यथावत्
遥
🌙
वार्ड
खोइ
परिभाषा
भएकै
##ेउ
##😓
##कारका
आफूहरूलाई
आरक्ष
रोजाई
स्पेनको
नट
निस्तेज
ि
इंग्लिस
रिप
सिफारिस
घटाएर
##؎
##दथ्यो
##֐
रमेश
##ङ
एन्ट
盒
रै
辖
common
?"
चरित्र
कमाएको
जस्ताको
##च्
बताउने
कलेजका
##छि
##त्ति
##्छु
無
सम्भवतः
##वैज्ञानिक
किरण
खराब
ढुङ्गा
건
##पत्र
परियोजनाका
सकेसम्म
यसपालि
सुह
##पानीको
ग्रामी
##नगरमा
सम्झना
med
##ㅎ
बिस्कुट
सञ्चालनको
ताप्ले
##na
##ը
ओसार
नेपालीहरुले
ṅ
フ
己
तहको
##हम
fir
ุ
ᤠ
##छ
##চ
ヴ
來
बेइजिङमा
##ݣ
विवाद
##mesh
दशैं
歴
जोर
##য
##ً
कसरी
हातेमा
##नुपर्यो
स्तब्ध
बिरामी
६७
##ͻ
⮅
लाग्नुपर्छ
##27
##̆
ܺ
##टिप्प
गरेकाले
बढ
बिहिबार
लिंदै
##श्वर
नल्या
##न्जन
##लम्बन
##😂
̞
बेग्लै
##भण्ड
युद्धको
株
निबन्ध
एकता
लागेकी
##पट्टा
सक
##श्च
खेल्ने
##째
##स्कोटाले
件
百
सोचाइ
真
ढिलासुस्ती
##r
कथन
शि
##만
##ैमा
##न्नति
सङ्क्रमण
निश्चित
##ր
पुर्न
ᤏ
पढौ
##न्को
इन्जुरी
##，
चितवनका
ƿ
##🔱
विभेद
ᤖ
बताउदै
गल्छी
济
थोरै
q
च
跨
##िकार
सेन
프
डेभल
पन्ध्र
लुगा
व्यायाम
##मिट
##यरको
सर्वोत्कृष्ट
हल
भलै
मिर्गौला
युक्र
银
##ैन
ĺ
扰
##ܥ
उत्रने
##न्द्र
भोलिका
ۗ
##ݶ
आफुलाई
प्रव
बनाएपछि
ੂ
आम
##जाले
##ٛ
माओवादीले
गर्नुपर्दा
नपुगेका
सडकखण्ड
इन्डोनेसिया
׊
खड्काको
##щ
मियाँ
复
उच्चारण
##・
ؤ
समाप्त
##ͫ
to
靓
笛
##✓
宮
号
होमप
at
##टोल
##वेद
滅
ओटा
अफिसर
निर्मित
衆
गृहमन्त्रालय
雾
किने
##ेग
साथ
केस
##वीच
अभ्यास
सिद्धान्तको
कानुनी
̚
सट
पुष्
आसन्न
##न्द्रा
पहिचानका
##हारी
रमाउने
विकल्पमा
काँधमा
##फ्टिङ
खोज्दै
##दाम
योजनाकार
お
批
सेल्
##न्नु
##ne
भएनन्
感
लेखिएका
##दीप
एनआरएन
隔
व्यवहारिक
##°
##하
侵
सेक्युरिटी
सुरेन्द्र
दशै
##न्ज
##혐
मोड
शान्तिपूर्ण
##डाँडा
黒
बाँके
होहल्ला
վ
##र्घ
७९
🎉
##ज्यू
दुर्घटनाका
सा
ี
निर्माणको
ப
##्रिड
ै
第
##काम
राजस्वको
##ऊ
अनियमित
प्रभावकारी
यज्ञ
##खन
मामिला
विश्वासमा
##न्ट
##ݰ
नागरिकलाई
स्टेडियम
##तु
सूत्र
购
छुट्टा
कांग्रेसलाई
भोट
品
चाहेनन्
आएमा
वर्षभित्रै
##घात
##िटेड
हङकङमा
हप्ताको
दोस्रोपटक
मालिका
सर्वाे
##and
##ग्राम
खेलाड
जितिन्
पारदर्शिता
役
玗
##गाउँमा
##पक्ष
जबकि
##प्पल
box
ٖ
##ϊ
ҳ
लगाई
हुवावे
##्रै
कार्यसूची
याताया
उत्पीड
##ਕ
जनसंख्या
अधिकारको
##उड
मुसहर
मध्यरा
费
##जेर
यौनजन्य
ח
जनगण
##🔥
कुद्
##पोस्ट
नो
बताउछन्
储
चीज
हरू
छक्का
##नगर
ट्या
##एनए
ठान
पार्टी
समया
##게
焼
भेटेको
##ेशनको
लागु
森
अपराध
व्यास
ठाउँका
##il
गरिएका
लाइ
मनाङ
户
ܢ
बुँदे
##बिसे
##आउट
महिलाहरुले
टाइट
तैपनि
स्याल
##݆
सक्तैन
你
सम्झौता
ಗ
편
॑
쥻
201
ʮ
गन्तब्य
##vertis
##록
##ࡡ
नितान्त
##ی
##ǥ
##ुँ
आइतबारदेखि
सौभाग्य
责
अम्
फरक
##্
誇
ꕄ
पोसा
समन्वय
##ँड
चाम्
👊
मधेस
समवेदना
डिजाइनमा
##बरमा
विच्छेद
श्रा
पक्षका
##ȳ
उत्पीडन
एश
鹰
एसएसपी
承
##टारमा
##र्ण
क्रिकेटको
यसपाल
वरिपरि
##जरको
एडी
ना
/
गिट
थालिसकेको
जोसुकै
##आईपी
墠
मज्
##hana
अग्
##त्रमा
उठाइएको
कम्म
बन्दोबस्त
शर
स्वर
##재
पश्चात
बोर्डले
舞
##53
ѡ
लिपि
वीरगञ्ज
׷
ൾ
##ಗ
समुन्न
छाँ
父
हिसा
प्रालिका
मनाङका
स्वेच्छा
एन्
राजपा
०७
章
##िपल
भीमबहादुर
प्रदर्शनी
कृषिज
चलाउने
۬
संसारमा
वातावरणीय
सिरहाको
##क्षिक
टेक्निकल
##ag
हटाउने
अध्यक्षता
##구
पदका
जिम्बा
परिचित
cricket
मजदुरको
診
जतिसक्दो
परिषदले
##ظ
लिप
パ
##ोला
सकिँदैन
ნ
萄
मन्त्रालयको
कृषिको
निर्धक्क
ele
ꦖ
चौपाया
名
ъ
ੁ
##से
##राष्ट्रपति
शु
भान
अरनिको
गाउँपालिकाले
##ʫ
वता
司
##लामा
##.
समर
वर्षीय
诣
महाप्र
##इमा
दर्ताको
भट्टराई
##किला
##नाल्
##डे
##론
कतै
युवतीको
वाचा
सम्झन
कक्षाको
विकास
##र्मिला
परीक्षणमा
पुरस्कृत
पात्रको
##जीपी
गाडीमा
ޡ
敷
सेयर
घरज
熱
🌽
वाग्ले
हैद
०७४
दुब
쳎
##जुद
##ح
##뺋
जसका
##ۗ
í
७८
अल्
🤩
渥
लत्ताकप
उपमहानगरपालिकाका
hel
䫿
##न्यायाधि
तृत
मलेश
##ĭ
i
∇
括
केन्द्रमा
阴
##ര
ҍ
##ს
अनुसन्धानकर्ता
舆
यात्रुलाई
भूमिगत
उपचार
बम
दीर्घकालीन
पढेपछि
सघ
असन्तुल
ځ
ᤓ
소
निमो
सवारीसाधन
##퇻
पढाइ
कम्मर
##์
रोकिएका
स्वास्थ्यचौकी
##ڰ
##राँस
##क्तिक
##ौटी
##ाए
सयभन्दा
##޶
両
##िल्ला
बिषयमा
##उत्
सनाखत
##क्सन
पाइने
呢
माइकल
पुँ
संविधान
औजार
कोइराला
त्र
पदार्थ
सुलभ
##सम्
कल्
केहीले
##ʼ
##दिक
जे
ڞ
माओवादीलाई
गरेँ
जला
##परको
ɤ
##ẵ
अर्कोतर्फ
##म्जो
रोजाइमा
##न्यायाधीश
सुमार्ग
##һ
ओर्ल
चौका
नवल
०
अर्जेन्टिना
बताउ
नाप
##ेता
पाकिस्तानलाई
समस्त
परोप
##എ
इन्स
अन्स
##गाह
##विक्रम
##ालु
अस्थिरता
क्रिकेट
प्रजातन्त्र
ֽ
##პ
गाउँपालिका
कदापि
बाँस
सीप
परियोजना
पल्
##all
##सेना
ओझ
सञ्जालले
राख्नुपर्ने
केन्द्रीकृत
af
नभएकाले
स्को
संघीयता
समयका
गम्भिर
दिइयो
##현
##』
왴
ri
द्वन्द
क्यापिटल
ѽ
कोइरालाको
##स्ते
लक्ष्य
सिजनमा
परिमार्जन
##ek
जातका
##ᤴ
रुन
संसोधन
ओझेलमा
एकआपसमा
बलराम
श्रमजीवी
छठ
##माइ
##परे
_blank
भरपुर
तस्करीको
चकलेट
अपर
निष्ठा
皇
आदिले
बैठकका
विपक्षमा
递
the
##त्त्व
डब्लु
हातहतियार
##भाड
り
ꡝ
रबि
फसेको
##ȃ
परम्परा
##py
पहें
सेमिफाइन
मेहन
रहनेछन्
मल्
बन्दरगाह
सापको
हुने
बडि
सौगात
##ǿ
##ियत
...’
传
##ety
वर्षौंदेखि
##र्द्धन
똖
##दर्शी
ᤧ
कुन
जिल्लामै
समितिमा
युवायुवती
तानसेन
##ेटर
##ⶬ
˛
नेकपाको
मंगलवार
०२
序
##ӻ
##఼
##kh
बहुमतले
सेनामा
培
पुनर्
##न्टी
लुकाएर
一
आफै
##स्तान
##ខ
角
##परी
कोरि
ԡ
छोरीले
޽
◎
##ӫ
ル
february
निभा
उमा
݀
##फको
गौशाला
पुनःस्थापना
##राख्ने
कम्पनीसँग
##ǫ
मकवानपुरको
संयोजन
##वन्ध
कब्जामा
##२
tv
तामाङले
दलले
प्रायः
##준
ᤵ
##र्गा
पछिल्ला
संकेत
##ॆ
渍
##अफ
##हात
##खर्क
֌
국
लामिछा
सुनको
पूँजी
नेपालले
🤗
µ
##ell
किच
टेवा
नारायणहिटी
練
臨
##उँछ
##िसकेपछि
##ê
फास्ट
नभएका
://
निर्णयका
배
･
##ˊ
##·
##एँ
##ेख
कार्यविधि
पेनाल्टी
व्यावसायिक
अन्तर्गतका
߀
आराम
मनमो
##م
परियो
महिलाहरुको
टप
साँघुरो
गरिदिए
छैटौं
25th
ओमप्रकाश
व्यंग्य
경
संसद
##겹
߿
शा
वस्तु
खुवा
देशबीचको
थ्र
मान्छेले
सन्दिप
##ძ
गंगामाया
##ȿ
φ
उत्पाद
स्कुल
✅
पार्ट
how
##ईओ
कल्या
核
आन्दोलित
भएअनुसार
लन्च
##िन्छन्
तपाईँले
८६
पर्दा
पुलिसले
##हुन्छ
windows
##テ
ң
##दोहोर
जाजरकोट
हस्तक्षेप
ϑ
टाढाको
भोला
बुझाउनुपर्ने
##शांक
##ぬ
तस्
लेख्दा
れ
##்
कामदारको
गुरु
सम्मेलनको
नल
ग्रन्थ
##काे
भुष
##सुब्बा
मोदीलाई
वीरगंज
##तिले
उपलब्धता
व्र
प्रशास
佥
##95
ओगट
division
ȧ
कालो
促
039
##योग
##मूल
प्रतिष्पर्धा
तिम्रा
मेसिन
२०१
##िमु
##ი
आयोजकले
##ひ
व्यक्तिहरुलाई
६४
##1
सदैव
##मुख
##्यापक
दिनभित्रै
प्रतिबद्ध
सोचका
चौमा
नियमावलीमा
मंगोल
मित्रराष्ट्र
##ुरु
##साद
##भेल
नेपालीहरु
##िन्छु
##अगाडि
과
किसिम
##ारु
सरकारको
स्थग
स्वे
匙
बसोवास
आन्दोलनलाई
##डको
घेरामा
पुनले
ỹ
थुप्र
तोक
सिंहदरबार
चाबहिल
आईओ
촬
खण्ड
##याम
रोगको
🚩
पेश
ᝢ
继
##मन्त्रीको
##우
##3
ऊर्जाको
प्लेट
चिनो
मनले
燚
##्नुपर्ने
खाएका
##nder
on
जाग
कथ
मोक्तान
♂
##क्षेप
आदित्य
捕
##ｗ
चपेटामा
२०१८
निर्णयलाई
▲
ܠ
͠
##ཾ
कैलाली
लिइ
अंग्रेज
础
सुबि
मैत्रीपूर्ण
##ٚ
नियति
अख
आइस
##्यू
us
निय
玉
##वासमा
詩
प्रधानमन्त्रीमा
भएकाले
##ules
房
माटोको
नलिने
݅
कुर
झोलुंगे
यातायातको
क्यान्सर
旭
렶
२९
##ुप
##낣
跳
##ზ
##च्छिक
##बोध
बाहिरबाट
टायर
##ស
##id
कृष्णा
सुरक्षित
ཤ
##दीमा
प्रजापति
बलमा
##वस्तु
पसेर
🇲
##ƭ
रुघाखोकी
गर्नेतर्फ
सहर
##र्ड
ओठ
छन्त्य
28th
साल
ỏ
हिमपा
##핕
泥
##उनुपर्छ
##랩
प्रतिवद्धता
##्याई
खरेलले
जमिनमा
पालुङ
हाँसो
##ढीमा
लत्ता
##न्व
अर्थतन्त्रका
दिनभर
##कोण
ҟ
भएँ
डाइरेक्टर
豆
रोमाञ्च
दिनमै
सचिव
##+
छलफलपछि
得
मागेको
ަ
धुर
दिइसकेका
मध्यम
म्याच
##रिने
ٷ
ƹ
उतार्न
##बर
हडताल
बदनाम
विनि
##मार
##orts
贯
tit
oli
##िनामा
कुनामा
गजेन्द्र
##ろ
बुकिङ
भीमसेन
ਘ
趱
##졌
यिनको
##्यौँ
स्रष्टा
आश्व
प्रारम्भ
कारागार
ली
ग्यास
बानी
##ܬ
##ani
##तिहासिक
걸
आलोचना
牆
पढ्दै
टाढ
ߤ
संस्थानका
ฮ
देखे
काठ
पुर्याएका
चाहिं
छिमेक
सिक्दै
ठे
##ci
顶
##श्चित
सेक्युर
चुनौति
बाम
ゲ
पुर्वा
##ुकै
##🎇
उत्पादक
श्रीमानको
हेरफेर
ڿ
ꊒ
बाह्रै
उनीहरूकै
##45
##पूर्व
##©
कान्छा
##ৃ
नियामक
सारा
伺
##र्धन
##ल्लो
##ɶ
##ů
、
##पास
चाही
><![
तराईमा
ϱ
दक्षि
##तया
##नल
भिटामिन
सङ्घीय
मध्यस्थ
my
आब
खेलबाट
छोड्न
बौ
हात्तीको
詳
पार्वती
जानु
बेरोज
##ँदैनन्
व्यक्तिको
򜮖
पक्राउ
अर्कै
श्रद्ध
?</
पूर्वसन्ध्यामा
##वाइ
पाकिस्त
मलेसियाले
राजनीतिक
散
綾
##भन
प्रोफेसर
心
गर्नबाट
जेठमा
##ꭹ
मनसुन
एसोस
स्वरमा
राज्यलाई
बंगलादेश
भएकोमा
け
##संगीत
##िकृत
##िम
##아
없
उहाँहरू
गरिन्थ्यो
सेन्सर
##जस्तै
ईश्व
संशोधनका
並
##গ
बल्खु
महिलामा
ൢ
ꍽ
स्वस्थ
秲
描
mahanagar
रहन्छन्
७६
##ण्टर
प्रकाश
बलिउडका
##ُ
##😇
राती
##ब्लिक
լ
##र्क
नाथ
बढिरहेको
भूत
聚
किनारमा
贬
地
हरु
##ck
##（
ܒ
विनियोजित
息
😭
प्रोज
सार्की
बेरुजु
廃
##किँदै
जनप्रतिनिधि
हर्षित
अडान
겠
चत
लडेका
भत्क
##स्ताव
मन्त्रिपरिषदको
आधार
नभए
विश्वविद्यालय
निर्माणमा
##ូ
हेटौंडा
飲
कारोवार
##զ
##ĥ
##्चामा
आक्रमणबाट
कर्तव्य
लोकान्तर
订
पर्दैन
##नुभो
इन्स्योरेन्स
सिसा
डिल्ली
नहुनु
志
एकमुष्ट
उदा
आईत
##वादको
स्थायित्व
उत्खन
सन्तुष्टि
##ɀ
चेतनाको
ૌ
##̍
##ज्ञ
饭
##ory
摩
टिप्पणी
##िश
खुकु
गाउ
अस्थ
ዛ
##नाइ
किस
संस्थ
##ۍ
संस्था
स्वि
##ۋ
##am
इलेक्ट्रो
चौपा
वर्णन
कर्मचारीहरूको
सम्भार
100
अत
न्युन
हिंसाका
दोषीलाई
##ĝ
बास्तो
抠
विद्युत्
##요
आमाबुबा
अगाडि
निर्वाध
काँग्रेसले
raj
आपू
कमीले
लिट
प्रभावकारिता
踪
पुनरावलोकन
##अन्तर्गतको
##र्पी
चढाउने
फर्कि
ट्विट
ʨ
##राखेका
닦
વ
कमजोर
योजनामा
൓
काग्रेस
खोज्न
##न्ती
संस्कृतिलाई
सङ्घको
##ʥ
##ge
दिमाग
चलाइएको
होस्
##ឡ
तुल्याउन
छोएको
डकुमेन्ट
认
स्कुलका
वार्ता
कही
ढ़
##िण
मन्द
##ङको
जोगिन
빙
भुकम्प
यकिन
महाकवि
##मन्त्रालय
mar
##मुनिको
गतिमा
头
अल्प
ফ
हुन्थे
काट
हाइ
पुरस्कारको
—
ˋ
आरोहण
##क्र्र
मले
टेन्ट
मुख्यालय
सरोकार
मोर्चाले
첫
प्रतिष्ठान
製
##यनको
##वाड
ɝ
왔
##डिब
पहुँ
जोडी
प्रवद्र्धनमा
डिप्र
##भै
譏
अत्तर
##अघ
##लगायतमा
आफैं
坛
बीचको
क्रि
杨
सञ्चालन
सालसम्म
पृष्ठ
शब्दमा
ֈ
रङ्ग
##ोन
गुप्त
##ǩ
試
##हिन
##ँजी
##राजको
##ल्ल
ല
뵢
##एछ
##ٔ
̗
नेविसंघ
##जत
बगेको
श्रीमति
数
प्रशिक्षण
स्पोर्टस
纏
जीविकोपा
##้
लागी
सीईओ
##छोप
26
अमा
ma
अध्ययनका
##शील
सुनारले
づ
##ע
##񺦨
फुप
साझेदारी
फस्ट
विभाजन
挙
मेसी
ׇ
##वर्षे
छोडेका
स्वीकृत
##ҝ
मानिसहरू
떹
खर्चिलो
बाबुले
ક
ェ
अनाथ
कार्ड
प्रकाशन
मुस्ताङ
रनको
रहेको
लेभल
गर्नुको
बजारले
विदेशमन्त्री
शाखार
##को
पारिएको
संस्कृतिका
策
गुणस्तरीय
ब्रेक्
##떻
स्थ
##न्युज
画
##एल
##स्रोत
पर्वतको
##धन
संरचनाअनुसार
महि
¿
뺋
स्पिन
कुण्ठ
रूप
##िताको
恶
करणी
♠
ͻ
सबैको
̴
ձ
वाचन
जोडिएको
欫
घाईते
65
तमु
दिल
परो
׿
बजेबाट
##आई
सूचका
२०७१
जनमोर्चा
##ृंखला
敌
置
पाहु
आवश्यकताअनुसार
ʧ
##해
मर्
##तका
԰
孟
देखाएका
जहाजमा
##30
铬
बुहारी
भेनेजुए
##ϯ
##रथ
आर्जन
स्पा
##इस
##लमार्ग
हराउँदै
肟
##ेलो
अपराजित
प्रमुखले
柹
##रको
थकाली
पारेको
ज्यादा
##पोखरी
बुढाथोक
##난
˫
羽
䶅
पर्दछन्
##देखि
pl
छि
धीर
##ȣ
वार्ताको
मिल्छ
気
ठाने
##ω
ꆷ
ض
##र्सका
दिनलाई
##ब्याक
इनरुवा
नह
हावाहु
##राख्न
##परिवार
आवतजा
अनुगमनमा
म्यानचे
एमालेले
सम्बन्ध
##at
सय
##लाम्मे
착
कुटनीतिक
जन्म
चित्रकला
##उडमा
ủ
##ङ्गल
ĸ
देवीको
हत्यारा
##बेंसी
रहोस्
सेवन
##37
आइन्
शिवराज
##お
特
पुस्तामा
जिल्लामा
सारिएको
३८
##शासन
प्रदूषित
##एनन्
उठ्ने
प्रक्रियाका
गरेरै
找
援
एकसय
बसोबास
नपाउँदै
पर्वत
##͝
सरिता
year
एकाउन्ट
माननीय
साध
##̴
बुद्धि
हृदय
११३
##획
##र्की
ʤ
गुन
राष्ट
ɪ
彫
##ुट्ट
बुझाउन
क्यास
भाँडो
सम्प
̱
۰
शाहको
११
յ
अवलोक
जितपछि
ṇ
दिएर
रियो
##मात्रै
ⲫ
##वादीले
##पादक
युनि
›
##सम्भ
आ
##😠
妆
हँुदैन
##une
##रेखा
##तिमात्र
सामस
##लाग्दो
गाथा
##া
##र्पा
अञ्चल
##ग्रेस
ब्या
मार्गचित्र
##ेलिया
##रामा
##ृतको
##विर
आरो
कुश्मा
##ԛ
##ोल
दलसँग
##ल्कुल
डेढ
सांसदलाई
तयारीका
हप्ता
榺
दुर्भाग्य
मुनाफा
##ߋ
##า
परराष्ट्र
हिमाली
万
塑
眨
##hrm
जनकपुरधाम
राक्ष
असुली
उनै
##णा
##ং
रिपोर्टमा
प्रान्त
भइ
गरी
烠
भनेका
##वरको
南
उदयपुर
##तय
被
बुटवलको
판
क्याच
萝
कान्तिपुरमा
परिच
차
सिस्ने
कोटेश्वर
सम्वाद
सबैजसो
दलहरु
हाे
根
रिमाल
आगलागी
जनाइएको
बाबुआमा
##दछन्
##्ने
तपाईको
बारपा
कोलक
काँग्रेसको
##ر
बनि
नदीको
मर्ने
##सम्म
भंग
रोय
च्याम्पियनसिप
वचन
रेफ्र
सल्लाहकार
##घण्टा
操
थापा
पस्ने
权
##man
腳
बर्स
माम
अवमूल्य
दिंदै
##कमा
पठाउनु
रुपैयाँका
महेन्द्रनगर
##43
आन्त
प्रशासनमा
गर्दैछन्
##हीको
ґ
जनमत
सुरुमा
ȼ
##ामुक्त
त्रिशूली
##ers
कारवाही
हेरेर
ι
आँखा
फोट
यसअघि
抱
बागलुङको
बेहोरेको
झापाको
गित
##ӎ
धरहरा
##यमान
समयलाई
##िँदै
०६
⇨
較
바
विश्वविद्यालयले
छैठ
नक्कल
रहित
ヤ
बाघ
ẩ
विही
अमृत
##or
##मल
ả
ϖ
##ள
末
著
##शा
##वासीले
51
sa
कार्यले
झोलामा
협
कै
चियापान
##ura
कमर्स
严
##वल
भूकम्पका
##न्दुले
##û
##टेक
ụ
ɑ
##थो
जायज
झन्झट
सतह
सप्तको
समितिलाई
हम
吴
##केल
गाउँमै
४६
पाठ्यपुस्त
प्रश्नपत्र
͚
सार्वजानिक
擇
##चारिक
ਥ
अबका
भरी
逊
千
विप्ल
享
दो
ލ
आनन्द
चाहेर
सबैसँग
कुकुरले
##ूर्त
चट्ट
दाइजो
व
ʢ
धुलो
۔
भित्रै
दुःखद
चलाइरहेका
##णिक
टेबुल
쏄
##िजम
ھ
##पूर्
प्रतियोगिताबाट
스
##टमा
##४५
अकस्मा
٥
ៅ
##ổ
जागरुक
आगलागीबाट
वर
##जुले
ठेक्
भवनमा
欺
##र्नुपर्ने
लाठी
);
पशुपति
夺
ऍ
कोषबाट
अन्ततः
यामा
漢
##रक्षा
सभ
gov
शीर्षकमा
##याधीश
̋
हालसम्म
उपाध्यक्षमा
ह्याट्रिक
##ơ
##जस्ती
जिल्लाबाट
मुगु
परिमाणमा
##׎
प्रणालीका
##ો
डान्स
🆚
भदौमा
寺
汁
व्यापारीको
类
##ǡ
##۰
ݫ
केवल
कमिटीले
कुप
ट्रि
देखिन
##プ
उठाउनु
व्यक्त
शाही
संशोधनमा
८७
नम्बरमा
बेचेको
रिजालले
कोला
नपाउँदा
##ν
59
खोल्न
उ
डुबेर
마
अध्यक्षका
अष्ट्रेलियामा
##स्तरको
##िएँ
配
दिदीबहि
##ՙ
लिन्छन्
होला
माझ
सिटौलाले
आयातमा
उठ
हानेको
धुलिखेल
रोड
扩
वर्षमान
लाभ
संसद्मा
चमत्कार
##थोक
जिक
फिल्
शरीरका
खाल
सच्चा
##त्रामा
##न्डा
喍
##्यामा
सरकारमा
♦
महर्जन
स्टेट
यसैलाई
अभ्या
राजिनामा
विनाशकारी
स्तरोन्नति
ƣ
##ाना
सर्क
सावधानी
##🐍
स्टार
##򤨪
ल्याएर
छलफलका
शिवि
आफैँले
जनालाई
रिजर्भ
पारस
देखिन्थे
ů
सिटीले
##ङ्खला
##री
गोपी
जाउँ
हिंसात्मक
##ल्ड
##ү
##ter
चाहेमा
पहाडको
पुस्ता
बगाएको
समाचार
兄
स्याट
##ͽ
शहरी
##धनी
##す
फे
निराशा
##ौर
##र्दै
शून्य
##ाउको
##दु
##लगायतले
co
##ג
##ाइल
जिम्मेवारीमा
##쌶
能
##ᄋ
प्रशासन
겨
मतगण
युभेन्ट
सुदृ
##नर
आलट
समर्थ
साम्रा
मृतकका
॰
दौ
##ठमा
केसीको
खुलासा
##शंकर
डिफेन्डर
टिपर
🙂
##स्प
होस्ट
ब्ल
सर्वप्रथम
##आएका
नलिई
सोह्र
歷
षडयन्त्र
ր
##्रोल
जितेको
##क्रान्ति
माछापुच्छ्रे
##؟
शाखाका
जनसंख्याको
级
सम्भाव
क्यासिनो
##gle
##ाइ
议
##><
##െ
√
सपथ
##like
##ï
फ्र
मूख्य
पाइन्छ
💓
लेनिन
##エ
छैनौं
पिसाब
निर्णय
तिनीहरूलाई
सक्नेछ
##ीले
तामा
अधिग्रहण
पसेको
लाल
इप
允
वृद्ध
##बुवा
प्रिय
विश्वकपमा
庄
##उँदो
दम्प
आवश्यकतालाई
##ेनले
select
रुपियाँ
विशेषज्ञ
org
ब्याप
श्रेष्ठलाई
벃
सुन्दरी
##धमा
सोको
##ाउन
##∙
लक्षित
लगाए
##र्दो
废
कीर्ति
गरिदियो
राजपाले
सांके
जगेर्ना
निकै
language
wonder
##त्मिक
##किशोर
लगा
##ŝ
##खित
ȷ
##･
जरिवाना
##की
दायाँ
昭
आसन
सामेल
व्यक्तिहरू
##ध
जानकी
仅
कमाण्डर
丵
##â
भेटी
भागमा
झाले
विद्युतीय
##ܜ
चिसापानी
隢
ぴ
##ղ
तौल
ے
राष्ट्रसंघ
भत्ता
##नान
둇
शेर्पा
यात्र
जोड
##ۭ
भएमा
पाकि
kath
उसैले
क्रिस
जुध
कपको
बजारी
ְ
आक्रोशित
##क्षेत्रमा
जलेर
राजनीतिको
४५
ग्य
था
असी
पुग्छ
cl
भनिरहेका
أ
币
⦁
आयआर्जन
कम्प्युट
##र्जनमा
##प्प
##पालक
appe
गराउ
पढाइमा
।।
组
##ڻ
बदलिएको
阤
विशेषगरी
लगायो
ઝ
##ܿ
##ही
साथीले
語
##बद्ध
आएनन्
बेपत्ता
##,,,,
##न्दार
巻
खेला
##म्बन्धी
門
##ाँउ
नर्थ
अमेरिकाबाट
##पन
そ
񈌟
मोबाइल
##å
##🇪
पर्व
##ែ
october
##ww
down
खातुन
pr
हिड
##񘦈
‸
ｂ
विद्यमान
좋
##ݐ
चाहिन्छ
युट्युबमा
neta
ݝ
##ेव
ߴ
प्रसङ्ग
##चारी
मनि
हाफमा
##li
बाह्र
##ζ
रुचाएका
##ও
मिन
यदा
##हत्या
अद्या
भलिबल
##लै
२८
东
पोखरेललाई
ヶ
刻
尚
सरकारबीच
##۳
त्यसबाहेक
##दरको
अरि
##ूर
स्नातक
पाउने
गरको
kha
##너
##गाड
##डम्ब
with
ग्राहकहरुका
वेश
हाफ
भट्टले
##ेमा
##ਿ
##वाणी
##08
सीताराम
vo
##वर्ती
##ith
ޮ
अन्तरमा
徳
ན
गर्छ
सस्तोमा
उनीहरुको
चिहान
तथ्यांकअनुसार
अन्वेषण
महायज्ञ
भिक्ट
##ტ
߈
状
उपभोग्य
खेलाडीका
शव
पाकिस्तान
##mal
बर्मा
܌
##ด
भियतना
##वाज
पार्क
##वार्य
##क्रमित
##निधि
episode
कानूनी
खोजेका
जवाफ
रूपान्तरण
वु
##񩈔
निजको
परिचाल
शिल
फायर
इन्भेस्टमेन्ट
##ं
ڢ
गणना
भित्री
न्यूनतम
##܁
अर्बभन्दा
簡
👧
माउन्टेन
ޢ
##अनुकूल
脑
यात
गैरसरकारी
##ेश्व
घन्
चन्दन
प्रतिष्ठानको
##ǀ
##ڸ
ǹ
園
##पर
##लाग
नसकेकाले
迫
##लिटर
पुष्पलाल
चन्द्र
समक्ष
㥏
溼
४१
गिरावट
गरेनन्
黉
##दण्ड
श्र
महिनापछि
##͊
शाखामा
नमस्कार
अफ्
छोराको
लगाएकी
अरुलाई
हिम्म
가
##ac
लस
चुनिएका
लिड
տ
बराबरको
药
##मह
쿼
बीपी
जन्मिएका
निम्ता
##लगत्तै
##सेकम
जसमा
ΐ
बास
अलैंची
पालिका
प्रतियोगितामा
बिरुवा
मुटुरोग
मरेको
ɜ
व्यवहार
##ֽ
चीनलाई
सुकुम्बा
##ंश
難
则
झुप
성
##लेले
प्रतिवेदनको
स्पेनि
इन्जिन
">
काठमाडौँमा
23
महिनाका
रुपान्तरण
##ह्रो
ֿ
नेशनल
केहीबेर
लागिरहेको
क्षेत्रफल
हम्मे
updatefrequency
बजेटमा
व्यक्तित्व
##तै
निर्देशित
विधेयकको
䙥
赏
礴
भविष्यको
##िङ
##안
##इँ
खेतमा
बिम्स्टेक
सोलु
䓭
पहिरोको
##िएपछि
么
钟
凋
##बारेमा
##ालि
पर्वको
##शान्ति
आँधी
##ե
##협
जाँचबुझ
तौ
समारोहमा
कोठे
##क्री
##ङ्स
रोक्न
गि
पढेको
##बल
जुलुस
बहुसंख्यक
२०१६
पहाडी
अध्ययनको
־
##ɉ
##रामर्श
##el
थेग्न
उतै
त्यतिखेर
ऋष
छक्क
ो
##तित
##ाग्रस्त
बालबालिकाले
दलहरुबीच
हजारौं
##ियाले
##टिभ
##ƹ
##नका
ठम
😉
बाधक
सस्तो
##जीका
बढीको
प्राधिकरणमा
एकअर्का
ਈ
च्याले
लम
폿
##भियोग
##ʊ
##मोल
उन्मुख
भेडा
##ె
con
कराते
कसैसँग
गह
š
ल्यान्ड
बालकृष्ण
भ्याट
अढाई
##ekhabar
):
您
लाग्नु
ۺ
民
रेडियो
पद्मा
##ѩ
दिलाएका
##िएस
##पनिक
इस्लामिक
कित्ताका
रोज
苹
讦
information
##४
जोडे
प्रयत्न
परिक्षण
##धु
उत्प्रेर
##संँग
उठाएको
बुझिएको
घटाउने
बीमा
ठोक्क
##「
पाठ्यक्रम
आउ
समेटेको
छुट्याइएको
मतभेद
सिर्
सरकारबाट
ᤆ
為
字
दर्शकले
फलस्वरूप
जानकार
##۠
##अर्थ
弥
##§
नभ
मिनेट
ट्विटर
अच
##비
ɒ
दुर्गम
नेवा
सुब्बाले
आम्दान
लक्ष्मण
लत्ताकपडा
कार्यक्र
ƻ
सिट
राईलाई
उत्तरा
##सले
भला
च्याति
##मेल
ྷ
׸
अंकका
ओपन
मातहतका
प्रधानसेनापति
背
##ress
कोठामा
##विराम
नाट्य
काट्न
प्रत्येक
म्यानमार
ರ
कृ
##वती
who
दाङ
सुरक्षा
##ö
rss
may
वृ
व्यक्तिसँग
##횶
ʍ
खी
परम्परागत
परेन
154
码
##िरहँदा
##ल्नु
沢
##चन
सिद्धि
चारैतिर
धार
##🏾
维
ठकु
##औं
##पका
ho
##्
दशकअघि
मुसल
रहँदैन
㰶
源
आवको
##ाउँछन्
चलान
ㅎ
उपमहा
gen
purl
竭
##लाख
##ेयर
##वाला
सशक्त
स्याफ्र
नस
##हिंसा
##립
निश्चल
##परिणाम
##वादमा
##सकेको
निकासी
ჭ
##चको
冲
चलचित्रका
कोसी
दिएकाले
抑
प्रतिष्ठानले
मुख्यसचिव
##ɮ
##സ
भित्तामा
45
अलि
चल्
नगरपालिकालाई
प्रभावित
भएकामा
मिलेमतो
खिचा
wo
##िएमा
काठमाडौंका
स्म
all
चोक
महास
點
धनी
##デ
कमा
सरो
矿
细
त्यसयता
प्लान
आउनेछ
बहा
##ँदै
銢
अब्
##म्र
गायन
अलिअलि
नफ
जानेछ
भुइँ
भूगोल
विदेशमा
अयोग्य
विद्यार्थी
##डिङ
अतुल
स्थानीयको
天
18
독
结
अत्यावश्यक
उनलाई
##✉
च्याम्पियन्स
निकुञ्जका
थप्
映
##स्त्री
खुल्न
फेस्टिभ
बुद्धले
汇
पढ्ने
柱
वकाल
##स्ट्रो
##ʕ
टाई
फलफुल
##름
##나
फूट
बढाउने
काष्ठ
सोमबारदेखि
ब्वा
कुर्सी
आयोगले
।]]></
आकाश
##निको
भनिए
##ọ
मद्द
##विधान
अस्व
शेयरको
杂
嫲
ਚ
राजनितिक
हुनुपर्दछ
辰
पाइन
औषध
मिनेटमा
##नाथको
इन्द्रबहादुर
passion
जोस
##ियमा
नारायणकाजी
भनेर
控
एकै
नोक
सुनाएका
नेकपाले
नम्रता
##बिनै
г
##ƕ
ի
काठमाडौंले
बिन्दुमा
书
##߃
काँग
##10
##निङ
念
##66
##ല
##전
अपाङ्ग
विच
हाउ
प्रज्ञा
लगाउनुपर्छ
lsquo
महामन्त्री
饰
憨
रौतह
洒
भनें
漫
जनआ
ḿ
विज्ञप्ति
दोहोर्या
चित्त
कलकार
##ɟ
##ोले
##साले
55
विपरी
🇪
लाभदायक
२०७४
##ाराम
sports
यूरोप
ٱ
कबड्डी
हकहित
##वादन
대
गैंडा
उत्सा
##स्
चाडपर्व
copyright
हङकङ
परा
##वेदन
##႗
##ड्रिड
##न्तरित
##्योति
असं
वास्तविकता
##ीप
त्यहाँका
虽
##ʵ
##ۢ
पुगिन्
गर्नेछौं
बाधा
##ालीमा
ध्व
खेलाडीहरु
##ेवार
##पूर्वक
सहुलियत
राख्दा
एक्स्पो
आवश्यकताको
मानबहादुर
##ਵ
##ाउण्ड
額
ŏ
आभास
घण्ट
यसरी
सिन्धुपाल्चोकको
ಳ
##build
##तन्त्र
लगाएतका
也
व्यवहारीक
##no
दही
बिरा
दरका
अस्वी
##ഫ
##î
##गत
दर्ज
यात्रुको
ܘ
सवि
々
##क्वा
२०४६
云
कपाल
निर्णा
##कर्मीले
कलेजमा
畑
आइसकेपछि
प्रतिशतभन्दा
𽩒
कनेक्टिभि
##मेन्ट
मोटरसाइकलको
##शालामा
अध्यक्ष
लड्न
बन्देज
##द्वय
##द्द
फ्री
वताए
팬
बास्कोटाले
किबोर्डको
##͗
टुंग
साँस्कृतिक
唆
लगन
book
सुदृढीकरण
止
अपना
पसलमा
मनन
भण्डारीले
䗬
容
ǫ
##भाडा
기
##ণ
##포
website
五
बचाउन
ȳ
##ץ
ᄶ
अवसरका
दिल्लीमा
मलेसियाको
あ
俯
遠
बनेपछि
नपुगेको
##गु
ძ
अन्ज
सजा
##̩
ज्येष्ठ
を
लेन
##जसो
नरहरि
##गायत
##🎥
थपेको
##ﲥ
릎
٦
##गारी
요
🏏
खि
तिर
##घर
सटर
एक्ला
तीनवटा
##पाटन
तदारुक
##र्जन
ỷ
धना
ʭ
क्षेत्रमा
यसबाट
##à
[
##ना
ȿ
##출
मलको
स्थलमा
बोल्न
##जिट
रहनुपर्छ
विद्यार्थ
##lin
̹
बताएका
सञ्जय
頓
जाल
霍
विनय
बनेकी
प्रचलन
##गर्भ
靖
융
##임
पीडितले
☑
ट्रकमा
##՛
图
##स्टा
##♪
##pb
##दिप
ⷙ
१८
रामेछाप
तालिमको
२०७
पूर्ण
##भल
ओखर
feeling
##रहनुभएको
हुनु
नुवाकोट
हजारले
ქ
उद्योगमा
۹
आइओ
खबरले
भेटघाट
असन्तु
st
also
##ीकरण
##ာ
सम्पत्तिमा
##सन
##थिन्
\
साँचो
拱
##fre
횂
गिरि
भएका
ढोका
##खोर
स्था
信
##होरेको
बिस्तार
स्रोतका
##बिक
क्याट
⛹
##ाही
भएसँगै
गोर्खा
##नाको
गराउनुपर्ने
मुम्बई
रुचाउने
समुद्री
प्रदेशलाई
窝
निगमका
एक्लै
पुर्याउन
##तली
तामाको
पूर्णरूपमा
趋
मिथ
बिम
संव
6
पुनःनिर्माण
##ܸ
बहसमा
##शेर
##सेल
महासेठले
߹
##ѕ
राम्रै
हेरी
ม
निर्यातमा
चिस
साताभित्र
##ܶ
ݬ
四
साम्राज्य
類
सत्ताधारी
##신
गएर
कार्यकर्ताको
भागब
##कुद
##ꊒ
##णात्मक
अम
अस्पतालमा
दलहरूले
##जनक
##सकिएको
सेमिफाइनलमा
##ᄶ
तिहार
टहर
क्यामे
किसिमको
पस्न
प्रतिनिधिसभामा
##ुले
सक्षम
##रहेछ
समिर
鿎
राजमार्ग
ۚ
ठग
न्यौपा
लाग
##ީ
हौसला
ท
더
डिफे
##त्तिकै
##नेश्वर
जड
बिमान
हिन्द
##֦
४४
राउण्ड
ʰ
##पक
महेश
उपचारमा
उड्डयन
मालपोत
अस्वाभाविक
##ममा
गोरे
पहि
बितेको
उत्पादनमा
बीउ
כ
भ्रम
ۢ
लिलाम
निश्
探
肺
पठाएको
✍
##घि
२०१२
लिङ्ग
##ोष
स्मार्टफोन
प्रती
##सीले
ń
##सम्प
##ੌ
富
##न्म
झुट
##र्दन
##सुन
36
铜
गठबन्धन
गोल
शैलीको
औसतमा
仏
यिनलाई
सिड्
脱
##िट
इण्ड
हुम्ला
黄
ぬ
एनआरएनए
हैस
देख्नु
##त्ता
बुबाको
कलेजको
ย
चुनौ
मेला
身
लान
ग्राह
तिहारको
समानान्तर
चढेर
हेक्टर
##ᤒ
रुपन्देहीको
苗
##ϭ
##ण
͒
##int
&#
कार्यन्व
मागेर
##ޡ
संकल्प
ﻺ
वक्त
##র
पम्
##पनी
혐
बाहेक
酿
χ
##करणमा
อ
##ञ्चित
सातदो
word
बोट
रहने
विस्थापन
पिट
##֫
##रोधा
साने
गराउनु
यहीँ
संश
बुबाले
˱
ड्रेस
##ary
योजनालाई
ब्यब
##０
##न्त
灰
##ँडा
प्रदेशमा
अलिक
रायमाझ
ч
##=
ס
विम्ब
तपाईँ
२०६६
校
फर्म
##ुनी
oct
आँखामा
सांगी
सालको
आफन्तको
लिइने
गरेकोले
व्यापक
##녀
अन्धकार
कुश
आफन्तलाई
बाल्यकाल
रानाभा
हामीसँग
रहन
##टाका
楈
工
민
##ठामा
几
請
माद
ž
ڊ
आमाको
##ノ
नमिल्
रोकि
##ँगै
##ियसन
##ѝ
मुखबाट
##पा
##횂
बैशाख
बाह
मुचु
ޞ
ǘ
मुग्
खतिवडाले
##55
扑
##݀
न्यौपाने
💀
治
उनले
湛
बदल्ने
##न्स
ग्
आश्विन
##तिष्
##वाह
標
माधवकुमार
अष्ट्र
##डीको
沃
38
सम्बन्धि
ढङ्गले
हुनासाथ
ᤡ
ज्वाला
우
पाएको
͂
##레
दिए
महराले
于
后
ূ
रास
##राजले
than
world
संघ
एसियाले
⃣
भा
बताउँदै
##अन्तर्गत
घो
؍
##िता
आवत
आवश्यकताका
रचनात्मक
चैत
प्रतिस्पर्धाको
कोहल
##करको
धन्य
##ؔ
उछि
कास्य
चिकित्सकलाई
跟
लाङटाङ
##ब्ब
रवि
顧
चिन्त
नगर्ने
युएई
अनियमितता
☔
##जामा
##सकेपछि
पुर्याएर
##ction
걯
बाटोबाट
मिच
bata
ƞ
##बाही
अलग
तिनी
##तेर
चीनले
##ഘ
लोका
धुमधाम
##ΰ
sama
सुपरस्टार
ɯ
##09
##परिका
चिनीको
ن
##ʒ
##ਛ
##ऽ
बस्यो
शिशुको
नभएमा
按
💔
आन्दोल
x
दलित
##ारिक
ढल्क
दुन
##럽
गर्
##ौना
पतन
##फोर्ड
निजी
म्यादी
##लाप
प्रतिक्रिया
रकम
झण्ड
मौद्रिक
घूस
##ंगे
छल्न
सरा
##पार
##भरका
##समेत
増
एब
棚
##यरमा
लामिछानेको
अनौ
जनशक्ति
द्
सुई
मितिमा
##विधा
अस्मिता
ო
##ൻ
##र्गत
股
##nd
ờ
राणाले
무
##۵
रूसी
##ë
कामका
備
इटहरी
तनहुँको
֦
##̀
##ेजले
अग्रगामी
goo
पाल्
हत्
ℷ
##ۡ
##ोप
##𽲿
एनएम
जाँच
धमिलो
बताउनुभयो
लगायतले
##णमा
ひ
央
बंगलादेशको
體
लैङ्गिक
##پ
崽
सर्वो
स्थिति
˖
प्रत्यारोपण
सम्हाल्ने
सेनाले
##अल
उचाई
८८
सकिनेछ
atom
last
##צ
योगदान
ř
भइन
as
द्वन्द्वपीडित
⇒
बजेटबाट
름
सन्धि
ข
܂
_bl
##लागि
रेखा
68
गुणात्मक
##0cpbdg
छिनो
लाभा
अहिलेसम्मकै
कूट
प्रथम
##खुसी
##स्तो
comp
कुरी
况
ვ
仔
##ɷ
काम
भृ
者
育
气
##तेका
##ेसन
##जि
पाठकले
हमाल
सुनि
०७२
ϐ
विस्फोटक
त्रुटि
your
ٸ
##क्व
उम्म
मजदुर
राजसंस्था
😈
पशुपन्छ
लोकमान
राज्यको
堵
##वले
जर्मनीमा
ब्यक्ति
##होरो
चियाको
盛
कुष्ठ
ख्या
मान्यता
आजबाट
मानिएका
वनस्पति
साँझ
स्वाभि
बर्खा
##यद
हर्ष
ன
竟
##ං
외
मास्ट
स्ट
चान
मर्मत
दसैंको
साझेदार
नग
तस
##ईएको
##मित
चुनि
ú
प्रोड
निर्देशक
जगाउने
ޔ
असामा
उद्योगधन्दा
महत्वको
मोफ
advertisement
##न्थे
दबा
पुरुषको
भूभाग
सवै
खडका
##계
##स्न
डाक्टर
ल्याए
>
जनादेश
##हाल्छ
##ਜ਼
पृथ्व
##ߜ
##न्वित
ನ
##र्सले
सनातन
##केजी
##कुस
玄
राय
साताअघि
केटा
नपाए
##ाउदै
सामुन्ने
मुसिकोट
सेवासुविधा
퍦
प्रचल
मेलमिला
चिनिने
報
##लोजि
खाका
रवीन्द्र
题
बर्ख
̻
घण्टासम्म
सीमा
विज्ञ
पिडा
काठमाडौंस्थित
ˏ
संकल
ς
कर्मचारीहरु
##संस्कार
##वली
खेल्
sh
##hile
रोकेर
##स्पर्
##]]></
नागरिकता
##ꌍ
हालत
चढा
शोक
नाउँमा
당
##ꁝ
##दरवार
मुग्लिन
class
तिथि
सिंहदरबारमा
##웩
ҏ
वक्तव्यमा
वर्षलाई
विद
億
हालै
##ञ्जु
##が
लालबाबु
##ற
პ
गहिरो
लेख्छन्
##न्टर
##ྷ
गराइ
ۯ
निरि
नेताहरुको
गणित
##सका
##력
गठबन्धनलाई
डम्बर
तिनीहरू
छैटौँ
लघुवित्त
ۋ
मनाउने
सञ्चारमाध्यम
कम्तीमा
विद्यार्थीको
##वश्यक
😘
##र्वाद
沙
##्यता
颗
ਜ਼
हिजो
उनीहरूले
बेचबिखन
ɋ
##ӽ
संजाल
मन
##वार्ड
##ਟ
टिमका
खोलाको
वाग
##र्जामा
秀
कराँ
पख
ब्वाइज
##￥
har
आजभ
शुरुवात
बर्षा
火
爆
ड्राइ
##यात्री
चेत
सरि
चिल्
आश्च
ҷ
अनुगमनको
उत्पीडित
मान्
लुका
प्रदेशसभा
चिट
लगाउ
समकालीन
ǎ
##दिएपछि
छायाँ
सुरक्ष
##ڀ
और
##ய
ʆ
सुधार्न
एकीकृत
बढीले
##ha
##💀
尖
缩
प्रार्थना
##संख्यक
नामा
nb
ससाना
तन्ने
##sta
सञ्चारमाध्यममा
ہ
अपे
सभाले
कार्यसम्पादन
अपराधको
##दार
भर्खर
फर्
स्वार्थका
पठाई
##पो
ﾉ
क्षम
##सँंग
उल्लेख
जान्ने
आचार्यको
नियुक्तिका
माथिबाट
बेंसी
जाली
मुक्तक
##ӧ
ओहो
##िल
होल्ड
खत्रीको
##वेदना
सकिएपछि
हिँडेका
纪
आतंकवादी
सहभागि
version
¯
तामाङलाई
吹
七
ʀ
ऐश्वर्य
कोशिस
##ᤣ
बानेश्वर
德
##र्थ
दिव
观
##म्बर
##स्सी
छुट्ट
ब्याट
##करण
कार्यकर्तालाई
सुन्न
बेल्जियम
##सेको
हिँड्नु
इजलासमा
##र्द्ध
माइक्रो
हाल
主
41
कागजमा
भएदेखि
सह
साटासाट
वयस्क
##ala
सन्द
फाइनलमा
̸
㗦
डाय
नियन्त्रणको
##¿
बनाएर
काँचो
छुन
लुकेर
析
称
##ᎆ
ß
##ar
पेटमा
ग्रा
शिलान्यास
ͥ
पहिले
मधुमे
𽩞
टेलिभिजनमा
व्यब
हरिक
역
a8
दीपिका
tra
general
सेल
पोखे
च्याउ
कता
मुन
....
रोयल
##ढाई
##्लेटिको
ठू
प्रविधि
¦
##दृष्टि
आयर
मिडियामा
पदा
##लेट
आमालाई
㣁
कार्यको
##िक्क
##पीएल
कट्ट
सत्तापक्ष
##ाल्न
पूर्वाधारमा
दूधको
जोड्दा
次
##quency
##었
दशमलब
##टीले
##에
魅
##띱
na
स्वराज
विकल्पको
तराईको
सुजाता
銭
적
पक्ष
सिकाएको
##शल
ख़
##ډ
##ल्ली
तुरुन्तै
तुलसी
दाँ
##ेणी
मम
জ
खोस
?,
̔
##त्तीको
पन्तको
##िले
##कालको
अन्त्यका
उदय
घुम
没
##न्यास
भाइटीका
नगरेका
##ःख
भुप
वृद्धाश्रम
ួ
पृथ्वीमा
##ვ
渔
##र्सको
प्रबन्धक
##ת
##״
nove
असुल
##al
टाइब्रेक
साग
मुख्यमन्त्री
##म्य
वार्ताका
कार्यान्वय
कार्य
लगाएर
सुशीला
##절
गौरा
महोत्त
उसका
धेरैलाई
मुलुकले
सिधा
##टि
##लाउ
保
पदाधिकारीको
सोमबार
तिहाइको
मालपो
माह
竳
उतारचढाव
गएका
##दि
수
##+%
विश्वव्यापी
宋
install
##संगत
गतेबाट
दुईपटक
##ӄ
昼
##टाएका
व्यवस्थापनले
有
##ʪ
ज्योति
प्रतिलिटर
##󠅌
होटलको
##⃣
##्राम
電
##𯪰
##έ
##राउने
##त्ते
केपी
सुहाउँदो
##៌
सुस्त
었
सुरक्षाका
भनी
इमेल
सक्दछ
आवि
तीमध्ये
तिनीहरूको
こ
real
##शनल
温
साक्षात्कार
सजाय
##ंगु
२०४७
##ộ
चिच्या
##त्तर
आयोजनाबाट
मिना
त्यतै
पुलिसका
मेशिन
str
सभा
गराइने
यौनिक
##दिएको
ں
चौ
बनेको
आन्दोलनका
उद्योगले
गर्नुहोला
कान
गर्नेको
डिएसपी
बता
去
स्पाइ
临
आजसम्म
##ó
包
भरि
राष्ट्र
副
##िंगलाई
अर्कोतिर
确
ダ
##ure
##कृष्ण
इतिहासले
सघाउने
д
प्यु
प्रश
बस्दा
फर्किने
फा
支
हेटौँ
##으
[MASK]
##ヨ
छेउछाउ
##सराइ
राजमार्गअन्तर्गत
[<
विद्यालयलाई
##ill
##वधिक
##उँछौं
इच्छा
pani
भ्रष्टाचार
ক
बोक्ने
☀
बिश्वास
##˷
प्रतिक
##ȟ
नआएको
प्रतिनिधिसभाका
लेखेको
सँ
सांकेतिक
bar
कानून
अवधारण
गई
ji
##वेश
ꣳ
january
ï
##શ
##ჯ
टोटेन
निच
##३
पछि
捷
मोडलमा
##गायतका
##माल
##र्वेद
शक्तिका
प्रेमिका
स्टल
哩
##िल्ली
rijal
इकाइ
व्यवसायमा
तस्विर
往
गुम्बा
##ाउँछौं
##운
##ٕ
चाहनुहुन्छ
##राम
सांसदहरुले
##ľ
🎤
##ｏ
##होर
जनप्रति
निवेदन
भित्रभित्रै
##͂
प्रशा
एमए
सहभागी
अनुभवले
आउँदो
सहित
##न्ड
ऐश्व
महत
हावापानी
मुखिया
कोरियाले
##िच
are
ɵ
ट्वा
कार्यक्रमलाई
पोर्चुगल
पाइयो
欥
कित्ताकाट
विभागका
खुट्टामा
राख्छ
गुजारा
##ण्
##ู
##ા
कहिलेकाहीं
憎
११०
मेसे
अपा
##चीन
समाधानको
箱
वाध्य
पूर्वको
१९९
आत्मसम
ޗ
करिव
नवलपरा
##कुवा
##ताका
पीडित
पर्थ
रेस्ट
गोविन्द
समझदारी
##む
शनिबार
ٕ
##ency
धाम
##सित
##av
न्याय
प्राप्तिका
͘
जुवा
मनाइँदैछ
†
圳
एयर
सुरुङमार्ग
बोकेका
गफ
##ƃ
किर
कारोबारी
धामीले
अधिनायक
##सरको
##ence
##ल्दार
चन्द्रागि
पाइलट
राजधानी
׫
##पञ्च
##˼
बचत
޹
नबना
गौतमले
०५
उनीहरुका
विदेश
十
士
ݕ
浪
आपूर्
##जुङ
##बासीको
क्षेत्रले
भोलि
##ƴ
##ेँ
޷
चलिरहेका
##ڦ
卓
पार्न
##ढ़
##मानित
अत्याचार
आउँदै
परिषदको
番
[CLS]
##ित्व
¤
##٧
##क्नु
ƒ
विकासमन्त्री
एक्कासी
##ǘ
इलेक्ट
निर्णयमा
junu
मध्यपहाडी
हेलिकप्टरमा
वर्क
##ⱦ
हेत
पुर्ण
##कस्
बन्
सुनचाँदी
##स्तरबाट
##ನ
करिडोर
बेलुका
बैदेशिक
स्याङ्जा
कारागारमा
चाँ
##ჭ
तदार
पानीमा
振
除
कलाकारहरु
सहरी
दर्जनौं
एम्ब
఼
##elf
रुपैयाँमा
सिरियाली
अचम्मको
खाल्डा
##द्धान्तिक
##ॢ
##ฉ
उत्साही
खोर
नाच
बासिन्दाको
纳
抬
सापकोटाले
आत्मसात
अमेरिकाको
उडेको
##एच
##՜
जित्दै
जेब्रा
்
##ൾ
गरेकी
誕
भइरहेकाले
##료
मल्ट
कले
जाँगर
एकजुट
परेपछि
##्ध
मोरङको
प्रयोगकर्तालाई
एसियामा
बबर
आजभोलि
ۣ
नेसनल
कृषिजन्य
int
食
##83
रुकुम
रुपैयाँले
##ोज
鱠
ऋणमा
##ाचार
जसको
आएर
रसिया
兔
विवेकशील
舒
उद्ध
समि
पुर्याउँछ
##ป
##वास्ता
儯
सङ्घीयता
अतः
अधिकारीहरुले
##ວ
छाड्न
पदम
पैठारी
छेउ
झल्को
占
महँगो
₹
এ
−
उपाय
औषधिको
जसले
ர
सोचको
於
बन्ने
महँगा
माघे
खटाउने
मोही
प्यासिफिक
拥
펒
स्टाफ
စ
##फाँ
简
शर्माले
महिलालाई
जिल्लाकै
सोचले
क्षेत्रिय
##ङ्ग्र
उत्साह
त्यागेर
撰
गण्डक
उमेरमा
बाध
पुनरावेदन
बिग
हेल्प
अक्
ढाँच
सहयोगका
फोरमको
संगीता
चुम
पप्पु
##हाली
दम
݃
ꗿ
गुलरिया
##ؑ
ڬ
बाटा
शुक्रबारदेखि
##ធ
ǩ
ె
गोष्ठ
बढाइने
４
##पोख
उहिले
भिट
ट्यु
３
सहकारीका
८
##म्स्टेक
##ature
बचा
##बेला
##호
३०
##र्फत्
##nu
भिक्षु
सम्पर्
आइपुगेका
चिरा
टोलका
खाडी
संरक्षित
很
後
##ak
##वाकोटी
अरब
बाजुरा
##em
##नेश्व
नामकरण
वालिङ
##योजना
अलोक
काठमाडौं
संविधानसभाको
त्
विक
निरीक्षण
पौडेलका
साधनको
अमेरिकालाई
##क्सले
븳
केक
सार्क
गाँउपालिका
पक्कै
ശ
टोलीलाई
##ശ
उसैको
बाघको
विधान
##j
捞
दिँदा
भाग्य
酸
मद्दतमा
राउत
˞
##52
खोज्नु
मौलाएको
##🇾
##हरा
##β
##टा
समाजले
》
भइसकेका
##ies
٣
कँडेल
फाइदाजनक
श्रीमतीको
ओ
ห
##िमेट
बेग
##अनु
संघर्षमा
##ौता
गिटी
टोप
თ
मिठ
##कर्षमा
##चेको
ߔ
विकासे
हुन्थ्यो
監
͵
##बजार
ग्लो
चिनिन्छ
लक्ष्यसहित
ब्रिज
임
भर
##03
##ڎ
निरंकुश
भय
महासंघको
す
##ङ्कन
मान्छन्
##򡔖
臣
रित्तो
˗
बिजु
##॔
栽
े
ۏ
뺧
##र्डले
स्वच्छता
सार्वजनिक
बनाउँछ
नगरको
सानै
detail
मनको
##и
बंगलादेशमा
डोजर
रो
प्रतिक्षा
##िन्छ
नरेन्द्र
नियन्त्रणमा
गरौ
##क्ला
##ing
##भिक
ʷ
प्लस
##긝
ੀ
હ
देखेको
बद
साथमा
जंगलको
も
अनुस
##ن
##मार्ग
##र्नु
बोर्डको
##ب
##ڐ
एफ
घटेको
##브
पोखराका
##ứ
महाशाखाको
society
ứ
##ࢎ
सधैं
उत्तेज
क्षतिग्रस्त
##यो
अदृश्य
बच्न
शाखा
माझी
सम्बद्ध
स्थानीयलाई
किसानलाई
जोडिएर
बगर
लिभरपुलले
怪
de
##խ
पूरै
बाँदर
नंको
##ज्दा
स्वास्थ्यमन्त्री
##쏄
##ंस
̢
भन्दैमा
भिडियोका
##ालका
शङ्का
कंग्रेस
##झदारी
बागलु
ظ
नृ
档
उरुग्व
टू
##वानीको
साँघ
##याले
एशिया
##वहन
परिवर्तनलाई
企
##खाना
##ǃ
##न्छ
##😒
कार्यालयमा
स्पष्ट
##इसकेको
मूर्ख
##۴
盂
केन्द्रलाई
अद्
गर्दा
##कै
##ृंख
ϊ
हाँस
閉
##दरबार
体
戶
अग
ۥ
##खुवा
डडेल्धु
##स्यौ
ݰ
##ओस्
गैं
पत्र
सुनौलो
있
##̝
##ষ
खुल्ने
तर्
प्रवासी
कतिको
भेटिएपछि
##݋
पाका
फ्रान्समा
##सिल
हेरचाह
अगाड
纠
##ब्ज
भुटान
गुना
직
##ेडी
49
गीतले
插
फैलाउने
धनगढीमा
##»
देशकै
फाउन्डेसन
锦
##er
लुम्बिनीमा
ਉ
й
##िमै
एकदमै
एथ
सहयोगको
प्रचारमा
##गड
ۛ
ഥ
ހ
एकजना
गैरका
बहुम
परिसू
##ारीले
ʯ
辨
घरलाई
बुढाथोकी
##सुर
धु
##ｍ
भब्य
युवायु
##വ
ݚ
बाँकी
१२५
##ƀ
क्रसर
चौला
गएपछि
जोशीलाई
सकेनन्
##नाले
##ंकन
इन्दि
स्पर्धामा
😏
yest
##द्योग
##ᤪ
䯻
##सम्मको
知
##bl
रोह
##शाही
##ire
दाब
अध्य
##थ
गाई
घुल
अन्त्यमा
कम्यु
मोदीको
欠
😍
##¡
##दिन्छन्
몸
बाद
ന
##दिन
##ク
##݌
काला
##्यारा
दर्शन
हार
皱
육
download
भनेकै
##्वाइन्ट
32
अवधिका
舗
##͈
##ीकरणको
रिलिज
##लिया
##—
only
सेयरमा
##ाउनुपर्ने
राहतको
담
गंगा
##ank
##확
##ڶ
अमेर
बलिङ
घरहरू
थोक
##रीय
##ह्र
##ù
##वेयर
उपयुक्त
जलविद्यु
##آ
धन
घा
गइ
##url
दलहरुले
偏
गरिसक
##ં
सदनमा
डेम
विराटनगरका
##िएका
कमि
悷
##त्रिम
##톤
भनाई
щ
ट्याक्सी
अभ्यस्त
गुम
सचिवले
मुलुकभर
80
##माद
街
##जार
27
प्रतियोगी
कार्यक्रमअन्तर्गत
##्हान
सदस्यता
運
##ߣ
तीजको
ǥ
ओझा
स्तरका
अबदेखि
शनि
巨
कविताको
제
甆
ｰ
##ard
##न्द्व
बुझेको
क्लास
釚
##۬
##िकको
प्रदेशसभाको
नारायणी
बेरु
##िएर
पार्दा
ọ
##😜
महशु
पश्चिमा
भूल
प्रेममा
सुक
बस
##ेनी
ӓ
##जे
भरत
##ڳ
सामना
##द्धा
गठनका
गरग
जातिको
डल
तर्स
धर
जोडीलाई
9c
निकट
##퓄
राइन
བ
नाफा
एसि
ϼ
##🏿
##िया
कम्
##og
क्याप्चामा
बर्दिया
सूर्यो
ty
हरिवंश
அ
##ियौं
϶
थाल्
धरापमा
क्लिनिक
ぃ
鲾
लिई
##फोनमा
##पाट
feat
मौसममा
जोडेका
ﻘ
##ाल्
हु
##विरोध
उपक्षेत्रीय
विगतदेखि
विपद्
इन्सट्यान्ट
बडो
醋
शेख
govern
एजुक
उत्रिएको
##भाग
##🎊
aug
गाली
कान्ति
गोप्य
सुर्ती
##ấ
ʱ
や
बाबजुद
잠
पोल्
रह
ڸ
pain
लागेको
##्लाद
क्यापिट
##չ
अहिलेको
उद्दार
ҿ
奣
अश
ऋषि
सहकारीले
##ｇ
सुनसान
उमेरले
सक्नुपर्छ
जब
##ǁ
वर्गलाई
载
सोचे
##76
हुनैपर्छ
。
अप्रत्यक्ष
its
恐
असहमति
बित्तिकै
##्याउ
समाजसेवा
इश
फर
परनिर्भर
देवी
देखिएपछि
##ैध
सदरमु
भिक्ष
माल
##नेश
##ङ्क
अंकले
खानको
अंकको
##ϣ
##नन्
म्यासेज
##गेज
कम्पनीबाट
##ुर
अनुवाद
१९६
२०३०
बादी
##स्केट
##֔
उनीहरुलाई
动
##±
##साङ
##र्ना
गर्दिन
隆
सू
##®
कथालाई
व्यक्तिहरूको
सर्वसम्म
ҽ
राज्यसत्ता
⺈
एनआर
भुक
ծ
##ĸ
##ভ
योग
დ
##लाङ
सुन
विश्वमा
थलो
यथार्थमा
मिस्टर
पुस्तकको
##ंगलो
परिभाषित
छाक
##क्षामन्त्री
सच
##ط
लुम्ब
संगीतको
बसेकी
हान्ने
कारबाहीका
संस्थागत
##के
##ाध्यक्ष
इन्स्टाग्राम
##킸
छानो
जाना
वो
फोरम
बिर
##ԑ
घुलमिल
रहेकै
ន
आइतवार
गरेकोमा
॥
歉
ԃ
अवस्थाको
猜
『
20190
私
##є
##ert
अर्काको
क्वाल
労
ล
ｈ
जनवादी
ｔ
अस्तित्वमा
🇵
le
ܕ
मैन
##ँदे
߮
अतिक्रमण
##ld
##प्रेम
䢕
निज
##पार्क
փ
麺
एजेण्डा
छेड
之
डरलाग्दो
परिश्रम
##ۏ
催
##वटा
##सकेका
गस्ती
##ˁ
गर्नेछन्
काममा
竿
गर्छु
समेट्न
##맗
##👍
u3
##й
##ला
पिटर
इन
गलत
将
प्रिम
करियर
पहिलेको
㧌
##ǳ
ˀ
##शुल्क
टोखा
नेम्वाङ
पार्टीको
भोलिप
造
लाखसम्म
प्रसाई
केरा
बुढाले
療
इतिहास
##नीले
브
फाल्ने
觀
स्टे
晴
त्रिपाठ
##iz
बिजेता
मस्र्या
र्याल
रैछ
##झैँ
भाग्ने
##오
दुर्ग
ۿ
蓝
पंक्ति
देखिने
प्रतीक
सांसदहरु
१९७
बढेर
हेर्दै
आल
छाना
##28
नेताहरुले
राजश्व
ۖ
खालका
विस
ñ
##ेनमा
पाठे
लाइभ
##विद
बढ्नु
मोर्चाको
##ガ
精
धेरैको
महारा
მ
🇾
नेपालीलाई
##डामणि
मैनाली
बहालवाला
##dat
जोडिन
ज्ञवालीले
##टेन
剧
एवं
सबैमा
🌺
小
नख
##ڝ
g
##न्टा
सुनाउँदै
सभामुखले
सुनिल
अध्यादेश
हेटौं
सहकार्यमा
कार्यक्रमका
##ल्दै
##ौड
##ब्ल
ɣ
##ारि
माग्दा
ろ
वय
आध्या
##जीकरण
述
廣
नच
##¯
##:
सजग
ɭ
लिँदा
सच्याउन
क्रमिक
##वस्था
घरमा
ۧ
वाह
बाँसको
सावित
青
##भाग्य
सिर
賞
छान्न
ਹ
प्रेरित
т
ੜ
##ईं
लाग्दैन
员
बिति
の
५८
चाहन्छौं
##ञ्चोक
##ळ
इराक
कतारमा
कसैको
न्यायको
पुनर्संरचना
किन
samacharpatra
説
हत्या
सक्दैन
रंगको
##कात्मक
होस
बर्दियाको
स्वयंले
मोज
अनुराग
bf
ननि
संजय
ভ
पालना
दाउरा
विद्यालयबाट
एकातर्फ
उत्सुक
सेकेन्डमा
я
पौड
वीरेन्द्रनगर
खेप्
शरणा
फ्रिज
स्वयं
䢩
गठबन्धनको
मंगल
रोक्नु
पारा
लापर
##wa
पाइन्
भातृ
會
ѿ
अफिसमा
काउन्सिल
शाखाले
केन्द्रको
##त्वा
ba
गरियोस्
सचिवालय
बिष
साधारणसभा
छ्या
हाम्रोमा
गरिदि
آ
युवतीले
##र्के
भनौं
मझ
वर्षदेखि
##ٜ
२७
残
##ݞ
##कर्ताले
ش
काफ
अन्दा
審
##बुङ
幽
उपलक्ष्यमा
बिगार
##ィ
भट्टराईलाई
दौडमा
##ैदेखि
凄
平
郡
नगर्दा
विद्यालयको
##फो
fa
##्याउने
##닝
绘
宝
##िकन
##वमा
ज
भूकम्पपीडित
##िङ्ग
घर्त
##वासी
need
क्याफे
##वरले
२५
ิ
एसएस
मेस्सी
शिक्षिका
호
##लील
रातिको
##ple
लेखनाथ
偷
始
कुलेखानी
諚
##धीन
शिशिर
तिब्र
प्रमोद
™
##क्षामा
माध्यम
कसो
##छा
फार्म
साथीहरूले
##वि
正
च्यार
c
14
##അ
膨
सिक्का
##टाङ
격
निकालेको
吧
राजीव
他
##क्य
संयुक्त
विजेताले
टेबल
बस्त
##उत्तर
प्रतिनिधिसभा
because
##남
तपाईलाई
भ्रमण
सुशील
कालीमाटी
क्वाटर
尔
गर्नाले
टिमले
गुरुङले
नामाकरण
म्यानचेष्टर
संकु
होईन
##सु
सहजै
烈
उत्प
भेने
तिमी
這
समुचित
अलआउट
된
मर्यादित
効
मन्
罩
नभइ
##ۘ
घाइ
गन्तव्यको
यिनका
गौरी
ओहोरदोहोर
पढाई
ڴ
##िब
सामान्य
सातै
##ニ
स्क
##॒
खप्तड
##जना
गाउँले
##ع
che
चिउ
जरा
ឹ
##̷
बहुराष्ट्रिय
🏻
##ґ
वनले
प्रान्तमा
गाएका
##िका
नेस
जनताप्रति
गर्नुपर्छ
tw
गीतमा
##교
##कालागि
बढाउँदै
##ञ्च
う
##ֱ
शिर्ष
साटो
##लिँदै
पर्चा
##्ल
##ٲ
ེ
सांसदहरूले
तहबाट
साहित्यको
##ź
छुटेका
इजराय
##mi
ܜ
उपन्या
##ताल
ये
फस्
ഡ
दिनेछ
कुना
पितृसत्ता
रोपाइँ
##कार्ड
设
मोडल
छुने
नेट
राणाको
गहिराइ
बिक्रेता
##पु
चन्द
ศ
रिसोर्ट
##दछ
सक्नुपर्ने
कृष्णप्रसाद
##धुर
पानीले
साँच्चिकै
##܋
##लाही
##ाली
김
##कपुर
##ञ्चल
##ेसो
औसत
बिदेस
कृष्णबहादुर
महतले
लक्ष्यमा
확
杠
बुलेट
##ns
##बिन्दु
##मिता
एमाओ
मणि
स्ट्राइकर
गर्दाग
##्द
span
总
प्राथ
बैठकको
午
ල
##प्रश्वास
एकताको
हेर्ने
कम्पनीमा
पासव
सेवाप्र
अभावका
妙
that
##ַ
##कलाई
##सस
हिँ
##यती
चलि
##व
##🏦
##ȫ
यसमध्ये
नलागेको
鏏
बोल्नु
##एन
39
मोति
सुरुवाल
स्कुट
跤
##एफए
##िसन
जडिब
पिर
वास्तवमा
नियोग
पाउँदै
संगठनका
😙
कसै
update
आठ
弾
⨯
ܛ
एकीकरणको
स्वीकार्य
ʑ
खतरनाक
##ȭ
हाँ
शायद
एयरलाइ
समानताको
उपम
भनिएका
ੈ
##😰
##्यालले
प्रयासले
स्मिथ
##ܩ
##पालीका
गिद्ध
गरेअनुसार
薪
##िरह्यो
हुु
राजपत्र
##ず
बलिउडमा
##н
̇
जन्मि
बोलपत्र
अझै
##द्दा
रामजी
सकिन
큉
setting
伤
story
चौथा
छायाँकन
##समक्ष
##स्तोल
चोकमा
मट्ट
हृ
##नो
院
प्रक्रियामा
पाएकोमा
鵗
허
खनेर
निवास
परिवारसँग
ਫ
महरा
भेटिने
勇
रहेछ
##գ
लिए
वार्षिक
䙑
भैरहवामा
झाडाप
data
सर्जक
march
लोकतन्त्रमा
गोपाल
ⲣ
am
扒
잘
##नुपर्छ
##प्रेर
##→
##ङ्गे
अन्र्त
京
कार्यकारी
मान्न
कमिटीका
##ूर्ति
रूपले
बाहिरको
files
नहुँदा
践
गरिरहने
मागमा
आचार्य
सेता
सकुशल
##एका
##ắ
噼
表
सुने
拆
##ޅ
धूवाँ
नर्भिक
सेयरको
tar
अस्प
कसरत
खेलहरु
छैन
धौलागि
सरस्वती
सुक्
स्थल
स्वरोजगार
愁
कुर्सीमा
##लाग्
बीआरआई
##agarmatha
मिडफिल्
##र्
40
##ore
फ्रेन्ड
円
##vt
मनाउन
##राब
पूर्वानु
खिच
करार
ำ
##к
फोक
##ङग
regional
ߣ
बस्थे
साहसिक
बलर
छोराछोरी
क्लो
ઇ
##्रि
ચ
शम्भु
һ
ѕ
उद्देश्यले
##ެ
##र्चामा
तिनको
बनाइदिएको
##औष
##देव
जर्मनीको
राउतले
##जारी
##ԅ
पोखर
बिर्स
भोटेको
सेमि
##मीको
तिब्ब
mo
जर्ज
खोल्
##ʗ
ഐ
🙊
बेलायत
##ख्या
अन्तर्वार्ता
##वरी
संरक्षणमा
अध्यय
संस्थाहरू
##̺
ừ
विद्युत्को
मरु
दिवसमा
श्रीलंकामा
सर्ट
साई
नसकिएको
गाउँकै
थाल्नु
运
##ߠ
कालोपत्र
##֣
उपराष्ट्रपति
लैजा
篷
करीब
##즣
⛭
##🏻
##eperiod
##load
लखेट
##}
निधि
p
नाई
प्रतिनिधी
सफलताको
रत्न
उपाधिका
सुजा
##रमा
##ुपयोग
विक्रम
मुलुकका
मौ
遭
प्रतिदिन
師
अन्तरवार्ता
##휴
इमिर
खोलिएको
प्रणालीमा
व्रत
प्रतिनिधिमण्ड
जव
तिम्
冠
##पेश
##ƙ
तालको
नेताहरु
भुल
働
##ँु
##چ
##हिता
सभामा
##ʛ
ഞ
័
揎
मोहम्मद
ɬ
##लैया
महिला
क्रान्तिको
उपन्यासमा
##😃
##लाएको
उठेका
恒
##ured
गाउँदै
फोक्सो
ឬ
ҵ
पाउनेछ
##मञ्च
दिदी
तात्
पहिरोमा
##इएका
##pa
लिस्ट
##जीलाई
पप
##ĺ
##ort
8c
##ंँ
november
##ݤ
संयोजकत्वमा
फेब्रुअ
ԋ
に
किन्ने
##さ
किसानको
खेलेको
̡
वादी
दु
हुवा
盧
##ालगायतका
##तीको
挝
शीतल
##उदै
सरकारविरुद्ध
उद्योगबाट
##ߎ
##ậ
धनुषा
मनाइने
##हुन्न
स्क्रि
भारतका
##स्कृति
तन्त्र
ỳ
dep
निर्वाचन
##ි
दीक्षा
및
##साय
恨
##abasi
##फार
ﭧ
दुख्ने
उत्खनन्
महासेठ
दुध
##त्त्विक
साधु
स्थिर
आफूभन्दा
तथ्य
टोक
रिय
b7
अदालतमा
पक्का
gu
शासनको
डेब्यु
युवतीलाई
##12
समीर
👌
एन्ड
स्वदेशी
सीटी
मतलब
##थली
##y
बुल
नीतिमा
##ऍ
क्लब
लोकसभा
##ы
##श्मी
e2
##ˮ
##म्ब
अष्ट्रेलिया
बुटवलमा
##हरुख
縔
क्रेडिट
底
यातायात
##ܪ
भद्रकाली
난
##निर्माण
##シ
मल
##चर्च
नपरेको
मान्नुपर्छ
व्यवस्थामा
प्रहरीका
##षेक
##ḿ
टेक्नोलोजी
ⶬ
닩
##पाका
##बहादुरले
माफिया
सञ्चय
बाढीपहिरो
युनियन
रोमान्टिक
##খ
##อ
रेफ
޴
अडि
भविष्यका
सत्ताको
ँ
आँ
捊
स्वार्थमा
sim
एक्का
२५०
ð
बजेटका
##हित्य
##ჩ
उप्रेत
क्षमताका
##ाधिकार
नामले
##73
बोले
कुनैपनि
लिग
व्यावसाय
कप्त
##संर
उपप्रधानमन्त्री
##ๆ
##स्ट
संघीय
ô
धारणा
माता
##una
##चोटि
##स्तर
भारततर्फ
া
드
गोष्ठी
मिला
##ｫ
##31
ja
##🇩
संकलनमा
।...
ȓ
🕸
सुख्खा
विश्वविद्यालयको
##किलो
आफ
फिज
संविधानलाई
समाचारपत्र
##्थ्यो
विश्व
भूमि
##por
##स्वी
##ोसिएसन
20180
गा
तामाकोशी
दिनरात
प्रकृया
बिदा
भन्नाले
モ
चौधरीले
唔
##ޛ
सक्छौं
轩
हुन्न
##स्त
पत्रकारले
सिनेमाको
भेटघाटमा
##จ
महाधिवेशन
##ध्या
टाँस
विधेयकले
साइटमा
पस
섯
उत्सुकता
खरानी
स्क्र
##ᤷ
आउट
##ȕ
ꍱ
##̻
##연
अधिवक्ता
जनजीवन
छिरिङ
दिएन
व्यहो
सप्तरीका
##į
签
##भूमि
राप्रपाका
डेब
##पश्चिमाञ्चल
अभिषेक
उठ्यो
एजेन्स
##जाने
̒
दाउमा
गिराव
वर्चस्व
पे
विश
桌
हस्पिटल
##निर्म
राइट
नआए
बोरा
महानगरपालिकाका
केशव
##स्कर
कलकारखाना
reserved
काले
आइपुगेको
भेटियो
द्रुत
हेयर
उपर
एपीएफले
बढोत्त
अपनत्व
खरिद
##입
##आर
यिनले
फिल्मी
भएलगत्तै
##र्भिक
अनुबन्ध
डोल्
##वैधानिक
##भेद
##성
निरुप
उनैले
कम्पनीको
चामलको
मर्यादा
लगाइने
सुस्ता
शाहले
点
##페
खण्डमा
व्यावहारिक
लिंग
ذ
񘦈
नवलपरासीको
##निकी
कुरु
भूभागमा
सिर्जित
माइ
ؿ
并
관
परम्पर
अटोमो
बहु
宿
मठ
##बीको
फलदायी
##ागत
स्क्रिन
ѥ
लेख्दै
पत्नी
बिस्
##ᤧ
##ક
सिद्धान्त
##तः
##ｋ
निर्मा
कर्मचारीहरुले
दुर्
सुरुदेखि
रुवा
##জ
##ɬ
##ॐ
10
##ږ
8f
छिर्ने
कूटनीति
҇
ʣ
##क्ट
सङ्कलन
##भु
गएकी
निस्
भाउ
अल्ट
३४
㽾
सर्वसाधारण
वडाको
뀐
आफ्नी
खेप
रोग
घुस
##वान्
##ফ
शुभेच्छुक
##्यौं
ʠ
##ल्लु
##ማ
चलिरहेको
भीर
शहिद
परीक्षाको
ĉ
बोल
沖
##्युब
अधिकारका
満
निर्धारित
##탂
152
कार्यालयले
निर्वा
##वात
##򝠊
भूमिमा
प्रशासनले
##ཏ
##͠
गर्नुहोस
वाग्मती
तस्तै
म्याग
गतेसम्म
ꚁ
¹
श्रवण
ಣ
खाएर
橋
सला
फैस
驾
率
竞
६
भ्यान
योगेश
भोगिरहेका
रोजगारमा
सङ्क
014227212
किनभने
मिसाएर
and
##ﴽ
ឯ
चोरी
##्छन्
ल्याइने
bo
陰
##ད
युवाहरुलाई
अदृ
ट्रेड
पद्धति
मस्र्याङ्दी
壤
##ेलु
सदस्य
बगाएर
प्रोत्साहन
आरु
संस्थालाई
बालब
##ਦ
घि
सिमाना
##दिँदा
##जीत
उपभोक्ताको
थाइल्यान्ड
##बाबु
ऩ
गणतन्त्र
ट्यांक
मेरो
घटनाबारे
##63
##चौकी
##ڴ
नाइ
क्याब
प्याले
सिमेन्टको
##हीँ
##ेनन्
प्रदेशका
रिपोर्टिङ
##गुन
޳
कोठाको
रहेका
व्यापारीलाई
आउँदा
देखाइ
##amro
झम
मिठा
##ning
##ित
碍
उखान
गावि
##😐
धम्की
##तिकै
##ŉ
दरबारमार्ग
強
नदिन
腾
뷶
வ
जर
ꭝ
उत्पादनमूलक
सुखद
कमै
लाय
써
सामानको
रोक्ने
##थेरा
राकेश
ߞ
डुंगा
##हस
चलाउ
अभिने
##ص
##क्टर
##िति
प्रश्नमा
‚
葬
बै
उपे
गुहार
तबसम्म
अन्यौल
सोचेको
सन्तोषजनक
##किल
##पती
मख
पोखरीको
लोकतन्त्रका
निवेदनमा
मिलाइ
ྱ
जान्छन्
प्रयोगकर्ताको
बहस
ठाउँमा
महिलाहरू
覦
󠆷
septe
अघिल्लो
गोक
बेलाको
राखेर
रूपन्देही
तरल
मेकअप
कापी
दीपावली
త
was
ल्याई
##patra
##यका
##집
यद्यपी
football
कार्यलय
पत्या
##रणीय
सक्नुहुन्छ
क्षति
बैठक
१५०
छाला
##केश
शो
񄂇
##ṏ
बताउनु
एकअर्कालाई
लोकतान्त्रिक
२००५
युवती
yo
पाठ्यपुस्तक
᝚
ड्याम
##सुरक्षा
##ŵ
п
##मध्य
##ӕ
ke
च्याप्टर
नसकेका
पत्रकारितामा
सम्प्रेषण
dek
ᇡ
लिम्बुवान
##ant
अभावको
त्यस्तै
एभ
虑
##ь
##००
है
आआफ्नो
विषा
띵
पाखा
##दर्ता
अभिनयमा
जेष्ठ
रातारात
̲
कहिलेकाहीँ
दस्ताव
आफूहरूको
गल्कोट
दृष्टान्त
हुनुभएको
अभिमुख
绩
##कल्या
##पर्ने
̾
संक
हेम
##कालु
##िमेन्ट
##वर्ष
##्ेर
किशोरी
##ँदो
ݼ
播
##܎
भूकम्पपछि
text
सतर्कता
पूर्ति
निस्कन्छ
न्यायपालिकाको
सुनाएको
６
आँफ
：
##ብ
##कल्पिक
मुर
##쥻
खैर
阐
̄
##र्षिक
##ानको
##िब्र
कठिन
론
उदाहरण
##뵪
अङ्
ソ
मुटुमा
古
##ws
प्रत्य
यस्तो
細
##ol
क़
apr
राम्
उमेरमै
न्युजिल्यान्ड
ॽ
अफ्र
हुदा
##कुरी
び
##👏
अकस्
ठान्छन्
ɸ
##˳
नलि
##ami
मध्यवर्ती
##विश्वास
##ீ
गाइ
सम्हाल्न
din
इजा
साँच्च
ெ
##ram
नेम्वाङले
स्टेज
形
胸
ट्रान्सफर
माथिका
##टर
कनिका
##डब्लु
नागरिकताको
परिवर्तनले
पाण्डे
बना
踘
鞭
छोड्
##ie
तातो
u
बनाउँदा
मुक्त
##ंगोल
मुटु
शुभकामना
##फे
कष्ट
गाविस
महिमा
सुनिएको
हुनाले
अस्वा
चलचित्रलाई
वर्षभन्दा
एकेडेम
忠
##रका
阜
प्रवेशद्वार
##कुण्ड
१३
po
झरेको
यहि
मध्यनजर
शिख
##पाई
##ìव
ང
पाइन्न
锻
##ܔ
पौडेलले
##ো
##स्व
##शिला
hola
आफैले
ठीकै
बानियाँ
हरुको
गीतलाई
विवाह
सोध्दा
ൊ
ạ
ോ
राग
सदस्यसचिव
##グ
२०१३
बिराटनगर
##मान
सेटिङ
帰
वंशा
裹
##֍
durbarmarg
þ
܈
कोर
नेपालकै
री
पानीका
##ꚹ
अप्
कन्फ
मलेसियाका
##फोट
##यर्न
##लेश्वर
##धानिक
निवेद
劇
ې
नदेख
##िल्
पुरानो
✏
प्रताप
खाएपछि
जहाज
##ɚ
पाउनुपर्छ
##ताको
##्यार
शृंखला
गीति
##र्छन्
朕
गल
प्रतिव्यक्ति
##ʨ
ƾ
बधाई
रजि
##कको
##way
8230
##उनुभयो
##ٺ
01
中
नियोजन
##ष्टर
दिप
चलाउनु
दिली
듆
法
##र्सीमा
##ঙ
😤
##वे
उम्मेदवार
घनश्याम
ܗ
##ऒ
##मन्त्री
##۹
नश
啦
土
##मग्न
斑
दर
飯
facebook
जोडेर
##देन
जनस्वास्थ्य
##߁
â
##【
ꁝ
सम्बन्धका
##ர
##velop
👤
##ਆ
##द्य
记
अनेकन
प्रोत्
मे
आतंककारी
##ន
दायर
सिन्ह
कारवाहीको
have
ङ
पठाइ
soci
絞
赞
##बाले
##र्जनको
挑
##पत्
बेन
ד
राज
सोमपाल
मुआ
ज्ञ
बैंकिङ
զ
सङ्गठन
弛
कोच
आयोग
आयात
##जित
फोक्
सोच
##😀
स्पेनिस
##߷
ר
बिरामीको
सती
丹
ǒ
डोम
##मध्येको
##गं
अर्व
गर्नेहरू
बदला
別
अर्थशास्त्री
दोहो
##दियो
romanized
फ्रेम
आउन
सचिवालयको
ߐ
##ूट
顾
##क्षम
दाबेदार
त्यसैलाई
##कर्ता
肪
##ƺ
घरघरमा
लम्ब
椅
राधा
##ћ
##ागर
उल्लंघन
##ut
२२
मानिसमा
प्रजातन्त्रको
रेस्टुराँ
परीक्षार्थी
सफल
##केन्द्र
##ाँच
पढ्नुहोस्
पुग्नु
नअ
निम्ति
याम
समावेशी
सत्रमा
協
पछाडि
वडाअध्यक्ष
घाँटी
फाइदा
गजल
苍
निर्बा
अचम्म
दासले
लडाइँ
##ങ
चाँदी
खपत
लय
चल्ला
##합
君
खेतीपाती
बीचमा
##रहेकी
##ლ
##투
साहित्यकार
油
##उँदै
गतेको
##योगी
नार
##ामुख
हलुका
नदीमा
##est
जमिन
##कलन
प्लान्ट
दुश्
क्षेत्रीले
बालिकालाई
भरेर
मनोमानी
ҧ
गरायो
##अनुसारको
छाड्ने
दार्जिलिङ
मध्या
दुरीमा
बिचौलिया
##◌
तत्कालिन
निस्कन
भनेकी
समान
頂
अधिव
##ۙ
##バ
ש
##वण
मन्त्रालयका
हजारमा
涝
बित्दा
तुलना
लगानी
सिमा
##वंशी
अनुशा
टोलमा
만
ग्याँस
##ियता
##ण्ड
रेग्मीको
एसपी
##ǂ
##ʖ
##संग्रह
उपभ
रुप
लण्ड
છ
##धिकृत
##प्रतिको
段
ब्याक्ट
##단
प्लास्टिक
inst
छ
##ﾪ
उड
तिज
बेइज
संवेदनशील
हिँड्ने
##ook
##युग
खा
ꌱ
##विन्द
हव
##명
उस
क्याम्पस
सिलिन्डर
इलाम
self
प्रकारले
प्रतिरोध
##our
ओलीको
##´
##इङ
##ജ
畳
सुत्केरी
의
प्रबन्ध
वेला
##ʚ
भोजन
बिक्र
##धारित
##점
##ङ्की
कोल
यादव
शिका
##߈
̣
दैलेख
प्रवद्र्धनका
पाख
गुणा
पढाउन
##წ
अहिलेसम्मको
क्वी
आयोगमा
लिडर
餐
गरिसकेका
सिपा
☻
##߂
荎
ט
##88
country
किनारामा
ǵ
चल्ने
असहाय
##ंग
##बरा
चाल्न
एसईई
५४
ݢ
सडकलाई
नाममा
ޱ
ओलीलाई
ʖ
ۀ
##khel
त्यही
सुदूरपश्चिम
##ギ
##लोमा
अतिथि
लागेपछि
लेखन
अंकित
लगानीकर्ताको
वर्षेनी
गर्नसक्ने
समुदायले
व्यवसायीक
💃
##लालाई
##ç
बस्दै
ग्यार
ज्ञान
बिहीवार
##ȴ
##ञ्जित
छे
नराम्रो
글
सर्वसुलभ
ƈ
july
पोस्ट
##ावती
वना
विवादका
सर्वसाधारणलाई
##۲
ᖳ
आजका
नारायणप्रसाद
विगतमा
液
अट
ݔ
अनुमानित
##s
छापिएको
प्रतिशतको
गोरख
संशोध
##߱
पोखरी
്
ꊣ
योजना
ᤅ
駙
##रन
̉
अह
##ल्पा
ǔ
अभियानका
##줏
##ja
##ޠ
चर्चाको
लिंक
युवाहरूको
मारमा
##ؙ
यद्य
🇮
रासस
उत्कृ
विश्वका
##ڊ
अन्धा
##्रिक
##٦
ईन्टर
##څ
उहाँहरूले
दरखास्त
##जीको
##ठक
नजाने
सिफार
ੋ
##बाङ
सम्मका
##भाविक
दिदै
ग्यालेक्सी
असम्भव
##देश्यीय
ढुंग
उप
##स्टेक
固
웠
##*
ύ
लागेका
##जीओ
सानिमा
##पसार
##xa
छै
##डु
अधिकारीहरू
छरिएर
##ंह
अप्रेसन
कार्यरत
हेर्नुस्
लागिपरेका
तिलोत्तमा
##א
खोजी
मिर्ग
थो
श्रोत
##び
##ीनारायण
##ʋ
डोल्पा
धरा
##त्यु
ȕ
स्याङ्
́
अन्तर्गत
हड्
तुलसीपुर
पनी
##ݮ
度
##पिन
अमे
अच्युत
##जस्तो
चि
प्रायोजक
भएपछि
ज्यू
b6
राखेप
ı
##੍
दिर्घ
थालेका
सुरेश
चेतन
ज्यु
महान्
गहि
迎
##ुमा
03
##श्व
ڡ
##ụ
कीर्तिमानी
खरीद
䭯
ۼ
##साई
۳
संसारको
प्रकृतिको
պ
ओर
##लिएको
नाघेको
ਯ
लेखिएको
˜
ٰ
नेताले
उपमहानगरपालिकाको
खातामा
निकाय
कभर
चुलो
##ध्यात्मक
##স
nai
स्टक
짱
##दम
##पुरमा
##स्थित
##😞
ओनस
किराँ
युगा
孤
सम्प्र
##eko
狂
##च्यु
##गो
प्रगतिशील
ធ
🎇
##िष्ट
बैंकमा
प्रक्रियागत
स्रोतमा
##पहिरो
##त्तो
菜
##ボ
##ਬ
जेस
ӹ
##ܕ
##ंग्रेस
##लमाथि
##गत्तै
किशोरीलाई
だ
निर्वाचनमा
आफूहरू
䁛
##जिल्ला
अन्डर
वार
संघका
विश्वविद्यालयका
व्या
सुगन्ध
大
आत्मविश्वास
विवादको
स्टेड
सुस्
पौड्याल
ѩ
##ׄ
एको
##័
ज्यादै
अप्रिल
पर
रोजगार
##ཆ
असारमा
ब्यवसाय
ल्याउनु
स्वदेशमै
डिभाइ
हिरोइन
ढंग
##छौ
मनसाय
##निर्
##ोग्
विस्तृतमा
ފ
ৃ
गरेपनि
तुला
v
ݪ
##ंक
आद
दीक्षित
व्यवसायको
सुरुवातमा
/"
सि
##ধ
गरिरहेको
रोजाइ
ҭ
जावलाखेल
परिवर्तनका
ae
##चौ
##ú
##ृय
एन्ड्रो
पर्यटकको
भति
दार्जिल
ン
भर्न
up
##ग्राफर
##년
ペ
🏦
पासाङ
##प्रेमी
##स्थापना
काँग्रेस
刊
कार्यालय
रेव
टार्न
۱
मतदाता
प्याकेज
३००
##ｓ
पिस
युक्त
media
reg
फुटसल
उनीमाथि
マ
सवार
##ܾ
##ूक
आसपासका
明
##ご
सकिदैन
अन्याय
केश
डढेलो
सामु
២
##ま
##ޖ
खिम
अन्ध
징
लामाको
ʜ
ެ
😁
जोखिममा
##लासी
परेमा
फो
स्थानीयले
अस्तव्यस्त
नपाइने
##뎒
हाम्रा
##ੋ
##ѹ
⟲
##ų
राजतन्त्रको
डबल
सर्
चुनावका
दुर्घटनामा
प्रतिनि
भिड्दै
हेरेको
養
स्थाना
##យ
सञ्ज
ब्याट्सम्यान
佐
विस्तारको
ज्यान
##स्थलमा
맺
सदरमुकाममा
हिसाब
हेर्नुपर्ने
करदाता
는
सिको
##बाट
झल
萨
नियु
##ƒ
ޤ
चरि
##यखभच
पर्नेमा
##ङ्गा
त्यसअघि
ា
##दित्य
##ѓ
##स्कृतिक
कान्छ
ǃ
摇
견
खिल
सहितको
आङ
示
##€
̀
त्रिपाठी
धर्म
सुर्य
##लेपछि
ध्यानाकर्षण
राधेश्याम
##मूलक
मागको
##मती
婷
##̑
ָ
ý
एकमु
##उँछु
##सी
##िनिय
##ʤ
त्यहाँ
用
##ҫ
##문
स्वयम्
贈
##ग्ला
##किन
जिन्दगी
नौ
गुमाउन
##हत
भन्या
##कलमा
मजदूर
भट्टराईले
##िमे
##റ
संगठन
¶
विकृत
興
##렶
τ
##छोरी
됩
सम्भव
कलेजले
सहजीकरण
貨
विनोद
तब
कन्या
कुराको
डीएनए
नेपालमै
जन्मकै
run
##񤔇
##😙
失
उमेश
ე
आयुक्त
ਗ
परेका
##र्जामन्त्री
सत्याग्रह
##ौला
लेख
थानकोट
늘
दायरा
शुभचिन्तक
##݇
ğ
##ङ्ग्रे
##고
आहा
पचा
सदस्यहरूको
पाल
संखुवासभा
##स्टोर
响
परीक्षकको
##बारेको
नी
##क्षित
बचाउने
नभएकै
गोरु
##も
##ރ
##मुक्ति
##क़
م
गरिदिन्छ
पत्रिकामा
歩
##̣
##ib
रिक्सा
##ʔ
##ួ
##65
कैलालीमा
गौतम
प्रतिनिधिस
यन्त्र
रहर
जनताको
価
锅
##कर्ताको
##ा
##ब्रे
अन्यथा
##ٞ
~
क्यू
##गोपाल
##तुन
##atra
퓄
विभागलाई
कव
लिइरहेको
सर्वेक्षण
मदि
एनजीओ
राखी
判
訪
օ
दुःखी
महœवपूर्ण
चिल
##ਾ
⑻
綠
रेज
एकतामा
मञ्च
剂
थाप
##जिल
पल
किरात
֣
연
##チ
अर्थव्यवस्था
फाल्गुन
विष्णुप्रसाद
##ारी
चिप्ल
ង
मनमुटा
स्वागत
नखुलेको
擴
ͱ
納
लागिरहेका
प्रमुखको
활
j
बिनो
फर्किएको
##व्या
चौर
##ߙ
योद्धा
एसी
##म्पा
##नुभ
##टाएको
##֯
##कर्म
愕
कार्यपालिका
郎
##<
कवितामा
##ļ
पुनर्निर्माण
ኛ
##द्व
उपलव
बजा
▪
बिद्या
松
##ៀ
उठाए
##ქ
आशा
##चाह
खेत
कर्णाली
थपिएको
पिच
श्वासप्रश्वास
##बर्ट
फेर्न
rev
ǐ
खोल्ने
च्यालेन्ज
हराए
ൽ
पारिएका
भेर
त्य
ì
२०७५
##दास
ep
##💕
##ӱ
##महि
##ght
हौस
##डर
पाथी
रंगशालामा
कांग्रेस
हाललाई
ʹ
ӈ
कपमा
निकायमा
तारेखमा
इन्ट
##р
ؼ
मृत्युदण्ड
##इज
कोस
सुरुको
##ั
##ᤶ
तत्कालका
राख्दैन
मङ्गलबार
톤
哔
ӳ
खण्डको
भाग्न
बताएपछि
##थे
ӕ
##ाउनु
ȹ
देख्न
साइन्स
गुला
##गे
##nth
##ぜ
क्य
岸
साउथ
अनुया
कालि
जवाफदेहिता
कण
सम्झौतामा
.......
त्रैमासमा
巡
भग
आयक
29
चुहावट
लाग्ला
##७
ՙ
##ारे
▶
저
空
##यामा
देखाएको
दिन्छौं
##मन्त्रीले
खेलकुदको
नराम्ररी
सौर्य
米
##नू
प्रमो
रामायण
象
पत्राचार
##ामी
pe
उठ्न
є
बंग
यसले
रुस्
विकासोन्मुख
##ߥ
##जिलो
सातदोबाटो
जातिय
देखायो
लगाएको
योग्यता
##൒
##ŏ
अध्यक्षको
##ment
##ṵ
张
नीतिका
विराटनगरमा
##ว
विरुद्धमा
कम्युनिष्ट
लगाइ
पौष्टिक
圣
ݣ
दस्तुर
सुष्मा
政
##ुट्टा
पत्रिका
रकममा
सिलि
##यकर्ता
डि
##ati
नम
रिक्त
वर्षिय
##׮
अवधिभर
##_file
##धी
जसमध्ये
##चन्द
##ढु
वीर्य
बन्दो
##n
बाहिरी
로
😄
##d64
उनि
चला
##डीब
मास्टर
ό
नपुग
##꯭
##नेछ
गर्नुहोस्
孝
##থ
पाँचौँ
बिब
हस्तान्तरण
##पोषण
दिन्न
आलटाल
सुरुआत
राजविराज
नेकपा
េ
वल्
प्रश्रय
織
jasto
यसप्रति
हाल्न
߆
चेन
块
䍻
ro
씱
󥡑
##ै
##융
दुखा
##ुन
प्रहरी
कोइरालाले
सचिवालयका
非
एमालेमा
रुघा
##ng
ध्यान
則
##नुहुन्छ
थापाका
##ेसँगै
##ेक्सन
##प्रा
sadhana
इलाममा
🌿
##ou
׮
##मोड
चौतारा
गाड
चाउचाउ
##hak
ノ
गरिदिएका
नेपालका
नागरिकको
बलात्कार
फर्किएर
##ision
ramro
बृद्धि
際
निकायसँग
पाँचौ
बहुउद्
फिलिपिन्स
समय
##ң
ठाउँठाउँमा
कंक्रिट
ܩ
घरभित्र
पिलर
जोड्ने
##33
जसलाई
शुक्रवार
भिडन्तमा
##ुरा
##ԗ
कुराकानी
##🇭
छाता
महेश्वर
턂
सानो
邪
##ैर
व्यङ्ग्य
गल्ली
मार्ट
आशी
गणतान्त्रिक
痶
😑
आचार्यले
##प्ती
##धिका
##बे
##र्जित
##सहर
चितवनले
नेतृत्वदायी
यातायातका
革
줍
❷
##ｐ
इन्च
रनले
हुनपुग
आर्क
कन्स्ट्रक्सन
सां
देखिनु
֎
โ
लाइट
##संख्या
जिम्मेवार
भित्रिने
႗
जातको
ワ
हाउस
##िकर
श्री
नाबाल
विभागमा
हरिया
अनुभूत
##ܓ
अपार
97
##बस्तु
विभाजित
विश्वसनीय
डायम
रिजाल
लेखाजो
भियत
सुरू
##हान
उसलाई
敦
##फाइन
रेल्वे
򝠊
सुनील
खुबै
##ɪ
आफैंलाई
##ნ
thu
फेद
महाधिवेशनको
too
मेका
ほ
汋
##पंक्ति
##चरण
##ित्
प्रस्तावको
महाभारत
⑸
##लाय
##मुलक
विवादास्पद
ide
؝
पोज
袖
प्रता
˥
गाउपालिका
कुरै
##िकित्
नीतिको
ډ
भित्र्याउन
किमा
दला
सिल्
रेणु
##सनको
महिलातर्फ
##बमा
फोर
काठमाडा
##😁
खाद्या
ɷ
सब
##ीता
bat
賢
˷
##**
##मध्येका
भारी
##ρ
##ス
##আ
सफलतापूर्वक
##िकल
परिर्वतन
चाइना
##ñ
टेक
##😟
装
难
हिंसामा
##ye
त्यस्ता
##ෘ
नेदर
##पर्क
ɴ
##γ
भविष्य
समितिबाट
सुन्दा
破
##पत्रमा
##नाश
सिजनको
बनेपा
अर्थतन्त्र
##ङक
जनप्रतिनिधिको
##タ
बाथ
सुशासन
पौडेलको
00
अर्जेन्टि
अंकसहित
प्रत्याभूति
रातो
छानविन
与
रक्षक
लामि
##ंकर
集
उदघाटन
तला
inter
𖾄
पुलिस
##्नुस्
ब्यापारी
लोहनी
माध्यममा
अन्या
लिभरपुल
सक्रिय
杣
बुँदामा
##व्यवस्था
पहिर
##र्पm
विद्यार्थीहरू
##सनमा
अर
थानको
be
##घन
##लाइट
喜
मन्दिरका
検
नेवार
सन्तुल
ڣ
##ट्टी
८००
समृद्धिको
##ꇯ
लैन
अक्सि
##भर्ट
रन
##िमन्त्री
##פ
##|
裂
मूल्य
##हरूमा
मुद्दालाई
##ർ
宏
##थिति
##्च
निर्वाचनका
ѱ
समाजवादको
赌
उड्न
रे
प्रअ
##ѧ
घटनाले
type
महालेखा
##िमि
##न्डामा
चोप
##`
##हमा
कोइ
䊚
सहि
##कर्मीलाई
##ģ
##त्ने
चल्दैन
हावी
##ս
##터
##ũ
##पेक्षित
##🤗
##सामा
तापनि
##राङ
चिर
खराबी
์
##टीका
##लग्न
ħ
रहनुभएको
विधामा
倉
याएको
ބ
ख्याल
##नीको
गाउँघर
##सियम
ث
##ितो
##िरहेकै
उपचारको
थपिँदै
चिसो
बराम
तह
मन्त्रीको
महल
रोट
即
खड्काले
पारदर्शी
haru
जरिव
दिनदिन
गरिएकोमा
##राई
निम्
हर्न
ზ
##कास
13
亮
##सर
՜
आएकोमा
ྩ
δ
##unu
##დ
를
कान्तिपुरसँग
##ณ
नबित्दै
ථ
शीत
thumbs
राख्नका
योजनाहरू
찬
काखमा
##युद्ध
##ल्य
##ō
##िकामा
आफन्त
उद
एन्टि
पर्साको
फलाम
कामलाई
ट्रेडिङ
इजाजत
स्वेच्छिक
##िङमा
पु
۩
९०
दुइ
दायाँबा
͗
##्छौं
राधेश
छत्र
डु
##पूजा
सुटिङ
बोग
आन्दोलनरत
ӷ
চ
當
备
एकाउ
प्रहरीलाई
##यकोष
ट्वीटर
शतक
##desh
##ko
##भूति
तेरो
ສ
अव्यवस्थित
##मेत
डोज
؛
वापत
빌
दू
핕
##،
घलेले
टाउको
प्रहर
ৈ
蚁
##tem
एप्
धकेल
ط
##ｼ
परिणत
##ݷ
##ޞ
नखाने
पाकिस्तानमा
越
##विका
गरिरहनु
अना
सौर
##ท
एसएम
##स्या
##टो
##62
दमौली
覇
😆
##मेट
रामशरण
९५
देब्रे
##ीलाई
बुझेका
疗
म्याड्रिड
निमन्त्र
काउन्ट
छोडेको
##जले
##िदिने
##ａ
##ウ
##तारो
bu
इतिहासलाई
##िय
##ication
ᤰ
ܥ
थर
ӻ
कानुनमन्त्री
बन्नेछ
उपस्थित
बिहानको
็
タ
कोरियाका
##ओ
मर
่
##ť
##u
##ज्यु
ٶ
चालकलाई
नसा
ࡡ
खुद
उति
कोपा
गृह
प्राथमिकताका
कार्यान्वयनको
चर्चित
फर्केर
ܖ
कोठा
राख्
踢
बाहिरका
##̹
लग
श्रीमती
एल्बम
बाग्
ﯢ
暗
##ब्
थापाको
अभियुक्तलाई
निगरानीमा
बिउ
54
ज्याला
सेवाका
ྒ
态
सर्ब
ऐरी
##मिन
थपलियाले
##з
पाल्ने
##िसके
संरक्षणको
सहकारी
##ेशन
एर
झि
##तालिका
प्रगति
वेबसाइट
##तह
एपी
##м
##د
##सद्
देव
ف
##ुक
ﳃ
भेद
मनिष
खाएको
बृह
##워
विज
८१
सुरक्षाकर्मी
यतिबेला
##काइ
##यू
##चालक
##फेक्ट
रोक्
##hi
सेप्टे
हिल
देख्छु
ठक्कर
ੌ
駐
ne
एकाएक
साथीहरु
龠
जडीबुटी
ѝ
सदस्यहरूले
##पीड
परामर्शदाता
˳
बट
आर्सनल
बोल्दा
विश्वलाई
बेलाबेला
这
सवारी
नेपालसहित
jan
अनगिन्ती
तरंग
🔱
##ाममा
वासुदेव
吸
즈
पाल्पाको
दिवंगत
##면
अन्योल
गरोस्
प्रदुषण
भालु
समुदायमा
纯
曜
खरिदका
##ხ
समाज
ね
झापाका
##ܷ
सौ
०१
अन्व
ठह
շ
पुरी
राष्ट्रपतिबाट
众
सँगसँगै
उद्धृत
कन्स्ट्र
느
肯
गुमेको
दिशा
रित
˶
##ے
##लिन
प्रतिश
बारीमा
भूप
प्रख्यात
प्रस्थान
निगमको
गर्छौ
अर्की
उपन्यास
घरबार
##छिन
堻
छोपेर
ѭ
पेन्ट
थाल
##ᤡ
##ध्व
##ार्थ
चन्दा
ˍ
##डाँडामा
प्याराग्लाइडिङ
अलमल
निगमलाई
離
##मेटिक
सञ्चालित
##हरूलाई
##सभा
##ԏ
##ढुंगा
डिजाइ
साँघु
भाग्यमा
शिक्षामा
##वस्थामा
खटाइएको
屽
ਝ
什
प्रतिस्पर्
ͽ
भण्डार
इन्चार्ज
कारोबारमा
邸
##セ
ߚ
ढुंगानाले
तदर्थ
##लीमा
##वटी
संस्थामा
པ
庖
घिस
क्याप्टेन
नजा
त्यसमाथि
सकिरहेका
जीवनस्तर
एसएलसी
कक्षाकोठा
लागतमा
भारतसँगको
绳
लौ
नक
बन्दी
##he
##शिलता
##त्वाकांक्षी
कञ्चन
सद्भावना
##डीमा
##ul
٧
##リ
समर्थक
टाउकोमा
ਠ
गु
##देश
खडा
##विपरीत
छिरेका
सम्मानमा
संस्थाको
##tp
जाहेरी
बाँ
धर्मराज
दाय
पहिरोका
व्यवस्थालाई
मस्त
बूढा
हाउसमा
सिड्नी
अनलाइनमा
##ौलमा
乗
थप्न
लागेन
मध्ये
भागेका
##ियाका
गठबन्धनले
संरचनाले
अब
##बासको
राष्ट्रवाद
##जहारी
pre
महिनामा
ट्वान्टी
ݳ
抗
贷
赋
खण्डन
/?
तल
सत्य
आवाजमा
ւ
##͟
गिट्टी
अराजक
蹭
युगको
सरदर
नगरपालिकाको
͉
टा
呀
##ैतिक
अग्रज
£
ni
हतियार
##ͨ
52
园
措
##능
भाषण
यसपटक
हार्दिक
７
इलाका
किल्ला
##पट
उज्ज्वल
खाँ
प्रतिबद्धता
लिएपछि
सभासद
##ਂ
गैसस
हिम्मत
##ב
जनचेत
쮧
पृथ्वी
सोझै
創
##ेन्द्र
ӛ
प्यासि
बढि
##पालन
प्रशिक्षकको
१२
##ҡ
पेन्टिङ
ਇ
##भरा
##ぱ
##후
ӭ
##😊
##ぐ
就
##56
##िनेछ
गाईको
##ഖ
ţ
रेड
ʵ
बैठकबाट
室
आफूहरुको
०८
##हरुको
娘
आधारभूत
긂
विकेट
सन्दर्भ
मोक्त
җ
पार्नु
##💿
गुरुङलाई
뎒
नियन्त्रित
बहुउद्देश्यीय
##अघिका
३७
託
तथ्याङ्
बाचा
##ेलगत्तै
पत्रकारिता
ϧ
##र्को
पत्
##लेन्द्र
प्लेयर
बरालले
##प्रसाद
🚨
आयोजनाको
##ở
kamana
प्रति
रातारा
चैत्र
शोध
अर्थात्
##ͳ
߁
##ഴ
टेलिक
路
##वाणिज्य
##『
镍
##ट्र
उत्पादित
निष्
भवन
##원
##बिर
##मन
捧
살
##न्दन
क्षेप्यास्त्र
##ę
शिक्षाले
##ेनत
##ⳁ
̅
प्रतिनिधि
अन्तरदेशीय
鴚
##पुरी
##कि
थाई
december
##ओको
h
वाई
ラ
##ip
हिस
##स्म
बजेतिर
यादवलाई
ṵ
##६
हे
##तिव
##ǉ
##सकेकाले
गयो
पत्रिकाको
4
मनमोहन
जान्छु
हुँदैछ
꯭
ट्रम्प
सम्बन्धी
गीतहरु
##isa
##end
##सम्पन्न
आधुनिक
ങ
such
ޝ
वृद्धा
सुपर
##ờ
arch
광
21
गौ
open
뿐
प्रकाशित
##भोज
इन्टरनेटको
संरचनाको
जिम्मा
रूपै
ltd
भैरहेको
उपेक्षा
##હ
एक्ल
एजेन्सी
##ང
आरम्भ
पुग्यो
ខ
गन्ध
##ỗ
गुमाएका
##खानी
एअर
गिरो
महान्यायाधिवक्ता
इन्ड
瘯
##ियार
򴶨
गुनासो
##🌹
ۻ
##͏
##बाद
युन
सभ्य
पुर्याए
उद्यान
ញ
बहसको
##देवीको
व्यवस्था
सम्बोध
ઓ
##श्
जाडोमा
बास्केट
##्टा
लिगको
दिन्छु
व्यवस्थाअनुसार
स्वतः
ਲ
दिल्लीले
##ong
##पेट
फोरजी
चामल
लालबहादुर
3
##॓
ড
च्याम्पियन
##देवी
भे
पाट
֓
छन
हुनुको
ァ
कार्यान्वयनमा
पात
समिक्षा
ោ
अराजकता
##जनाको
पुस्तकालय
付
##न्दु
##ഗ
उत्प्रेरित
तहमा
##ेला
##ኛ
##म्ने
##हुँ
जिते
ษ
अहमद
##सँ
##ग्रहण
##ग्री
##निर्वा
د
कार्टुन
छुवाछूत
स्थानीयवासीले
↹
怖
ⲏ
##ेसनमा
侯
##글
##코
१
斯
洞
विज्ञप्तिमा
कमाइ
諷
녀
अन्नपूर्ण
नसके
अस्त्र
बनाएका
सकिए
發
##ূ
गाउँपालिकाका
ּ
##ょ
##न्तव्य
##χ
##양
लज्जा
विषयका
##ւ
समूहबाट
##ंख्य
भिडन्त
देख्ने
फर्काउने
##ुग
पुग
विद्युत
प्
दीपा
मिलन
##हरूकै
चौकी
युनिट
साक्षर
सिने
※
##🇰
इन्जिनियर
गुरू
जाओस्
जापानमा
स्कोर
##uary
##योग्य
##प्टर
मेट
बेमौसम
##सम्मले
##पहल
पात्र
##धिकरण
##कल्याण
★
श्वेत
प्रभाव
##स्वा
नसु
ﲥ
सिंहले
续
##߄
नेतृत्वलाई
गरिन्
मेसेजिंगलाई
अवश्य
संशोधनको
乎
अभिन्न
कमाउन
हिँडेको
आदानप्रदान
इमान्दार
सभालाई
書
महाराज
前
き
अधिकारीहरु
झल्क
इङ्
छिर
शहरको
थपिने
盐
##सनले
सर्वसाध
僅
तहसम्म
भेटेर
कुराले
फेर्ने
##ԃ
प्रोफाइल
ݥ
मस्को
집
गर्छौं
ϳ
काठको
उपमहान
म्युजिक
हिउँदे
##ोत्
लगाउन
##फामा
मूलधार
सांगीतिक
杉
उठान
##ɻ
##ङ्का
onlin
憑
##ʩ
लन्ड
##rig
޻
पोल
भोलिको
यादवले
##셍
वाग्लेले
असा
##पक्षीय
समुन्द्र
##천
##शाखा
party
त्यसकै
媒
२०३
त्रिभु
वर्ष
띠
##×
##ागमन
ڐ
म्
##ूद्ध
ȣ
सोच्नु
उनीहरूलाई
छनोटमा
चासो
##ast
##प्रे
संग
बालमैत्री
सिग्
考
थुप
खेतीका
使
ｓ
कट्टर
उद्योग
हच
सम
##79
फोटो
##҈
##ाउँदा
सचिवालयमा
키
##सायनिक
##ात्मक
जेलमा
##विरुद्धको
पीएस
प्याज
स्वास्थ्यको
२०५
महाशाखा
जनताबाट
काटिएको
९४
常
͞
##गोलिक
突
खानी
##जति
ਤ
आउजाउ
सिमकोट
##भर
धेर
रूख
ぼ
इष्ट
सोधे
##ढ
赢
🤓
कमेडी
थाहै
संस्थाका
कुरालाई
तेलको
😖
ഗ
##----
हान्न
स्पेस
इंग
##ߑ
.....
चेतावनी
नेयमार
विराटनगर
銀
निर्विरोध
bh
ޭ
##मुनिका
छोराछोरीलाई
चलचित्र
लोकगीत
##भेट
घेरा
뭅
ホ
य़
##याधि
͏
##ᤁ
प्रतिबन्ध
विपक्षी
लिन
##ेत्र
倍
ﴌ
तरलता
よ
प्रयोगबाट
प्रायोजन
रोकथा
##ʳ
रामबहादुर
मूलतः
물
about
क्याल
प्रिन्सिपल
जनाउन
details
गिरिराजमणि
जबर्ज
##सर्ग
긝
##ĩ
६८
ȉ
धनगढ
सिन्धुली
श्रीमतीलाई
गाँ
𔻹
雅
एमबी
वाइडबडी
गोलले
विकृति
दाखिला
##ोको
आयल
##f
जटिलता
खोटा
डायमन्ड
डिएस
स्वदेश
हतार
जन्माएको
पुग्न
१५
रुद्र
मातहत
##ल्ठूला
砂
˺
##कालिन
##जक
##변
छोरो
गर्नुपर्यो
##ूल्य
निरूप
सम्ममा
सञ्चाल
##ц
पर्ख
順
जुट
##ाव
勋
##बासीले
प्रतिनिधिसभाको
जिम्मेवारी
渊
##क्षिप्त
ȇ
उपाधि
आकांक्षी
आदिमा
悲
बला
##ι
नेय
##बीएस
धुर्मु
सेवास
##ँदैन
४३
गरिसक्
सिरि
सक्छन्
प्रतिशतसम्म
स्तरीय
步
राष्ट्रले
सोध
##संघ
माओबादी
##त्रीले
प्रमुखमा
##डेन
ি
निन्दा
##्याएका
२०४८
बोर्डमा
महाशाखाका
##पश्चात
脸
##र्खा
##य़
##गी
बैंकले
रजिस्ट
संरचना
❆
##ोटो
प्रदेशसभाका
प्रविधिमा
जम्म
मानिसले
͇
चलचित्रले
तामाकोसी
तालमेल
##र्था
फाग
सोचेजस्तो
##habar
##ƛ
##सूची
भवानी
हिमालयन
जितेका
झैँ
圆
गर्नेलाई
##लोड
พ
效
너
भागेर
परिकार
͹
##ϥ
:
साउनमा
हारको
##न्दी
ٮ
विमल
सत्कार
蚊
##चाहिँ
용
सूचना
需
पाउन
ឆ
बैङ्कको
##վ
##ಡ
##つ
गोकुल
##किता
##ows
##हाल्ने
जेभ
जनप्रतिनिधिले
नहुने
नापी
##ǻ
ϭ
चिनिया
आफ्न
नसकेपछि
膺
😪
܆
टंक
संक्रमित
у
मस्तिष्कमा
निकायलाई
घाँ
##्रा
समयावधि
कानुनमा
टिमको
गुजार
सुनाइन्
볼
खस
पञ्च
लगानीमैत्री
##िकेट
जुम्ला
व्याप्त
अपेक्षित
ǧ
कलेज
परमेश्व
##्नो
पूजाआ
ͪ
ब्याक
##ۦ
अनश
ღ
##रिद
##с
छरितो
##ानी
##ृत्त
ध्वनि
##च्छुक
बिक्रीका
स्थितिमा
जुस
सिंहको
संविधानसभा
学
पश्चिमी
चिनियाँ
屋
मरे
##ൂ
ڎ
हुन
पुर्पक्ष
but
##ђ
##뱻
क्वालि
प्रवीण
ヾ
##ेदार
कुहि
मौलिक
ṣ
गरिए
वेष्ट
##ჰ
बार्सिलोना
启
ड्रि
चाप
हाइड्रोपावर
गरे
जिसीले
##ڍ
प्रार
##ated
तर
##……
रानी
##इन्
透
गीतका
##सबाट
यसका
अभिन
ɮ
पास
##ҟ
##परक
थाहा
##त्तामा
पथरी
藵
कदा
राम्रा
चुचुरो
लगाइएको
##🙉
राखिएको
शिश
უ
असफल
बेलु
##ҍ
##ศ
स्त्री
स्मृ
ঠ
##कल्प
आँप
##ⲣ
संगठ
##दास्पद
ॉ
録
बस्नु
बोलाइएको
कुट
谓
बास्केटबल
##त्री
##ग्रा
##ुका
達
##फ़
क्षतिपूर्ति
ץ
ถ
罰
डिपा
अभियानको
टोलीले
उसकै
##मुक्त
##ਅ
##र्थीलाई
##ण्डमा
##नुपर्नेमा
छाडा
छनौट
पढ्दा
영
״
थालेपछि
नहुँदै
मिडफिल्डर
हाँस्दै
पर्नेछ
28
प्राधिकरणको
靺
हाली
read
ʫ
सुदुर
囲
##당
ট
##्यारो
ध्रु
मात्रामा
+%
बालाजु
परिवर्त
केरुङ
सूचनाको
鳥
##ポ
राजधानीमा
लगायतमा
##मिथ
चाक
##ҕ
मस्तिष्क
सभापतित्वमा
##84
##ޒ
##र्तिमानी
##ധ
##ꕄ
डेड
रेमिट
पुग्दैन
सारेका
भुवन
届
परियारले
##जला
##नुभएको
खाइ
झ्
उभिन
##कन्या
##ٙ
##र्ई
##्याउँदै
媲
मूर्
ȥ
पू
खाडल
सन्देश
ᤗ
##ूल
उड्ड
दिएकी
नगरेसम्म
काराग
ლ
प्यार
##랜
ताप्लेजु
ഴ
तोकिएका
##ൽ
##गम
एसियाली
गर्दाको
टुँ
##ीकोट
थिइन
##साइड
संस्थाले
##पुग्
##ागा
उरु
##⨿
튶
≈
##र्फ
##׽
यस
यतिसम्म
ᤁ
पल्प
निषेध
!!
डा
历
शर्मालाई
腺
झडप
जगत
芽
राष्ट्रपतिलाई
射
##ाउँछु
##η
##पूर्ति
बसेपछि
##ਜ
অ
##क्षा
राष्ट्रसंघीय
##तर्फका
साक्षा
##वेग
धनकु
उहाँहरुले
भन
राई
महाप्रबन्ध
##र्पोर
##ட
नायव
俗
ｼ
便
एपीएफका
֭
ब्यांक
उका
उनका
धुवाँ
݇
##ood
थाइल्याण्ड
##ंगो
##ゅ
वित्ति
महिनाभित्र
गठबन्धनका
接
##ѳ
पार
बाल
बैंकहरूले
सत्तारूढ
निकाल्
뢽
##पद
##ത
आर्य
##कक्ष
अधिकारकर्मी
नेता
޸
##नेस्को
潹
穷
##वास
नियमाव
जमा
व्यवस्थापिका
घटस्थापना
रत्नपार्क
भै
प्रोजेक्ट
समन्वयमा
एकरूप
राष्ट्रका
लगभग
अछाम
घरायसी
थपे
ǡ
खेतीको
इन्डिया
परिणाम
भूमिकालाई
व्यवस्थाले
ल्होसार
निर्द
मिडियाले
鮡
एएफ
##उप
##̔
भक्त
लाने
धन्दा
सबस्ट
उचाइ
ت
݄
जहाँसम्म
प्रावधान
भित्
मानेर
वन
ビ
还
튜
課
दुवैलाई
ȴ
सबल
भारतसँग
95
अनुरुप
बुझेर
##टेड
##र्रा
함
##ाइन्छ
कहाँ
隣
फाट
इजलासले
करण
सार्थ
अफगानिस्तान
टुप्
फिदिम
वाङ्
आत्ति
बताइन्छ
कथा
घटनाहरु
֫
՟
##ܦ
##ꑝ
खड्का
बेच्न
साथसाथै
कायमै
##ङमा
##ेयक
तिनलाई
प्यानल
अख्तियार
##थुन
##ीन
अपडेट
गति
ज्याद
सिप
遖
घाई
क्षेत्रलाई
##༻
पशुप
अछ
धनुष
मुलुककै
प्रेसर
निराश
सोझ
̳
मनमु
阅
कांग्रेसबाट
¢
पुरुषले
अथ
लोकमार्ग
कन्स
रह्यो
##64
##mandu
ĥ
पछु
##ߧ
प्रतिरोधी
नहोला
##ʎ
##्रैमा
असाधारण
茶
जलाशय
आफैमा
予
राख्दै
अर्ज
रेमिट्या
帝
तल्लो
֮
##ऐ
चीनबीच
##ौ
##화
आर्सन
ఓ
समुदायका
पराउने
घटनामा
č
ŀ
त्यसबारे
##फल
नियुक्ति
観
कम्युनिकेशनस्
फ्रेन्च
##68
तराइ
appl
##☆
प्रवृत्ति
##र्नी
वर्षसम्म
##ङ्गी
बृ
##राल
場
鲜
कल
們
van
म्यानेजमेन्ट
##प्रेषण
अभिवृद्धि
यथाशीघ्र
br
##😝
##ौटे
##ѻ
ٟ
निकाल्दै
मद
##폿
भारतकै
𬧟
##वाको
हामीमा
एकरूपता
नियमित
##ɽ
##ত
संशोधित
तस्बिर
विक्रेता
荷
關
रनमा
आयोगका
महत्
अगस्ट
##त्ती
##ूरी
毛
बताइन्
बुझे
ഒ
सन्ध्या
अाफ
##ड्र
खुल
ܝ
भइसक्यो
मोटो
##त्म
̊
ललितपुरका
संस्मरण
ब्रह्
अधिकारीलाई
sur
##क्रोश
क्यलन
##छे
प्रब
##शामा
प्रमाण
बोल्
२०५२
闚
##ܻ
ѫ
哺
򡔖
प्रतिष्पर्
׾
गण्ड
##वहार
कांग्रेसले
बिक
तत्त्व
ल्याएको
恋
quot
疼
रमाइलो
कंग
구
ठकुरी
##ष्ण
##स्थापित
अधिकारीका
जिज्ञा
##ref
बहिनी
रुपले
मोन
##🎤
डिसेम्बर
अक्सिजन
बराह
विधेयकमाथि
##सम
पढ्न
未
विश्ले
看
प्रेर
##͕
तत्व
कर्णालीका
बालबालिकामा
ʦ
प्रवृत्तिको
हानेर
लाग्नेछ
जन्मे
##न्चर
##ન
कर्मा
कर्णालीको
अभियानलाई
##मिक
कार्यशैली
प्रतिस्पर्धा
फराकिलो
##75
सानैदेखि
यत्रो
箋
बिहीबारको
योभन्दा
˕
屈
￼
##❤
एलपी
हावाहुरी
٪
गोल्डक
远
ݓ
##ुन्जेल
##≈
壊
##शले
man
विकेटको
读
नागरिकमा
केबल
गतिविधि
##112
##किङ
##सहित
समाजशास्त्र
榮
##र्ता
##프
अर्थ
##🖕
मन्त्रिपरिषद्ले
सडकको
सुर्खेतका
##ंकी
##मु
देउवा
बताउन
राष्ट्रवादी
##ती
सरकार
##म्या
##हिरो
##߆
बार्सिलो
##{
##ⲓ
ക
ग्ला
गथ्र्यो
हुनेछ
थालेँ
बगान
अभि
खतिवडा
##70
m
खुवाउन
चम्
चलचित्रको
ޟ
सानी
एकआ
नियुक्त
泉
ச
##योजन
घिउ
##रेन्स
##मन्दिर
बाजी
##दले
確
मत
गर्ने
ϔ
बहुमत
डिएन
駆
सदा
एसिड
पठाएका
राखेपछि
交
वडाका
恩
刘
सरसफाई
範
ू
भण्डारीलाई
##मिल
चिनजान
ο
सभागृह
स्नातकोत्तर
सुत्के
सिटी
芝
गठबन्ध
厚
##ֲ
##्याली
##क्सा
un
संभव
##ाएर
ை
탁
मगरले
߳
सेमे
##ख्यक
0142272
首
मान्छेलाई
岩
##कोमा
燥
##राहा
##ϐ
पहुँचमा
रज
印
अरुण
पुर्याएको
填
शर्त
मौखिक
रजत
覧
##पख
##भाव
##शाह
##ट्य
##र्र
माक्र्स
🏾
##00
##ताव
च्यानल
शान
कोमल
सीआई
युनिभर्स
ω
टिम
भन्नुभयो
करोडको
प्रालिले
##हिले
##पोल
नेताहरूले
सार्थक
##तले
##한
खेललाई
समिति
९८
बाटोमै
ब्रि
होमस्ट
##ागु
निरन्तरता
विस्था
ਢ
##esh
भिजिट
##चामा
ट्र
##राय
##िसे
मूल्याङ्क
##ি
सुडान
प्रोटोक
बेनी
珠
सङ्घर्ष
एमालेबाट
ா
स्वदेशमा
करिब
##इओ
उल्लेखनीय
##𗲜
वर्षअघिसम्म
紹
पुगेर
代
杭
##प्रदेश
##모
մ
##स
मिने
ｇ
पाकिस्तानका
##डाम
कालीगण्डकी
बिहीबार
हराएका
虎
सुप्र
लामो
##ԝ
r
😇
खुम्
सुचना
##ѵ
अगाडी
##홈
##✖
8217
権
प्यारा
बजारबाट
सूक्ष्म
महंगो
हवाई
मुक्तिनाथ
螕
बराल
regist
ி
प्रतिभा
##छन्
।</
`
रुसमा
##ٶ
ݜ
खड्
सञ्चालनमा
pat
庆
उनीहरू
जनजा
##बुक
वर्षभित्र
परिवार
वर्षमा
बिग्र
##մ
##ڕ
旋
ਪ
झिल
जाम
राखेका
ਾ
##योर्क
आइतबारको
स्रो
उम्र
##समिति
मेश
##쏿
##वाहिक
कतैबाट
##ामु
##स्तिका
टया
##महामन्त्री
भानुभक्त
५९
˪
नायक
आएका
押
वेल
78
議
कुण्ड
किताब
जिम्म
पूर्णबहादुर
अनलाईन
comment
मृत
##֌
##सरी
##ň
एकजनाको
गाउँगाउँमा
पछ्याउँदै
##are
##जीवन
घृ
##रेड
संस्कृत
➧
बार्षिक
नलेख
##ƣ
संस्थानले
##🌍
ļ
उपभो
उल्लं
मैदान
ƌ
मोटरसाइ
##बृद्धि
##स्तै
लाज
值
भेट्ने
भारतिय
सदस्यका
宪
料
स्थान
##िक
🎙
🤔
खेल
##キ
month
नेताहरूलाई
संस्करणमा
##ौरी
ྴ
î
財
🙌
."
義
मान्छेहरु
##रूप
ふ
デ
沦
न्यायालय
ट्वी
खेलमा
प्रवेश
बस्नेतलाई
मधु
च्याप
「
##;
इन्
एटिएम
प्रचण्ड
##राख
ӝ
##ṅ
##चना
##कित
खवास
शौचालय
पुसमा
देखाएर
##ɏ
कार्यदिशा
↑
सहन
##ڿ
असहज
बृहत
ललित
),
रहनस
रोबोट
डीपीआर
कार्यान्वयनका
चाम
धो
䋉
##મ
सर्वोच्चको
##हिल
चलाउन
##िव
##06
##तल
🇨
‣
ʟ
莉
##감
##ion
पहे
गाईघाट
##डेन्ट
बस्तीमा
एल्ब
निर्धारण
##टरमा
कोई
गाँउ
गत
डेरा
हुम्लाको
클
病
कलाको
৬
समक
##ケ
रुपन्देही
भारतमा
बन्दुक
अस्थायी
क्रमशः
𫿮
दि
मह
गाय
ڲ
說
҆
嬉
ｗ
घाट
पहिलेदेखि
परम्पराको
बुक
इन्टर
43
एथले
कन्सर्ट
पारि
ठा
##$
सुरुआती
◌
दर्शक
खोटाङ
सन्त
यत्तिकै
##र्सन
बुझ्नु
वृद्धि
मार्न
प्रर्दश
˭
अनुमो
֯
पक्षसँग
ҁ
बोका
##ȯ
##ब्रेक
##हारिक
##61
席
ग्रेड
##जनिक
सोन
奇
##ालीको
##🇧
अनुसारको
克
ߥ
##जमा
सकिन्थ्यो
स्वास्थ्य
बाटै
洹
##ޘ
・
##नमार्ग
द्विपक्षीय
肝
ट्रया
瞟
9d
祉
##ेसँग
कित्
##്
अफगानिस्तानमा
पुर्याइ
दावी
##ट्
नपु
लोपोन्मुख
ᤥ
֚
सुनचाँ
##ich
球
कलंकी
轻
ˈ
##ɜ
##बोट
##ब्दा
पाइप
##ʱ
##काली
ึ
बसिरहेको
हिजोका
##ɍ
##हानी
९७
गतेका
खासमा
##ग्ग
##ुस
कृषिमा
सम्मेल
##ुर्ण
निजगढ
##uch
बन
€
泊
ठु
##पिङ
हजारदेखि
भेट्ट
혜
कित्ता
बरु
रञ्जित
पार्कमा
वर्गले
हुर्का
##ालियन
बेत
दशौं
रक्सौल
ch
sar
भ्रष्टा
##वत
भैसकेका
मिल्ने
राजनीति
माक्
कैला
##ψ
##सेर
##🇸
酵
݆
##ͩ
##बुद्ध
सिंचाइ
##re
आप्रवासी
हुन्छन
夏
भैर
##본
ෘ
दुर्घटना
स्वास्थ्यकर्मी
सिमेन्ट
ޒ
##सापेक्ष
协
लेनको
सुरुमै
मंगलबार
हुला
❺
गुप्ता
खड
##साधारण
कार्यशाला
##बर्ग
विद्यु
खानु
##गंज
๛
गरेन
ﾧ
अपाङ्गता
##िटल
जेसी
जितेकी
##सभ
ڠ
सरोकारवालाले
हिँडे
##िन्थ्यो
बाँडफाँ
१९९६
##키
ब्ल्याक
値
ö
樟
八
ó
ӡ
##्रास
बा
लाग्छन्
लसुन
जिउ
勾
वैधानिक
बर्
शिक्षक
ག
##िचो
samachar
租
䡛
कसैले
–
##सीका
어
👁
##krishna
##कर्मी
٩
व्यक्तिहरुको
##पीए
घुमाउरो
##क्रेट
मोटरबाटो
##पित
抛
न्यानो
गरीएको
यसो
伴
गुमाउँदै
##दमी
##त्तीले
惹
##्या
कुराहरू
ਔ
#
फ्लाइट
जाजरको
##चलन
यसपछि
盵
पक्षधर
उतार
निरौलाले
निकास
दवा
ˁ
कार्यालयबाट
झण्डा
##भू
फार
अध्ययन
युद्धमा
२०१०
##विधि
ԥ
력
ललितपुरको
रसा
۵
गरौँ
भरिएका
फन्ड
खस्क
प्रियंका
##दिने
##चल
a1
उक्ल
शिक्षकले
बनाउनुपर्छ
ق
कोशि
पोखरेलको
mad
拜
बोली
निर्वाह
नेम्वा
गतिलो
摸
हेर्नुहोस्
##सायी
बिरुद्ध
庁
垲
बितिसक्दा
݁
##थियो
##ⲁ
##धानमन्त्री
岁
कोश
白
颁
##̓
##이
##कृ
आकर्ष
]]></
##ेसनको
##डका
##भाजन
हुनुभयो
फ्रन्ट
怕
##वालले
पर्य
##풼
##िसँग
फर्नि
鉴
गाउँपालिकाको
बदर
료
🇸
सातौं
बसले
##ħ
बित्यो
क्रियाकलाप
ʞ
पारिश्रमिक
यहाँसम्म
cdata
dc
भि
##थिका
विद्यार्थीले
이
##क्ष्मी
##नाक
बाँड्न
些
邦
साम
भौ
अशु
कफी
ѣ
थिएनन्
γ
समयले
सहमत
sep
अगाडिको
##ហ
미
##인
महत्व
सिर्जना
ﴽ
प्याकुर
採
दुल
##݅
х
पेसा
कम्पनीहरूको
获
साय
कामै
गोर्खाल
></
풼
अन्तर्गतको
##कबाट
##ेका
खान
गर्नेमा
޵
भइसक्
##तिहा
मृत्युको
नभै
寧
रेस
鶏
एकाइ
निवासी
पर्
अप्ठ्यारो
संसारका
##ूहिक
##イ
उपभोक्तालाई
归
а
मादक
и
जन्मिएको
भ्र
सुब
冶
疫
##ṇ
प्रसंग
रेलको
覉
पठाएर
评
साता
ʂ
##लाभ
매
पूर्वानुमान
彻
免
आपसमा
any
／
个
##प्पी
##पत्रिका
नबुझ
에
##ru
नेतृत्व
항
##न्धान
roman
कार्यक्रमहरु
web
##सत
देखाउँदै
फेल
पाँ
माल्दिभ्स
अख्तियारी
राहुल
ڀ
विमति
पृष्ठभूमिमा
輩
अधिकतम
कम्पनीले
मिश्र
क्षेत्राधिकार
जीविकोपार्जन
भइसके
##्सको
##अनुरूप
##ठूला
आपूर्ति
बंगलादेशले
##र्च
लमजुङको
असोज
आकर्षक
ݱ
##ोड
വ
निष्काश
बेचेर
सन्ध
/>
##फोन
शरद
##गुट
##ोद
ง
डंगोल
शरी
सेभ
##शको
##ٖ
##अगा
देखिए
रोप्ने
##क्की
##लाको
कमज
रोचक
##ल्न
सावधान
स्थानीयस्तरमा
भिडियोलाई
पीडा
फोन
बेरोजगार
सर्जरी
डेमोक्रेट
９
##ъ
##प्पु
##र्ब
बैठकले
##छाड
इतिहासकै
क्षतिमा
बैज्ञानिक
कब्ज
पीडितको
🇱
债
˹
लेनि
जुटाउन
劒
रोजगारीमा
##दिएका
खाँदा
##ˆ
ղ
जग
पृथक
सक्नु
प्रधानमन्त्रीसँग
申
२००७
पुनर्निर्माणमा
यसैको
ჹ
अवै
कोष
박
##ɿ
इयर
बदल्न
㉠
लोह
भोगेका
▀
नगरमा
##ŀ
सर्वाधिक
##ប
݂
यिनी
नमूना
奉
रेट
ɽ
हकमा
ममता
沒
जागरण
विना
垂
##फिट
टेर
स्तन
##जनमा
🏽
महत्त्वको
।'
蜯
##ईले
मिलाउन
भाषालाई
06
##შ
##ҳ
इतिहासमै
पुष्पकमल
हेलिकप्टर
##रीमा
अङ्क
लुकाउन
नेपालको
पण्डित
निदा
##श
प्रेम
त्रि
विक्री
##शास्त्री
स्वभाव
単
अपेक्षाकृत
##चुली
रायमाझी
##랍
##ﭨ
खाता
चुकेको
另
̓
##नुपर्दैन
बराबरी
##せ
अध
साथीलाई
坊
피
##ٱ
##फेरो
##ुप्
##ेडिङ
जनताका
मनाङको
##फेर
सुन्तला
##बीचको
ǉ
if
कामकार
निर्माणलाई
धिर
शंख
䠭
first
खाए
स्वायत्त
##ẩ
;
像
##ुरोग
##ਖ
店
गुरुङ
फरकफरक
##quo
जहिल्यै
काठमाडौँबाट
रमण
जानी
लिदै
##ल्टी
繞
##च्छेद
प्रजिअ
प्रतियोगिताको
अमात्य
##हामा
घाँस
##24
음
##き
new
घटनास्थल
##षा
##71
慮
हुनबाट
भिन्नता
论
निहित
##जस्ता
बालुवाटारमा
असह
पोस्टमा
बाबुको
膜
端
"?><
##ӵ
##ĵ
##ば
चाख
भूमिका
ਵ
नवनियुक्त
उमेरका
कुँवरले
हुनेछैन
##न्मुख
##뿐
बराबरीमा
贤
🏡
##बेर
ằ
भर्या
के
##᝚
錄
तर्फबाट
लिखित
痿
पन्तले
संग्रह
##ბ
䖥
摔
ڱ
?”
शर्माको
कमरेड
ַ
खानेकुरा
浣
रोजगारीका
मुलुक
inv
बेखबर
नेताको
##ot
ट
क्याम्प
कागजी
चाहना
en
##लार्ई
अघिको
आक्रोश
फाइन
चाहँदैनन्
मत्
嘉
##ङ्गको
##ेस्
##ៃ
राष्ट्रिय
भईरहेको
लाइसेन्स
ฒ
भुज
##ᵤ
मन्त्रीहरु
ߨ
भुमिका
##000
##ly
कहि
प्रस्ताव
ਨ
हाजिर
निर्वाचनपछि
सुनस
आउँथे
ठूला
疲
खल्
लाभकर
ś
̬
ब्यस्त
ڥ
##ß
번
हेर्
प्रकरण
अनुपम
इन्भेष्ट
रियलले
觕
##जन
까
तथ्यांकमा
प्रधानले
##सँग
##हारा
आशीर्वाद
##¥
अठोट
##्ठा
आत्महत्या
लो
कुराकानीको
दिलाउन
तिब्बत
संस्थान
स्कुटरको
विक्रि
कार्यसमितिको
##ྩ
型
##\
भेटिएको
##ाग्रही
कोट
##σ
##्रो
s
##हरुबाट
देशभक्त
年
अब्द
疾
मिल्नेछ
##चल्
##ϫ
तिहाइ
ๆ
हिँडेर
ਅ
रणनीतिमा
बस्ती
̛
20
##ֹ
बिजुली
माध्यामिक
बिक्रीमा
मोहन
कात्
ज्य
छुट्टाछुट्टै
锰
长
與
चिना
##６
उन्नति
लिम्बु
请
##वाई
अपनाउने
लिभर
एसियाका
संग्र
##र्ल
बाहेकका
असार
ब्रह्म
##422
पुरुषतर्फ
护
आरा
ؑ
##धिक
应
海
惚
6th
͙
लायक
हकको
≢
गठ
浕
##ȁ
##दर्श
आस
set
नवदुर्गा
जंग
सविन
半
##ौज
प्रतिनिध
शहीद
##͖
##ओले
敵
子
स्वास्
##able
घाइतेको
प्रविधिबाट
##्रु
##नीतिक
鬡
ܦ
अत्यधिक
ẫ
एकदिन
##ފ
懂
राजपाको
स्तरबाट
कार्यान्वयन
ۘ
हँुदा
큮
##ज्यूले
|
惠
##ც
##ललाई
बालकको
पदार्थको
सफ्टवेयर
प्रसूति
ؕ
l
लगत्तै
様
##स्की
##ूला
कतिपय
##बाई
देवकोटाले
फ्रान्सले
ओलीसँग
毕
##हरुका
##ө
##˕
##✅
ם
श्रेष्ठका
कर्मचारीहरुलाई
##म्प
किनार
##υ
##ѭ
##टीमा
उदाहरणीय
##…
女
##न्डै
वढ
म्याद
रैथाने
͍
὆
##वारण
##ғ
राजेन्द्र
उखु
ỉ
##ैपर्ने
ߘ
thumb
इट
प्राण
of
##क्रिट
ك
हेर्नुपर्छ
##जहाज
##ेट्स
愿
पुरानै
जिवि
初
##ोर
उद्देश्य
##찬
सङ्ग्रह
##भराउ
सिं
距
##ंगल
दिवस
sarkar
##स्किल
##쁺
चार्ट
à
एकद
कुद
玻
an
##बिल
ɫ
खाल्डाखुल्डी
नछ
प्र
रौ
शौ
चाँडो
ਟ
登
##ृत
यसप्र
प्रयास
##crip
many
##विपरी
چ
साइन
##ɓ
सम्झौताको
अधिराज्य
बनाइयो
ब्याजदर
गज्ज
‐
町
ト
वृत्ति
आममा
प्रोत्सा
जलविद्युत
∛
ɘ
##</
तापक्रम
##पट्टी
टुंगो
##कालका
टोलीबाट
##स्ति
भन्दा
१९८
क्याम्पसका
道
ठाउमा
भएकाे
程
मानवअधिकार
खेलमैदान
हैसियतले
##मुखी
पुनस्र्था
प्रक्रियालाई
होल
रजनी
चाहि
मागलाई
##ब्य
दीपक
##ʰ
बंगलादेशी
##티
अर्कातिर
电
कांग्रेसका
須
अपरान्ह
धन्यबाद
पर्खाल
पिल्
उनीहरु
ठाकुरले
##marg
##ंको
##क्रिय
̘
जनावर
디
sun
##टप
##पं
##ዛ
नतिर
##हो
##ebook
##द्र्धन
##२०
कात्तिक
##ڬ
परी
पेरिस
फिल्मको
फ्लु
मेरु
स्ने
##गण्डकी
益
##िनियाँ
##３
छैट
##पल्ट
गायक
idea
gar
तरकारी
अस्पताल
सचिवमा
सदर
##ం
अन्यो
महाराजगन्ज
मुद्दा
##फोनको
嫎
सदस्यलाई
चाह
##69
##΢
कम्प
समेटेर
##ेली
व्यवसायिक
统
कमजोरी
उम्मेदवारी
थिम
आक्रमणकारी
##िङले
ն
कमाउने
शय्या
##ம
##ोमा
खुल्
झड
峻
##भित्र
߷
जुल
ਣ
मिलेर
जमघट
महोत्सवमा
बलले
발
बजेसम्म
⊗
科
गुल्मीको
आएसँगै
##ـ
##ृतमा
##웠
´
##era
ध्याना
कार्यक्रममा
##काण्ड
आशंका
प्रदर्शनीमा
मन्दिरलाई
चू
##–
सिकार
073
सञ्चित
玩
परे
##ặ
##́
##उँछिन्
सबैभन्दा
##ारमा
##˥
तपाईंका
仓
अफ्रिकी
û
э
招
尺
ژ
ݵ
टेस्ट
दमकल
सेतो
✉
期
जिव
##ǣ
शृ
हाई
##कप
˙
स्वर्ग
ؓ
सक्दिन
従
##ामुनि
गर्दैछौं
विमानस्थल
अद
##uter
##याँ
##संगको
##ꕊ
केन्या
बसमा
骏
##ȷ
ત
मावि
लिनु
दबाबमा
##ङ्ग्य
##ͥ
fac
그
बिरोध
सिकेर
##̱
碎
नया
औलो
⨿
बुट
दबाब
नाकाबन्दीको
!
##៍
हितको
फिल्मलाई
स्वत
##👉
##तिमा
प्रस्तावलाई
##ेटो
##ानो
हुन्छौं
सगरमा
खोजे
##ੈ
##पुस्त
बिपी
दाहाललाई
##õ
पुष
🇩
##मीमा
आफैंले
दिमा
शुभचिन्त
##th
रसायन
प्रतिस्पर्धी
निस्त
बन्दै
हुनुपर्छ
ɚ
ट्रस्ट
##네
؟
產
दौड
लाग्
रविन
ٔ
##वामा
##ൊ
##........
ٙ
महन्थ
प्युठान
गोरखापत्र
जीवनभर
दिक्तेल
अधिकृतको
؎
मालिक
##खाला
सत्र
चाँगुन
बेड
राष्ट्रपति
##सक्दो
홈
##दर
समिती
##छेउ
फिर्ता
पुनर्उत्पादन
नियमावली
##पढ
##सेठ
जानुअघि
১
##🇵
ස
नबढ
वनको
गी
🌻
##ব
कांस्य
##ath
कठिनाइ
हजारका
規
उपदेश
##ꆷ
ठुलो
咨
पुस्तक
नलिएको
##ੰ
विध
峰
प्रसिद्ध
प्रकट
24th
滋
कम्युनि
न्
चल्नेछ
न्यून
प्रयोगकर्ताहरूका
##번
क्लबमा
शिव
गइन्
##फ्
सेमिफाइनल
##ज्ज
ट्रेनिङ
##राही
##गा
किमी
कुकुरको
化
सक्न
超
魂
생
झैं
##काजी
उम
厂
##िसँगै
केन्द्रविन्दु
##ामध्ये
मध्यपुर
ק
जर्मन
तीनजना
नि
संचालित
😔
गाउँका
अङ्ग्र
दोष
##҇
ケ
पुर्खा
ga
वास्तव
ब्लग
粋
硅
##ڱ
##템
लिला
##ताले
उध
मिहिने
ह्यारी
04
अभियानमा
##ुप्र
##सीमा
ܼ
##णय
प्रतिलिपि
शृङ्खला
शारी
##कारले
श्रेणी
रोकेको
स्विकार
सुनाइ
प्लटिङ
ҫ
]
##गठ
##ڮ
संसारभर
सर्ने
बसको
चालकले
एका
लोकतन्त्रको
धनबहादुर
##संयोजक
वडामा
##तियार
विकले
प्लेअफ
##लेमा
##ाध्यापक
##बुल
##た
ढल
नपुग्ने
१९९९
अर्चना
量
##पर्छ
थापाले
जिल्लास्थित
महा
घट्ट
गाएर
आवतजावत
龙
♢
क्षेत्री
नवराज
座
礎
बैंक
約
##घरमा
अखबार
##दी
蓋
##धि
##̈́
सतहमा
񪺟
सोमबारको
पाए
ｒ
पुगेका
गरिरहँदा
璃
##ֆ
##ិ
##디
臭
##ે
उच्चस्तरीय
##कारी
त्रैमासिक
##〝
निरा
मुद्दामा
अवतरण
##კ
गर्दछु
पुननिर्माण
भरो
सयको
सुनुवाई
जहाँ
س
##किएको
comm
##ձ
उत्तम
कटारी
पराज
समाजको
पुष्कर
##फिल्
##«
œ
ݽ
गर्दथे
א
ҩ
जबर्जस्ती
##л
भित्रिएको
मातृ
##सल
शौच
अर्थमन्त्री
दैले
प्रकार
毎
अन्तिममा
##हेलना
आर्ट
##दरले
गुन्जन
##ियो
祥
##ഡ
घरदै
भरोसा
##जर
那
##ợ
急
##ٰ
等
样
बिस्तारै
बढ्ने
अपलोड
साइ
फु
##ित्दै
##काश
बाँध
हा
ా
शाहलाई
맗
एटीएम
महिलामाथि
वास्ता
##ҧ
##थ्यो
個
##τ
घिमिर
अनुसू
क्याले
##वाही
दिने
##ँदा
##क्ष्म
ۭ
ഹ
ݡ
##बेट
भत्
##थी
##निकट
##҂
逆
अन्तक्र्र
जुत्ता
भेरी
देवको
मेयर
रामा
एम्बुले
चण्ड
##֛
डेब्यू
चुल्
##थु
दर्शना
पुगिसकेको
यात्रुले
##न्दर्य
अर्घाखाँची
माध
##ध्ये
garna
पाउँदैनन्
महाधिवेशनमा
खम्बा
पक्की
ट्यांकर
दरबार
नगरौं
##ेडिट
बक्सिङ
##82
मजबुत
च्याम्प
लिएकी
##बायो
让
निगरानी
आफुले
पुर्वाधार
पर्वमा
##प्राइज
##सञ्च
##͐
##ภ
छनोटको
प्रक्षेप
##ะ
मृत्युपछि
हातबाट
ឈ
##तिका
पराजुलीले
मित्र
लड्ने
综
जौ
अप्रिय
85
बल्झ
##नुभएन
##ks
अस्वीकृत
##य
##갥
घडेरी
##िमिटर
आमरण
सामा
##h
##―
##देशिक
ऌ
##없
खटिएका
पर्छन्
जिकिर
प्रदेश
विकट
समृद्ध
##unt
फिल्ड
##ѥ
##पालिका
娜
ŷ
##पदार्थ
रियल
उहाँलाई
लिनुपर्छ
नाका
क्ला
चन्द्रमा
##ピ
द्रु
दरमा
झोलु
अभिनित
##ई
शनिवार
##्चा
##🌙
gare
##ंगै
पारसले
बिन्दुले
फुर्सद
माई
##͘
##ͱ
ठक्करबाट
परीक्षणका
##म्बु
माल्दिभ्
पहलक
ठाकुर
प्रयोग
मतले
矢
विस्
##देशीय
भूमिकामा
खादा
चुलिएको
##कूल
袜
गुठी
##ღ
खर्चेर
सनम
声
開
ओलीले
गोली
##नाई
लिगा
वाटर
##ұ
##ंग्य
क्रस
आउछ
दरबन्द
##कट
झुक
##दायित्व
̍
०७०
##に
֠
निर
养
चीनको
离
बन्नु
##पिट
हाले
##cription
राउतलाई
सभामुख
समस्यामा
ぁ
##☻
थपेर
绵
##ार्ज
##णले
ॐ
楚
उद्घाटन
विश्वप्रकाश
दर्जा
##ښ
पीडामा
ळ
##̞
वीरेन्द्र
😐
गरिँदैछ
⧟
सहयोगी
##ҽ
ठान्ने
श्रद्धा
बझाङ
सपनामा
हले
हिजोआज
야
सहानुभूति
तथ्यलाई
व्यवहारमा
कार्यसम्
ا
मार्फत्
肌
ԅ
कुलपति
चट
##֝
##्दो
साविकको
##ब्युरो
ज्ञापन
##욎
असाध्यै
##🎼
संस्कृति
नआउने
जता
##शाख
पेट्रोलियम
चौथो
इसाई
방
वल्र्डलिंक
ề
खान्छ
ӗ
##ंव
आकर्षण
##ेद
व्यापारमा
मुस्किल
##नुपर्थ्यो
##कर्षण
बोक
जेभी
बाध्यता
##काएर
न्यायो
विचाराधीन
단
यसबीचमा
अनौपचारिक
pahilopost
घाटा
गोठ
रोपनी
खर
अपराधी
सकेर
桃
भाँडा
स्टाइल
रिस
कार्यकर्ताले
撂
⋲
प्रतिशतका
बहुमूल्य
रहँदा
##ुको
एक्कासि
##भुत
##भव
हुँदो
नसक्नु
##डीका
##द्धार
जस्ता
雇
नाकाबन्द
㢘
व्यवस्थापन
यौनसम्पर्क
##कर्तालाई
ᷠ
रोपा
प्रण
##시
ठ्या
पलायन
चुच
##न्दोल
ȵ
लागूऔषध
##पट्टि
भगवती
##erved
##्ले
शिक्षालय
स्कुटर
दीप
pur
वीरगन्ज
昨
क्लबलाई
उल्लेख्य
##ߚ
é
##ഐ
किराना
दाई
रुपा
验
अथवा
कुरो
नौलो
缈
sup
ň
##र्वा
उफ्र
चल्न
आलोचनात्मक
ಬ
यात्रामा
##ک
त्यसलाई
पञ्चा
ֆ
送
भट्टको
ܿ
संघलाई
पूर्वाधारको
##विद्य
प्रतिष्ठ
##ेय
जापानी
##ជ
る
लिक
नाता
मञ्जु
शृंख
फैसला
स्वतन्त्रता
अनुभवी
艺
##е
##art
समुदायको
२०५८
ऑ
堪
ữ
चिने
़
##पुस्ता
कृत
丁
कार्यकक्ष
##ल्दा
अल
溯
##रु
तिला
आन्दोलनमा
अलैँ
##जात
##ް
ച
ओलम्प
##्यान्ड
सौन्दर्य
##िनै
हौ
अनशन
##बित्तिकै
फुटबलका
##गढ
निक्षेप
अर्पण
नदि
भेगमा
##कुने
महिन
##60
नष्ट
बुवाको
##ジ
दैनिकी
आफ्ना
प्ल
उमेर
下
##ागि
सोध्य
ڝ
आवास
विन
ą
##साता
एड्
सरुवा
ससु
तोकिएको
वेपत्ता
##लोजी
सुन्नि
̶
##ap
주
गरेको
गरिएको
উ
हिँड
##ंकित
pra
डीआईजी
##ेक्टर
सहाय
फेरि
✖
丰
राह
बढावा
शिक्षामन्त्री
सुब्बा
##भक्ति
；
##܆
क्लि
मल्लको
##🎹
वर्गका
झन्
स्थानीय
गराउने
瑞
पूर्वाञ्चल
भेदभाव
##ोध
##नालाई
बनाइएको
ह्रास
##🌡
गरिसकेपछि
##֗
थियौँ
बस्थ
लाउ
कामदारका
याममा
मस्तिष्
##र्म
स्पोर्ट्स
३३
नेपालीको
bas
नत्र
##काउने
##ᤱ
बजेदेखि
वृद्धिका
◊
֜
अल्पसंख्यक
֗
ȏ
रम्
##՚
सीत
啪
출
काठमाडौँका
बेलामा
देखेपछि
नुह
##स्थ्य
मिल
२०६
ĕ
बिद्यालय
बसेर
##ामा
लडेको
स्मारक
反
约
प्रारम्भिक
##गमन
रुसको
अर्काे
भनाइमा
##कामा
स्टिकरहरु
##पर्
##व्र
##ਘ
##񬊾
गतिशील
韩
विज्ञहरूले
##अघि
चारमा
छैनौँ
募
##जुर
अनि
##딩
परिषद्ले
ｐ
##खुट्ट
अवस्थामा
##भोग
幊
گ
कोर्स
##ɂ
महाप्रबन्धक
उद्योगलाई
जस्तो
##पर्यो
गरिदिनु
माल्दिभ
##िरहे
##ालले
बन्द
ᤤ
योजनाको
岡
नचाहने
##विको
##साग
含
##ﹾ
##ܧ
ી
ഷ
सयौँ
##हरूको
खड्ग
##खुट्टा
राशी
##ारका
इमानदारी
तयारी
मानिने
##म्भ
妨
롰
񺦨
दिलबहादुर
##वतीको
नेत्र
जीवित
##ޮ
梨
##लन
꧜
जाइ
लक्ष्मीको
##बहु
ɶ
गिरोह
खवर
पत्रकारहरु
कुखुराको
फिच
槐
आहार
疃
##կ
दिएँ
##니
##धै
勲
##ियोजित
##्ला
ۃ
अभिव्यक्त
भो
खरि
बेहोस
灯
##✴
##܍
महशुस
सर्वोच्चमा
गर्नका
दुर्घटनाको
##ͣ
##ᤥ
सिकाइ
삼
तथ
##؋
त्रा
स्याउ
घेराउ
al
ԭ
##eb
धर्मका
विमानस्थलबाट
##ानिक
##ृत्ति
देवदह
##로
짠
^
학
अन्तराष्ट्रिय
अर्ग
##ង
##19
##б
##विरुद्ध
##ामै
समसाम
सोचेका
🌹
बिचार
सुत्ने
ދ
निम्न
ク
जोगाउने
##निकरण
प्रयोगमा
##ʾ
አ
霉
रोगका
##ȗ
पहिल्यै
##ोडी
##फी
##허
वजन
##ꣳ
राज्यका
##￣
枡
could
秘
##मानी
उपभोक्ताले
व्यक्ति
जघन्य
܊
##ङदी
bank
##बले
##ݧ
了
निरंक
जीवनमा
##뒽
धुम
ऋणको
घट्दो
˄
किटान
##रहेका
थाल्ने
島
ग्र
गर्यौँ
हुनका
ア
🙉
##ƌ
अपनाउन
##ؕ
##ङ्ग्रेस
पाइ
स्वतन्त्रताको
बस्छन्
##भूकम्प
कठि
सो
क्लिक
替
उम्मेदवारको
संलग्नता
〟
陷
दूर
꯫
मतदान
हँ
計
सग
दरबारको
##मनको
##ः३०
गोला
##छो
##्याए
99
नेकपाका
छिमेकीको
۟
##ק
##😹
ढंगले
भिक्टोर
मानिसलाई
बर्षमा
ܻ
खो
弱
##ᤍ
अदालतका
##ce
##षद्
राउ
##z
版
अश्लील
कहिलेका
प्रजातान्त्रिक
##समध्ये
उद्यमशील
देखिएका
प्रतिरक्षा
军
अला
मुखमा
एस
पारेर
页
दिएपछि
जगदीश
राज्य
耼
अध्यापन
मस्
विद्यालयले
डकु
ϥ
गराएपछि
कुव
एमा
##ϩ
आरिफ
##ء
८३
##र्तन
##सत्ता
ਛ
##पमा
##साम
##रत्न
瘠
लिम
रुपैँया
##जन्य
उपकरणको
कामु
弃
ۓ
पै
मुकुन्द
अवरुद्ध
art
##स्थलको
ӱ
अविलम्ब
भावुक
##िनमा
##ेसनले
इज्जत
ℑ
मौज्दात
रिहा
##रा
##ket
款
##ङका
प्रभावमा
##सञ्चार
##्युट
अस्पताललाई
कञ्चनपुर
भूकम्पको
बजेटले
की
##ँ
नियन्त्रक
बाटोमा
शैली
हरि
波
절
##《
##क्समा
##बादी
涵
ताप्लेजुङ
闻
쉞
modules
##वार्ता
देखिन्छ
सञ्चारमा
हानि
##š
൒
असुरक्षित
अग्ला
話
##ष्टी
wind
यसपाली
संस्थाबाट
悔
廉
कार
अत्या
ഉ
##भाषा
प्रतिवादी
सप्तरीको
##ª
"></
ट्रम्पको
गर्नेहरु
##घरको
##्वल
कृषकको
ॢ
पिङ
##मलाई
थिएन
अटेर
ܴ
अदालतको
##चु
पर्ला
##ǒ
壁
޺
विषयगत
नबो
##‣
पत्रिकाले
लव
##ानीको
शिक्षालाई
##भमेन्ट
रोक्का
कमल
##क्ष्
##डिखेल
##िदै
कल्याणकारी
वर्षअघिको
पस्
##रीक्षक
घण्टाको
神
##वादीको
भयौं
र्या
सेवासु
##पति
सेन्टर
उभि
सर्वेक्षणमा
##ต
आइरहेका
답
अदालतबाट
शक्तिको
##कां
##पण
ट्रेकिङ
सबैलाई
अतिरिक्त
टिप्न
सभापति
尸
खोज्छन्
नपठ
देशभरि
कालान्तरमा
##ચ
२०१४
कविता
##द्र
신
दाहिने
नेप्
##bar
फाइल
संख्यामा
ता
覮
तेश
डोरी
गढ
ᚔ
सुम्प
##टाको
##विद्
मुद्दाको
जग्गाको
नगरी
##त्य
##न्तर
बर्षको
नारी
७१
##रायल
ठिकै
विशुद्ध
##ित्त
आत्मकथा
आँगन
##ेरी
उद्धारमा
बो
##q
##तार
मुद्दाका
ദ
गोर
##ियस
निर्णयबाट
歬
चौडाइ
हुनुअघि
思
，
अर्घा
मन्त्रिपरिषद
ढोर
चार
##र्टर
गुड्ने
धुन
आत
कार्यपत्र
निर्माण
缓
करको
भइरहँदा
हातखुट्टा
##ན
राजमार्गको
गाउँसभा
कसैका
खानले
नपर्ने
स्पि
##भे
हिनामिना
─
गै
सक्थे
बायो
संघर्ष
쏿
साधनलाई
matra
׃
प्रिन्ट
站
⫴
##ズ
##रहेकै
त्यहाँको
ő
गर्दागर्दै
बोलाउने
युरोपमा
##প
प्रदेशले
रेल
抽
बिट
फ
घरेलु
टनेल
पर्दै
##답
फर्किएका
हरिहर
बासिन्दा
##_
म्यानेजर
孞
।[
क्याप
##राउ
हेल
सुमित
##ȇ
केन्द्रका
##ख्ख
##ist
परराष्ट्रमन्त्री
विषयक
बित
##द
•
##कासि
निको
म्यानमा
विभागको
हुदैन
टाइप
te
जिज्ञासा
##कम
दक्षिणा
श्रृंखला
##भले
ི
又
##रीले
किलोमिटरको
द्वार
सकेको
##ݎ
दृष्टिले
##पुरबाट
अभिव्य
थिच
हटाएर
込
##रुद्ध
आलेख
変
बोलेको
माडी
驭
ȅ
खत्री
युगमा
नायब
इजि
फर्कने
导
脚
काँ
ǟ
ag
महालक्ष्मी
लगाउनु
इटाली
आएकाले
捏
छुट्टै
##ॡ
झल्काउने
嘞
##थ्र्य
झाँकी
छुट्टाछुट
लीला
शब्दा
एनस
##़
##आन
🇳
आवासीय
##वंश
##켓
存
किटानी
छुट्याएको
नयाँ
##̓
壮
मोल
सूर्तीजन्य
न्यान
##ꊣ
वीपी
骷
निवासमा
##ಳ
##न्दिर
भक्तजन
जानका
希
वर्षौ
##ानाथ
ܔ
१९९४
##ऎ
शस
##～
##ͦ
जनवरी
##ł
थालेको
धुवा
भूकम्प
महानु
मानसिकता
पर्यटकका
##է
🎼
##लाउन
इंग्ल्याण्ड
मुस्कुरा
蘭
दिपेश
ે
नगर
दसैं
गुट
׶
अनुगमन
केजीमा
##ari
लाई
विगतको
सकि
अपरि
##जा
भागबन्डा
सम्भावित
होम
कट्ठा
##ੂ
ग्या
ᵻ
##पाला
ɰ
२०६५
re
नाइजेर
भोग्दै
み
रुकुमको
ago
भैरह
महत्वपूर्ण
गिरीको
ज्वा
##য়
बेइजिङ
स्वी
##हरूमाथि
रोगबाट
##ȑ
प्रदर्शनकारी
आर्मीले
桑
पसले
प्रयो
कटुवाल
राजनीतिज्ञ
##ंगिक
पार्दै
सेवालाई
निः
實
सर्वेन्द्र
काण्ड
बतायो
##व्याप
￣
##ुवाको
इन्डियन
बन्दैन
##निष्ट
पी
बिज्ञ
रणनीति
##वागढी
दिसा
पालै
##खा
##स्ता
सर्वदलीय
##यल
विधेयक
नगरसभा
##िणी
##ञ
##भेन्ट
🇹
मड
जान्न
##ख़
혰
सिटीको
周
टेकबहादुर
ិ
कार्यक्रमले
४
##सम्बन्धी
汉
医
休
梁
भूमिहीन
##कने
बाढीका
सङ्घले
मर्कामा
ग्रामिण
停
⓵
ｅ
ս
ढाँचामा
दाइले
##!!
मौसमी
##र्ते
फ्ला
खाँद
पुच्छ
##िदि
ו
एकदिव
据
विजे
##ߒ
##ӈ
विस्तार
仕
चाहन्छ
##ity
##ī
काण्डमा
छोरा
नलाग
प्रमाणीकरण
बान
भ्रमणले
सुनुवार
##수
++%
दार्ज
##ियन
##क्षेत्रको
आसपासको
जति
घोषित
निस्किएका
##િ
रुष्ट
साथीहरू
राख्नुभएको
##ı
अभिभावकको
हाते
✊
एकोहोरो
कामदार
##ed
##ạ
संघीयतालाई
जन्माउन
##ब्दी
¼
ऐनअनुसार
कपि
मेलम्ची
फेसबुकमा
引
सुविधामा
युनियनको
नपाएर
प्रग
##ể
क्रिकेटमा
##रोध
क्वाटरफाइनलमा
आमूल
##ङ्कर
##चाल
रक
स्नान
घरजग्गा
ही
केदार
भइन्
२०६०
सेवाग्राहीलाई
##ｵ
महिना
ผ
off
##्याण्ड
भएजस्तो
शी
हुनेले
निरज
वृद्धवृद्ध
##ोसिए
पक्षमा
糇
दाख
प्राध्यापक
乾
候
भित्र्याउने
भाषामा
समृद्धिका
话
पर्यटनको
अनिता
李
船
समयको
नेपालमा
##ア
षड्यन्त्र
लेख्ने
##જ
綿
तेह्र
आरोप
۴
梦
极
कतार
籍
वातावरणमा
##や
٢
##e
##ޱ
##आत
अाज
आख्यान
खाजा
परिक्रमा
मण्डलको
संयोजक
##94
दोश्रो
##प्रथम
疑
सुगम
बाझ
स्नातको
❸
सडकबाट
💯
炣
टापु
धागो
सशक्तीकरण
##ч
##वलीमा
बुद्धको
सहिष्णु
साप
चर्चामा
##릭
छाप्ने
ƀ
क्षत्री
##काउन
गोस
भइसक्दा
भनेजस्तो
मोवाइ
純
पशुपालन
##्यै
##डम
##81
छप
अध्ययनमा
##で
##नाइज
आएँ
काजी
ܪ
珂
नरहेका
##ष्
ウ
覆
धन्यवाद
अक्षय
खेलका
रायमा
##ѷ
घण्
गराउनुभयो
प्रतिद्वन्द्वी
ˮ
गच्छदार
##डेरी
चाहन्थे
さ
」
हजारभन्दा
पासवान
जनतासँग
यही
ल्याप
प्रगतिको
럼
कँडेलले
बृहत्
##ड्के
##मार्ट
फेसन
टिस
区
रहेकामा
चिनाउने
ḍ
##ेल
ग्रह
शान्त
##कथा
थ्रीस्टार
निस्किएको
ર
lif
##डामा
कामदारलाई
संहि
एल
ċ
##~
##ؼ
तरिकाबाट
##माण
मुलुकबाट
##म्पो
##ʽ
瓦
😡
##भिट्टा
か
फले
ٛ
dece
##दिनु
मन्त्रिपरिषद्को
हदसम्म
वाग्
छिटो
छलफलमा
पछ्याएको
འ
许
##04
妈
भाव
कलैया
ڄ
울
ब्ल्या
##म्बी
ar
निगर
प्रवर्द्ध
क्षेत्रबाट
##ț
##त्रै
पोख्रेल
##दैनन्
##ाँडा
योजनाअनुसार
ຯ
ۤ
प्ला
count
##ŋ
पाएन
रहेकी
##ສ
㍺
राजी
ԁ
भन्नेमा
姜
査
##भौ
रात
आईएमई
नमा
पर्दछ
友
##फु
देखिँदै
प्रेमको
इतिहा
सुधा
##ⲏ
पुल
##्राचार्य
片
ꠒ
##ay
시
153
कि
鏹
##दायी
##धनीले
थ्री
##्र्या
搭
##mana
##ٳ
##ݓ
मार्
तु
拶
बिघा
##ض
प्रविधी
कार्यहरु
फेक
इमोजी
##डोर
##✍
##देउ
ు
इन्स्टाग्र
अग्रवाल
दिनु
调
प्रवद्र्धन
दक्षता
सुनसरी
ネ
नियत
हवाइ
##ƍ
##क्षी
##टु
गैरजिम्म
##कार
野
रहनु
##ƿ
珫
门
暧
क्वा
चहलपहल
गरिनुपर्ने
险
सहभागीता
渤
##पछी
एपीएफ
बार्सिलोनाका
##ẹ
😠
ed
बढाइ
श्रोता
ᤷ
भोग
चरा
समूहलाई
हरित
##δ
##वद्ध
ӎ
देखाउँछ
पस्क
आधा
सुकै
कायम
साधना
会
##हण
新
गुण
##ុ
##49
जनयुद्धको
##िमुख
##दुर
##쐎
नकारात्मक
साहले
##개
स्वयंसेव
केन्द्रिय
प्रोटिन
##न्थ
अझैसम्म
बहिष्कार
##ain
भैलो
सेन्ट्रल
जेने
##पचारिक
सन्दीप
##ʸ
धनु
राष्ट्रपतिका
ザ
44
क्रियाशील
##सुल
៉
इन्स्टिच्युट
सुवेद
##√
##넉
ܵ
24
आर्म
##लट
ӿ
##फ्र
##्रय
मिल्
पाँचवटा
具
घाम
앙
##सक्ने
##जान
ფ
務
##लि
जागिर
दामोदर
##धारणा
कम्प्ले
理
##दिए
͈
अस्ट्रेलियाको
आग्रह
##드
उपस्थितिमा
##गात्मक
ठमेल
##ल्यै
स्थाय
कृपया
रि
##֜
रूपमै
≤
西
##뎾
संवत्
लाउन
０
ξ
सिन्ह्वा
乐
सापेक्ष
सट्टा
सभासद्
ल्हा
छो
/-
##ự
धरान
अवा
##თ
֔
मल्लले
महसु
बाक्
सद्भाव
८४
税
टिममा
हेर्नु
莞
ѧ
♥
ー
छिनोफानो
##िड
##नित
२०७०
##ब्रो
##र्मी
इन्द्र
मन्थ
सम्झ
प्रोट
सीधै
सिस्टम
जमिनको
##शास्त्र
अविरल
鸭
एक्काइस
भाषणमा
नीतिलाई
जेठा
विशेषता
热
劉
प्रधानन्यायाधीश
मग
##र्सी
##ेलाई
ய
##us
कार्कीलाई
स्कट
##ेस्ट
2018
50
एप्स
दार्चुला
नीजि
पाल्पा
वान
मर्मतका
伸
उम्मेद
##्वि
##½
शान्तिका
स्वीट्जर
##पक्व
जुम्
रोजगारीको
पकाउने
現
नजिकका
न्यूनीकरण
आरोही
बुवाले
सृष्टि
ठेकेदारले
##हा
युनिभर्सिटी
लगानीकर्ताले
मौन
व्यापारको
샵
समुदायबाट
निर्णयअनुसार
##षि
प्रशिक्षक
झ
##97
ᤕ
इतिहासका
संगत
अदुवा
決
वर्ण
##ारो
ള
卡
मैले
##थर
##ियाली
दक्षिणमा
हेरेपछि
##ल्डी
टोली
थुप्रै
वनका
##ݥ
छलफलको
²
##रह्यो
##तर
##त्यार
ती
😞
두
##स्क
par
܅
there
लडाकु
पहिल्या
महर्जनले
जवाफदे
प्रदु
उपाधी
随
नहुन
गुराँस
नगरा
狭
न्या
wordpress
न्यायका
墓
लाइनमा
उठ्छ
##वितरण
हैसियत
नभएर
转
ա
##ョ
आइसकेका
रेश
##ful
##を
##घाती
磨
##29
hamro
悩
५
##񾘤
दूत
🤣
##ェ
others
##ator
͊
आपूm
गठन
दृष्टि
बताउनुहुन्छ
##إ
瓶
##न्दै
##ियामा
ग्राउन्ड
न्यायोचित
压
मल्टि
##कारा
##स्सा
थालियो
##¦
瞩
१८०
परिस्थिति
स्
निषेधित
##बन
हल्
प्रधानमन्त्रीले
चितवनमा
डाँडामा
श्राद्ध
लेखा
say
इञ्जिनियर
प्रयासमा
विशेषतः
##ष्ठ
कठ्ठा
वर्षको
##न्टल
अर्थमन्त्रालय
निर्मलाका
##47
जिल्ला
##😲
ब्यानर
狗
線
संस्थापक
मार
दलहरुलाई
अनुयायी
##ऋ
ก
##char
##दाय
उपकरण
२००
##गामी
##ゴ
冷
सातादेखि
##मीका
ਂ
सिद्ध
ढुक
आगमन
##぀
डिजेल
मानिसहरूको
अभिम
लोप
ற
चर्च
ǜ
ग्लोबल
संगीतकार
सांसदको
며
##ތ
##कु
##ۂ
पुरुषमा
साइत
98
छौँ
🎹
##거
बाँडफाँड
##ޙ
՘
सुचारु
सुनिश्चितता
##ज़
पोखराको
कोलो
सोध्न
प्रसन्न
प्रम
अपिल
भोल
##ऊँ
वैशाख
ጛ
महार
दोस्रोमा
लत
भिर
पारस्प
廳
##नि
प्रजन
युएस
महिनावारी
##ाइमा
##·
ۆ
🏼
##बाइ
धादिङको
पुस्तिका
##र्न
खेलकूद
ढाँचा
ế
##̢
##र्प
नामका
जहिले
##यन
##हिर
गुठ
ﴼ
荣
##्याएको
套
脂
플
##г
##नुभयो
रावलले
सधै
इतिहासको
निर्यात
se
诞
श्रुति
##マ
पुर्जा
##용
##ाइज
सतर्क
बरि
मकवानपुरका
𽲿
पाइँदैन
पछाडिको
ल्हो
##ื
राधिका
##नीति
铭
ჩ
ɧ
##मिला
अडियो
फ्याँ
##rd
##ric
##خ
##्यापन
##϶
कुँ
बन्धक
भनिन्
##ǯ
अन्तिम
रोगी
बलिदान
##ܵ
होली
मेमोरियल
आलोचित
दाता
##ial
किंग
つ
उठाएका
उत्पादनको
मध्यपहा
##्टै
##ఓ
तथ्या
पाइएन
##ݭ
##म्बरमा
թ
सम्पत्ति
忌
輡
निमा
व्याव
विश्वकप
राहदानी
##िनँ
##तिना
सिद्धान्तमा
##िक्स
##दोहो
सेरो
审
जा
बाई
ޙ
##र्ग
ɐ
##र्का
構
##ԩ
┌
राजनीतिले
खोज्छ
ϝ
बिताउने
厘
युट
उभ
टिका
शर्मिला
##हु
निर्णायक
ុ
स्थानबाट
ɕ
वायुसेवा
##દ
강
݌
##ration
over
भागी
赖
##ử
##ܝ
xml
दर्जनभन्दा
立
लिने
शुद्ध
बालबालिकालाई
यद्यपि
डुब
њ
साक्षरता
ल्याउने
넥
सुशासनको
वार्षिकोत्सव
ट्रक
##त्वको
साझ
##실
##ഥ
34
##समा
नरम
ш
दुख
##बू
##ोजी
बयान
坡
##ौँ
##ឯ
अनुसन्धानका
鉛
않
##हन
खाल्डाखु
##िएम
विनियोजन
केजी
बुवा
शिक्षाका
त्रिपुरेश्वर
प्रगाढ
##á
382
उखुको
##डबडी
圍
ҡ
##वारी
##्यन्त्र
मोफसल
##हि
घोषणापत्रमा
बाख्रा
इन्स्ट
怎
傲
ƍ
स्थित
स्याङ्जाको
า
चुल
ธ
भाइरस
##ਣ
ⱦ
ი
श्रेय
뵪
बाराको
अभ्यासको
छाप
देखाउन
##भूषण
😅
##ान
##ंले
ױ
खोजिरहेको
छोडेर
##ियोस्
महाधि
ߖ
अप
##은
पुगेको
पुर्याउनु
sabai
युनिभर्सिट
悉
फुर्
a3
亿
##धीश
चालक
तहलाई
np
सहभागिताको
陶
##िस्तान
ུ
मिसा
महासंघका
親
चिन्ताको
निधो
छिर्न
##फर्म
कारखाना
पहिरोले
अधिकारलाई
युवा
न्यायाधि
##धा
##सिक
##्याइ
अन्तरिम
पुष्पा
पृथ
समुद्र
##गीत
蓎
मजबु
कार्यालयको
प्रहरीमा
##गन
##च्ची
##लाञ्चोक
उपरीक्षक
##्र
ट्रम्पले
पनि
ग्रीन
##au
आँखाले
##‛
कञ्चनज
ᤣ
सुन्दरता
१२०
times
ͣ
##គ
ͼ
俊
सहायता
corporate
शरि
थप
स्कुलमा
सत्यको
विश्राम
गोठमा
##राइट
प्रतिस्पर्धामा
बजाएर
डरा
सीले
यसमा
गिरी
##सक
##할
##ʜ
מ
##डमा
昂
बाँच
खेलकुदमा
##ȉ
独
आइत
गोठा
बाँझो
सकरात्मक
##ю
पक्षबीच
मैथिली
烂
देउर
यात्रा
वर्गीकरण
प्रवन्ध
गर्द
उठाएर
贝
त्यसरी
उडान
गैरआ
पश्च
!!!
베
〜
荐
##सद
कतिपयले
##ச
##र्ष
##िनु
##ﾞ
प्रक्रियाबाट
सञ्चालक
ো
बढाउँछ
सुल्
洋
तीज
탂
.)
बुझ
メ
##９
##😏
余
युर
नेटवर्क
ठगी
і
##ैको
संस्कृतिमा
ढोकामा
काफी
दलको
अभावमा
ad
बर्दि
खबरदारी
हजारौँ
डेट
##र्थी
##ダ
##रीको
ݯ
अक
आजीवन
पूजापाठ
बेलायतको
पाटा
रोजग
专
ρ
माओवादीका
पर्याप्त
des
कामले
शालिक
हेड
सम्भाव्यता
अनेरास्ववियु
चितवन
लगाव
##݄
현
सोम
ড়
򶑃
##ు
##འ
ज्ञानेन्द्र
##ϒ
ͺ
धानको
नमान्ने
रिङ
उपमहानगर
made
बराबर
##नुका
##͵
काफ्लेले
##आरआई
बिश
ミ
कर्माचार्य
गुगल
##か
दाह
##िएसँगै
गुल्मी
ʶ
एकान्त
##ừ
तन
##ߊ
श्रद्धाञ्जली
एउटी
##कले
चिन
नम्ब
##गीले
बले
祭
टेण्डर
##펒
ณ
##र्व
ķ
세
अनुसन्धानले
दर्जन
##भत्ता
##्याम
것
##ވ
फ्
肥
बाल्य
ﾞ
प्रर्दशन
##िरहने
इन्डिज
单
頼
भेग
##ियोजन
करी
˦
##रहन
喂
附
अमृ
वहाँ
सकोस्
होमपेजमा
め
पूर्
कमिटी
मनाउँदै
##߿
पुस्ताले
##݁
ever
와
##etail
उपसमितिले
लाग्ने
지
##ोटी
कृष्ण
##89
स्रोतले
##გ
##ङ्सिर
गार्ड
रकमको
खारेज
##˵
##धारी
मामा
##पान
नखोज
भण्ड
म्या
पदीय
लघुव
馬
ി
##ब्ध
##'
##ुरो
횶
न्यूयोर्क
##ţ
##ौती
हाराहारीमा
कपुर
लम्स
प्रतिवेदनले
बच
ते
umesh
사
##द्री
अर्यालले
##सामान
item
ҋ
रङ
##ate
##लाम
सेवनले
राष्ट्रियसभा
##टस
##ञ्चलका
들
ե
##क्षेत्र
हलिउड
गर्नुभएका
निकाल्न
##ोग
चलखेल
##π
अनावश्यक
साहित्यका
गर्नुपर्नेमा
##ोन्मुख
फुटबलको
##इको
शुक्ल
😰
बन्यो
डिजिटल
##ाम
प्रोस
##ेकमा
मिलाएर
எ
##भित्रका
वृद्धवृद्धा
##क्रममा
कार्यकाल
सन्ज
讯
छोटो
б
क्यामेरा
##ेक
कर्मचारीले
##नमान
甘
संघले
नगरे
棱
25
##षण
##डम्बना
उडानका
खोजिएको
शरीरमा
खेलाडी
बनिन्
पेन
बु
男
तिमिल्सिनाले
ｌ
##ਤ
랜
##80
##चक
कार्
आउनुपर्छ
आकास
决
##मो
सेट
भ्यू
ڗ
敲
छौं
छिमेकीले
सोलार
##21
हिट
捂
समु
बोर्ड
लेखे
##ቢ
भारु
http
जगमा
##ृ
☺
仙
វ
래
##नीय
शब्दको
महेन्द्रले
पिएस
न्यायिक
##लम
फाईन
֛
जेठ
##£
शेखर
💘
गर्दछौं
聞
न्युजिल
##थोकी
##लाग्दा
प्रकृतिका
ボ
##सिद्ध
##एला
二
म्याग्दीको
##एपछि
बेंसीसहर
ꋩ
किनकि
뒽
3rd
गौतमको
देखी
हराएको
ჯ
##धुनिक
कलाकारहरुको
मिनी
ݮ
लघु
餅
हुनुहुन्थ्यो
जिल्लाको
आश्चर्य
अघि
आवश्य
सोभियत
ֱ
할
酢
रथ
कार्यदलको
बिदामा
गर
##٭
##cd64
चर्को
वक्तव्य
अधिकांश
गरिदैन
असिस्ट
##살
दा
यताउ
सहा
៥
案
🌷
##बारे
कमाण्ड
##옰
##け
ấ
▼
##շ
##प्रति
ǚ
ռ
अस्तित्व
贴
##धर
मुलुकी
✨
貴
給
##ण्ठ
##किपर
चल्दै
वैज्ञानिक
उत्खनन
स्क्वा
दुरुपयोग
पायक
पालैपालो
##द्घ
किसानहरू
पार्यो
दुरी
खुट्टाको
समाधानमा
##tions
उसो
##तो
आइसीसी
粉
विपक्ष
बनिसकेको
બ
ꍣ
अनुगम
##ओस
मिश्रले
युनाइटेड
গ
7
จ
श्लो
नर्सरी
साउदी
अर्य
किनबे
विगत
##्चोक
बढी
##ine
आकार
##ڞ
बन्ध
हुन्छ
##स्कीले
ǭ
बाहुल्य
महाभार
मातृका
##ठन
婚
नजिक
समायोजन
गाउँमा
##वन
जीत
##8
पोखरेल
घाइते
पल्ट
मही
##tha
##जाँच
elements
प्रोत्साहित
##ाल
車
लाभको
portal
紧
##जीले
##ँै
##म्वर
##्वी
##िएको
##т
खुद्रा
##p
##57
hourly
दोहोरो
मेघा
सेकेण्ड
मेट्रिक
##ǔ
रोक
##’
क्र
टुँडिखेलमा
##ט
बनाइदिने
深
किशोरीको
##वाट
##ल्लाह
पिता
##23
##ペ
##स्तरका
दृ
卉
लगानीलाई
सरकारले
##मणि
भ्यु
रक्त
महानगर
विधा
सहरको
য়
异
हाइड्रो
##ाधीन
ta
पकाउन
अमूल्य
##ानीमा
域
##वधि
##सव
धामी
編
खुलेका
pm
अहम्
आदि
##रीलाई
खनालको
पकेट
पदाधिकारी
पश्चिम
夜
आफ्
rep
##तिको
newsofnepal
२०५७
ꦱ
ओपनर
##नीलाई
संखुवा
##बो
जग्गाधनी
##ḍ
जर्म
展
##पुछ
哪
बैंकलाई
प्रभु
满
पौडेल
微
##गोठ
里
गढी
##प्ति
इन्भे
##वरण
गरिनुपर्छ
राजा
ى
सम्पति
吗
भौतिक
९६
##चोक
##ष्टाचार
##च
नियमनकारी
मात्रै
अधिवेश
नदिएको
##(
शैक्षिक
拡
##फर
दिन्छन्
हिँड्न
😟
##ལ
彰
किनमेल
तनाव
##ם
##तृ
बालबालिकाको
##⩌
समालो
##ैया
कार्यकालको
दलमा
comple
phone
अवस्थाका
भइरहेका
मलेसिया
सन्तानलाई
##݊
##ल्समा
खालि
हरिबहादुर
प्रधानमन्त्रीलाई
वि
थारू
##ૌ
रकमले
е
यस्ता
विव
खोलेका
वारपार
##हरुसँग
डिपि
पाकिस्तानले
सिरिज
जर्न
##ियनको
氟
बल्ल
नाउ
पुरुष
बसेको
हाल्ने
##ư
गइरहेका
हिम
缥
अस
##💥
शिक्षित
粕
충
##역
अनिश्चित
अन्त्ये
अक्टो
गर्नुका
अविवाहित
प्रधानमन्त्र
壶
by
##सुदेव
शैलेन्द्र
राष्ट्रको
##हरूले
अग्रवालले
ः
झिक
महत्त्व
##मध्ये
गोलको
बेलायती
अनुसन्धानमा
उल्टै
是
##ก
##ǚ
ꚹ
##ज्
सदस्यको
##դ
बिछ
##हिक
लै
扮
##ेश्वर
ओलीका
##पाको
उल्
##܃
आचारसं
##ुली
##ణ
सक्रियता
##ϧ
भट्ट
ɩ
##वासीय
निधिले
संचालन
營
💕
ポ
寂
疶
पुरस्कार
##्सले
##ច
優
##ᡬ
후
लाश
व्यक्तिगत
##ͺ
##ף
##ल्ने
##߀
##ाइँ
ײ
गरेमा
पशु
पुस्तालाई
स्वामित्वमा
हामीलाई
मोटरसाई
##बराबरको
ताल
प्रजातिका
बिदाको
माधव
बाटोको
।)
सम्झनामा
ԍ
विधेयकलाई
छन्द
भर्ती
आइतबार
मनकामना
शमशेर
शाक्यले
चेतना
逐
##ुअ
अम्बिका
##stha
अभिनेत्री
करोड
उम्मेदवारलाई
˰
सुरा
बेन्च
लगिएको
सिन्ड
##ϛ
तमाम
राखिन्छ
सेल्स
##ug
अवधिमा
##स्थल
लाग्नुपर्ने
दुग्ध
##ン
प्रशान्त
##۪
ë
अन्तरालमा
नामावली
##ԧ
귀
अधिकारीको
तीर्थ
##왴
गीतको
त्यहीँ
सिधै
प्रविधिले
咬
विडम्बना
򖳗
हुसेन
पार्
or
##se
##ݸ
##न्द्रुक
सञ्चारकर्मी
甍
परम्परालाई
詐
पारित
다
##्रेस
नेपालीहरुलाई
व्यवस्थाका
यदि
한
##ᷠ
काटेको
##तर्फबाट
##ソ
##🤔
ताला
छु
बोनस
जाँदा
यथावत
हिरो
靴
##वेको
##िसकेको
बढाउनुपर्छ
अङ्ग
१९९०
##ʺ
पुग्नेछ
##ाउन्ड
आउने
_
##35
पारेपछि
मान्द
सुनेर
नप
समस्याको
फूलको
ギ
پ
वर्षाको
प्रदीप
##ݍ
豊
हाम
अन्य
go
हेल्
ܸ
अतिथी
निक्
眾
nepal
उपयोगिता
##ली
खेलाडीले
शक्तिलाई
दुर्व्य
舉
नजर
संलग्न
侧
##दाता
ք
रिम
##ंडा
वाक्य
विरुद्धको
桨
अमेरिकी
##बढ
दफा
प्रा
##शुराम
निश
कमाएका
रुपैयाँसम्म
##ूप
團
##िसकेका
##ताप
छन्
획
आफूमाथि
भद्र
मधुमेह
ﾎ
##घारी
महानगरको
板
चाँडै
कोलम्ब
कैलालीका
उपसभापति
घुम्ती
बढ्छ
अर्थपूर्ण
##चाई
##्रान्त
##्लो
##ć
##हरुलाइ
##ंगत
परशुराम
ಶ
ቧ
मेरै
͕
रेष्ट
किलोमिट
खुसीको
समयअघि
##͋
असुल्ने
डेल
निवर्तमान
ജ
##फानो
पूर्वप्र
हरायो
간
शान्तिको
तिमीलाई
मरेका
##वाडी
देखा
बस्
संहिता
समयसम्म
बर्थ
संर
͎
ӣ
致
##गल
##म्सले
चाँगुनारायण
नातेदार
##हुँदै
तपाईंले
##ữ
खुले
उडा
ל
##ting
٘
##]></
पृथ्वीनारायण
##ܢ
##फाइनलमा
ߠ
अचेल
दिस
बुँदा
विद्यार्थीहरुले
बिस्तृतमा
櫿
देशभर
स्थलको
##निर्देश
उपसभामुख
बारेको
##चुङ
क्षेत्रको
तलव
##치
##ack
ल्
निकालेका
太
##ദ
##ഹ
धैर्य
˒
माध्यमबाट
pathak
멋
##វ
##सां
स्थानको
##ુ
उपद
##बत्ती
धर्मावल
##क्स
सेवाको
कृषक
##द्रो
पाउँछ
##कका
ݎ
उत्तीर्ण
मीन
補
##दायिक
लगानीकर्ता
गर्छिन्
बुढ
##करले
##in
##ā
बाहु
मौला
नगरेको
जर्मनी
युरोपेली
रोल्पा
देशका
##ാ
सिम
##١
👎
##ͷ
fee
जीवनको
۪
खुशी
टाटा
सामुहिक
営
##̗
आगो
##બ
##दाको
##सिना
गरिएकाले
##म्बार
सिजन
विसं
ŵ
##ណ
बिश्व
##ช
नियुक्तिको
##कता
आर्थिक
हिजोको
##क्त
##स्कुल
ʔ
गतेदेखि
पैठ
मायाको
मोर्चाका
स्थापनाको
ਧ
न
चा
मेडिस
पर्यटक
संविधानसभाबाट
सांसदहरू
ڪ
施
ज्यो
फ्रा
देवकोटाको
##ȶ
थिय
संघर्षको
दिक्क
बनाइने
截
##पाठ
गजुर
दोहोर्य
जलेश्वर
蜜
贵
गरेर
आइपुग्ने
पौष
##ξ
辦
सक्यो
८२
##ँया
ͷ
दललाई
मान्नु
तिनका
साबिकको
##श्रा
##ക
आफूहरुलाई
##ױ
थापामगर
墅
##न्डी
##ɒ
ܣ
सर
##own
उपमे
오
♯
अपनाएको
उद्य
गोबर
अंकमा
वेप
घुम्न
बोल्ने
ȡ
##ݙ
श्व
कालोपत्रे
updat
राजदूतावास
द्र
मनग्य
##काउ
##ڪ
हिंसाको
焲
##ȧ
बिजयी
🔥
༻
##रहनु
##कत
भक्तपुरमा
##ϋ
इँटा
शम्भ
नवौं
谜
##लका
जीवनयापन
पुग्दै
涉
तर्फको
##िन्थे
मैथि
उपा
is
##जिक
.]]></
##ल्पना
कमिटीको
टन
शुक्लाफाँटा
##지
इमानदार
प्रशोधन
##ियोग
##꨾
##हरण
उक्
मानी
८९
##ਲ
आक्रमणमा
राजदु
##मोचन
साक्षी
उत्रिएका
##डै
##ু
##극
##विना
ट्रा
सोधि
冬
##टका
रेग्मी
समूहका
dis
राष्ट्रसंघको
ꭷ
टोट
नेपालीमा
##राजा
##ेले
##रुक
पुर्
दृष्टिकोणले
बालकलाई
ﶲ
ओरालो
सहायताले
description
悪
समयमै
१६
जडीब
गौतमलाई
योगदानको
राशि
नराख
##कामना
##ꭷ
फैसलामा
##सो
वितरणमा
पाउनुपर्ने
##̲
कानुन
प्रयोगात्मक
##िज्
हेरे
##ണ
##mail
आह्वान
杜
굼
シ
##ס
खनि
हजुर
सार्ने
##oot
विचारको
संगित
서
वर्षका
use
##रोस्
गुरुङको
राजतन्त्र
手
गर्नैपर्ने
फ्लो
##ܱ
पीर
कर्पोर
राहत
वर्गको
位
साविक
##हजार
##∀
##तेको
##ĉ
विप्रेषण
जहाजको
##ই
नलाग्ने
बालिका
##ँग
प्रया
dislike
खालको
pass
眠
##क्दा
##؛
उभिएका
अनुभूति
##शीघ्र
北
चढ्ने
विष्ण
सामसु
अवधिको
##वाका
सिफारिसमा
##ᇟ
##ि
प्राधिकरणलाई
ț
लहान
##लगायतका
##रोड
कारबाहीमा
##ड्दा
अभावले
広
❶
ओछ्यान
##पीमा
खानपान
🇦
a7
##मण
##ानमा
रुपैयाँ
पि
लायन्स
वितरणको
सम्पत्तिको
पो
जितेपछि
##៊
##लुङ
गरें
उपप्रधान
驚
पाठेघरको
##िकी
हामी
##ling
##܌
##ݻ
सीमित
##ส
ɾ
प्रमुखलाई
श्रेण
##्युँ
ؖ
क्लियर
छँदैछ
जरुर
##៉
##बीच
##हरुबीच
विश्वस्त
ᤶ
भिसा
विभागीय
练
خ
संचाल
सुरु
##ुटी
रेमिट्यान्स
लागिएको
यतिखेर
सगरमाथा
ỡ
गान्धीको
दाइ
प्रतिफल
साइनो
##ះ
##िकरण
🐏
तेह्रथुम
리
बैत
india
चौधरीलाई
##क्न
बोलाएर
रिले
निति
बैंकबाट
उर्
弟
ϛ
गोर्खाली
##̼
ߏ
मोरङ
स्विका
燕
ی
जुट्न
##क्या
पकड
##ब
ब्युरो
任
इम
