<unk>	0
<s>	0
</s>	0
ा▁	-0
ो▁	-1
को▁	-2
्र	-3
न्	-4
र्	-5
।▁	-6
मा▁	-7
े▁	-8
र▁	-9
्य	-10
ी▁	-11
न▁	-12
ला	-13
ि▁	-14
स्	-15
का	-16
का▁	-17
मा	-18
रा	-19
रू	-20
प्र	-21
,▁	-22
ाल	-23
त▁	-24
क▁	-25
वि	-26
क्	-27
हरू	-28
ले▁	-29
िय	-30
ने▁	-31
गर	-32
ै▁	-33
ई▁	-34
ार	-35
त्र	-36
नि	-37
ति	-38
ना	-39
लाई▁	-40
म्	-41
ने	-42
हु	-43
वा	-44
बा	-45
िए	-46
गर्	-47
सा	-48
छ▁	-49
त्	-50
पा	-51
म▁	-52
दे	-53
हा	-54
क्ष	-55
न्द	-56
स▁	-57
य▁	-58
त्य	-59
ता	-60
ट▁	-61
िल	-62
ण▁	-63
भए	-64
पन	-65
स्थ	-66
द्	-67
ेको▁	-68
नु	-69
ष्	-70
राज	-71
ल▁	-72
पाल	-73
ङ्	-74
पु	-75
भा	-76
सं	-77
हरू▁	-78
्या	-79
रह	-80
उन	-81
न्▁	-82
पनि▁	-83
हि	-84
ग▁	-85
न्छ	-86
मु	-87
यो	-88
थिय	-89
कु	-90
गा	-91
रु	-92
यो▁	-93
रि	-94
जा	-95
सि	-96
सम्	-97
स्त	-98
नेपाल	-99
बाट▁	-100
को	-101
ित▁	-102
सु	-103
कार	-104
थिए	-105
लाग	-106
ान	-107
दि	-108
ति▁	-109
सम	-110
श्	-111
हो	-112
ेका▁	-113
या	-114
्य▁	-115
द्ध	-116
दा	-117
यस	-118
न्छ▁	-119
ता▁	-120
कि	-121
लि	-122
ल्	-123
ष्ट	-124
ना▁	-125
पू	-126
भएको▁	-127
मि	-128
के	-129
शा	-130
रूप	-131
त्र▁	-132
िल्	-133
एक▁	-134
ले	-135
से	-136
पर्	-137
ँ▁	-138
क्र	-139
वर्	-140
व▁	-141
तथ	-142
ती	-143
यस▁	-144
पछ	-145
देश	-146
यु	-147
थियो	-148
नै▁	-149
दु	-150
चा	-151
िएको▁	-152
देख	-153
चि	-154
धि	-155
अन्	-156
भि	-157
२०	-158
ीको▁	-159
ङ्ग	-160
तथा▁	-161
लागि▁	-162
हरूको▁	-163
रहेको▁	-164
ेर	-165
वा▁	-166
आफ	-167
कृ	-168
पूर्	-169
भार	-170
ला▁	-171
स्था	-172
ष्ट्र	-173
ण्	-174
व्य	-175
जिल्	-176
गर्द	-177
नको▁	-178
पछि▁	-179
क्षे	-180
रूपमा▁	-181
हो▁	-182
नी	-183
न्त्र	-184
उप	-185
मे	-186
धा	-187
.▁	-188
ण्ड	-189
एको▁	-190
रो	-191
छन्	-192
प्रा	-193
प्	-194
मुख	-195
निर्	-196
िक▁	-197
री▁	-198
जन	-199
आफ्	-200
र्थ	-201
नो▁	-202
१९	-203
श्र	-204
राष्ट्र	-205
बि	-206
नी▁	-207
उँ	-208
ध्य	-209
ेर▁	-210
गरि	-211
द▁	-212
जु	-213
गर्ने▁	-214
न्द्र	-215
भने▁	-216
अनु	-217
री	-218
सब	-219
छन्▁	-220
गर्न▁	-221
वे	-222
ु▁	-223
ती▁	-224
जिल्ला	-225
थियो▁	-226
ग्र	-227
टा▁	-228
शि	-229
०▁	-230
ही▁	-231
रे	-232
क्षेत्र	-233
न्ध	-234
स्व	-235
वार	-236
खे	-237
उत्	-238
परि	-239
कार्	-240
टा	-241
रा▁	-242
गो	-243
सह	-244
न्न▁	-245
जि	-246
ाले▁	-247
्च	-248
भन्द	-249
अव	-250
तर▁	-251
ं▁	-252
िय▁	-253
लो▁	-254
महा	-255
ीय▁	-256
रु▁	-257
क्त▁	-258
सन्▁	-259
गु	-260
कार▁	-261
त्यस	-262
मह	-263
श▁	-264
भन्दा▁	-265
सँ	-266
आफ्नो▁	-267
जस	-268
गरेका▁	-269
िया	-270
मानि	-271
खा	-272
विश्	-273
गरिएको▁	-274
ब्	-275
नमा▁	-276
सर	-277
उने▁	-278
हरूमा▁	-279
की▁	-280
मन्त्र	-281
देखि▁	-282
गरी▁	-283
ह▁	-284
धार	-285
्रा	-286
कर्	-287
बु	-288
बे	-289
नु▁	-290
हरूले▁	-291
लो	-292
बना	-293
ष▁	-294
हुन्छ	-295
लेख	-296
समा	-297
ज्	-298
जी	-299
द्ध▁	-300
पि	-301
डा	-302
सङ्	-303
थिए▁	-304
सम्म▁	-305
न्त	-306
ली	-307
पर	-308
ग्	-309
भाष	-310
प्रति	-311
देव	-312
गरेको▁	-313
दा▁	-314
लगा	-315
भारत	-316
ज▁	-317
ली▁	-318
१▁	-319
धान	-320
योग▁	-321
द्य	-322
सो	-323
मो	-324
५▁	-325
२▁	-326
टि	-327
कै▁	-328
हिल	-329
अधि	-330
ाल▁	-331
साथ	-332
रको▁	-333
ठा	-334
राज्य	-335
योग	-336
मी	-337
उनले▁	-338
गरे	-339
हुने▁	-340
हरूलाई▁	-341
सँग▁	-342
तर	-343
दै▁	-344
पाइ	-345
सद	-346
३▁	-347
जस्त	-348
धर्	-349
क्ति	-350
कार्य	-351
उनको▁	-352
नेपाली▁	-353
ुट	-354
धेर	-355
ब▁	-356
बन्ध	-357
ज्ञ	-358
भन्	-359
च▁	-360
भाग	-361
भू	-362
न्दि	-363
हाँ▁	-364
स्थान	-365
कर	-366
था	-367
मान	-368
दी	-369
राख	-370
त्व	-371
हुन्छ▁	-372
निय	-373
स्ता	-374
शु	-375
व्यव	-376
बो	-377
पो	-378
कुनै▁	-379
शास	-380
बढ	-381
मको▁	-382
सार▁	-383
उन▁	-384
ड▁	-385
पूर्ण▁	-386
प▁	-387
मन्दि	-388
भिन्न▁	-389
रमा▁	-390
एउ	-391
दै	-392
तिक▁	-393
धेरै▁	-394
छो	-395
एर▁	-396
मध्य	-397
उनी▁	-398
तर्	-399
यसको▁	-400
हे	-401
सू	-402
भनि	-403
म्ब	-404
अर्	-405
वी	-406
सक्	-407
अन्य▁	-408
शे	-409
रहेका▁	-410
चल	-411
एका▁	-412
निक▁	-413
मार्	-414
दी▁	-415
सी	-416
ञ्च	-417
्रो▁	-418
विभिन्न▁	-419
दिन▁	-420
प्त▁	-421
सको▁	-422
लमा▁	-423
हरु▁	-424
द्वार	-425
लको▁	-426
पहिल	-427
वर्ष	-428
मी▁	-429
पश्	-430
भन्ने▁	-431
ची	-432
व्या	-433
हुँ	-434
दान▁	-435
ियो	-436
एउटा▁	-437
राम	-438
सबै▁	-439
बी	-440
यमा▁	-441
डि	-442
प्रयोग▁	-443
सरकार	-444
हुन्	-445
केही▁	-446
ममा▁	-447
जो	-448
विश्व	-449
सर्	-450
गि	-451
जा▁	-452
समे	-453
प्रमुख	-454
म्प	-455
्या▁	-456
सकि	-457
राष्ट्रिय▁	-458
मान्	-459
ल्या	-460
ते	-461
िका	-462
मू	-463
नेपाल▁	-464
यी▁	-465
ताको▁	-466
देश▁	-467
मृ	-468
वै	-469
पे	-470
तको▁	-471
ट्	-472
जन्	-473
द्वारा▁	-474
गी	-475
द्र	-476
टो	-477
छा	-478
भाषा	-479
भएका▁	-480
यि	-481
दि▁	-482
तिको▁	-483
पुर	-484
सबै	-485
गत▁	-486
ङ▁	-487
राजा▁	-488
सम्बन्ध	-489
नेपालको▁	-490
खो	-491
माथ	-492
नका▁	-493
पूर्व	-494
अनुसार▁	-495
कृष्	-496
लु	-497
सै	-498
क्षि	-499
महि	-500
्यो	-501
साल	-502
मात्र▁	-503
एक	-504
ब्र	-505
िएका▁	-506
ञ्	-507
रक्ष	-508
च्	-509
ाली▁	-510
इ▁	-511
तु	-512
हुन▁	-513
सिं	-514
भारती	-515
टे	-516
पार्	-517
त्व▁	-518
समेत▁	-519
हाँ	-520
कको▁	-521
पना▁	-522
न्या	-523
च्च	-524
खु	-525
भे	-526
ठू	-527
ंग	-528
चार▁	-529
ध▁	-530
प्रमुख▁	-531
छै	-532
रण	-533
हिन्द	-534
दो	-535
स्था▁	-536
तिहा	-537
जे	-538
जना▁	-539
जुन▁	-540
निर्मा	-541
नाम	-542
उनी	-543
स्थित▁	-544
दक्षि	-545
्ने▁	-546
विद्य	-547
बार	-548
नगर	-549
मान▁	-550
विका	-551
काठ	-552
दर्	-553
पार	-554
पश्चि	-555
९▁	-556
डा▁	-557
लाई	-558
प्रधान	-559
स्थापना▁	-560
घा	-561
प्राप्त▁	-562
न्द्र▁	-563
सार	-564
विशे	-565
डी▁	-566
राज्य▁	-567
भने	-568
या▁	-569
कारण▁	-570
पहिलो▁	-571
जीव	-572
नाले▁	-573
छि	-574
शी	-575
सङ्ख	-576
यको▁	-577
चु	-578
भयो	-579
संस्	-580
अर्थ	-581
भो	-582
ख▁	-583
पद	-584
पर्ने▁	-585
न्थ	-586
काम▁	-587
नो	-588
ष्ठ	-589
महत्	-590
िया▁	-591
क्ति▁	-592
चार	-593
क्षेत्रमा▁	-594
बल▁	-595
मन्त्री▁	-596
समा▁	-597
तमा▁	-598
हुन्▁	-599
नले▁	-600
निर्वा	-601
घो	-602
णा	-603
बाल	-604
स्तु	-605
मुख्य▁	-606
सदस	-607
सी▁	-608
ए▁	-609
जना	-610
जन▁	-611
विष	-612
शिक्ष	-613
युद्ध	-614
फा	-615
सेना	-616
बहा	-617
पुर▁	-618
पट	-619
भु	-620
धान▁	-621
नाम▁	-622
।।▁	-623
ते▁	-624
दुई▁	-625
ू▁	-626
साम	-627
२००	-628
जिल्ला▁	-629
वर	-630
तृ	-631
काठमा	-632
त्म	-633
क्ष▁	-634
णा▁	-635
जी▁	-636
भाव	-637
२०१	-638
गरा	-639
बने	-640
युक्त▁	-641
की	-642
आधार	-643
टी	-644
चित▁	-645
फुट	-646
इन्	-647
सक	-648
सबैभन्दा▁	-649
भए▁	-650
धु	-651
गरेर▁	-652
भाग▁	-653
बङ्ग	-654
डौ	-655
बहादु	-656
क्रम	-657
सफ	-658
..	-659
नेपालमा▁	-660
णको▁	-661
अध्य	-662
पति▁	-663
ढा	-664
भग	-665
गर्दा▁	-666
गरिन्छ	-667
मिक▁	-668
देखि	-669
यस्त	-670
स्ट	-671
गरे▁	-672
बै	-673
गाउँ	-674
हरूका▁	-675
्रे	-676
लोक	-677
ही	-678
जार	-679
पुरा	-680
काठमाडौ	-681
ध्या	-682
राजनी	-683
यत	-684
आदि▁	-685
ठूलो▁	-686
नेछ▁	-687
समु	-688
इएको▁	-689
पाद	-690
गर्दछ	-691
कि▁	-692
ियो▁	-693
हाल	-694
श्री	-695
जिल्लाको▁	-696
व्यक्ति	-697
ड्	-698
मानिस	-699
डे	-700
न्त▁	-701
दिए	-702
रच	-703
यहाँ▁	-704
श्य	-705
वास▁	-706
हर	-707
अमे	-708
मृत्य	-709
वर्ष▁	-710
वं	-711
निर्माण▁	-712
फ▁	-713
धर्म	-714
भयो▁	-715
सङ्ख्या▁	-716
अमेरि	-717
साथै▁	-718
मिल	-719
धि▁	-720
विवा	-721
००▁	-722
विद्याल	-723
क्षेत्र▁	-724
गण	-725
दर	-726
ह्	-727
टर▁	-728
साहि	-729
हिले▁	-730
स्थाप	-731
त्या	-732
प्रकार	-733
डी	-734
ज्ञा	-735
काले▁	-736
थाल	-737
तिमा▁	-738
कम्	-739
्यो▁	-740
हरु	-741
कारी▁	-742
भारतीय▁	-743
दृ	-744
पृ	-745
लामा▁	-746
नामा▁	-747
राय	-748
पालिका	-749
मध्ये▁	-750
सङ्ग	-751
त्रा	-752
तन्त्र	-753
वृ	-754
याँ▁	-755
प्रका	-756
पुग	-757
थि	-758
उनलाई▁	-759
प्रजा	-760
किस्ता	-761
गर्दै▁	-762
पोख	-763
साथ▁	-764
टी▁	-765
उनका▁	-766
वर्त	-767
मन्त्री	-768
उल्	-769
त्य▁	-770
स्थि	-771
स्रो▁	-772
ैले▁	-773
माथि▁	-774
र्य	-775
करण▁	-776
यसलाई▁	-777
महत्त्व	-778
च्च▁	-779
ष्ट▁	-780
पाकिस्ता	-781
हार	-782
हित▁	-783
जस्ता▁	-784
काल	-785
सभा	-786
दर्श	-787
सञ्च	-788
श्व	-789
प्रत्य	-790
स्वा	-791
पत्	-792
कुरा▁	-793
पर्द	-794
प्रदेश	-795
क्रा	-796
वटा▁	-797
चौ	-798
अन्तर	-799
त्▁	-800
वेश▁	-801
क्त	-802
समयमा▁	-803
सन्	-804
उपत्य	-805
स्प	-806
राजा	-807
बढी▁	-808
खेल	-809
न्त्र▁	-810
ताल	-811
त्यो▁	-812
धी	-813
्न▁	-814
लक्ष	-815
आएको▁	-816
नलाई▁	-817
त्रि	-818
क्रम▁	-819
फुटबल▁	-820
अन्तर्	-821
त्यस्त	-822
गर्नु▁	-823
मन्दिर▁	-824
बस्	-825
व्यवस्था▁	-826
कमा▁	-827
पटक▁	-828
उक्त▁	-829
भी	-830
शाह	-831
संस्कृ	-832
त्मक▁	-833
खा▁	-834
गरिन्छ▁	-835
नै	-836
फि	-837
लेख▁	-838
णले▁	-839
वार▁	-840
पानी▁	-841
समय▁	-842
पाँ	-843
धार्	-844
लग	-845
क्या	-846
विकास▁	-847
वन▁	-848
णमा▁	-849
स्त्र	-850
विशेष▁	-851
तत्	-852
यन▁	-853
तामा▁	-854
गको▁	-855
आव	-856
घोष	-857
शो	-858
मध	-859
तीन▁	-860
थ▁	-861
दू	-862
रहे	-863
वल	-864
त्यस▁	-865
दैन	-866
बसो	-867
ठाउँ	-868
भनिन्छ▁	-869
घट	-870
कवि	-871
भारतको▁	-872
अर्को▁	-873
जार▁	-874
सङ्घ	-875
भाषा▁	-876
चे	-877
पर्य	-878
पाइन्छ	-879
आर्थ	-880
केन्द्र	-881
गर्नु	-882
वन	-883
पर्व	-884
लाको▁	-885
िका▁	-886
भएर▁	-887
परम्प	-888
ोल	-889
प्रदेश▁	-890
अभि	-891
नदी	-892
शै	-893
के▁	-894
इतिहा	-895
नाको▁	-896
नि▁	-897
चलचि	-898
गर▁	-899
महत्त्वपूर्ण▁	-900
पा▁	-901
कम	-902
कुमा	-903
सभ	-904
तो	-905
बाँ	-906
संवि	-907
भ▁	-908
भित्र▁	-909
यसले▁	-910
टु	-911
दुर्	-912
वादी▁	-913
अवस्था	-914
काली	-915
अधिकार▁	-916
सर्व	-917
बहादुर▁	-918
कम▁	-919
मन▁	-920
तन्त्र▁	-921
आयो	-922
ीमा▁	-923
जिल्लामा▁	-924
सा▁	-925
पर्यट	-926
पुन	-927
सञ्चाल	-928
ौ▁	-929
प्रत	-930
नयाँ▁	-931
ठ▁	-932
मौ	-933
आर्थिक▁	-934
मेर	-935
पक्ष	-936
जनसङ्ख्या▁	-937
भगवा	-938
व्य▁	-939
सामान्	-940
तो▁	-941
शासन▁	-942
प्रतियो	-943
पी	-944
णी▁	-945
साहित्य	-946
रूप▁	-947
नाराय	-948
सफल▁	-949
शरी	-950
सिद्ध	-951
्राष्ट्र	-952
प्रतियोगि	-953
बर्	-954
अन्तर्राष्ट्र	-955
िल▁	-956
अघ	-957
आवश्य	-958
गढ	-959
द्या	-960
पति	-961
णि	-962
योगदान▁	-963
भूमि	-964
निर्वाच	-965
अभ	-966
सिक▁	-967
धा▁	-968
पृथ	-969
शक्ति	-970
डो	-971
गते▁	-972
्यु	-973
तह	-974
उत्पाद	-975
गठ	-976
मन्दिर	-977
मृत्यु▁	-978
बल	-979
अवस्थित▁	-980
उत्त	-981
बेला	-982
फे	-983
सकिन्छ	-984
उँ▁	-985
हिमा	-986
एस	-987
परा	-988
संयुक्त▁	-989
अन्तर्राष्ट्रिय▁	-990
स्थान▁	-991
जसले▁	-992
मना	-993
मन	-994
दीको▁	-995
समाज	-996
प्रकाश	-997
र्व	-998
कल	-999
निम्	-1000
भर	-1001
वेद	-1002
युद्ध▁	-1003
प्रसा	-1004
कार्य▁	-1005
जस्तै▁	-1006
एव	-1007
छैन▁	-1008
लाम	-1009
हुनु	-1010
काको▁	-1011
पूर्व▁	-1012
राजनीतिक▁	-1013
तथा	-1014
मण्ड	-1015
च्छ	-1016
्रो	-1017
सुरु▁	-1018
धन▁	-1019
पहा	-1020
पुग्	-1021
भारत▁	-1022
न्ति	-1023
बास▁	-1024
बन्द	-1025
सदस्य	-1026
मल्	-1027
न्ड	-1028
चलन▁	-1029
क्रि	-1030
टो▁	-1031
प्रण	-1032
शम	-1033
भनिन्छ	-1034
राज▁	-1035
नार	-1036
आदि	-1037
पदा	-1038
राज्यको▁	-1039
चो	-1040
जन्म▁	-1041
नेतृ	-1042
र्य▁	-1043
िएर▁	-1044
निकै▁	-1045
छैन	-1046
प्रथ	-1047
कृतिक▁	-1048
गाड	-1049
यता▁	-1050
र्थ▁	-1051
पृथ्	-1052
रिक▁	-1053
सलाई▁	-1054
पश्चिम▁	-1055
वर्ण	-1056
मध्य▁	-1057
दाल	-1058
ग्रह	-1059
सो▁	-1060
आन्द	-1061
ण्ड▁	-1062
ीले▁	-1063
उच्च▁	-1064
आन्दोल	-1065
ौँ▁	-1066
आधारमा▁	-1067
कै	-1068
रुप	-1069
ङ्ग्रे	-1070
मै	-1071
प्रदान▁	-1072
पत्र	-1073
प्रे	-1074
जन्म	-1075
यहाँ	-1076
संघ	-1077
तिर▁	-1078
बेला▁	-1079
देशको▁	-1080
जिक▁	-1081
त्यसपछि▁	-1082
जय	-1083
बङ्गला	-1084
दल	-1085
वंश	-1086
कां	-1087
यत▁	-1088
सकिन्छ▁	-1089
धार्मिक▁	-1090
मुख्य	-1091
िला▁	-1092
कम्पन	-1093
षि	-1094
साइ	-1095
गर्छ	-1096
दैन▁	-1097
सिंह▁	-1098
ताका▁	-1099
ब्रा	-1100
गौ	-1101
फर्	-1102
हा▁	-1103
सालमा▁	-1104
यक▁	-1105
ठु	-1106
उद्	-1107
द्यो	-1108
स्त▁	-1109
धारण▁	-1110
दक्षिण▁	-1111
पुरु	-1112
प्रधानमन्त्री▁	-1113
शेर	-1114
सले▁	-1115
हाल▁	-1116
जो▁	-1117
दश	-1118
कुल▁	-1119
जङ्ग	-1120
अन्तर्गत▁	-1121
दान	-1122
एका	-1123
सुरक्ष	-1124
शिव	-1125
त्यसैले▁	-1126
बहु	-1127
नीको▁	-1128
पी▁	-1129
निका	-1130
दोस्रो▁	-1131
गै▁	-1132
हर▁	-1133
हेर्	-1134
उत्तर▁	-1135
विरु	-1136
गर्दछ▁	-1137
प्रतिनि	-1138
ङ्क	-1139
सेवा▁	-1140
आफ्ना▁	-1141
बसोबास▁	-1142
पाइन्छ▁	-1143
मानिन्छ	-1144
खान	-1145
ख्या	-1146
उ▁	-1147
मै▁	-1148
ेक▁	-1149
गावि	-1150
राजधान	-1151
सदस्य▁	-1152
श्री▁	-1153
राको▁	-1154
शब्	-1155
१९९	-1156
प्रसाद▁	-1157
षि▁	-1158
स्क	-1159
निक	-1160
सहर▁	-1161
पूजा▁	-1162
स्थानमा▁	-1163
कर्ता	-1164
विद्या	-1165
विश्वविद्याल	-1166
बार▁	-1167
लिन▁	-1168
नेपालका▁	-1169
िलो	-1170
अथ	-1171
मार	-1172
जसको▁	-1173
सर▁	-1174
नगरपालिका	-1175
पुर्	-1176
यसमा▁	-1177
घु	-1178
मका▁	-1179
पन्न▁	-1180
महाका	-1181
हुँदै▁	-1182
उपा	-1183
लिक▁	-1184
बाहे	-1185
हार▁	-1186
कृष्ण▁	-1187
भौ	-1188
तार	-1189
म्▁	-1190
शास्त्र	-1191
जसमा▁	-1192
पाण्ड	-1193
सिद्ध▁	-1194
बीच	-1195
सामा	-1196
सका▁	-1197
कालमा▁	-1198
उल्लेख▁	-1199
अवस्थामा▁	-1200
टमा▁	-1201
दिने▁	-1202
अदाल	-1203
वर्ग	-1204
घोषणा▁	-1205
चीन▁	-1206
बीच▁	-1207
कान	-1208
कता▁	-1209
गर्ने	-1210
विश्वास▁	-1211
स्थानीय▁	-1212
रू▁	-1213
ष्ण	-1214
भनेर▁	-1215
फै	-1216
चाल	-1217
ग्रा	-1218
सिंह	-1219
पर्छ▁	-1220
टको▁	-1221
प्रत्येक▁	-1222
जित▁	-1223
भारतीय	-1224
चर्	-1225
भएको	-1226
संरक्ष	-1227
ताब्	-1228
कामा▁	-1229
विशेष	-1230
धन	-1231
दिन	-1232
पछि	-1233
सहित▁	-1234
मित▁	-1235
मिटर▁	-1236
बौ	-1237
घर	-1238
समि	-1239
विभा	-1240
साल▁	-1241
त्रा▁	-1242
काल▁	-1243
आक्रम	-1244
राम्रो▁	-1245
जस्तो▁	-1246
सम्पूर्ण▁	-1247
समुदा	-1248
भाव▁	-1249
सेवा	-1250
टै▁	-1251
म्बर▁	-1252
ज्य	-1253
दार	-1254
भक्त	-1255
सकेको▁	-1256
करि	-1257
सां	-1258
अत्य	-1259
ुट्	-1260
रले▁	-1261
ाली	-1262
परिष	-1263
पानी	-1264
खेला	-1265
थे	-1266
बाहि	-1267
क्ल	-1268
शताब्	-1269
कालीन▁	-1270
थु	-1271
यसरी▁	-1272
था▁	-1273
बनेको▁	-1274
लामो▁	-1275
अधिकार	-1276
ढु	-1277
एवं▁	-1278
दको▁	-1279
राम▁	-1280
बुद्ध	-1281
जल	-1282
नौ	-1283
माको▁	-1284
विभाग	-1285
कप	-1286
काम	-1287
तिका▁	-1288
पाइने▁	-1289
विवाह▁	-1290
छोरा▁	-1291
व्यवस्था	-1292
कला	-1293
जको▁	-1294
न्य	-1295
भ्र	-1296
तीय▁	-1297
बाछि	-1298
फो	-1299
व्र	-1300
ग्रे	-1301
निया	-1302
नियु	-1303
लक्ष्	-1304
अल	-1305
फू	-1306
सहर	-1307
विधि	-1308
स्थल▁	-1309
वर्षको▁	-1310
ब्ब	-1311
रो▁	-1312
प्रस्तु	-1313
फु	-1314
बता	-1315
....	-1316
म्या	-1317
स्या	-1318
कथा	-1319
तीको▁	-1320
वै▁	-1321
तर्फ▁	-1322
तालाई▁	-1323
पूर्वी▁	-1324
हुन	-1325
ज्ञान	-1326
काठमाडौँ	-1327
परिवर्त	-1328
शिक्षा▁	-1329
आइ	-1330
ष्टि	-1331
सित▁	-1332
प्रथम▁	-1333
मोजि	-1334
परिवार	-1335
१९५	-1336
धार▁	-1337
हुँदा▁	-1338
रण▁	-1339
यस्तो▁	-1340
प्रसिद्ध▁	-1341
सके	-1342
समू	-1343
अघि▁	-1344
गरिने▁	-1345
पालिका▁	-1346
भइ	-1347
उनु▁	-1348
जसलाई▁	-1349
प्रधानमन्त्री	-1350
हजार▁	-1351
अं	-1352
काय	-1353
नगर▁	-1354
पुस्त	-1355
जग	-1356
टर	-1357
मूल	-1358
तका▁	-1359
बमोजि	-1360
क्रममा▁	-1361
सार्व	-1362
समावेश▁	-1363
तम▁	-1364
मण	-1365
इन्छ	-1366
हरा	-1367
कीय▁	-1368
स्वतन्त्र	-1369
पं	-1370
सन▁	-1371
सूच	-1372
धर्म▁	-1373
हुनेछ▁	-1374
सम्बन्धी▁	-1375
खेल▁	-1376
मूर्	-1377
कृष्ण	-1378
ज्ञान▁	-1379
वी▁	-1380
कृत▁	-1381
जर्	-1382
नदी▁	-1383
माध्य	-1384
न्याया	-1385
बाहेक▁	-1386
भएपछि▁	-1387
तिब्ब	-1388
ीहरू▁	-1389
पौ	-1390
बर▁	-1391
सुरु	-1392
अध्या	-1393
श्वर▁	-1394
कर▁	-1395
न्न	-1396
समय	-1397
नियन्त्र	-1398
कानू	-1399
ेन्द्र	-1400
हुन्छन्	-1401
राष्ट्र▁	-1402
सञ्चालन▁	-1403
भै	-1404
हि▁	-1405
प्रतिश	-1406
उत्तर	-1407
मिश्र	-1408
तिहासिक▁	-1409
क्षेत्रको▁	-1410
म्मे	-1411
यसै▁	-1412
ेमा▁	-1413
निर्ण	-1414
जम्	-1415
वाल	-1416
रचना▁	-1417
देशमा▁	-1418
त्यहाँ▁	-1419
नर	-1420
निष	-1421
ङ्ग▁	-1422
वाद▁	-1423
ठाउँमा▁	-1424
आँ	-1425
अने	-1426
ल्ने▁	-1427
चन्द्र	-1428
सामाजिक▁	-1429
जहाँ▁	-1430
यतका▁	-1431
सहभाग	-1432
सेना▁	-1433
सक्ने▁	-1434
कार्याल	-1435
फर	-1436
लगायत▁	-1437
त्या▁	-1438
सय▁	-1439
स्वी	-1440
बमोजिम▁	-1441
चलचित्र▁	-1442
सौ	-1443
र्ष	-1444
त्री▁	-1445
कर्म	-1446
ज्या	-1447
ठुलो▁	-1448
क्रिके	-1449
भएकाले▁	-1450
हुनाले▁	-1451
१०	-1452
हे▁	-1453
१२▁	-1454
गर्दछन्▁	-1455
२०▁	-1456
च्या	-1457
सभा▁	-1458
श्रे	-1459
पश्चा	-1460
भागमा▁	-1461
इरा	-1462
परी	-1463
फ्रा	-1464
ब्रि	-1465
राख्	-1466
अन्ति	-1467
प्रयोग	-1468
सहा	-1469
प्राचीन▁	-1470
गोर	-1471
यसका▁	-1472
सरकारले▁	-1473
जिल	-1474
मनो	-1475
गएको▁	-1476
मानिन्छ▁	-1477
मान्यता▁	-1478
किलो	-1479
करिब▁	-1480
सानो▁	-1481
प्रतिनिधि	-1482
गीत	-1483
कानु	-1484
चिनि	-1485
अध्ययन▁	-1486
गरी	-1487
शी▁	-1488
किसि	-1489
लाग्	-1490
आवश्यक▁	-1491
जान	-1492
संसद	-1493
भारतमा▁	-1494
केन्द्र▁	-1495
कुरा	-1496
जारी▁	-1497
अङ्ग्रे	-1498
राष्ट्रपति▁	-1499
अप	-1500
अगाड	-1501
तर्फ	-1502
महिला	-1503
शक्ति▁	-1504
वलम्ब	-1505
पहिले▁	-1506
महिला▁	-1507
निर्देश	-1508
देवी▁	-1509
सँगै▁	-1510
त्यसको▁	-1511
माइ	-1512
परम्परा	-1513
पाई	-1514
अगाडि▁	-1515
कर्ताहरूका▁	-1516
गृ	-1517
ट्ट	-1518
पि▁	-1519
पुरस्	-1520
भारतका▁	-1521
निर्वाचन▁	-1522
निर	-1523
लले▁	-1524
वस्तु	-1525
न्छन्▁	-1526
प्रशास	-1527
न्द▁	-1528
प्रया	-1529
अहिले▁	-1530
परेको▁	-1531
प्रति▁	-1532
फ्रान्	-1533
बस	-1534
१०▁	-1535
ताल▁	-1536
नबाट▁	-1537
२०५	-1538
अस्प	-1539
स्ट▁	-1540
गर्दछन्	-1541
फल▁	-1542
विज	-1543
जोड	-1544
आउने▁	-1545
विक	-1546
सत्	-1547
हाम	-1548
मार्ग	-1549
प्रभाव	-1550
आक्रमण▁	-1551
घर▁	-1552
बन्	-1553
स्त्र▁	-1554
हत्या▁	-1555
अन्तिम▁	-1556
फल	-1557
जब▁	-1558
त्वमा▁	-1559
िल्लो▁	-1560
मत▁	-1561
हरि	-1562
युरो	-1563
लिएको▁	-1564
भग▁	-1565
वान	-1566
पर्छ	-1567
आधु	-1568
ङ्गा	-1569
भाषामा▁	-1570
उत्पादन▁	-1571
न्यायाधी	-1572
तले▁	-1573
यस्ता▁	-1574
साम्रा	-1575
हिन्दु▁	-1576
युद्धमा▁	-1577
भर्	-1578
सुन्द	-1579
ियन▁	-1580
मानव▁	-1581
लगभग▁	-1582
हरूबाट▁	-1583
भई▁	-1584
स्थापित▁	-1585
इन	-1586
वर▁	-1587
हुन्छन्▁	-1588
ष्ठ▁	-1589
पृथ्वी	-1590
हरे	-1591
स्ना	-1592
देशी▁	-1593
ब्रह्	-1594
भगवान▁	-1595
संविधान	-1596
आत्	-1597
धिक▁	-1598
नाथ▁	-1599
राई	-1600
वीर	-1601
दुवै▁	-1602
त्रामा▁	-1603
लगायतका▁	-1604
द्रो	-1605
त्यस्तै▁	-1606
इन▁	-1607
उद्यो	-1608
सहयोग▁	-1609
कहरू▁	-1610
नारायण▁	-1611
ध्	-1612
पञ्	-1613
स्▁	-1614
ाले	-1615
पार▁	-1616
स्ति	-1617
इन्छ▁	-1618
विष्ण	-1619
कोट	-1620
ग्रन्थ	-1621
प्रवेश▁	-1622
मर्	-1623
१५▁	-1624
देवी	-1625
न्य▁	-1626
अर्था	-1627
कायम▁	-1628
दिएको▁	-1629
गे	-1630
डु	-1631
गठन▁	-1632
सामान्य▁	-1633
पठा	-1634
पाँच▁	-1635
लिएर▁	-1636
भनेको▁	-1637
अथवा▁	-1638
नामक▁	-1639
पुरानो▁	-1640
लाग्ने▁	-1641
कका▁	-1642
यही▁	-1643
शमशेर	-1644
प्रकारको▁	-1645
उनु	-1646
चा▁	-1647
दमा▁	-1648
स्रो	-1649
देखा	-1650
पुरुष	-1651
लिने▁	-1652
आयोजना▁	-1653
अग्	-1654
करण	-1655
लडा	-1656
अन्त	-1657
देव▁	-1658
दरबार	-1659
उद्देश	-1660
विश्व▁	-1661
दछ	-1662
भारतको	-1663
सरकार▁	-1664
सम्बन्धित▁	-1665
तया	-1666
आएका▁	-1667
सेनाले▁	-1668
विद्यार्थ	-1669
चै	-1670
जीवन▁	-1671
सरकारी▁	-1672
उपल	-1673
षण▁	-1674
तार▁	-1675
गर्छन्	-1676
राखिएको▁	-1677
संविधान▁	-1678
सरकारको▁	-1679
सल	-1680
१९▁	-1681
खण्ड	-1682
यिनी	-1683
रका▁	-1684
खेलकु	-1685
ीहरूको▁	-1686
दो▁	-1687
साय	-1688
िए▁	-1689
युद्धको▁	-1690
कौ	-1691
छोरा	-1692
तुल	-1693
लाख▁	-1694
न्ति▁	-1695
क्रिया	-1696
प्रकारका▁	-1697
स्वतन्त्र▁	-1698
म्बा	-1699
ग्री▁	-1700
वारी▁	-1701
गति	-1702
वल▁	-1703
सन्त	-1704
मक	-1705
फेर	-1706
गीत▁	-1707
प्रकार▁	-1708
प्रह	-1709
प्रार	-1710
प्रधान▁	-1711
केन्द्रीय▁	-1712
सं▁	-1713
किरा	-1714
जाति	-1715
संसार	-1716
दर्शन▁	-1717
बनाउने▁	-1718
ट्र	-1719
३०▁	-1720
ल्ला	-1721
न्थ्यो	-1722
मि▁	-1723
रोग	-1724
गुरु	-1725
०००▁	-1726
दृष्टि	-1727
प्रिय▁	-1728
हिन्दू▁	-1729
काठमाडौँ▁	-1730
आफू	-1731
अनि▁	-1732
थापा	-1733
स्वरूप▁	-1734
निर्वाचित▁	-1735
कथा▁	-1736
नागरि	-1737
जुन	-1738
पशु	-1739
हरेक▁	-1740
मत	-1741
नजि	-1742
पर्दछ	-1743
प्राय	-1744
स्तु▁	-1745
सैनिक▁	-1746
राजधानी▁	-1747
चित	-1748
बढा	-1749
क्रिकेट▁	-1750
त्त	-1751
थिइन्	-1752
दक्षिण	-1753
छे	-1754
न्यु	-1755
प्रकृ	-1756
व्यक्ति▁	-1757
पै	-1758
भर▁	-1759
गाउँ▁	-1760
परिवर्तन▁	-1761
शं	-1762
विवि	-1763
हुने	-1764
साना▁	-1765
घ▁	-1766
आधि	-1767
गा▁	-1768
थे▁	-1769
मुलु	-1770
स्थल	-1771
संस्था	-1772
ब्य	-1773
मे▁	-1774
रङ्ग	-1775
सूर्य	-1776
जिल्लाभारतीय	-1777
काँ	-1778
बजा	-1779
इने▁	-1780
रचना	-1781
सिक्	-1782
वृद्ध	-1783
दिएका▁	-1784
नदीको▁	-1785
प्रारम्	-1786
भाषाको▁	-1787
व्यापार	-1788
तत्कालीन▁	-1789
उपलब्	-1790
मात्र	-1791
प्रतिशत▁	-1792
रुपमा▁	-1793
त्यस्तो▁	-1794
कसै	-1795
ङ्ख	-1796
पन▁	-1797
२५▁	-1798
पूरा▁	-1799
बेलाय	-1800
महत्त्व▁	-1801
हनु	-1802
धर्मा	-1803
न्छन्	-1804
प्रस्तुत▁	-1805
भगव	-1806
वेश	-1807
चला	-1808
सञ्	-1809
दार▁	-1810
जाने▁	-1811
धारा▁	-1812
परीक्ष	-1813
पुत्र▁	-1814
ियाको▁	-1815
भएकोले▁	-1816
खि	-1817
पछी▁	-1818
ब्राह्	-1819
आर्	-1820
विक▁	-1821
ाको▁	-1822
गर्छ▁	-1823
पर्दछ▁	-1824
निर्णय▁	-1825
राष्ट्रपति	-1826
कुल	-1827
पन्	-1828
ब्ल	-1829
कोट▁	-1830
बजार	-1831
केको▁	-1832
भित्र	-1833
चलचित्र	-1834
सम्बन्ध▁	-1835
मर	-1836
कल्	-1837
जंग	-1838
सहि	-1839
मिल्	-1840
सक्छ	-1841
वास्त	-1842
इन्द्र	-1843
बनेका▁	-1844
थो	-1845
वि▁	-1846
विधा	-1847
अफ	-1848
भव	-1849
यौ	-1850
भव▁	-1851
जम्मा▁	-1852
सार्वज	-1853
१५	-1854
कले▁	-1855
पाकिस्तानी▁	-1856
मद	-1857
।।	-1858
चाह	-1859
पद▁	-1860
अनेक▁	-1861
हिमाल	-1862
आफ्नै▁	-1863
पाउने▁	-1864
ताइ	-1865
पाठ	-1866
साँ	-1867
ँदा▁	-1868
द्वा	-1869
संग▁	-1870
कारणले▁	-1871
भूमिका▁	-1872
गमा▁	-1873
बारेमा▁	-1874
कले	-1875
उमेर	-1876
फरक▁	-1877
घरमा▁	-1878
सिद्धा	-1879
सेनाको▁	-1880
विरुद्ध▁	-1881
प्राकृतिक▁	-1882
सार्वजनिक▁	-1883
कारिक▁	-1884
मध्येको▁	-1885
स्कृतिक▁	-1886
डाँ	-1887
मण▁	-1888
पत्र▁	-1889
हुनु▁	-1890
महाकाव्य	-1891
पक▁	-1892
भीम	-1893
११▁	-1894
ग्न▁	-1895
रीमा▁	-1896
खाल	-1897
धी▁	-1898
यदि▁	-1899
रोग▁	-1900
त्यही▁	-1901
लिख	-1902
वरण▁	-1903
उपनिष	-1904
महिना▁	-1905
रेल	-1906
यका▁	-1907
बाहिर▁	-1908
मृत्यु	-1909
उत्तरी▁	-1910
ढो	-1911
ह्र	-1912
लाम▁	-1913
वित▁	-1914
अर्थ▁	-1915
लीमा▁	-1916
बङ्गाल	-1917
मानिस▁	-1918
नव	-1919
रमु	-1920
रहने▁	-1921
रानी▁	-1922
बौद्ध▁	-1923
तेस्रो▁	-1924
मन्त्राल	-1925
हटा	-1926
ीका▁	-1927
ीलाई▁	-1928
गाउँपालिका	-1929
छन	-1930
अनि	-1931
ियाली▁	-1932
किन	-1933
ताप	-1934
थर▁	-1935
लाल▁	-1936
एपछि▁	-1937
गान्ध	-1938
संरक्षण▁	-1939
ंग▁	-1940
त्न▁	-1941
विरो	-1942
ताले▁	-1943
परम्परा▁	-1944
सामान्यत	-1945
जिल्लाहरू▁	-1946
ज्ञ▁	-1947
मूल▁	-1948
कोइरा	-1949
जै	-1950
पढ	-1951
चन्द्र▁	-1952
ठो	-1953
भाइ	-1954
गरियो	-1955
मुक्त▁	-1956
आधारित▁	-1957
त्त▁	-1958
अवस्था▁	-1959
कट	-1960
बाट	-1961
वात▁	-1962
वायु	-1963
समूह	-1964
सभाको▁	-1965
विक्रम▁	-1966
लोकप्रिय▁	-1967
अर	-1968
कम्प	-1969
थ्यो	-1970
बन्न▁	-1971
लीको▁	-1972
पार्टी	-1973
बीचमा▁	-1974
उहाँ	-1975
ब्रिटि	-1976
द्र▁	-1977
लागि	-1978
लिपि	-1979
ख्या▁	-1980
रहेको	-1981
आउँ	-1982
उने	-1983
सिल	-1984
छुट्	-1985
ठूला▁	-1986
प्रती	-1987
वर्ग▁	-1988
अक्	-1989
इस्	-1990
पल्	-1991
मले▁	-1992
विरा	-1993
हात▁	-1994
क्षेत्रका▁	-1995
कू	-1996
ख्	-1997
बर	-1998
पहि	-1999
धारा	-2000
ाला▁	-2001
तयार▁	-2002
मुख्यत	-2003
संस्कृत▁	-2004
गै	-2005
चढा	-2006
मती▁	-2007
यले▁	-2008
मीले▁	-2009
सहयोग	-2010
जिम्मे	-2011
विश्वा	-2012
संघीय▁	-2013
स्तार▁	-2014
अमेरिकी▁	-2015
न्ती▁	-2016
आधुनिक▁	-2017
प्रस्ता	-2018
अन	-2019
फा▁	-2020
शर्	-2021
पुगेको▁	-2022
क्रान्ति	-2023
सम्पन्न▁	-2024
शह	-2025
बच्	-2026
प्रमा	-2027
..▁	-2028
अल्	-2029
तन▁	-2030
पञ्चा	-2031
देवीको▁	-2032
क्य	-2033
हन▁	-2034
कर्ण	-2035
भाइ▁	-2036
टाको▁	-2037
सङ्गी	-2038
विष्णु	-2039
आधिकारिक▁	-2040
फ्	-2041
पको▁	-2042
प्रभाव▁	-2043
मन्दिरमा▁	-2044
अति	-2045
उचा	-2046
सदरमु	-2047
सर्वो	-2048
ग्रहण▁	-2049
साम्राज्य	-2050
१२	-2051
दिव	-2052
मिला	-2053
तीमा▁	-2054
शाली▁	-2055
स्या▁	-2056
अनुसार	-2057
देखिन्छ	-2058
प्रकाशित▁	-2059
टन▁	-2060
नाट	-2061
वीर▁	-2062
कृषि▁	-2063
थुप्र	-2064
बनाउन▁	-2065
गुण	-2066
बढ्	-2067
दिए▁	-2068
वमा▁	-2069
श्रा	-2070
तलाई▁	-2071
कानून▁	-2072
१३	-2073
आमा	-2074
से▁	-2075
कालि	-2076
ङ्क▁	-2077
नामा	-2078
सेन▁	-2079
उँदै▁	-2080
रलाई▁	-2081
सन्ता	-2082
धर्मको▁	-2083
प्रान्त	-2084
खर्	-2085
नाथ	-2086
उमा▁	-2087
टेलि	-2088
्रा▁	-2089
प्रचल	-2090
नामले▁	-2091
अत्यन्त▁	-2092
नियुक्त▁	-2093
प्रणाली▁	-2094
डो▁	-2095
ज्य▁	-2096
रीको▁	-2097
तिहरू▁	-2098
पहाडी▁	-2099
इतिहास▁	-2100
भनिएको▁	-2101
स्वास्थ	-2102
जिल्लाका▁	-2103
है	-2104
आज▁	-2105
विश	-2106
२०३	-2107
५०▁	-2108
पराज	-2109
सरी▁	-2110
राणा▁	-2111
चीनको▁	-2112
निम्न▁	-2113
गर्छन्▁	-2114
विभाजन▁	-2115
आकर्	-2116
ङको▁	-2117
वर्तमान▁	-2118
फत▁	-2119
रे▁	-2120
सिय	-2121
२०२	-2122
पाल▁	-2123
सङ्गठ	-2124
पतिको▁	-2125
गरेपछि▁	-2126
हृ	-2127
छन▁	-2128
ठी▁	-2129
दिइ	-2130
थिएन	-2131
वान▁	-2132
पदमा▁	-2133
पन्जा	-2134
परिषद्	-2135
यहाँको▁	-2136
सङ्ख्या	-2137
विस्तार▁	-2138
रहन▁	-2139
चित्र	-2140
विमान	-2141
समर्थ	-2142
कारको▁	-2143
बस्ने▁	-2144
पानीको▁	-2145
साधारण▁	-2146
उनीहरूको▁	-2147
लै	-2148
वाद	-2149
दिक▁	-2150
राणा	-2151
विधि▁	-2152
गरिएका▁	-2153
बनाएको▁	-2154
नगरपालिका▁	-2155
आवा	-2156
उन्	-2157
जला	-2158
राव	-2159
स्य	-2160
र्ता▁	-2161
विस्त	-2162
मार्ग▁	-2163
लिखित▁	-2164
क्रिया▁	-2165
बी▁	-2166
अञ्च	-2167
विचार	-2168
धानिक▁	-2169
उपत्यका	-2170
माय	-2171
कहिल	-2172
ब्या	-2173
गणना▁	-2174
पंक्ष	-2175
बजार▁	-2176
ष्टि▁	-2177
विचार▁	-2178
प्रदेशको▁	-2179
कोर	-2180
बरा	-2181
सचि	-2182
केर▁	-2183
णका▁	-2184
मुख▁	-2185
मात्रामा▁	-2186
उद	-2187
गो▁	-2188
प्त	-2189
वरि	-2190
शा▁	-2191
चुना	-2192
डको▁	-2193
तिनी	-2194
थाले	-2195
विभाग▁	-2196
राजकुमा	-2197
जीवन	-2198
कलाई▁	-2199
अन्त्य▁	-2200
कहरूको▁	-2201
किलोमिटर▁	-2202
धर्मावलम्ब	-2203
सड	-2204
रै▁	-2205
द्रा	-2206
पमा▁	-2207
थुप्रै▁	-2208
उपत्यका▁	-2209
प्रतिनिधित्व▁	-2210
उदा	-2211
गएर▁	-2212
सात▁	-2213
अधिकां	-2214
सालको▁	-2215
प्रत्यक्ष▁	-2216
दौ	-2217
हम	-2218
घण्	-2219
बाब	-2220
खोला	-2221
नागर	-2222
नभएको▁	-2223
योजना▁	-2224
सैन्य▁	-2225
बृ	-2226
कब्	-2227
अक्ष	-2228
डेर▁	-2229
शासन	-2230
विजय▁	-2231
वस्तु▁	-2232
यात्रा▁	-2233
सांस्कृतिक▁	-2234
इला	-2235
दर▁	-2236
मेल	-2237
खुवा	-2238
द्धा	-2239
शब्द	-2240
यिनको▁	-2241
मात्रै▁	-2242
सम्मको▁	-2243
हरूसँग▁	-2244
हाम्रो▁	-2245
अध्यक्ष▁	-2246
ग्रह▁	-2247
सिन्ध	-2248
देखेर▁	-2249
तल्	-2250
देउ	-2251
पण▁	-2252
लित	-2253
अप्र	-2254
जमा▁	-2255
सिल▁	-2256
मित्र	-2257
अस्पताल	-2258
उठा	-2259
तरि	-2260
बनाइ	-2261
ल्न▁	-2262
चिनिया	-2263
त्यसै▁	-2264
दिइएको▁	-2265
वैधानिक▁	-2266
दल▁	-2267
द्व	-2268
पञ्च	-2269
टीको▁	-2270
राख्ने▁	-2271
दुई	-2272
नेर▁	-2273
यद्य	-2274
शेर▁	-2275
कालो▁	-2276
पुनर्	-2277
हातमा▁	-2278
अध्यक्ष	-2279
कति	-2280
क्षम	-2281
जसो▁	-2282
स्पर्	-2283
ताहरू▁	-2284
पुरको▁	-2285
मानिसहरू▁	-2286
स्वतन्त्रता▁	-2287
लङ्	-2288
फागु	-2289
सूची	-2290
मन्त्रि	-2291
परम्परागत▁	-2292
जापा	-2293
मल्ल	-2294
मबाट▁	-2295
मान्छ	-2296
दरबार▁	-2297
विद्यु	-2298
विदेशी▁	-2299
धनु	-2300
त्ति	-2301
दार्	-2302
प्रो	-2303
न्याय	-2304
कल▁	-2305
क्स	-2306
चीन	-2307
घटना	-2308
डिसे	-2309
भनी▁	-2310
तापनि▁	-2311
बालबाल	-2312
विज्ञान	-2313
जानकारी▁	-2314
नेतृत्व▁	-2315
सर्वोच्च▁	-2316
भण्ड	-2317
मानव	-2318
लोक▁	-2319
त्यसै	-2320
थाहा▁	-2321
भएमा▁	-2322
अमेरिका	-2323
कांग्रे	-2324
धर्मका▁	-2325
मार्फत▁	-2326
तन्त्रको▁	-2327
बसे	-2328
श्वर	-2329
सञ्चार▁	-2330
निश्	-2331
नहरू▁	-2332
न्तिको▁	-2333
शताब्दी	-2334
ीहरूले▁	-2335
अधिकांश▁	-2336
बनाइएको▁	-2337
मन्दिरको▁	-2338
हिं	-2339
विवाह	-2340
सिक्कि	-2341
हल	-2342
आयु	-2343
चरण	-2344
गोर्	-2345
श्य▁	-2346
पुत्र	-2347
सेतो▁	-2348
त्वको▁	-2349
भावना▁	-2350
दछ▁	-2351
परे	-2352
राण	-2353
आश्र	-2354
सभ्य	-2355
ठाउँ▁	-2356
ियामा▁	-2357
नामबाट▁	-2358
देखिन्छ▁	-2359
मानिसहरूको▁	-2360
बहि	-2361
रामा▁	-2362
सकेका▁	-2363
प्रकाश▁	-2364
लागेको▁	-2365
स्थापन▁	-2366
चर	-2367
शृ	-2368
जित	-2369
डब्ल	-2370
राई▁	-2371
सन्ध	-2372
प्रदा	-2373
क्याम्प	-2374
दक्षिणी▁	-2375
रथ	-2376
आचा	-2377
उनले	-2378
पदक▁	-2379
षित▁	-2380
सम्म	-2381
स्वय	-2382
पत्ति▁	-2383
नियन्त्रण▁	-2384
ौं▁	-2385
आमा▁	-2386
नन्द	-2387
पारि	-2388
थ्यो▁	-2389
प्रहरी▁	-2390
नेतृत्वमा▁	-2391
ढ▁	-2392
बसाइ	-2393
विषय	-2394
बारे▁	-2395
विशाल▁	-2396
सम्पाद	-2397
विश्वविद्यालय	-2398
ये	-2399
फार	-2400
मेल▁	-2401
निधन▁	-2402
लागू▁	-2403
सक्छ▁	-2404
सङ्ग्र	-2405
गर्नका▁	-2406
लक्ष्मी	-2407
सम्मान▁	-2408
किसिमको▁	-2409
कन▁	-2410
नाच	-2411
मृत	-2412
सोही▁	-2413
उल्लेख	-2414
खेलाडी▁	-2415
राजाको▁	-2416
उत्पन्न▁	-2417
त्यसलाई▁	-2418
पवि	-2419
रंग	-2420
सुन	-2421
अलग▁	-2422
क्लब	-2423
ज्यो	-2424
मति▁	-2425
वाता	-2426
मलाई▁	-2427
गरेकी▁	-2428
गए	-2429
्यू	-2430
१३▁	-2431
इन्▁	-2432
न्ड▁	-2433
खाने▁	-2434
छोरी▁	-2435
बद्ध▁	-2436
हरूमा	-2437
वर्णन▁	-2438
महेन्द्र	-2439
ँदै▁	-2440
आयोग	-2441
काली▁	-2442
पूर्ण	-2443
खेलाडी	-2444
चिनियाँ▁	-2445
उनीहरूले▁	-2446
छु	-2447
धृ	-2448
चाँ	-2449
ाल्	-2450
हान▁	-2451
अधिक▁	-2452
हामी▁	-2453
स्वरूप	-2454
ल्यान्ड	-2455
संवैधानिक▁	-2456
एकी	-2457
तिया	-2458
विना	-2459
प्रवा	-2460
त्रिभु	-2461
सहरमा▁	-2462
जातिको▁	-2463
विषयमा▁	-2464
व्यापार▁	-2465
सामान्यतया▁	-2466
एफ	-2467
सृ	-2468
टिम▁	-2469
स्य▁	-2470
रूपमा	-2471
उनीहरू▁	-2472
उपलब्ध▁	-2473
चरि	-2474
अपरा	-2475
खान▁	-2476
पाल्	-2477
र्ति	-2478
कोशी▁	-2479
विधा▁	-2480
विषय▁	-2481
खेलमा▁	-2482
हासिल▁	-2483
कम्पनी▁	-2484
स्थिति▁	-2485
पश्चिमी▁	-2486
महिनामा▁	-2487
सुरक्षा▁	-2488
कमा	-2489
तै▁	-2490
न्व	-2491
िले	-2492
तामा	-2493
निष्	-2494
शिक्षा	-2495
जर	-2496
मल	-2497
सन	-2498
बैठ	-2499
नीय▁	-2500
बाबु	-2501
पोखरी▁	-2502
उमेरमा▁	-2503
........	-2504
न्यायाधीश	-2505
धे	-2506
रेड	-2507
रानी	-2508
सिमा	-2509
अर्जु	-2510
काव्य	-2511
भूमि▁	-2512
महिना	-2513
समान▁	-2514
उँछन्▁	-2515
न्याय▁	-2516
बनाएर▁	-2517
समाजमा▁	-2518
सहभागी▁	-2519
काग	-2520
गृह	-2521
चेत	-2522
जमी	-2523
तल▁	-2524
२१▁	-2525
अवधि	-2526
ललित	-2527
हावा	-2528
पर्व▁	-2529
बालबालिका	-2530
तै	-2531
उँछ	-2532
कन्	-2533
जाँ	-2534
हक▁	-2535
्र▁	-2536
दिल्	-2537
सक्र	-2538
िको▁	-2539
मकवान	-2540
त्यहाँ	-2541
प्रयास▁	-2542
पश्चात्▁	-2543
पर्यटकीय▁	-2544
खल	-2545
टाउ	-2546
नन्▁	-2547
आधार▁	-2548
होस्▁	-2549
अन्त्य	-2550
पदार्थ	-2551
करो	-2552
युव	-2553
क्रो	-2554
शील▁	-2555
स्वीकार▁	-2556
जङ्गबहादु	-2557
फाइ	-2558
भिय	-2559
२२▁	-2560
वादी	-2561
स्टा	-2562
गरियो▁	-2563
पूर्णि	-2564
फागुन▁	-2565
जीवनको▁	-2566
वृद्धि▁	-2567
राज्यमा▁	-2568
तन	-2569
यर	-2570
ढा▁	-2571
लेर▁	-2572
िलो▁	-2573
खोला▁	-2574
तिले▁	-2575
फेरि▁	-2576
दिनमा▁	-2577
निबन्ध	-2578
पुरुष▁	-2579
नागरिक▁	-2580
सहरहरू▁	-2581
तब▁	-2582
धरा	-2583
यर▁	-2584
ीक▁	-2585
कतिप	-2586
त्रु	-2587
वको▁	-2588
जाति▁	-2589
सर्वा	-2590
टेलिभि	-2591
व्यापक▁	-2592
सुन्दर▁	-2593
तर्फबाट▁	-2594
विज्ञान▁	-2595
आवश्यकता▁	-2596
गल	-2597
कट▁	-2598
सफल	-2599
दिनु	-2600
वडा▁	-2601
शाख▁	-2602
अभिने	-2603
जनको▁	-2604
बच्चा	-2605
करणको▁	-2606
रूपले▁	-2607
पुरस्कार▁	-2608
प्रस्ताव▁	-2609
गाय	-2610
चरा	-2611
जवा	-2612
ठो▁	-2613
भट्ट	-2614
माघ▁	-2615
यात▁	-2616
सत्य	-2617
किनार	-2618
खेती▁	-2619
शरीर▁	-2620
ध्यान▁	-2621
लिएका▁	-2622
वैदिक▁	-2623
हिन्दू	-2624
कर्मचार	-2625
यहाँका▁	-2626
विकसित▁	-2627
कृष्णले▁	-2628
मं	-2629
ची▁	-2630
ध्व	-2631
भना	-2632
वरण	-2633
अहिल	-2634
कक्ष	-2635
दिएर▁	-2636
निस्क	-2637
रिक्त▁	-2638
अन्तर्ग	-2639
स्थानहरूमा▁	-2640
चो▁	-2641
मस्	-2642
वत्▁	-2643
गोत्र	-2644
प्रशासनिक▁	-2645
आए	-2646
ठि	-2647
घाँ	-2648
भैर	-2649
ब्रु	-2650
मेला▁	-2651
सकिने▁	-2652
नेपालको	-2653
लासलाई▁	-2654
सुरुवात▁	-2655
आर	-2656
णी	-2657
११	-2658
डे▁	-2659
दूर	-2660
िलि	-2661
कारा	-2662
किन▁	-2663
डमा▁	-2664
पूजा	-2665
रुप▁	-2666
नीति▁	-2667
प्रश्	-2668
समध्य	-2669
सीमा▁	-2670
्युनि	-2671
पुरमा▁	-2672
राजनीति	-2673
काङ्ग्रे	-2674
प्रतिस्पर्	-2675
पर▁	-2676
अफ्र	-2677
चाहि	-2678
टोली	-2679
द्वि	-2680
पुरा▁	-2681
रातो▁	-2682
समस्या▁	-2683
ेन्द्र▁	-2684
ौँ	-2685
जरा	-2686
कर्त	-2687
कित्	-2688
गरि▁	-2689
द्वी	-2690
सजिल	-2691
हिक▁	-2692
ारी▁	-2693
खाना▁	-2694
रबाट▁	-2695
देशका▁	-2696
व्यापी▁	-2697
समाप्त▁	-2698
मानिसको▁	-2699
दुवै	-2700
न्ट▁	-2701
स्लि	-2702
अस्ति	-2703
बिहार	-2704
विराट	-2705
प्राप्	-2706
सामग्र	-2707
आन्दोलन▁	-2708
लेखिएको▁	-2709
दशी	-2710
साब	-2711
१९३	-2712
नैं▁	-2713
प्ता	-2714
दछन्▁	-2715
पहिलो	-2716
पेली▁	-2717
रामाय	-2718
स्ती▁	-2719
उपनिषद	-2720
देख्न▁	-2721
मीलाई▁	-2722
विद्रो	-2723
श्रीलङ्	-2724
बेलायती▁	-2725
नृ	-2726
शम्	-2727
२३▁	-2728
२९▁	-2729
गण्ड	-2730
चक्र	-2731
शिव▁	-2732
नियम▁	-2733
शृङ्ख	-2734
लगाउने▁	-2735
उपत्यकाको▁	-2736
यू	-2737
न्ट	-2738
हाइ	-2739
ेश▁	-2740
ईको▁	-2741
रामे	-2742
शहर▁	-2743
शाह▁	-2744
ख्यात▁	-2745
तल्लो▁	-2746
तियार▁	-2747
मार्च▁	-2748
सहरको▁	-2749
डिग्री▁	-2750
समध्ये▁	-2751
उद्देश्य▁	-2752
कार्यक्रम	-2753
मन्त्रीको▁	-2754
प्रतियोगिता▁	-2755
हक	-2756
आत्म	-2757
ट्या	-2758
फिल्	-2759
याता	-2760
िन्छ	-2761
थापा▁	-2762
निको▁	-2763
वर्ण▁	-2764
हुँदैन	-2765
फौ	-2766
गाभ	-2767
पनि	-2768
राइ	-2769
वरी▁	-2770
उसको▁	-2771
न्तै▁	-2772
चिकित्	-2773
फैलिएको▁	-2774
प्रतियोगितामा▁	-2775
धै	-2776
काश	-2777
राँ	-2778
क्ष्	-2779
समर्	-2780
शाही▁	-2781
शाहको▁	-2782
तान्त्र	-2783
माथिल्लो▁	-2784
तु▁	-2785
लम्	-2786
अरु▁	-2787
निकु	-2788
भमा▁	-2789
वेद▁	-2790
ेरी▁	-2791
कसरी▁	-2792
पोखरी	-2793
सल्ला	-2794
स्नात	-2795
पुर्या	-2796
सुधार▁	-2797
पूर्वक▁	-2798
बङ्गलादेशको▁	-2799
शू	-2800
जहा	-2801
साध	-2802
केहि▁	-2803
निजी▁	-2804
यहरू▁	-2805
सहरू▁	-2806
नाममा▁	-2807
सहायक▁	-2808
अर्थात▁	-2809
खेलकुद▁	-2810
पराजित▁	-2811
पूर्वमा▁	-2812
रज	-2813
बाइ	-2814
यसै	-2815
आफू▁	-2816
इच्छ	-2817
हजार	-2818
ियान	-2819
अक्टो	-2820
उँदा▁	-2821
बन्द▁	-2822
सीको▁	-2823
नदीमा▁	-2824
पाण्डव	-2825
वर्षा▁	-2826
ीहरूलाई▁	-2827
क्रान्तिको▁	-2828
तप	-2829
सजा	-2830
सद▁	-2831
खुट्	-2832
मातृ	-2833
ष्ठि	-2834
साई▁	-2835
कृति▁	-2836
ज्ञा▁	-2837
सन्धि	-2838
ज्योति	-2839
दुर्यो	-2840
हरुको▁	-2841
हुँदैन▁	-2842
एसियाली▁	-2843
खन	-2844
गते	-2845
गोल	-2846
टिम	-2847
पछा	-2848
जान▁	-2849
पुगे	-2850
वाणि	-2851
स्टे	-2852
ङ्गा▁	-2853
प्राथ	-2854
चितवन▁	-2855
पुग्न▁	-2856
राख्न▁	-2857
सूचना▁	-2858
रेन्द्र	-2859
इँ	-2860
एम	-2861
बाग	-2862
मनु	-2863
उँछ▁	-2864
किल्	-2865
त्ता	-2866
प्रश	-2867
पिता▁	-2868
शब्द▁	-2869
सङ्के	-2870
क्यान्	-2871
यस्तै▁	-2872
शमशेर▁	-2873
स्पति▁	-2874
जब	-2875
अब▁	-2876
जमि	-2877
अस्ट	-2878
कारि	-2879
भविष	-2880
न्तर▁	-2881
भक्त▁	-2882
शुरु▁	-2883
सूत्र	-2884
दृश्य▁	-2885
र्यको▁	-2886
सम्हाल	-2887
चमा▁	-2888
युधि	-2889
हरण▁	-2890
्युट	-2891
त्यति	-2892
मल्ल▁	-2893
कविता▁	-2894
थिइन्▁	-2895
पश्चात▁	-2896
सम्बन्धमा▁	-2897
जनर	-2898
ष्य	-2899
ारी	-2900
आन्त	-2901
नुवा	-2902
परशु	-2903
माछा	-2904
विजय	-2905
बौद्ध	-2906
अप्रिल▁	-2907
उद्देश्य	-2908
कार्यक्रम▁	-2909
राष्ट्रको▁	-2910
मिक	-2911
सिम	-2912
भिक▁	-2913
म्भ▁	-2914
वंश▁	-2915
स्थ▁	-2916
अध्यय	-2917
तीर्थ	-2918
बैङ्क	-2919
मानको▁	-2920
कम्युनि	-2921
न्थ्यो▁	-2922
बसोवास▁	-2923
सक्रिय▁	-2924
पुरस्कार	-2925
मण्डलको▁	-2926
युधिष्ठि	-2927
नं	-2928
खड्	-2929
दसै	-2930
बा▁	-2931
मद्	-2932
लिय	-2933
वत▁	-2934
खमा▁	-2935
जति▁	-2936
धेरै	-2937
पोर्	-2938
र्ष▁	-2939
रहन्छ	-2940
सूची▁	-2941
वैज्ञा	-2942
संख्या	-2943
जिल्लाको	-2944
जोडिएको▁	-2945
ब्रिटिस▁	-2946
प्रदेशमा▁	-2947
सदरमुकाम▁	-2948
काट	-2949
जे▁	-2950
माल	-2951
गढी▁	-2952
जर्म	-2953
प्या	-2954
अभिले	-2955
क्टर▁	-2956
तथ्या	-2957
थाले▁	-2958
सुधार	-2959
उपन्या	-2960
महादेव	-2961
प्रणाली	-2962
मूर्ति▁	-2963
राजाले▁	-2964
इतिहासमा▁	-2965
बङ्गलादेश▁	-2966
अग	-2967
बद	-2968
केश	-2969
पला	-2970
भेट	-2971
अग्र	-2972
जले▁	-2973
र्न▁	-2974
उनकी▁	-2975
क्लब▁	-2976
पर्या	-2977
पार्व	-2978
यिनी▁	-2979
कानुन▁	-2980
तिलाई▁	-2981
योग्य▁	-2982
सत्ता▁	-2983
हिन्दु	-2984
बनाएका▁	-2985
श्रेष्ठ	-2986
पाकिस्तानको▁	-2987
भय	-2988
अफ▁	-2989
नाइ	-2990
गिक▁	-2991
बिरा	-2992
लिग▁	-2993
अत्या	-2994
प्रभा	-2995
योजना	-2996
समूह▁	-2997
कतिपय▁	-2998
न्तरण▁	-2999
प्रणाल	-3000
बीचको▁	-3001
भौतिक▁	-3002
लगाउन▁	-3003
समस्या	-3004
आफूलाई▁	-3005
गर्नको▁	-3006
चर्चित▁	-3007
पानीमा▁	-3008
प्रचलन▁	-3009
शिक्षण▁	-3010
स्पष्ट▁	-3011
अङ्ग्रेजी▁	-3012
शताब्दीको▁	-3013
रग	-3014
खास	-3015
संल	-3016
ालि	-3017
१९०	-3018
तपाई	-3019
भरि▁	-3020
विशि	-3021
एउटै▁	-3022
मैदान	-3023
पश्चिम	-3024
विभाजित▁	-3025
उर्	-3026
करा	-3027
चन▁	-3028
छुट	-3029
ठा▁	-3030
कला▁	-3031
थिएँ	-3032
सिर्	-3033
करोड▁	-3034
मेरो▁	-3035
सँगको▁	-3036
स्वर्ग	-3037
अनुमान▁	-3038
कार्यालय▁	-3039
महाकाव्य▁	-3040
युरोपेली▁	-3041
पृथ्वीनारायण▁	-3042
ंगा	-3043
गन्	-3044
जग्	-3045
दुब	-3046
दाजु	-3047
म्बु	-3048
वितर	-3049
प्रजन	-3050
अग्लो▁	-3051
नियमित▁	-3052
निश्चित▁	-3053
तान्त्रिक▁	-3054
राष्ट्रपतिको▁	-3055
आज	-3056
डि▁	-3057
थप▁	-3058
कवि▁	-3059
तमिल	-3060
फूल▁	-3061
मुद्	-3062
विकि	-3063
क्षिक▁	-3064
मुस्लि	-3065
शान्ति	-3066
आन्तरिक▁	-3067
प्रख्यात▁	-3068
सिद्धान्त	-3069
न्यायाधीश▁	-3070
विद्यार्थी▁	-3071
ेश	-3072
अरु	-3073
घेर	-3074
भुट	-3075
भोज	-3076
रोह	-3077
गोल▁	-3078
तात्	-3079
मनोर	-3080
वार्	-3081
केवल▁	-3082
जीको▁	-3083
पृष्ठ	-3084
सन्तु	-3085
दिनको▁	-3086
जातिमा▁	-3087
जात्रा▁	-3088
निम्ति▁	-3089
कम्प्युट	-3090
प्रतिष्ठ	-3091
राजेन्द्र	-3092
व्यवस्थापन▁	-3093
आग	-3094
लाल	-3095
सतह	-3096
कारण	-3097
पित▁	-3098
प्टे	-3099
भौगो	-3100
लामा	-3101
च्चा▁	-3102
पात्र	-3103
हस्ता	-3104
इतिहास	-3105
गाविस▁	-3106
देवता▁	-3107
नारायण	-3108
पहिला▁	-3109
यिनले▁	-3110
परिचित▁	-3111
पवित्र▁	-3112
बेलामा▁	-3113
यद्यपि▁	-3114
नियुक्ति▁	-3115
आप	-3116
शल	-3117
ीय	-3118
नदि	-3119
गुण▁	-3120
ङमा▁	-3121
लागे	-3122
उम्मे	-3123
त्ती▁	-3124
न्दर्	-3125
बाजा▁	-3126
मन्यु	-3127
शाला▁	-3128
सरमा▁	-3129
ियान▁	-3130
कसैले▁	-3131
फेब्रु	-3132
हरुका▁	-3133
क्षमता▁	-3134
फिर्ता▁	-3135
बाछिटा▁	-3136
शान्ति▁	-3137
हेर्दा▁	-3138
विश्वको▁	-3139
षा	-3140
कु▁	-3141
फूल	-3142
बाजा	-3143
मङ्ग	-3144
सीमा	-3145
डाको▁	-3146
निकुञ्	-3147
मिलेर▁	-3148
लगाएर▁	-3149
विविध▁	-3150
हिन्दी	-3151
परिवार▁	-3152
राजधानी	-3153
संसदीय▁	-3154
अर्थात्▁	-3155
प्रकाशन▁	-3156
ब्राह्मण	-3157
अड्	-3158
गाँ	-3159
फी▁	-3160
आएर▁	-3161
किसा	-3162
गति▁	-3163
न्दा	-3164
माग▁	-3165
एसिया	-3166
कान्छ	-3167
घटना▁	-3168
पाउन▁	-3169
पुरका▁	-3170
भ्रमण▁	-3171
संरचना	-3172
कहरूले▁	-3173
हिमाली▁	-3174
भौगोलिक▁	-3175
धर्मवलम्ब	-3176
निर्धारण▁	-3177
पश्चिममा▁	-3178
दन▁	-3179
पढा	-3180
ँको▁	-3181
न्द्	-3182
पात▁	-3183
कोमा▁	-3184
बाटो▁	-3185
सुविधा▁	-3186
उपस्थित▁	-3187
सम्प्रदा	-3188
स्थानको▁	-3189
धर्मवलम्बीको▁	-3190
व्	-3191
नाग	-3192
सात	-3193
न्स▁	-3194
मासु	-3195
किराँ	-3196
वाको▁	-3197
हुदै▁	-3198
ियता▁	-3199
अवतार▁	-3200
उपयोग▁	-3201
उपाधि▁	-3202
कब्जा▁	-3203
नैतिक▁	-3204
प्रमाण	-3205
बुद्ध▁	-3206
रक्षा▁	-3207
सिन्धु	-3208
उद्योग▁	-3209
ब्रह्मा	-3210
पार्टीको▁	-3211
उपत्यकामा▁	-3212
इमा▁	-3213
बको▁	-3214
सुर्	-3215
कुण्ड	-3216
गोरखा	-3217
ल्ला▁	-3218
नालाई▁	-3219
परेका▁	-3220
बाँकी▁	-3221
पार्टी▁	-3222
विस्तार	-3223
जिम्मेवारी▁	-3224
आठ	-3225
लोच	-3226
ियन	-3227
खेल्	-3228
जन्त	-3229
धमा▁	-3230
रोध▁	-3231
शुक्	-3232
ियार	-3233
टरको▁	-3234
टामा▁	-3235
उम्मेद	-3236
कृष्ट▁	-3237
यसबाट▁	-3238
यात्रा	-3239
रामले▁	-3240
कोइराला	-3241
जनताको▁	-3242
मुक्ति▁	-3243
व्यक्त▁	-3244
जसमध्ये▁	-3245
निरन्तर▁	-3246
प्रतिवेद	-3247
साहित्य▁	-3248
गाउँपालिका▁	-3249
जू	-3250
आठ▁	-3251
चल▁	-3252
मल▁	-3253
ध्य▁	-3254
नेता▁	-3255
पालन▁	-3256
शुरू▁	-3257
सुरू▁	-3258
अनुसन्	-3259
पत्ता▁	-3260
शासनको▁	-3261
निर्मित▁	-3262
प्रचलित▁	-3263
त्रिभुवन▁	-3264
निर्देशक▁	-3265
काठमाडौँमा▁	-3266
पात	-3267
पाँच	-3268
रेल▁	-3269
नीले▁	-3270
एकादशी	-3271
धारणा▁	-3272
नहुने▁	-3273
अभियान▁	-3274
तिब्बती▁	-3275
विभागको▁	-3276
गए▁	-3277
छा▁	-3278
जल▁	-3279
वक्	-3280
सधै	-3281
ग्या	-3282
त्री	-3283
धको▁	-3284
सिया	-3285
स्वि	-3286
ग्ने▁	-3287
दुबै▁	-3288
नन्द▁	-3289
बलको▁	-3290
वर्गी	-3291
कालिन▁	-3292
नेपाली	-3293
पाएका▁	-3294
रामेछा	-3295
र्षिक▁	-3296
शाहले▁	-3297
गाउँमा▁	-3298
तापक्रम▁	-3299
दृष्टिको	-3300
मुख्यतया▁	-3301
उनीहरूलाई▁	-3302
टे▁	-3303
तह▁	-3304
मुल	-3305
शन▁	-3306
बिता	-3307
वली▁	-3308
दिनु▁	-3309
निया▁	-3310
सङ्घ▁	-3311
जनवरी▁	-3312
प्रसार	-3313
विश्ले	-3314
सम्भव▁	-3315
हनुमान	-3316
मानसिक▁	-3317
संख्या▁	-3318
संरचना▁	-3319
संलग्न▁	-3320
सश	-3321
गद्	-3322
अरू▁	-3323
काे▁	-3324
नाश▁	-3325
लाइ▁	-3326
ष्टा	-3327
सामु	-3328
आदेश▁	-3329
उसले▁	-3330
त्यसब	-3331
पौराण	-3332
रह्यो	-3333
वासी▁	-3334
व्रत▁	-3335
जातीय▁	-3336
समक्ष▁	-3337
पक्षमा▁	-3338
पत्रिका	-3339
पदार्थ▁	-3340
शरीरको▁	-3341
उपयुक्त▁	-3342
गर्नाले▁	-3343
राजमार्ग	-3344
स्वास्थ्य▁	-3345
उठ	-3346
कथ	-3347
नन्	-3348
पद्	-3349
अति▁	-3350
कैला	-3351
गरिए	-3352
हस्त	-3353
क्ने▁	-3354
गर्यो	-3355
थिएन▁	-3356
दलको▁	-3357
विविध	-3358
शाखा▁	-3359
उद्योग	-3360
कीर्ति	-3361
ण्डको▁	-3362
सङ्केत▁	-3363
अस्पताल▁	-3364
कार्यमा▁	-3365
वनस्पति▁	-3366
समितिको▁	-3367
अमेरिकाको▁	-3368
कोष	-3369
चौथ	-3370
जय▁	-3371
लिए	-3372
वटा	-3373
वे▁	-3374
हरण	-3375
तराई	-3376
माटो	-3377
नजिक▁	-3378
सक्नु	-3379
सैनिक	-3380
इच्छा▁	-3381
भन्दै▁	-3382
अनुवाद▁	-3383
नामाकरण▁	-3384
रेन्द्र▁	-3385
अतिरिक्त▁	-3386
प्रभावित▁	-3387
प्रतिनिधि▁	-3388
व्यक्तिले▁	-3389
साहित्यको▁	-3390
मानिसहरूले▁	-3391
एक्	-3392
नर्	-3393
अङ्ग	-3394
कलन▁	-3395
चिन्	-3396
त्ती	-3397
पण्ड	-3398
प्रि	-3399
बोला	-3400
उपमहा	-3401
गङ्गा	-3402
गर्दै	-3403
डामा▁	-3404
माता▁	-3405
युवा▁	-3406
लेखक▁	-3407
शासक▁	-3408
श्रम▁	-3409
्यमा▁	-3410
२०११▁	-3411
आदिको▁	-3412
पुर्ण▁	-3413
मण्डल▁	-3414
सेप्टे	-3415
गराउने▁	-3416
स्थायी▁	-3417
डिसेम्बर▁	-3418
देशहरूमा▁	-3419
अनुसन्धान▁	-3420
प्रान्तको▁	-3421
शक्तिशाली▁	-3422
टल▁	-3423
तिम	-3424
मोर	-3425
उच्च	-3426
कृति	-3427
नाच▁	-3428
परिणा	-3429
पल्ट▁	-3430
हत्या	-3431
तिनको▁	-3432
राखेर▁	-3433
हेर्न▁	-3434
अध्याय▁	-3435
सक्नेछ▁	-3436
विद्यालय	-3437
शैक्षिक▁	-3438
दृष्टिले▁	-3439
नियन्त्रणमा▁	-3440
आई	-3441
जात	-3442
बाघ	-3443
असर▁	-3444
गन्ध	-3445
नीति	-3446
पहाड	-3447
्यै▁	-3448
कल्या	-3449
तबाट▁	-3450
पुराण	-3451
भोजन▁	-3452
र्ने▁	-3453
ानको▁	-3454
नामको▁	-3455
स्नान▁	-3456
छुट्टै▁	-3457
किसिमका▁	-3458
प्रक्रिया▁	-3459
ंश	-3460
ख्य	-3461
निज	-3462
वास	-3463
समृ	-3464
हेर	-3465
द्य▁	-3466
पचार	-3467
५००▁	-3468
उनमा▁	-3469
टेको▁	-3470
त्मा▁	-3471
नाका▁	-3472
कार्या	-3473
भएपनि▁	-3474
पुगेका▁	-3475
सार्वभौ	-3476
नेपालले▁	-3477
पौराणिक▁	-3478
संस्कार▁	-3479
सामग्री▁	-3480
हुन्थ्यो	-3481
सर्वाधिक▁	-3482
स्थितिमा▁	-3483
आफु	-3484
गम▁	-3485
जर▁	-3486
बजे	-3487
बृह	-3488
न्ती	-3489
फर्क	-3490
बनाए	-3491
महान▁	-3492
सुकै▁	-3493
मूल्य▁	-3494
सन्दर्	-3495
हरुले▁	-3496
रेडियो▁	-3497
काठमाडौं	-3498
मिश्रको▁	-3499
वार्षिक▁	-3500
उत्कृष्ट▁	-3501
सुरक्षित▁	-3502
व्यक्तिको▁	-3503
साहित्यिक▁	-3504
निर्वाचनमा▁	-3505
इट	-3506
नम	-3507
आम्	-3508
कप▁	-3509
खरा	-3510
गढी	-3511
पोथ	-3512
रहि	-3513
काई▁	-3514
बोल्	-3515
रकम▁	-3516
श्रृ	-3517
घरको▁	-3518
जस्तै	-3519
ण्डा▁	-3520
बनाई▁	-3521
शुक्र	-3522
सभामा▁	-3523
साथमा▁	-3524
अर्जुन▁	-3525
त्यसमा▁	-3526
शरीरमा▁	-3527
महिलाको▁	-3528
सेनालाई▁	-3529
पहिलोपटक▁	-3530
साहित्यमा▁	-3531
प्रारम्भिक▁	-3532
बेर	-3533
मय▁	-3534
माग	-3535
कतै▁	-3536
कारी	-3537
चान▁	-3538
देख्	-3539
नोभे	-3540
एवम्▁	-3541
देवता	-3542
उपचार▁	-3543
पार्न▁	-3544
राज्यका▁	-3545
नमा	-3546
शहर	-3547
हजु	-3548
३१▁	-3549
उपभो	-3550
कृषि	-3551
खास▁	-3552
पितृ	-3553
युवा	-3554
लम्ब	-3555
शोक▁	-3556
स्मृ	-3557
डिया▁	-3558
स्थित	-3559
हिसाब	-3560
द्वार▁	-3561
सायिक▁	-3562
संस्था▁	-3563
अक्टोबर▁	-3564
गाविसमा▁	-3565
द्योगिक▁	-3566
सम्भावना▁	-3567
व्यक्तिगत▁	-3568
असो	-3569
आम▁	-3570
पाए	-3571
मोह	-3572
ैँ▁	-3573
ईमा▁	-3574
एकै▁	-3575
गृह▁	-3576
गोरख	-3577
रता▁	-3578
लेखा	-3579
स्कू	-3580
ालु▁	-3581
उँछन्	-3582
कपडा▁	-3583
कविता	-3584
क्रा▁	-3585
यसलाई	-3586
िन्छ▁	-3587
त्यसबे	-3588
फेब्रुअ	-3589
नुपर्ने▁	-3590
पाइन्छन्	-3591
वाणिज्य▁	-3592
हालसम्म▁	-3593
गणतन्त्र▁	-3594
घि	-3595
धृत	-3596
साह	-3597
गर्न	-3598
छिमे	-3599
डिया	-3600
म्बि	-3601
रीय▁	-3602
हीँ▁	-3603
इन्जि	-3604
जनावर	-3605
जीले▁	-3606
ताइवा	-3607
नीमा▁	-3608
समग्र	-3609
समाज▁	-3610
मुद्रा	-3611
व्यवसा	-3612
सेनले▁	-3613
पहिचान▁	-3614
वर्षमा▁	-3615
किनारमा▁	-3616
जिल्लाभारतको	-3617
आस	-3618
तल	-3619
लाइ	-3620
ंगा▁	-3621
चन्द	-3622
टरने	-3623
तिथि	-3624
शेर्	-3625
कर्म▁	-3626
काजी▁	-3627
पक्ष▁	-3628
बिना▁	-3629
सम्रा	-3630
कहिले▁	-3631
कान्ति	-3632
रङ्गशा	-3633
अनुमति▁	-3634
कार्यालय	-3635
मुस्लिम▁	-3636
कृष्णलाई▁	-3637
क्षेत्रीय▁	-3638
गन	-3639
गहि	-3640
बाह	-3641
हर्	-3642
हृद	-3643
कास्	-3644
न्यू	-3645
रक्त	-3646
सप्त	-3647
स्पे	-3648
ह्या	-3649
गुजरा	-3650
पाले▁	-3651
भिन्न	-3652
वाला▁	-3653
वीको▁	-3654
स्ट्र	-3655
क्षत्र	-3656
जान्छ▁	-3657
भण्डार	-3658
रीलाई▁	-3659
चिनिन्छ	-3660
डब्ल्यु	-3661
मनाउने▁	-3662
कर्तव्य▁	-3663
प्रक्रिया	-3664
वास्तवमा▁	-3665
षड	-3666
खी▁	-3667
आँखा	-3668
तत्व	-3669
तुर्	-3670
बाद▁	-3671
वंशा	-3672
गोली▁	-3673
जनता▁	-3674
संसद▁	-3675
उसलाई▁	-3676
निकाय▁	-3677
पर्वत▁	-3678
मुक्ति	-3679
वेबसाइ	-3680
शुक्ल▁	-3681
खेल्ने▁	-3682
नात्मक▁	-3683
सम्पादन▁	-3684
भारतीयराज्य	-3685
नगरपालिकाको▁	-3686
गल▁	-3687
नाय	-3688
फाँ	-3689
यथा	-3690
लघु	-3691
लाभ	-3692
आकाश	-3693
गार्	-3694
नियो	-3695
परि▁	-3696
सहज▁	-3697
हको▁	-3698
हिस्	-3699
ालय▁	-3700
इत्या	-3701
टाढा▁	-3702
देखी▁	-3703
भन्न▁	-3704
लागु▁	-3705
्यको▁	-3706
किएको▁	-3707
बुद्धि	-3708
अस्ट्रे	-3709
पुराना▁	-3710
प्रदर्श	-3711
विरुद्ध	-3712
सङ्गीत▁	-3713
मानिएको▁	-3714
क्रान्ति▁	-3715
दक्षिणमा▁	-3716
प्रतियोगिता	-3717
डल	-3718
मधु	-3719
ृत▁	-3720
गका▁	-3721
गरेर	-3722
छिन्	-3723
दछन्	-3724
प्ले	-3725
बनार	-3726
भेटि	-3727
शाखा	-3728
सडक▁	-3729
चौथो▁	-3730
व्याव	-3731
सिफार	-3732
स्मार	-3733
अभियान	-3734
पछिको▁	-3735
शम्शेर	-3736
समुद्र	-3737
भाषाका▁	-3738
संस्थाप	-3739
सेनामा▁	-3740
अदालतको▁	-3741
भइरहेको▁	-3742
विशेषता▁	-3743
सिर्जना▁	-3744
प्रदर्शन▁	-3745
आन्दोलनमा▁	-3746
माध्यमबाट▁	-3747
व्यक्तिलाई▁	-3748
अम	-3749
अथवा	-3750
खाने	-3751
वृत्	-3752
चिन्त	-3753
प्रभु	-3754
भक्ति	-3755
सरस्व	-3756
जुलाई▁	-3757
सिफारि	-3758
सूर्य▁	-3759
इस्लाम▁	-3760
च्याम्प	-3761
पूर्ति▁	-3762
स्वामी▁	-3763
विशिष्ट▁	-3764
अत्यन्तै▁	-3765
कार्यान्व	-3766
वर्षसम्म▁	-3767
आन्दोलनको▁	-3768
प्रजातिका▁	-3769
वैज्ञानिक▁	-3770
अर्थशास्त्र	-3771
बह	-3772
कलक	-3773
गयो	-3774
सम▁	-3775
जात▁	-3776
सामू	-3777
सबाट▁	-3778
पूर्वा	-3779
स्रोत▁	-3780
गाड्ने▁	-3781
द्वन्द्	-3782
पचारिक▁	-3783
कहिल्यै▁	-3784
मण्डलमा▁	-3785
राजनीतिमा▁	-3786
गर्नुपर्ने▁	-3787
क्षेत्रहरूमा▁	-3788
कठि	-3789
गाई	-3790
चाड	-3791
भरि	-3792
भेद	-3793
याँ	-3794
खुकु	-3795
जेठ▁	-3796
ण्डा	-3797
त्रे	-3798
पद्ध	-3799
विधे	-3800
दारी▁	-3801
मान्य	-3802
मुद्र	-3803
वायु▁	-3804
संघको▁	-3805
पृथ्वी▁	-3806
सकेपछि▁	-3807
सन्तान▁	-3808
सिंहको▁	-3809
प्रसिद्ध	-3810
विकासको▁	-3811
राजकुमार▁	-3812
क्षेत्रफल▁	-3813
नज	-3814
कुँ	-3815
खर▁	-3816
जाल	-3817
दम▁	-3818
पट्	-3819
पाट	-3820
पुत	-3821
बचा	-3822
तारा	-3823
फाइन	-3824
विद्	-3825
स्तन	-3826
हिउँ	-3827
ानक▁	-3828
ियर▁	-3829
असार▁	-3830
न्दा▁	-3831
लिङ्ग	-3832
अदालत▁	-3833
पात्र▁	-3834
खण्डमा▁	-3835
प्रविधि	-3836
मल्लले▁	-3837
अमेरिका▁	-3838
उत्तरमा▁	-3839
वस्तुको▁	-3840
विद्यालय▁	-3841
हरूमध्ये▁	-3842
प्य	-3843
म्म	-3844
ल्ल	-3845
सिक	-3846
घरेल	-3847
जुम्	-3848
परमा	-3849
पालि	-3850
बैङ्	-3851
भ्या	-3852
महर्	-3853
विजे	-3854
सम्ब	-3855
सर्प	-3856
उचित▁	-3857
ढाका▁	-3858
मस्जि	-3859
लिपि▁	-3860
विष्ट	-3861
सत्य▁	-3862
सोभिय	-3863
आत्मा▁	-3864
बच्चा▁	-3865
शुद्ध▁	-3866
सङ्कलन▁	-3867
बङ्गाली▁	-3868
ंक	-3869
चढ	-3870
टार	-3871
दाय	-3872
मले	-3873
रत्	-3874
रुख	-3875
वाण	-3876
अभिन	-3877
न्टि	-3878
लेख्	-3879
होइन	-3880
गएका▁	-3881
जान्छ	-3882
दृश्य	-3883
देवको	-3884
विसं▁	-3885
साधार	-3886
जित्न▁	-3887
बेलायत	-3888
भक्ति▁	-3889
क्रमको▁	-3890
गीतहरू▁	-3891
समर्थन▁	-3892
सहितको▁	-3893
स्तरमा▁	-3894
लक्ष्मी▁	-3895
माध्यमिक▁	-3896
णत▁	-3897
दोल	-3898
शरण	-3899
कति▁	-3900
क्स▁	-3901
नेता	-3902
मद्द	-3903
उपयोग	-3904
उहाँ▁	-3905
खर्च▁	-3906
मामा▁	-3907
लोकन▁	-3908
विकास	-3909
२०००▁	-3910
जात्रा	-3911
नुसार▁	-3912
मौलिक▁	-3913
वितरण▁	-3914
सफलता▁	-3915
कर्णाली▁	-3916
पुस्तकाल	-3917
प्रकारको	-3918
प्रजाति▁	-3919
शक्तिको▁	-3920
साम्राज्यको▁	-3921
वो	-3922
नजी	-3923
भाँ	-3924
रोप	-3925
सुर	-3926
स्म	-3927
कमजो	-3928
क्वा	-3929
चरण▁	-3930
बाटो	-3931
मुर्	-3932
समान	-3933
सागर	-3934
होस्	-3935
अनिवा	-3936
क्षर▁	-3937
तिमी▁	-3938
मण्डल	-3939
रीले▁	-3940
उत्तरा	-3941
कर्ता▁	-3942
कुमार▁	-3943
घोषित▁	-3944
बलियो▁	-3945
समाजको▁	-3946
सोभियत▁	-3947
तुलनामा▁	-3948
श्रेष्ठ▁	-3949
महाभारतको▁	-3950
हरूद्वारा▁	-3951
अगा	-3952
खाँ	-3953
टाइ	-3954
पथ▁	-3955
भा▁	-3956
षक▁	-3957
क्ता	-3958
गयो▁	-3959
थाल्	-3960
दायि	-3961
धनकु	-3962
मोती	-3963
यज्ञ	-3964
शिला	-3965
सुन्	-3966
क्षा▁	-3967
देखा▁	-3968
महत्व	-3969
योजन▁	-3970
हरूको	-3971
क्षति▁	-3972
गराउन▁	-3973
पञ्चाय	-3974
बसेका▁	-3975
बसेको▁	-3976
मान्छे	-3977
रामको▁	-3978
शासित▁	-3979
भगवान्▁	-3980
सम्मका▁	-3981
शमशेरले▁	-3982
शताब्दीमा▁	-3983
अच	-3984
खै	-3985
गत	-3986
षण	-3987
कुर	-3988
१९२	-3989
अपना	-3990
आकार	-3991
क्षा	-3992
भीष्	-3993
माल▁	-3994
राधा	-3995
लास▁	-3996
कप्ता	-3997
कोही▁	-3998
घोषणा	-3999
माथी▁	-4000
मीको▁	-4001
रहेर▁	-4002
राजदू	-4003
शैली▁	-4004
साधन▁	-4005
अपराध▁	-4006
खेलको▁	-4007
दैनिक▁	-4008
पाएको▁	-4009
प्राय▁	-4010
श्रद्ध	-4011
त्तिकै▁	-4012
प्रजनन▁	-4013
मानिने▁	-4014
कविताको▁	-4015
सेनापति▁	-4016
उत्पत्ति▁	-4017
अन्तर्गतको▁	-4018
धो	-4019
यी	-4020
िक	-4021
अछा	-4022
कण्	-4023
रस▁	-4024
कुखु	-4025
ग्री	-4026
दृढ▁	-4027
कहिले	-4028
खुला▁	-4029
ड्ने▁	-4030
तहरू▁	-4031
तियार	-4032
दिन्छ	-4033
राम्र	-4034
लागी▁	-4035
वनमा▁	-4036
दन्ती▁	-4037
परिणत▁	-4038
रहन्छ▁	-4039
लाहरू▁	-4040
सम्मेल	-4041
सहभागी	-4042
देखिने▁	-4043
राखेको▁	-4044
सम्ममा▁	-4045
महिनाको▁	-4046
सूर्यको▁	-4047
अनिवार्य▁	-4048
गरिन्थ्यो	-4049
प्रारम्भ▁	-4050
पाकिस्तान▁	-4051
व्यापारिक▁	-4052
प्रभावकारी▁	-4053
सेप्टेम्बर▁	-4054
अधी	-4055
आए▁	-4056
गी▁	-4057
चय▁	-4058
भलि	-4059
महो	-4060
हवा	-4061
कुन▁	-4062
चार्	-4063
जनाव	-4064
मुसल	-4065
मेर▁	-4066
सम्प	-4067
हमा▁	-4068
अङ्ग▁	-4069
अहिले	-4070
क्षण▁	-4071
तीका▁	-4072
बसेर▁	-4073
आचार्य	-4074
दैनन्▁	-4075
नम्बर▁	-4076
पोखरा▁	-4077
लेखमा▁	-4078
समिति▁	-4079
इन्टरने	-4080
गण्डकी▁	-4081
पर्यटन▁	-4082
वातावरण	-4083
चिनिन्छ▁	-4084
पुरुषको▁	-4085
भन्नाले▁	-4086
मानिसले▁	-4087
विद्युत▁	-4088
व्यवहार▁	-4089
शास्त्र▁	-4090
हिसाबले▁	-4091
पृथ्वीको▁	-4092
कार्यकारी▁	-4093
कं	-4094
वय	-4095
आया	-4096
गई▁	-4097
चलि	-4098
जमा	-4099
फैस	-4100
लाख	-4101
सत▁	-4102
ंको▁	-4103
आदी▁	-4104
खोज्	-4105
जहाँ	-4106
तेल▁	-4107
नोट▁	-4108
पिता	-4109
पुष्	-4110
भूत▁	-4111
र्ण▁	-4112
श्मी	-4113
१००▁	-4114
कबाट▁	-4115
क्यान	-4116
जसरी▁	-4117
मीका▁	-4118
श्रो▁	-4119
सालमा	-4120
स्तर▁	-4121
२०१९▁	-4122
गरेमा▁	-4123
मालाई▁	-4124
ेश्वर▁	-4125
पर्वमा▁	-4126
संसदको▁	-4127
कृष्णको▁	-4128
गाविसको▁	-4129
गरिरहेका▁	-4130
जनसङ्ख्या	-4131
संस्कृति▁	-4132
फेब्रुअरी▁	-4133
सञ्चालनमा▁	-4134
आउ	-4135
लं	-4136
आश्	-4137
गम्	-4138
स्र	-4139
ोक▁	-4140
च्छा	-4141
दिशा	-4142
भानु	-4143
यौन▁	-4144
ुवा▁	-4145
अञ्चल	-4146
बन्ध▁	-4147
बस्न▁	-4148
बाबु▁	-4149
भएकी▁	-4150
माछा▁	-4151
मैले▁	-4152
उदाहरण	-4153
चेतना▁	-4154
पत्नी▁	-4155
वैशाख▁	-4156
सम्पर्	-4157
कुमारी▁	-4158
पूर्वमा	-4159
बजारमा▁	-4160
सङ्गठन▁	-4161
सिमाना▁	-4162
हिमालय▁	-4163
प्रशस्त▁	-4164
कारात्मक▁	-4165
राजनैतिक▁	-4166
साम्राज्य▁	-4167
विश्वविद्यालय▁	-4168
मय	-4169
ेल	-4170
जिय	-4171
तीन	-4172
दशै	-4173
मणि	-4174
ारो	-4175
ालु	-4176
गिरि	-4177
घाट▁	-4178
दका▁	-4179
भवन▁	-4180
मिने	-4181
लगाए	-4182
सुन▁	-4183
अभ्या	-4184
गुरु▁	-4185
ढोका▁	-4186
मीटर▁	-4187
लम्बा	-4188
आमाको▁	-4189
गर्यो▁	-4190
शान्त▁	-4191
सम्पत्	-4192
सामेल▁	-4193
किनभने▁	-4194
लेख्ने▁	-4195
विषयको▁	-4196
समाचार▁	-4197
हतियार▁	-4198
कहरूलाई▁	-4199
फ्रान्से	-4200
त्यसबेला▁	-4201
वास्तविक▁	-4202
शिक्षाको▁	-4203
तम	-4204
हू	-4205
कता	-4206
माध	-4207
तया▁	-4208
धनुष	-4209
निस्	-4210
लाभ▁	-4211
श्रो	-4212
आँखा▁	-4213
काका▁	-4214
गौतम▁	-4215
मुखी▁	-4216
ग्राम▁	-4217
चर्चा▁	-4218
नागरी▁	-4219
बिहान▁	-4220
भगवती▁	-4221
मानित▁	-4222
सबैको▁	-4223
जीवनमा▁	-4224
तिमीले▁	-4225
पार्ने▁	-4226
पुग्ने▁	-4227
मध्यको▁	-4228
लेखेका▁	-4229
ल्याण्ड	-4230
सुरक्षा	-4231
अस्ट्रेल	-4232
विराटनगर	-4233
विश्वका▁	-4234
पर्याप्त▁	-4235
बाछिटाको▁	-4236
सिद्धान्त▁	-4237
तौ	-4238
नग	-4239
२३	-4240
इजि	-4241
भरत	-4242
सँग	-4243
हप्	-4244
ुक▁	-4245
माया	-4246
राजी	-4247
रित▁	-4248
वन्य	-4249
ौता▁	-4250
त्तर▁	-4251
त्ता▁	-4252
लेखन▁	-4253
अनुभव▁	-4254
कालाई▁	-4255
त्यति▁	-4256
दुर्गा	-4257
प्रकट▁	-4258
बाध्य▁	-4259
वंशको▁	-4260
वरिपरि▁	-4261
स्थलको▁	-4262
दरबारमा▁	-4263
वातावरण▁	-4264
सरकारका▁	-4265
सरकारलाई▁	-4266
केन्द्रित▁	-4267
मज	-4268
२५	-4269
उदय	-4270
कुश	-4271
चल्	-4272
नक्	-4273
पका	-4274
भवन	-4275
मकै	-4276
मरा	-4277
कल्प	-4278
किता	-4279
ड्न▁	-4280
धातु	-4281
न्थे	-4282
पतन▁	-4283
फोर्	-4284
बोलि	-4285
संहि	-4286
सिका	-4287
सुना	-4288
कलेज▁	-4289
कोले▁	-4290
क्री▁	-4291
पर्न▁	-4292
माले▁	-4293
लाका▁	-4294
सचिव▁	-4295
होइन▁	-4296
गीतको▁	-4297
बढ्दै▁	-4298
भर्ना▁	-4299
भूभाग▁	-4300
गोर्खा▁	-4301
त्यसरी▁	-4302
धर्ममा▁	-4303
सङ्घीय▁	-4304
आकर्षित▁	-4305
प्रकृति▁	-4306
प्रशासन▁	-4307
संस्कृति	-4308
व्याख्या▁	-4309
समुदायको▁	-4310
शासनकालमा▁	-4311
क्षेत्रबाट▁	-4312
व्यवस्थाको▁	-4313
प्रतियोगिताको▁	-4314
प्रधानमन्त्रीको▁	-4315
यन	-4316
ित	-4317
जु▁	-4318
नेक	-4319
बास	-4320
याद	-4321
शेष	-4322
सल▁	-4323
जिन्	-4324
निज▁	-4325
मोर्	-4326
रूपा	-4327
सिपा	-4328
क्रमश	-4329
थोरै▁	-4330
नष्ट▁	-4331
पर्ने	-4332
पैसा▁	-4333
माञ्च	-4334
रीका▁	-4335
व्यञ्	-4336
संगै▁	-4337
हिंसा	-4338
२०१५▁	-4339
यन्त्र	-4340
लुम्बि	-4341
विवरण▁	-4342
जनगणना▁	-4343
तिम्रो▁	-4344
थालेको▁	-4345
सेवाको▁	-4346
अभिमन्यु	-4347
भइसकेको▁	-4348
संसारमा▁	-4349
समयसम्म▁	-4350
अा	-4351
गार	-4352
दास	-4353
दौ▁	-4354
रथ▁	-4355
हिम	-4356
अन्य	-4357
आहार	-4358
गराए	-4359
जेल▁	-4360
टका▁	-4361
टिक▁	-4362
टिन▁	-4363
ट्न▁	-4364
दुइ▁	-4365
न्दे	-4366
पान▁	-4367
पेश▁	-4368
भेट▁	-4369
हम्▁	-4370
असोज▁	-4371
जाको▁	-4372
पोखरा	-4373
भगवान	-4374
राखी▁	-4375
रेकर्	-4376
वनस्प	-4377
सौन्द	-4378
१९५०▁	-4379
२०१३▁	-4380
करणमा▁	-4381
घरेलु▁	-4382
धिकार▁	-4383
प्रेम▁	-4384
श्वरी▁	-4385
अफ्रिका	-4386
थापाले▁	-4387
दुर्योध	-4388
प्रहार▁	-4389
परीक्षा▁	-4390
मार्गको▁	-4391
ल्याएको▁	-4392
अमेरिकामा▁	-4393
सुरक्षाको▁	-4394
टर्	-4395
नल▁	-4396
पुण	-4397
रन▁	-4398
सल्	-4399
हं▁	-4400
क्न▁	-4401
टान▁	-4402
डान▁	-4403
धनी▁	-4404
प्रस	-4405
रही▁	-4406
अवसर▁	-4407
जसका▁	-4408
टीमा▁	-4409
भुटान	-4410
लिच्छ	-4411
सल्या	-4412
विरोध▁	-4413
सामना▁	-4414
उहाँले▁	-4415
पर्नेछ▁	-4416
पुस्तक▁	-4417
प्रश्न▁	-4418
लागेका▁	-4419
परीक्षण▁	-4420
विश्वमा▁	-4421
विस्तृत▁	-4422
समर्पित▁	-4423
अधिकारको▁	-4424
संख्यामा▁	-4425
हस्ताक्षर▁	-4426
बन	-4427
पङ्	-4428
९०▁	-4429
उको▁	-4430
कूल▁	-4431
बासि	-4432
भुमि	-4433
मदन▁	-4434
शुल्	-4435
हार्	-4436
कारबा	-4437
जामा▁	-4438
डीको▁	-4439
फिफा▁	-4440
हरूले	-4441
१९९०▁	-4442
अष्ट्र	-4443
गाउने▁	-4444
चीनमा▁	-4445
बैङ्क▁	-4446
शहरको▁	-4447
भित्री▁	-4448
वर्गमा▁	-4449
विरोधी▁	-4450
हाम्रा▁	-4451
प्रविधि▁	-4452
फुटबलको▁	-4453
श्राद्ध▁	-4454
अर्जुनले▁	-4455
सहभागीता▁	-4456
व्यवस्थित▁	-4457
शास्त्रीय▁	-4458
क्षेत्रलाई▁	-4459
महत्वपूर्ण▁	-4460
व्यक्तिहरू▁	-4461
थि▁	-4462
हिँ	-4463
आयो▁	-4464
जिलि	-4465
पनिष	-4466
भएका	-4467
माने	-4468
रेसल	-4469
शेख▁	-4470
स्टु	-4471
हरा▁	-4472
िता▁	-4473
अदालत	-4474
कर्ण▁	-4475
खण्ड▁	-4476
टलाई▁	-4477
तीले▁	-4478
नभएर▁	-4479
मुनि▁	-4480
रक्षा	-4481
अन्तरि	-4482
उपाध्य	-4483
घण्टा▁	-4484
चरणमा▁	-4485
ढुङ्गा	-4486
पारेर▁	-4487
मद्दत▁	-4488
मित्र▁	-4489
सुविधा	-4490
सूक्ष्	-4491
त्यसका▁	-4492
पर्दछन्	-4493
विश्वकप	-4494
अत्यधिक▁	-4495
पोखरीमा▁	-4496
यातायात▁	-4497
सशस्त्र▁	-4498
त्यसैगरी▁	-4499
संविधानमा▁	-4500
काठमाडौँको▁	-4501
रस	-4502
अरू	-4503
खस▁	-4504
दुर	-4505
नौ▁	-4506
भिड	-4507
ये▁	-4508
्रि	-4509
उत्स	-4510
किना	-4511
ङका▁	-4512
सुरू	-4513
सुर▁	-4514
हजुर	-4515
आकार▁	-4516
काण्ड	-4517
गन्ज▁	-4518
छोटो▁	-4519
डीमा▁	-4520
दिवस▁	-4521
मान्द	-4522
माया▁	-4523
यलाई▁	-4524
्यता▁	-4525
घाटमा▁	-4526
ब्रह्म	-4527
रेसलमे	-4528
सञ्चार	-4529
सिद्धि	-4530
स्थिर▁	-4531
नसक्ने▁	-4532
पारेको▁	-4533
मनाइने▁	-4534
मुद्रा▁	-4535
सङ्घको▁	-4536
अघिल्लो▁	-4537
भाषाहरू▁	-4538
राज्यले▁	-4539
विकासका▁	-4540
सदस्यको▁	-4541
महेन्द्र▁	-4542
संस्थापक▁	-4543
हुन्थ्यो▁	-4544
च्याम्पियन	-4545
प्रजातिको▁	-4546
साहित्यका▁	-4547
कम्युनिस्ट▁	-4548
विश्वव्यापी▁	-4549
जङ्गबहादुरले▁	-4550
एल	-4551
३०	-4552
कौर	-4553
चि▁	-4554
दश▁	-4555
न्स	-4556
मला	-4557
वली	-4558
ीत▁	-4559
ुवा	-4560
आउन▁	-4561
किशो	-4562
कुनै	-4563
क्षु	-4564
खाना	-4565
पास▁	-4566
मुटु	-4567
रहे▁	-4568
श्या	-4569
ष्ठा	-4570
ष्य▁	-4571
आयुर्	-4572
क्का▁	-4573
पुरी▁	-4574
म्बु▁	-4575
यिनै▁	-4576
राक्ष	-4577
शत्रु	-4578
मतदान▁	-4579
सन्धि▁	-4580
हरुमा▁	-4581
भीमसेन▁	-4582
महादेव▁	-4583
मान्ने▁	-4584
गाभिएका▁	-4585
राजालाई▁	-4586
सामूहिक▁	-4587
कम्पनीको▁	-4588
नोभेम्बर▁	-4589
मन्त्रालयको▁	-4590
ठी	-4591
यम	-4592
अना	-4593
गढ▁	-4594
माई	-4595
रत▁	-4596
सिँ	-4597
सुख	-4598
अष्ट	-4599
कडा▁	-4600
गर्भ	-4601
चरा▁	-4602
जिम्	-4603
टापु	-4604
द्रु	-4605
नियम	-4606
बाहु	-4607
वासी	-4608
सेर▁	-4609
हीन▁	-4610
हुँ▁	-4611
उनकै▁	-4612
जलाई▁	-4613
स्वर▁	-4614
कामना▁	-4615
चुनाव▁	-4616
भरद्वा	-4617
समयको▁	-4618
मिटरको▁	-4619
राखेका▁	-4620
लगाएका▁	-4621
हिन्दी▁	-4622
जन्मेका▁	-4623
बङ्गालको▁	-4624
राजीनामा▁	-4625
प्रजातन्त्र▁	-4626
राष्ट्रपतिले▁	-4627
बं	-4628
अला	-4629
गञ्	-4630
त्स	-4631
नर▁	-4632
बुट	-4633
माघ	-4634
आधा▁	-4635
ङले▁	-4636
निकट	-4637
मारु	-4638
लिई▁	-4639
शैली	-4640
इन्डो	-4641
छिन्▁	-4642
टीका▁	-4643
धिकार	-4644
पत्नी	-4645
प्ती▁	-4646
बाह्र	-4647
मुलुक	-4648
रहरु▁	-4649
शुद्ध	-4650
साउन▁	-4651
आपसमा▁	-4652
आफूले▁	-4653
कुलमा▁	-4654
गर्दथे	-4655
गोरखा▁	-4656
जाँदा▁	-4657
ज्ञाने	-4658
नजिकै▁	-4659
पर्दा▁	-4660
भारदार	-4661
वादको▁	-4662
शहरमा▁	-4663
सबैले▁	-4664
गराएका▁	-4665
छिमेकी▁	-4666
महर्षि▁	-4667
समुद्र▁	-4668
सबभन्दा▁	-4669
स्थलहरू▁	-4670
जयप्रकाश▁	-4671
सक्नुहुन्छ	-4672
ढि	-4673
थर	-4674
बू	-4675
लम	-4676
ेे	-4677
अंग	-4678
इयो	-4679
पहे	-4680
भट्	-4681
ारे	-4682
ैं▁	-4683
ँदैन	-4684
उदै▁	-4685
चको▁	-4686
दमन▁	-4687
दुर▁	-4688
मार▁	-4689
शिवा	-4690
एकादश	-4691
जनमा▁	-4692
जबकि▁	-4693
जाडो▁	-4694
बढ्न▁	-4695
बनाए▁	-4696
बन्यो	-4697
बस्ने	-4698
रुवा▁	-4699
लगाई▁	-4700
अर्जुन	-4701
आफ्नी▁	-4702
छोडेर▁	-4703
जग्गा▁	-4704
परिचय▁	-4705
पुग्यो	-4706
बराबर▁	-4707
भक्तजन	-4708
भूकम्प	-4709
मार्न▁	-4710
सिकार▁	-4711
हालको▁	-4712
नहरूको▁	-4713
पाइएको▁	-4714
प्रतीक▁	-4715
बोकेको▁	-4716
हिस्सा▁	-4717
दार्जिलि	-4718
देखिएको▁	-4719
शमशेरको▁	-4720
हस्तक्षे	-4721
कार्यहरू▁	-4722
गाविसहरू▁	-4723
सङ्ग्रहाल	-4724
विमानस्थल▁	-4725
मन्त्रिपरिषद्	-4726
इज	-4727
तय	-4728
धू	-4729
लू	-4730
काभ	-4731
छु▁	-4732
डर▁	-4733
तना	-4734
तमा	-4735
साउ	-4736
सेन	-4737
३५▁	-4738
कुरु	-4739
गन्त	-4740
चुनौ	-4741
देहा	-4742
शुरु	-4743
डेका▁	-4744
न्थे▁	-4745
परियो	-4746
पुगे▁	-4747
मोहन▁	-4748
यज्ञ▁	-4749
वंशी▁	-4750
हमला▁	-4751
ीहरु▁	-4752
कमजोर▁	-4753
चलेको▁	-4754
न्ध्र▁	-4755
पाल्पा	-4756
शिवको▁	-4757
सक्छन्	-4758
िएपछि▁	-4759
खेलहरू▁	-4760
गर्नेछ▁	-4761
टुक्रा▁	-4762
युवराज▁	-4763
व्यवहार	-4764
सूचीमा▁	-4765
स्तरीय▁	-4766
हामीले▁	-4767
नारायणी▁	-4768
प्रशिक्ष	-4769
भक्तपुर▁	-4770
राम्ररी▁	-4771
विद्रोह▁	-4772
समुदायमा▁	-4773
क्षेत्रहरू▁	-4774
च्याम्पियनसि	-4775
गह	-4776
घाट	-4777
नवा	-4778
भइ▁	-4779
रह▁	-4780
सेव	-4781
हल्	-4782
३२▁	-4783
गणेश	-4784
गुमा	-4785
गुल्	-4786
पदाव	-4787
बाल▁	-4788
बोर्	-4789
मुजि	-4790
म्न▁	-4791
रात▁	-4792
वाल▁	-4793
अवतार	-4794
कश्मी	-4795
गठित▁	-4796
दाको▁	-4797
प्राण	-4798
भनाइ▁	-4799
मानी▁	-4800
मेरा▁	-4801
लियो▁	-4802
२००९▁	-4803
२०१०▁	-4804
अंग्रे	-4805
खाद्य▁	-4806
छेउमा▁	-4807
जनाको▁	-4808
नेकपा▁	-4809
विकिपि	-4810
डिसेम्ब	-4811
पंक्षी▁	-4812
पक्षको▁	-4813
भागलाई▁	-4814
विष्णु▁	-4815
सहायता▁	-4816
इन्जिनिय	-4817
त्यस्ता▁	-4818
तत्कालिन▁	-4819
निर्देशन▁	-4820
प्राथमिक▁	-4821
मानिसलाई▁	-4822
सर्वप्रथम▁	-4823
................	-4824
२१	-4825
करी	-4826
काइ	-4827
तिक	-4828
फाल	-4829
भत्	-4830
मही	-4831
शील	-4832
सद्	-4833
सिर	-4834
भदौ▁	-4835
मृत▁	-4836
रोजग	-4837
शिल्	-4838
सही▁	-4839
ईएको▁	-4840
च्ने▁	-4841
जनरल▁	-4842
मौसम▁	-4843
लिनु▁	-4844
विदेश	-4845
आरम्भ▁	-4846
काण्ड▁	-4847
गोपाल▁	-4848
तालको▁	-4849
पन्जाब	-4850
बिचमा▁	-4851
सुधार्	-4852
उचाइमा▁	-4853
उत्तराख	-4854
कुरामा▁	-4855
ग्रन्थ▁	-4856
जमीनमा▁	-4857
बोलिने▁	-4858
लक्ष्य▁	-4859
श्रव्य▁	-4860
सेवामा▁	-4861
स्वर्ण▁	-4862
पूर्वीय▁	-4863
क्रियाकला	-4864
कम्प्युटर▁	-4865
छल	-4866
घार	-4867
चक▁	-4868
र्स	-4869
अन्ध	-4870
आर्य	-4871
डित▁	-4872
ताप▁	-4873
द्रौ	-4874
मौसम	-4875
यति▁	-4876
लोप▁	-4877
विरू	-4878
सके▁	-4879
सफा▁	-4880
सेल्	-4881
णाको▁	-4882
नेवार	-4883
बाटै▁	-4884
मौका▁	-4885
लडाकु	-4886
सधैं▁	-4887
कम्पनी	-4888
खालको▁	-4889
ज्यान▁	-4890
पाण्डे	-4891
स्वयं▁	-4892
अवसरमा▁	-4893
त्रिका▁	-4894
ब्यक्ति	-4895
समाधान▁	-4896
सेनाका▁	-4897
स्तरको▁	-4898
पछिल्लो▁	-4899
टेलिभिजन▁	-4900
प्रचलनमा▁	-4901
मकवानपुर▁	-4902
प्रतिस्पर्धा▁	-4903
एन	-4904
गं	-4905
णु	-4906
अप्	-4907
कठो	-4908
डेर	-4909
ढी▁	-4910
नेछ	-4911
रेश	-4912
वल्	-4913
अधिक	-4914
अल्प	-4915
कोठा	-4916
जित्	-4917
जीव▁	-4918
टले▁	-4919
टेर▁	-4920
दास▁	-4921
निरा	-4922
बने▁	-4923
माहा	-4924
सिर▁	-4925
चामा▁	-4926
जोडी▁	-4927
डेको▁	-4928
तहको▁	-4929
दर्शन	-4930
नाटक▁	-4931
पहिले	-4932
पुरै▁	-4933
राजनि	-4934
संचाल	-4935
स्तन▁	-4936
अभिनय▁	-4937
काभ्रे	-4938
क्रमा▁	-4939
गोत्र▁	-4940
चाहिँ▁	-4941
छुट्या	-4942
जनावर▁	-4943
बग्ने▁	-4944
बैशाख▁	-4945
यसैले▁	-4946
वेदको▁	-4947
सजिलै▁	-4948
सीमित▁	-4949
सुनेर▁	-4950
अवलोकन▁	-4951
त्यसले▁	-4952
जुनसुकै▁	-4953
दिनसम्म▁	-4954
देवताको▁	-4955
नुवाकोट▁	-4956
प्रसारण▁	-4957
वन्यजन्त	-4958
गरिरहेको▁	-4959
पाइन्छन्▁	-4960
प्रयोगमा▁	-4961
विश्लेषण▁	-4962
प्रस्तुति▁	-4963
फ्रान्सको▁	-4964
धर्मावलम्बी▁	-4965
तस	-4966
भृ	-4967
अनौ	-4968
इङ्	-4969
क्ट	-4970
छनौ	-4971
जक▁	-4972
तेल	-4973
धै▁	-4974
नाश	-4975
बकु	-4976
बनि	-4977
मगर	-4978
सगर	-4979
सरा	-4980
अन्न	-4981
अफगा	-4982
कलेज	-4983
छन्द	-4984
जरा▁	-4985
जैन▁	-4986
सक्ष	-4987
सिख▁	-4988
तहमा▁	-4989
दलाई▁	-4990
हुनेछ	-4991
क्षमा▁	-4992
चरित्र	-4993
नाबाट▁	-4994
परिभाष	-4995
प्रथा▁	-4996
रोगको▁	-4997
संवत्▁	-4998
सजिलो▁	-4999
आयोजित▁	-5000
थालेका▁	-5001
दिएपछि▁	-5002
पशुपति▁	-5003
पारिश्र	-5004
प्रतीका	-5005
महाराज▁	-5006
कम्तीमा▁	-5007
पश्चिममा	-5008
ल्यान्ड▁	-5009
संस्करण▁	-5010
खेलकुदमा▁	-5011
पञ्चायती▁	-5012
विष्णुको▁	-5013
सम्बन्धि▁	-5014
अध्यक्षको▁	-5015
प्रतिवेदन▁	-5016
नगरपालिकामा▁	-5017
स्वतन्त्रताको▁	-5018
चू	-5019
दह	-5020
पत	-5021
कृष	-5022
खु▁	-5023
चम्	-5024
पचा	-5025
पब्	-5026
बलि	-5027
लै▁	-5028
संग	-5029
उदय▁	-5030
खबर▁	-5031
च्छ▁	-5032
पका▁	-5033
पिरा	-5034
बाँध	-5035
भरी▁	-5036
ामा▁	-5037
अवधि▁	-5038
उपचार	-5039
कठिन▁	-5040
गाएर▁	-5041
गोपाल	-5042
चार्य	-5043
ढुङ्ग	-5044
त्रु▁	-5045
दीमा▁	-5046
पहाड▁	-5047
पूरै▁	-5048
बीमा▁	-5049
मीमा▁	-5050
२०१२▁	-5051
कथामा▁	-5052
टाउको▁	-5053
तीलाई▁	-5054
दिन्छ▁	-5055
देशिक▁	-5056
नेहरू▁	-5057
पशुपति	-5058
प्राचि	-5059
लिम्बु	-5060
संगीत▁	-5061
सक्षम▁	-5062
समस्त▁	-5063
समालोच	-5064
स्वामि	-5065
इन्डोने	-5066
शब्दको▁	-5067
सिंहले▁	-5068
अङ्ग्रेज	-5069
काठमाण्ड	-5070
चुनावमा▁	-5071
दक्षिणमा	-5072
महाभारत▁	-5073
शताब्दी▁	-5074
समुन्द्र	-5075
क्षेत्रमा	-5076
हनुमानको▁	-5077
व्यवस्थापि	-5078
संविधानको▁	-5079
वटाजिल्लाहरू▁	-5080
बग	-5081
शर	-5082
ौं	-5083
गिर	-5084
घाइ	-5085
लभ▁	-5086
तुरु	-5087
दले▁	-5088
भार▁	-5089
यौँ▁	-5090
शारी	-5091
सिने	-5092
हुर्	-5093
कहाँ▁	-5094
खाली▁	-5095
गाउन▁	-5096
पनिषद	-5097
लबाट▁	-5098
होला▁	-5099
कुन्ती	-5100
प्रगति	-5101
बत्ती▁	-5102
बन्ने▁	-5103
विवाद▁	-5104
सभाका▁	-5105
उपविभाग	-5106
जातिका▁	-5107
दुईवटा▁	-5108
मान्छे▁	-5109
संस्कार	-5110
सतहबाट▁	-5111
स्थलमा▁	-5112
स्नातको	-5113
बङ्गालको	-5114
जात्रामा▁	-5115
परिवारमा▁	-5116
वर्गीकरण▁	-5117
प्रजातान्त्रिक▁	-5118
विश्वविद्यालयमा▁	-5119
घन	-5120
लौ	-5121
षध	-5122
मधे	-5123
राउ	-5124
वध▁	-5125
हल▁	-5126
१९१	-5127
आदर्	-5128
इको▁	-5129
गार▁	-5130
जनक▁	-5131
पेशा	-5132
मगर▁	-5133
साथै	-5134
अनुया	-5135
ङ्कन▁	-5136
जीमा▁	-5137
जेठा▁	-5138
णबाट▁	-5139
थाको▁	-5140
प्रेर	-5141
मनमा▁	-5142
वैष्ण	-5143
संगीत	-5144
सहिद▁	-5145
गहिरो▁	-5146
जीवित▁	-5147
ताबाट▁	-5148
निरन्त	-5149
पिरामि	-5150
फाइदा▁	-5151
याताया	-5152
लगानी▁	-5153
शिकार▁	-5154
आचार्य▁	-5155
एकीकरण▁	-5156
डब्ल्यू	-5157
थापाको▁	-5158
धार्मिक	-5159
निर्धार	-5160
प्रचार▁	-5161
समुदाय▁	-5162
थालिएको▁	-5163
पत्रिका▁	-5164
परिषदको▁	-5165
बुद्धको▁	-5166
भाषालाई▁	-5167
ताइवानको▁	-5168
उद्देश्यले▁	-5169
फ्रान्सेली▁	-5170
कार्यान्वयन▁	-5171
अत	-5172
दय	-5173
अयो	-5174
एस▁	-5175
जनक	-5176
पुँ	-5177
भै▁	-5178
म्भ	-5179
३३▁	-5180
अभाव	-5181
एकल▁	-5182
खोज▁	-5183
दियो	-5184
दीर्	-5185
मुकु	-5186
यसो▁	-5187
वन्ध	-5188
विघट	-5189
सान▁	-5190
कम्प▁	-5191
जन्मा	-5192
जवाहर	-5193
दियो▁	-5194
मासु▁	-5195
लेको▁	-5196
लोको▁	-5197
शीर्ष	-5198
आग्रह▁	-5199
उत्तम▁	-5200
गीतमा▁	-5201
त्रुटि	-5202
राजको▁	-5203
समग्र▁	-5204
स्वर्ण	-5205
अधीनमा▁	-5206
कानुनी▁	-5207
भट्टराई	-5208
भ्रष्टा	-5209
रामलाई▁	-5210
वर्गका▁	-5211
स्वरुप▁	-5212
हेर्ने▁	-5213
कार्यको▁	-5214
काव्यिक▁	-5215
जंगबहादु	-5216
पोखरीको▁	-5217
सदरमुकाम	-5218
सुधार्न▁	-5219
कार्यकाल▁	-5220
जन्मिएका▁	-5221
पाकिस्तान	-5222
प्राप्ति▁	-5223
निर्माणको▁	-5224
निर्माणमा▁	-5225
सङ्ख्यामा▁	-5226
प्रतिस्पर्धा	-5227
खर	-5228
फी	-5229
३९	-5230
डाइ	-5231
दबा	-5232
मंग	-5233
मन्	-5234
रक्	-5235
सोम	-5236
ारण	-5237
काश▁	-5238
चयन▁	-5239
ज्वा	-5240
तारि	-5241
देवा	-5242
नभई▁	-5243
निरी	-5244
भान्	-5245
भीर▁	-5246
मिल▁	-5247
रगत▁	-5248
रुक्	-5249
वेदी	-5250
शङ्ख	-5251
स्टि	-5252
हीं▁	-5253
ालो▁	-5254
आवाज▁	-5255
गायक▁	-5256
गुठी▁	-5257
पाटन▁	-5258
फलको▁	-5259
बाली▁	-5260
स्टर▁	-5261
हीले▁	-5262
आदर्श▁	-5263
चित्र▁	-5264
दिव्य▁	-5265
पाँडे▁	-5266
फैसला▁	-5267
बढेको▁	-5268
बहुमत▁	-5269
भलिबल▁	-5270
सामान▁	-5271
स्थाना	-5272
िल्ला▁	-5273
अभिलेख▁	-5274
कप्तान▁	-5275
ज्यादै▁	-5276
ज्योतिष	-5277
निर्माण	-5278
माथिको▁	-5279
मार्ने▁	-5280
मृत्युद	-5281
सक्छन्▁	-5282
सबैलाई▁	-5283
पूर्णिमा	-5284
बच्चाको▁	-5285
अत्याधिक▁	-5286
क्यान्सर▁	-5287
बङ्गलादेश	-5288
महादेवको▁	-5289
व्यासलाई▁	-5290
उल्लेखनीय▁	-5291
प्रदेशप्रान्तको▁	-5292
आत	-5293
आरा	-5294
आरो	-5295
तिर	-5296
बडा	-5297
मिस	-5298
युग	-5299
एउटा	-5300
कस्त	-5301
क्सि	-5302
चरम▁	-5303
फाल्	-5304
बिच▁	-5305
मातह	-5306
मुनि	-5307
यहि▁	-5308
यौं▁	-5309
रत्न	-5310
शपथ▁	-5311
ष्ण▁	-5312
आफन्त	-5313
इएका▁	-5314
इजराय	-5315
नेको▁	-5316
पुर्व	-5317
फेरी▁	-5318
मस्ति	-5319
रत्न▁	-5320
काटेर▁	-5321
क्लिक▁	-5322
गर्मी▁	-5323
जनाले▁	-5324
त्याग▁	-5325
येसको▁	-5326
वर्षे▁	-5327
अभ्यास▁	-5328
ताइवान▁	-5329
पर्यटक▁	-5330
संस्कृत	-5331
कारबाही▁	-5332
महात्मा▁	-5333
ल्याउने▁	-5334
सालदेखि▁	-5335
अस्तित्व▁	-5336
हावापानी▁	-5337
प्रणालीको▁	-5338
मन्त्रीले▁	-5339
श्रीकृष्ण▁	-5340
खस	-5341
पथ	-5342
गन▁	-5343
जडि	-5344
तेज	-5345
थान	-5346
पत▁	-5347
लिग	-5348
ार▁	-5349
ियु	-5350
आगो▁	-5351
काशी	-5352
जोखि	-5353
तिन▁	-5354
मारि	-5355
वारा	-5356
व्रत	-5357
संकट	-5358
ार्थ	-5359
ालेख	-5360
२००▁	-5361
आर्य▁	-5362
क्ती▁	-5363
दलीय▁	-5364
धारी▁	-5365
पारी▁	-5366
प्रयो	-5367
मिति▁	-5368
मुगल▁	-5369
साथी▁	-5370
स्तै▁	-5371
काममा▁	-5372
तमिलना	-5373
थाल्यो	-5374
दिल्ली	-5375
नाथको▁	-5376
बन्दी▁	-5377
मनोरञ्	-5378
षिहरु▁	-5379
सभाले▁	-5380
समृद्ध	-5381
सातौँ▁	-5382
अधिकतम▁	-5383
उहाँको▁	-5384
जलाउने▁	-5385
बैठकमा▁	-5386
मस्तिष्	-5387
आदिवासी▁	-5388
कार्यरत▁	-5389
कालदेखि▁	-5390
तरिकाले▁	-5391
संसारको▁	-5392
नागरिकता▁	-5393
परिक्रमा▁	-5394
फलस्वरूप▁	-5395
सम्पत्ति▁	-5396
त्रुटिहरु▁	-5397
जङ्गबहादुर▁	-5398
विद्यालयमा▁	-5399
प्रजातन्त्रको▁	-5400
पक	-5401
ंक▁	-5402
कृत	-5403
नवी	-5404
बगै	-5405
मत्	-5406
मैथ	-5407
वशि	-5408
साई	-5409
अरब▁	-5410
गाई▁	-5411
दोष▁	-5412
मिन्	-5413
रना▁	-5414
सोलु	-5415
हिरण	-5416
अन्तत	-5417
अन्न▁	-5418
असफल▁	-5419
कन्या	-5420
चिसो▁	-5421
ठुला▁	-5422
डाका▁	-5423
दलित▁	-5424
द्वीप	-5425
धृष्ट	-5426
फेला▁	-5427
बालक▁	-5428
मुना▁	-5429
विनाश	-5430
२००३▁	-5431
दैलेख▁	-5432
निजको▁	-5433
नेवार▁	-5434
बहिनी▁	-5435
मुस्ता	-5436
रहँदा▁	-5437
लाग्छ▁	-5438
विद्वा	-5439
सन्तुल	-5440
समुदाय	-5441
अनुरोध▁	-5442
आयोगको▁	-5443
कुराको▁	-5444
गरेरयस▁	-5445
डाक्टर▁	-5446
पालिकार	-5447
बोल्ने▁	-5448
लगातार▁	-5449
शासकीय▁	-5450
शैलीमा▁	-5451
समूहमा▁	-5452
कार्तिक▁	-5453
ललितपुर▁	-5454
लेखिएका▁	-5455
स्वस्थान	-5456
उल्लेखित▁	-5457
परिवारका▁	-5458
ब्राह्मण▁	-5459
रङ्गशाला▁	-5460
सहभागिता▁	-5461
सन्दर्भमा▁	-5462
हुनुपर्ने▁	-5463
उपनिषदहरूको▁	-5464
पाकिस्तानका▁	-5465
प्रतीकात्मक▁	-5466
ंव	-5467
एच	-5468
घे	-5469
तट	-5470
वु	-5471
ँग▁	-5472
उनि	-5473
काउ	-5474
घट्	-5475
पाप	-5476
बेड	-5477
मित	-5478
उपनि	-5479
गमन▁	-5480
जिते	-5481
ठीक▁	-5482
दिला	-5483
नेपो	-5484
पट्ट	-5485
भोलि	-5486
मालि	-5487
रमाइ	-5488
श्चा	-5489
सार्	-5490
सुत्	-5491
ारा▁	-5492
काएर▁	-5493
किलो▁	-5494
चैते▁	-5495
णलाई▁	-5496
तत्व▁	-5497
निवार	-5498
पञ्जा	-5499
पाँचौ	-5500
बाल्य	-5501
भन्नु	-5502
शोधन▁	-5503
साको▁	-5504
हानी▁	-5505
हैसिय	-5506
अर्का▁	-5507
आधुनिक	-5508
आनन्द▁	-5509
गठबन्ध	-5510
नृत्य▁	-5511
परिचाल	-5512
मूर्ति	-5513
युगमा▁	-5514
रह्यो▁	-5515
सुर्खे	-5516
गरिनेछ▁	-5517
थाल्यो▁	-5518
नरसिंह▁	-5519
बुद्धि▁	-5520
मल्लको▁	-5521
महाभारत	-5522
मिलाएर▁	-5523
मुद्दा▁	-5524
मुसलमान	-5525
रचियता▁	-5526
सम्पदा▁	-5527
हनुमान▁	-5528
उपनिषदहो	-5529
उपविभाग▁	-5530
निर्वाह▁	-5531
मैदानमा▁	-5532
विवाहको▁	-5533
सरकारमा▁	-5534
सभ्यताको▁	-5535
बङ्गलादेशी▁	-5536
व्यावसायिक▁	-5537
पाकिस्तानमा▁	-5538
एर	-5539
कब	-5540
बख	-5541
००	-5542
अमर	-5543
कुट	-5544
गगन	-5545
पस्	-5546
पाउ	-5547
सरी	-5548
अनेक	-5549
खडा▁	-5550
छोरी	-5551
जनता	-5552
जीत▁	-5553
जोड▁	-5554
डिङ▁	-5555
दुबै	-5556
निजा	-5557
पुल▁	-5558
र्जा	-5559
लम्प	-5560
वाट▁	-5561
शेष▁	-5562
सदर▁	-5563
सान्	-5564
्री▁	-5565
अग्नि	-5566
गणेश▁	-5567
छनौट▁	-5568
पाँडे	-5569
बाछिट	-5570
भव्य▁	-5571
मियर▁	-5572
लम्पि	-5573
लाले▁	-5574
संख्य	-5575
सागर▁	-5576
सारा▁	-5577
२०२०▁	-5578
पछाडि▁	-5579
पुस्ता	-5580
भागको▁	-5581
सुनको▁	-5582
सुरुवा	-5583
कान्छा▁	-5584
निर्भर▁	-5585
प्राचीन	-5586
मिल्ने▁	-5587
ल्याउन▁	-5588
व्यवसाय	-5589
सल्लाह▁	-5590
सेनापति	-5591
टेलिभिजन	-5592
धेरैजसो▁	-5593
सहयोगमा▁	-5594
जवाहरलाल▁	-5595
परिवारको▁	-5596
प्रमाणित▁	-5597
सम्मानित▁	-5598
एकउपनिषदहो	-5599
त्यतिबेला▁	-5600
दूरसञ्चार▁	-5601
मुख्यतवेद▁	-5602
हिन्दीबाट▁	-5603
अस्तित्वमा▁	-5604
राज्यहरूको▁	-5605
व्यक्तिहरूको▁	-5606
छर	-5607
थी	-5608
कोल	-5609
गाह	-5610
गोप	-5611
चर▁	-5612
दे▁	-5613
मरि	-5614
मरे	-5615
रहो	-5616
हेट	-5617
...▁	-5618
गुरू	-5619
गोल्	-5620
च्न▁	-5621
टाढा	-5622
पन्थ	-5623
मिन▁	-5624
रुपै	-5625
वले▁	-5626
विवे	-5627
साधन	-5628
१मा▁	-5629
ँदैन▁	-5630
अवधार	-5631
आध्या	-5632
इसाई▁	-5633
घाटन▁	-5634
जडिबु	-5635
तीव्र	-5636
नृत्य	-5637
भनाई▁	-5638
मापन▁	-5639
माला▁	-5640
राति▁	-5641
लगेर▁	-5642
लेखा▁	-5643
सन्त▁	-5644
कामको▁	-5645
जैविक▁	-5646
तरिका▁	-5647
निस्ता	-5648
मिश्र▁	-5649
लालाई▁	-5650
वास्तु	-5651
शुल्क▁	-5652
गम्भीर▁	-5653
जितेको▁	-5654
दोश्रो▁	-5655
पत्रमा▁	-5656
पदावधि▁	-5657
पन्जाब▁	-5658
प्रजाति	-5659
बाहिरी▁	-5660
माताको▁	-5661
राप्ती▁	-5662
सुरुमा▁	-5663
शारीरिक▁	-5664
गान्धीको▁	-5665
परिभाषित▁	-5666
गर्नुभएको▁	-5667
त्यहाँबाट▁	-5668
संस्कृतिको▁	-5669
न्यायाधीशको▁	-5670
भ्	-5671
अघि	-5672
गण▁	-5673
ठाँ	-5674
पढ्	-5675
शुभ	-5676
शु▁	-5677
कान▁	-5678
खाल▁	-5679
गुफा	-5680
गोला	-5681
चण्ड	-5682
जोन▁	-5683
ठको▁	-5684
दोहो	-5685
नाम्	-5686
न्दु	-5687
पाए▁	-5688
पुरू	-5689
प्ला	-5690
रुकु	-5691
लुङ▁	-5692
सिट▁	-5693
सीय▁	-5694
हरि▁	-5695
चतुर्	-5696
दत्ता	-5697
नगरी▁	-5698
वर्षा	-5699
विपरी	-5700
हरिया	-5701
आज्ञा▁	-5702
जङ्गल▁	-5703
जनजाति	-5704
पछाडी▁	-5705
पलाञ्च	-5706
पारित▁	-5707
बढ्दो▁	-5708
भनिने▁	-5709
लक्षण▁	-5710
वक्ता▁	-5711
विष्ट▁	-5712
सोलुखु	-5713
स्थिति	-5714
हालेर▁	-5715
अन्तमा▁	-5716
आध्यात्	-5717
चित्रण▁	-5718
जङ्गली▁	-5719
जनवादी▁	-5720
भूकम्प▁	-5721
लिइएको▁	-5722
वादीले▁	-5723
तिमीलाई▁	-5724
द्वितीय▁	-5725
नेपालकै▁	-5726
भगवानको▁	-5727
यिनीहरू▁	-5728
लगाइएको▁	-5729
विकासमा▁	-5730
शृङ्खला▁	-5731
सिक्किम▁	-5732
प्रकारले▁	-5733
विमानस्थल	-5734
सदस्यहरू▁	-5735
जिम्मेवार▁	-5736
मुख्यमन्त्री▁	-5737
खत	-5738
ठे	-5739
एको	-5740
सरो	-5741
कश्य	-5742
खड्ग	-5743
देखे	-5744
द्यु	-5745
बली▁	-5746
बाबा	-5747
युग▁	-5748
शासक	-5749
सुस▁	-5750
ोमा▁	-5751
ौला▁	-5752
अगाडि	-5753
खुसी▁	-5754
तुमा▁	-5755
निम्न	-5756
पढ्न▁	-5757
पिण्ड	-5758
फलमा▁	-5759
बलमा▁	-5760
म्मद▁	-5761
सरको▁	-5762
हकमा▁	-5763
दरवार▁	-5764
निर्णा	-5765
निहित▁	-5766
बस्ती▁	-5767
मूल्या	-5768
राख्नु	-5769
वारिक▁	-5770
विमान▁	-5771
समारोह	-5772
अवधिमा▁	-5773
आकर्षक▁	-5774
उदाहरण▁	-5775
उपनिषद▁	-5776
किल्ला▁	-5777
चिनिने▁	-5778
देशहरू▁	-5779
धिकारी▁	-5780
प्रमाण▁	-5781
भित्रै▁	-5782
लाग्यो▁	-5783
वर्गको▁	-5784
विजेता▁	-5785
घटनाहरू▁	-5786
दरबारको▁	-5787
हामीलाई▁	-5788
अन्त्यमा▁	-5789
तथ्याङ्क▁	-5790
भागहरूमा▁	-5791
राज्यलाई▁	-5792
समुदायले▁	-5793
उत्पादनमा▁	-5794
तिनीहरूको▁	-5795
प्रणालीमा▁	-5796
जनसङ्ख्याको▁	-5797
बालबालिकाको▁	-5798
अन्तराष्ट्रिय▁	-5799
ंड	-5800
अह	-5801
खी	-5802
असम	-5803
इँ▁	-5804
नाल	-5805
मुर	-5806
म्र	-5807
यिन	-5808
लडि	-5809
लय▁	-5810
ईश्व	-5811
कमी▁	-5812
खोटा	-5813
नाटक	-5814
नुहा	-5815
पराम	-5816
पाहु	-5817
बिन▁	-5818
बेहो	-5819
भद्र	-5820
राखे	-5821
रिया	-5822
लीन▁	-5823
हरी▁	-5824
ोको▁	-5825
्याल	-5826
जसलाई	-5827
टहरू▁	-5828
टाउन▁	-5829
फर्कि	-5830
वनको▁	-5831
सुदूर	-5832
सौर्य	-5833
हारी▁	-5834
२००५▁	-5835
चैत्र▁	-5836
त्रेय▁	-5837
परामर्	-5838
बाछिटा	-5839
बिहार▁	-5840
विघटन▁	-5841
स्याङ्	-5842
गर्दथे▁	-5843
जितेका▁	-5844
जिम्मा▁	-5845
तपस्या▁	-5846
नजिकको▁	-5847
पण्डित▁	-5848
बेलायत▁	-5849
राख्नु▁	-5850
वर्षीय▁	-5851
शेर्पा▁	-5852
सस्त्र▁	-5853
इन्डिया▁	-5854
दायित्व▁	-5855
वर्षपछि▁	-5856
साथसाथै▁	-5857
बाछिटामा▁	-5858
बाछिटालेख	-5859
समाजवादी▁	-5860
स्थानबाट▁	-5861
राजेन्द्र▁	-5862
अधिराज्यको▁	-5863
ग्रन्थहरूमा▁	-5864
जिल्लाहरूमा▁	-5865
नेपालीहरूको▁	-5866
महाकाव्यलाई▁	-5867
डर	-5868
खोज	-5869
खो▁	-5870
जस▁	-5871
मरु	-5872
सहज	-5873
आराध	-5874
चोक▁	-5875
जानि	-5876
डिजा	-5877
थान▁	-5878
दक्ष	-5879
दूध▁	-5880
नील▁	-5881
पन्छ	-5882
फोन▁	-5883
भेद▁	-5884
माई▁	-5885
मिटर	-5886
मेडि	-5887
वती▁	-5888
वित्	-5889
शुभ▁	-5890
सरल▁	-5891
सरह▁	-5892
स्वत	-5893
स्वे	-5894
आफ्नो	-5895
आरक्ष	-5896
कानुन	-5897
किसान	-5898
खोजी▁	-5899
ङ्गो▁	-5900
ट्टा▁	-5901
डाँडा	-5902
दत्त▁	-5903
द्रौप	-5904
पाठ्य	-5905
पुच्छ	-5906
पुजा▁	-5907
प्ने▁	-5908
बाधा▁	-5909
भएता▁	-5910
भाले▁	-5911
रथमा▁	-5912
लैङ्ग	-5913
समन्व	-5914
अड्डा▁	-5915
गर्छन▁	-5916
घाइते▁	-5917
तसर्थ▁	-5918
देवले▁	-5919
प्रवेश	-5920
ब्रिटे	-5921
मस्जिद	-5922
महसुस▁	-5923
यिनका▁	-5924
लेख्न▁	-5925
सचिवाल	-5926
सम्पदा	-5927
उत्तरमा	-5928
दुर्लभ▁	-5929
निष्कर्	-5930
नेतृत्व	-5931
पाल्पा▁	-5932
मात्रा▁	-5933
शालामा▁	-5934
सेवाका▁	-5935
स्थाले▁	-5936
आधारभूत▁	-5937
आपूर्ति▁	-5938
न्यायिक▁	-5939
पत्रकारि	-5940
बैङ्कको▁	-5941
भगवतीको▁	-5942
व्यवसाय▁	-5943
सूक्ष्म▁	-5944
प्रिमियर▁	-5945
पारिवारिक▁	-5946
मन्त्रालय▁	-5947
हस्तक्षेप▁	-5948
महेन्द्रले▁	-5949
धर	-5950
मग	-5951
अल▁	-5952
आई▁	-5953
तला	-5954
दस▁	-5955
निग	-5956
बिल	-5957
बिष	-5958
भूत	-5959
रमण	-5960
आजा▁	-5961
एघार	-5962
एमा▁	-5963
काट्	-5964
कुकु	-5965
क्रे	-5966
त्सा	-5967
नाक▁	-5968
प्न▁	-5969
फ्रे	-5970
बलि▁	-5971
बाघ▁	-5972
बारा	-5973
बुध्	-5974
यसले	-5975
यान▁	-5976
लाहो	-5977
लेखि	-5978
शरीर	-5979
ानी▁	-5980
आठौँ▁	-5981
उपाय▁	-5982
क्कै▁	-5983
गराए▁	-5984
घोडा▁	-5985
छैनन्	-5986
जर्मन	-5987
त्याग	-5988
निकाल	-5989
न्दु▁	-5990
प्राव	-5991
प्रिय	-5992
बैठक▁	-5993
ब्लग▁	-5994
भूति▁	-5995
मिला▁	-5996
याको▁	-5997
सर्प▁	-5998
सुम्प	-5999
कालको▁	-6000
खास्त▁	-6001
गटेको▁	-6002
गर्थे▁	-6003
गोर्खा	-6004
तयारी▁	-6005
पुराण▁	-6006
बाह्य▁	-6007
महाराज	-6008
विधान▁	-6009
कथाहरू▁	-6010
खेलेका▁	-6011
तरकारी▁	-6012
बढाउने▁	-6013
बाटोमा▁	-6014
मानवीय▁	-6015
मेडिकल▁	-6016
राजकीय▁	-6017
राजनिति	-6018
ल्याएर▁	-6019
विधेयक▁	-6020
स्थापना	-6021
स्नातक▁	-6022
आश्रममा▁	-6023
कोइराला▁	-6024
प्राविधि	-6025
प्रेरित▁	-6026
भित्रको▁	-6027
लुम्बिनी▁	-6028
विद्युतीय▁	-6029
विश्वासको▁	-6030
पूर्णिमाको▁	-6031
गाउँपालिकाहरू▁	-6032
२२	-6033
अब्	-6034
गुँ	-6035
डरा	-6036
नखा	-6037
यल▁	-6038
यशो	-6039
लि▁	-6040
्रु	-6041
आउँछ	-6042
आसपा	-6043
कञ्च	-6044
कपाल	-6045
चितु	-6046
पहुँ	-6047
फ्या	-6048
भनि▁	-6049
रेखा	-6050
लमजु	-6051
श्रु	-6052
षड्य	-6053
९मा▁	-6054
इच्छा	-6055
किच्च	-6056
क्षी▁	-6057
टोली▁	-6058
द्धा▁	-6059
नियमा	-6060
पक्रा	-6061
पर्वत	-6062
फुटबल	-6063
यबाट▁	-6064
वस्था	-6065
सक्दछ	-6066
सामा▁	-6067
एसिया▁	-6068
किनकि▁	-6069
घरहरू▁	-6070
चराको▁	-6071
दशकमा▁	-6072
पर्यटक	-6073
पाश्चा	-6074
भनेका▁	-6075
याममा▁	-6076
राम्रो	-6077
विदेश▁	-6078
वृद्धि	-6079
शत्रु▁	-6080
ष्कार▁	-6081
सक्दैन	-6082
हिमाल▁	-6083
अधिकारी	-6084
अनुसन्ध	-6085
अन्त्ये	-6086
घटनामा▁	-6087
जनताले▁	-6088
दिल्ली▁	-6089
देशलाई▁	-6090
बस्न्या	-6091
विपरीत▁	-6092
सङ्घर्ष	-6093
समर्पण▁	-6094
अदालतमा▁	-6095
कुराहरू▁	-6096
ब्रिटिश▁	-6097
मोतीराम▁	-6098
विश्वकप▁	-6099
किनारामा▁	-6100
नेपाललाई▁	-6101
राष्ट्रिय	-6102
सार्वभौम▁	-6103
स्वरूपको▁	-6104
उम्मेदवार▁	-6105
कोइरालाको▁	-6106
परराष्ट्र▁	-6107
पाश्चात्य▁	-6108
सदस्यहरूको▁	-6109
श्रीकृष्णले▁	-6110
स्नातकोत्तर▁	-6111
अब	-6112
ोक	-6113
३२	-6114
एन्	-6115
गैर	-6116
धर▁	-6117
पखे	-6118
बाद	-6119
बुध	-6120
मता	-6121
लास	-6122
वाँ	-6123
सफ्	-6124
खारे	-6125
चना▁	-6126
चारै	-6127
जाल▁	-6128
पनी▁	-6129
परमे	-6130
पोत▁	-6131
बिजु	-6132
बिहा	-6133
रहो▁	-6134
३००▁	-6135
अन्या	-6136
आख्या	-6137
आजको▁	-6138
कठोर▁	-6139
करिव▁	-6140
किम्ब	-6141
जाँच▁	-6142
तर्क▁	-6143
पाल्च	-6144
माटो▁	-6145
मानक▁	-6146
विधान	-6147
शर्मा	-6148
सिलो▁	-6149
सोह्र	-6150
अलावा▁	-6151
आम्बेड	-6152
कमाण्ड	-6153
कसैको▁	-6154
काहरू▁	-6155
किरात▁	-6156
खेल्न▁	-6157
ग्रामी	-6158
जर्मनी	-6159
निवास▁	-6160
पार्क▁	-6161
भएपछी▁	-6162
मिकता▁	-6163
मैदान▁	-6164
योद्धा	-6165
लघुतम▁	-6166
लडाकु▁	-6167
वंशका▁	-6168
विकार▁	-6169
शाहका▁	-6170
सल्लाह	-6171
हिंसा▁	-6172
एकादशी▁	-6173
कसैलाई▁	-6174
कहिलेका	-6175
गतिविधि	-6176
जातिले▁	-6177
तिहासिक	-6178
द्रौपदी	-6179
मनाइन्छ	-6180
लगाएको▁	-6181
वार्ता▁	-6182
वृत्ति▁	-6183
सन्देश▁	-6184
सम्राट▁	-6185
सिमसार▁	-6186
उद्घाटन▁	-6187
देवीलाई▁	-6188
राजनीति▁	-6189
शरीरलाई▁	-6190
सदस्यता▁	-6191
अवस्थाको▁	-6192
बेलायतको▁	-6193
भोलिपल्ट▁	-6194
विद्यमान▁	-6195
वीरेन्द्र	-6196
संरक्षित▁	-6197
सर्वसाधार	-6198
अफगानिस्ता	-6199
गर्नुपर्छ▁	-6200
नेतृत्वको▁	-6201
मन्दिरहरू▁	-6202
स्वस्थानी▁	-6203
अख	-6204
कद	-6205
अरब	-6206
गल्	-6207
गौर	-6208
नमो	-6209
प्प	-6210
बध▁	-6211
सु▁	-6212
आरोह	-6213
एक्स	-6214
काजी	-6215
छापा	-6216
ढङ्ग	-6217
दिई▁	-6218
नाति	-6219
भोज▁	-6220
वारी	-6221
सकेन	-6222
सिन▁	-6223
सुख▁	-6224
स्क▁	-6225
हातह	-6226
चक्र▁	-6227
तटमा▁	-6228
पोथी▁	-6229
माडी▁	-6230
मैथिल	-6231
राधा▁	-6232
लाइन▁	-6233
वाहक▁	-6234
विकल्	-6235
वेदीय	-6236
सक्ने	-6237
२००२▁	-6238
अञ्चल▁	-6239
अधिवेश	-6240
अपहरण▁	-6241
आम्दान	-6242
कलाको▁	-6243
काव्य▁	-6244
गान्धी	-6245
जसबाट▁	-6246
तिब्बत	-6247
दर्जा▁	-6248
द्वारा	-6249
नीहरू▁	-6250
भुक्ता	-6251
रुद्रा	-6252
सन्तान	-6253
उपयोगी▁	-6254
कारलाई▁	-6255
गर्नमा▁	-6256
घटनाको▁	-6257
चुनौती▁	-6258
नदीहरू▁	-6259
नेपालमा	-6260
पर्वको▁	-6261
पिताको▁	-6262
प्रकृति	-6263
प्रार्थ	-6264
रेकर्ड▁	-6265
शैलीको▁	-6266
सहयोगी▁	-6267
अन्तरिम▁	-6268
एसियामा▁	-6269
क्याम्पस	-6270
तमिलनाडु	-6271
राखिन्छ▁	-6272
वित्तीय▁	-6273
देवनागरी▁	-6274
भनिन्थ्यो	-6275
सुरेन्द्र	-6276
स्थानहरू▁	-6277
हुनुपर्छ▁	-6278
अमेरिकाका▁	-6279
गरिन्थ्यो▁	-6280
निर्धारित▁	-6281
यिनीहरूको▁	-6282
राष्ट्रमण्डल▁	-6283
सय	-6284
३५	-6285
ंगे	-6286
आयर	-6287
एकि	-6288
एन▁	-6289
गाइ	-6290
दाँ	-6291
पूँ	-6292
चिना	-6293
त्यो	-6294
त्वा	-6295
पाप▁	-6296
पुस▁	-6297
फिलि	-6298
बस्त	-6299
बाला	-6300
बिलि	-6301
बेरो	-6302
बेलु	-6303
भोग▁	-6304
मंगल	-6305
मन्द	-6306
ल्ता	-6307
षधि▁	-6308
अर्को	-6309
इजिप्	-6310
उमेर▁	-6311
कीको▁	-6312
गर्दा	-6313
घण्टा	-6314
जनका▁	-6315
नशील▁	-6316
फर्के	-6317
मध्ये	-6318
रुचि▁	-6319
श्रृं	-6320
स्वयं	-6321
हुँदै	-6322
ानन्द	-6323
अचानक▁	-6324
जर्मन▁	-6325
टिमले▁	-6326
तीर्थ▁	-6327
देशले▁	-6328
नामका▁	-6329
पाण्डु	-6330
बायाँ▁	-6331
बोकेर▁	-6332
भवनमा▁	-6333
भविष्य	-6334
मनोरम▁	-6335
मुखमा▁	-6336
यद्यपि	-6337
लिइन्छ	-6338
लिगको▁	-6339
वर्ती▁	-6340
सहमति▁	-6341
कारीको▁	-6342
खुट्टा▁	-6343
गर्दछन▁	-6344
तावादी▁	-6345
दिशामा▁	-6346
पहाडको▁	-6347
यिनलाई▁	-6348
राम्रा▁	-6349
लम्पिक▁	-6350
विरुवा▁	-6351
इत्यादि▁	-6352
प्रतिको▁	-6353
प्रतिपाद	-6354
प्राचिन▁	-6355
प्रान्त▁	-6356
मनाइन्छ▁	-6357
मिश्रमा▁	-6358
अस्वीकार▁	-6359
उम्मेदवार	-6360
प्रमुखको▁	-6361
यसप्रकार▁	-6362
ल्याइएको▁	-6363
स्वरूपमा▁	-6364
उत्पादनको▁	-6365
उपाध्यक्ष▁	-6366
काङ्ग्रेस▁	-6367
धृतराष्ट्र	-6368
प्राविधिक▁	-6369
विरुद्धको▁	-6370
वेदीयशाखा▁	-6371
आध्यात्मिक▁	-6372
पारिश्रमिक▁	-6373
प्रभावशाली▁	-6374
प्रयोगकर्ता	-6375
रेसलमेनिया▁	-6376
दृष्टिकोणले▁	-6377
चन	-6378
जम	-6379
टन	-6380
्▁	-6381
अपे	-6382
गु▁	-6383
चे▁	-6384
चोक	-6385
ढाँ	-6386
पुल	-6387
पु▁	-6388
फला	-6389
रूख	-6390
विर	-6391
सिए	-6392
ेन▁	-6393
९२▁	-6394
उँदछ	-6395
उन्न	-6396
कहरू	-6397
किंव	-6398
घोडा	-6399
च्छे	-6400
च्यु	-6401
जागर	-6402
तालि	-6403
द्दी	-6404
नभए▁	-6405
पेरि	-6406
मेन्	-6407
रंग▁	-6408
राय▁	-6409
रिसा	-6410
लका▁	-6411
लिए▁	-6412
लिनु	-6413
विन▁	-6414
स्के	-6415
हुला	-6416
अर्घा	-6417
क्ता▁	-6418
गर्थे	-6419
गुप्त	-6420
ढुंगा	-6421
दरवार	-6422
नसँग▁	-6423
न्ने▁	-6424
पाएर▁	-6425
प्रशं	-6426
बुबा▁	-6427
म्बा▁	-6428
खालका▁	-6429
पर्यो▁	-6430
मनुष्य	-6431
रोजगार	-6432
र्वाद▁	-6433
सामन्त	-6434
सेनको▁	-6435
हिरण्य	-6436
हुदैन▁	-6437
हुन्थे	-6438
आकारको▁	-6439
टोलीले▁	-6440
दूरीमा▁	-6441
पक्राउ▁	-6442
परिणाम▁	-6443
पाएपछि▁	-6444
पालामा▁	-6445
पुष्टि▁	-6446
प्रतिशत	-6447
बजाउने▁	-6448
भूमिमा▁	-6449
शाहलाई▁	-6450
संशोधन▁	-6451
सेल्सिय	-6452
स्मारक▁	-6453
अध्यापन▁	-6454
क्षेत्री	-6455
ग्रामीण▁	-6456
पर्दछन्▁	-6457
महिलाले▁	-6458
मार्गमा▁	-6459
मुख्यतया	-6460
शसस्त्र▁	-6461
श्रीमती▁	-6462
पदार्थको▁	-6463
पार्टीले▁	-6464
पृथ्वीमा▁	-6465
राज्यहरू▁	-6466
लगाउँछन्▁	-6467
वन्यजन्तु▁	-6468
महाकाव्यमा▁	-6469
सामग्रीहरू▁	-6470
पूर्वमन्त्री▁	-6471
डब्ल्युडब्ल्यु	-6472
आं	-6473
उड	-6474
जट	-6475
ढी	-6476
३१	-6477
अलि	-6478
ईसा	-6479
उब्	-6480
कूट	-6481
गठन	-6482
घन▁	-6483
टाँ	-6484
डडे	-6485
दुध	-6486
बैत	-6487
याल	-6488
रात	-6489
शरि	-6490
सना	-6491
हाउ	-6492
हु▁	-6493
अश्व	-6494
आलोच	-6495
कोशी	-6496
क्क▁	-6497
चुर▁	-6498
तेज▁	-6499
पहेँ	-6500
फैला	-6501
भजन▁	-6502
भैरव	-6503
मुल▁	-6504
यहा▁	-6505
राखि	-6506
सुख्	-6507
स्व▁	-6508
उत्ति	-6509
छिटो▁	-6510
जमीन▁	-6511
जापान	-6512
तराई▁	-6513
ताजा▁	-6514
तिर्थ	-6515
पाती▁	-6516
भैरव▁	-6517
यत्न▁	-6518
समिति	-6519
सामान	-6520
साम्य	-6521
२००१▁	-6522
आएपछि▁	-6523
आदिमा▁	-6524
कालिक▁	-6525
कोरिया	-6526
दिइयो▁	-6527
नगरमा▁	-6528
नजीकै▁	-6529
नासाथ▁	-6530
निकको▁	-6531
पुगेर▁	-6532
भेगमा▁	-6533
रुद्र▁	-6534
वर्द्ध	-6535
शीर्ष▁	-6536
स्वभाव	-6537
अभिनेता	-6538
खुल्ला▁	-6539
जनताका▁	-6540
तिब्बत▁	-6541
धनकुटा▁	-6542
ब्राजिल	-6543
रहेकोे▁	-6544
रावणको▁	-6545
लिपिको▁	-6546
वरिष्ठ▁	-6547
शक्तिपी	-6548
शासनमा▁	-6549
सामुदाय	-6550
सायनिक▁	-6551
अञ्चलको▁	-6552
एसियाका▁	-6553
ठाउँबाट▁	-6554
परिसरमा▁	-6555
भिन्नता▁	-6556
मकवानपुर	-6557
विदेशमा▁	-6558
सरस्वती▁	-6559
उपस्थिति▁	-6560
कम्पनीले▁	-6561
लडिरहेका▁	-6562
विस्तारै▁	-6563
महत्त्वका▁	-6564
उपत्यकालाई▁	-6565
राजनितिज्ञ▁	-6566
आम	-6567
इं	-6568
इले	-6569
कट्	-6570
कस्	-6571
खरि	-6572
फ्र	-6573
बंग	-6574
बसा	-6575
म्व	-6576
लिङ	-6577
िन्	-6578
किम▁	-6579
गुला	-6580
चट्ट	-6581
जका▁	-6582
ट्रा	-6583
ट्रि	-6584
दण्ड	-6585
निमि	-6586
परी▁	-6587
परे▁	-6588
पौडे	-6589
बोली	-6590
माथि	-6591
मापद	-6592
रजत▁	-6593
विष▁	-6594
षमा▁	-6595
साल्	-6596
कुन्त	-6597
गुफा▁	-6598
त्तै▁	-6599
दसैँ▁	-6600
दार्श	-6601
नीका▁	-6602
नेका▁	-6603
माहिल	-6604
यिका▁	-6605
वृक्ष	-6606
समयमा	-6607
सिया▁	-6608
सीले▁	-6609
हवाई▁	-6610
तीव्र▁	-6611
थिएनन्	-6612
दर्ता▁	-6613
प्याले	-6614
महत्व▁	-6615
मान्न▁	-6616
मान्य▁	-6617
यसपछि▁	-6618
लिङ्ग▁	-6619
वेदका▁	-6620
हरूलाई	-6621
अवस्थित	-6622
आराधना▁	-6623
गरीएको▁	-6624
चरित्र▁	-6625
महारानी	-6626
माध्यम▁	-6627
रामायण▁	-6628
लिपिमा▁	-6629
सभापति▁	-6630
सुख्खा▁	-6631
अवधारणा▁	-6632
कागतीको▁	-6633
कृतिहरू▁	-6634
क्षिप्त▁	-6635
निजामती▁	-6636
न्यायाधि	-6637
पञ्चायत▁	-6638
पुगेपछि▁	-6639
भारतबाट▁	-6640
अनुसारको▁	-6641
भविष्यमा▁	-6642
मन्त्रालय	-6643
महिलालाई▁	-6644
मुख्यालय▁	-6645
सिन्धुपाल्च	-6646
विश्वविद्यालयको▁	-6647
टल	-6648
रौ	-6649
अजि	-6650
आशी	-6651
गाउ	-6652
जाय	-6653
डिय	-6654
दरा	-6655
नभए	-6656
नरि	-6657
फर▁	-6658
बग्	-6659
मती	-6660
वाह	-6661
शङ्	-6662
शनि	-6663
अमृत	-6664
अलि▁	-6665
इयो▁	-6666
कष्ट	-6667
काठ▁	-6668
गान▁	-6669
नतम▁	-6670
पुगि	-6671
बिरु	-6672
मञ्च	-6673
मणि▁	-6674
माल्	-6675
मेला	-6676
रान▁	-6677
रुख▁	-6678
र्क▁	-6679
वासि	-6680
वेब▁	-6681
सना▁	-6682
स्टो	-6683
अभाव▁	-6684
करको▁	-6685
केका▁	-6686
जन्य▁	-6687
जयद्र	-6688
तमिल▁	-6689
तेह्र	-6690
न्डै▁	-6691
फाउन्	-6692
मनको▁	-6693
लगायत	-6694
सजाय▁	-6695
सीता▁	-6696
सेवन▁	-6697
आमाले▁	-6698
इलाका▁	-6699
उठाएर▁	-6700
कन्या▁	-6701
करणका▁	-6702
क्तको▁	-6703
खारेज▁	-6704
चल्ने▁	-6705
निम्ना	-6706
विशेषा	-6707
साउदी▁	-6708
हेर्नु	-6709
आयोगले▁	-6710
कल्पना▁	-6711
दिवसको▁	-6712
नगर्ने▁	-6713
पाईन्छ▁	-6714
योद्धा▁	-6715
लेखहरू▁	-6716
अधिकारी▁	-6717
महारानी▁	-6718
मुलुकको▁	-6719
वेबसाइट▁	-6720
वैदेशिक▁	-6721
सम्पर्क▁	-6722
कांग्रेस▁	-6723
किलोमीटर▁	-6724
चिकित्सा▁	-6725
त्यहाँका▁	-6726
निर्णायक▁	-6727
यात्राको▁	-6728
विराटनगर▁	-6729
अमेरिकाले▁	-6730
उपत्यकाका▁	-6731
चलचित्रको▁	-6732
पश्चिमाञ्च	-6733
राजाहरूले▁	-6734
राज्यहरूमा▁	-6735
प्रकारकोजनाव	-6736
कार्यक्रमहरू▁	-6737
टक	-6738
पठ	-6739
हौ	-6740
अवै	-6741
जरु	-6742
द्▁	-6743
नति	-6744
पटक	-6745
बन▁	-6746
बला	-6747
यि▁	-6748
रणो	-6749
लखन	-6750
सज्	-6751
सफा	-6752
५१▁	-6753
ंदै▁	-6754
एकी▁	-6755
कपडा	-6756
कीर्	-6757
केटी	-6758
चाड▁	-6759
चालि	-6760
जसमा	-6761
जागि	-6762
द्द▁	-6763
पुरो	-6764
फौज▁	-6765
बुर्	-6766
माग्	-6767
मिरे	-6768
राशि	-6769
रिङ▁	-6770
लकण्	-6771
लियो	-6772
वारि	-6773
हाट▁	-6774
हारा	-6775
कालमा	-6776
खासै▁	-6777
जग्गा	-6778
जमिन▁	-6779
डाले▁	-6780
तातो▁	-6781
दलका▁	-6782
नायक▁	-6783
निकट▁	-6784
बढेर▁	-6785
बन्दर	-6786
भेला▁	-6787
मारी▁	-6788
रहनु▁	-6789
रहेछ▁	-6790
रात्र	-6791
लडाइँ	-6792
षणको▁	-6793
समाप्	-6794
स्मरण	-6795
कलाकार	-6796
काबाट▁	-6797
ताप्ले	-6798
तालिका	-6799
नगरको▁	-6800
नाहरू▁	-6801
परिणाम	-6802
मानेर▁	-6803
मुलुक▁	-6804
रंगको▁	-6805
रामायण	-6806
लाग्न▁	-6807
श्लोक▁	-6808
सिङ्गा	-6809
अर्थमा▁	-6810
किराँत▁	-6811
कुखुरा▁	-6812
गाउँका▁	-6813
तिनलाई▁	-6814
नियाको▁	-6815
पाण्डव▁	-6816
रानीको▁	-6817
वर्षका▁	-6818
श्राद्ध	-6819
समृद्ध▁	-6820
अवधिलाई▁	-6821
तोकिएको▁	-6822
निम्त्या	-6823
फ्रान्स▁	-6824
भेटिएको▁	-6825
महाकाली▁	-6826
युद्धका▁	-6827
नेपालीमा▁	-6828
पार्टीका▁	-6829
पूर्वाञ्च	-6830
विशेषतया▁	-6831
शमशेरलाई▁	-6832
अहिलेसम्म▁	-6833
पुस्तकहरू▁	-6834
प्रविधिको▁	-6835
प्रशिक्षण▁	-6836
संस्थाहरू▁	-6837
ज्ञानेन्द्र	-6838
ंस	-6839
अँ	-6840
आय	-6841
रै	-6842
हद	-6843
आय▁	-6844
आह्	-6845
कटु	-6846
गुर	-6847
जडी	-6848
जोग	-6849
टि▁	-6850
तय▁	-6851
नवल	-6852
बस▁	-6853
मेह	-6854
वाइ	-6855
षधि	-6856
ईन्छ	-6857
खेर▁	-6858
छोड्	-6859
दमै▁	-6860
दशक▁	-6861
नसके	-6862
नाल्	-6863
बाँड	-6864
बुढा	-6865
ब्रे	-6866
मिलि	-6867
मुख्	-6868
वेदा	-6869
समेट	-6870
सेन्	-6871
ापा▁	-6872
गरिन्	-6873
गुराँ	-6874
छनोट▁	-6875
जानु▁	-6876
तनहुँ	-6877
न्यु▁	-6878
बनेर▁	-6879
बाहेक	-6880
ब्रम्	-6881
भारी▁	-6882
मूल्य	-6883
लेका▁	-6884
वाले▁	-6885
विवरण	-6886
वेदन▁	-6887
षिले▁	-6888
सनको▁	-6889
सुन्त	-6890
सेती▁	-6891
गर्दछन	-6892
गुम्बा	-6893
चार्य▁	-6894
नीलाई▁	-6895
प्राधि	-6896
बनाइयो	-6897
मोहित▁	-6898
म्याग्	-6899
विश्वे	-6900
श्रोत▁	-6901
सुन्दर	-6902
स्विडे	-6903
हीलाई▁	-6904
अनुरूप▁	-6905
खलताका▁	-6906
खासगरी▁	-6907
छोराको▁	-6908
ढङ्गले▁	-6909
दुरीमा▁	-6910
प्रवाह▁	-6911
फाउन्डे	-6912
बिक्रम▁	-6913
यसैगरी▁	-6914
रमाइलो▁	-6915
शरणार्थ	-6916
स्त्री▁	-6917
आइरहेको▁	-6918
जनतालाई▁	-6919
निमित्त▁	-6920
परशुराम▁	-6921
परिचालन▁	-6922
पुराणमा▁	-6923
पुरातात्	-6924
प्राध्या	-6925
विरूद्ध▁	-6926
सङ्घर्ष▁	-6927
इतिहासको▁	-6928
इन्द्रको▁	-6929
जर्मनीको▁	-6930
तापूर्वक▁	-6931
वस्तुहरू▁	-6932
श्रीकृष्ण	-6933
केन्द्रको▁	-6934
प्रतिष्ठान	-6935
सामुदायिक▁	-6936
धर्मावलम्बी	-6937
प्रजातिहरू▁	-6938
महेन्द्रको▁	-6939
कार्यक्रमको▁	-6940
पर्यटकहरूको▁	-6941
प्रकारकोजनावरहो▁	-6942
भई	-6943
५०	-6944
एकै	-6945
घा▁	-6946
चौध	-6947
जग▁	-6948
तस्	-6949
नचा	-6950
लिक	-6951
सता	-6952
ानी	-6953
ेल▁	-6954
अनुप	-6955
उज्य	-6956
कारो	-6957
ख्य▁	-6958
गोवि	-6959
जनगण	-6960
ट्रे	-6961
ठमा▁	-6962
डले▁	-6963
ध्रु	-6964
नाग▁	-6965
पन्त	-6966
पुरी	-6967
पुरे	-6968
बले▁	-6969
बुबा	-6970
भीड▁	-6971
मकै▁	-6972
मृगौ	-6973
म्बर	-6974
रेर▁	-6975
रोल्	-6976
श्व▁	-6977
ष्म▁	-6978
सिन्	-6979
सिस्	-6980
सिस▁	-6981
स्तर	-6982
आयात▁	-6983
आरोप▁	-6984
इस्ला	-6985
कपाल▁	-6986
कोको▁	-6987
खनिज▁	-6988
गिरी▁	-6989
जाती▁	-6990
दलले▁	-6991
दस्ता	-6992
दाजु▁	-6993
ध्या▁	-6994
न्तु▁	-6995
पेक्ष	-6996
प्रको	-6997
बजेट▁	-6998
बुवा▁	-6999
म्यान	-7000
युरोप	-7001
रक्षे	-7002
रेखा▁	-7003
रोचक▁	-7004
ललाई▁	-7005
सिंचा	-7006
स्तार	-7007
अक्षर▁	-7008
कुण्ड▁	-7009
ङ्ग्रा	-7010
डाँडा▁	-7011
तत्काल	-7012
धानको▁	-7013
प्रहरी	-7014
भोजपुर	-7015
युगको▁	-7016
युरोप▁	-7017
योगदान	-7018
विनियो	-7019
शेर्पा	-7020
सवारी▁	-7021
सिमित▁	-7022
स्टालि	-7023
हटाउन▁	-7024
हारको▁	-7025
आन्दोलन	-7026
उपनिवेश	-7027
तिरबाट▁	-7028
दुवैको▁	-7029
देवकोटा	-7030
पन्ध्र▁	-7031
पुग्यो▁	-7032
बनाइने▁	-7033
मामिला▁	-7034
लिइन्छ▁	-7035
स्तरका▁	-7036
स्थानीय	-7037
गणतन्त्र	-7038
गरेकाले▁	-7039
नेहरूले▁	-7040
प्रदेशको	-7041
रहेकाले▁	-7042
राजकुमार	-7043
स्थानिय▁	-7044
निर्माता▁	-7045
प्रावधान▁	-7046
बच्चालाई▁	-7047
बित्तिकै▁	-7048
रासायनिक▁	-7049
समुदायका▁	-7050
स्वास्थ्य	-7051
नागरिकलाई▁	-7052
प्रकृतिको▁	-7053
महाभारतमा▁	-7054
व्यवस्थापन	-7055
सामान्यतया	-7056
थप	-7057
वण	-7058
अशो	-7059
आंश	-7060
ङ्▁	-7061
डाय	-7062
थी▁	-7063
पास	-7064
फौज	-7065
बोध	-7066
सै▁	-7067
कैद▁	-7068
खेती	-7069
गहुँ	-7070
गौतम	-7071
ग्रि	-7072
जीवि	-7073
जून▁	-7074
नुपा	-7075
भालु	-7076
रेजि	-7077
वाहे	-7078
श्वे	-7079
साङ्	-7080
ौली▁	-7081
्नु▁	-7082
अन्त▁	-7083
उपकरण	-7084
कयौँ▁	-7085
गराई▁	-7086
डलाई▁	-7087
धातु▁	-7088
पर्यो	-7089
पाली▁	-7090
बारी▁	-7091
माथा▁	-7092
मुम्ब	-7093
मेजर▁	-7094
मोरङ▁	-7095
रिपब्	-7096
लहरू▁	-7097
लिम्ब	-7098
वानी▁	-7099
श्रेण	-7100
हुँदा	-7101
अगस्ट▁	-7102
आंशिक▁	-7103
आहारा▁	-7104
कर्जा▁	-7105
गतिमा▁	-7106
गाईको▁	-7107
ग्रामि	-7108
चढाएर▁	-7109
छाडेर▁	-7110
जातको▁	-7111
तिनका▁	-7112
थालनी▁	-7113
नीतिक▁	-7114
पछिका▁	-7115
पट्टी▁	-7116
पदबाट▁	-7117
पातको▁	-7118
पालना▁	-7119
फिल्म▁	-7120
लडाइँ▁	-7121
शर्मा▁	-7122
संसार▁	-7123
सामाजि	-7124
गराउनु▁	-7125
त्यहीँ▁	-7126
देखिनै▁	-7127
नसकेको▁	-7128
नियामा▁	-7129
प्रताप▁	-7130
बनाउनु▁	-7131
मिलियन▁	-7132
राखिन्छ	-7133
लगत्तै▁	-7134
विद्या▁	-7135
विद्वान	-7136
अन्तर्गत	-7137
घेरिएको▁	-7138
ज्ञानको▁	-7139
निर्वाचन	-7140
पत्रकार▁	-7141
अङ्ग्रेजी	-7142
कर्मचारी▁	-7143
तिब्बतको▁	-7144
धृष्टद्यु	-7145
प्रवाहित▁	-7146
मृत्युको▁	-7147
सञ्चालित▁	-7148
स्थितिको▁	-7149
परम्पराको▁	-7150
राम्रोसँग▁	-7151
विश्वयुद्ध	-7152
सकारात्मक▁	-7153
स्थापनाको▁	-7154
आत्मसमर्पण▁	-7155
रङ्गशालामा▁	-7156
बङ्गलादेशका▁	-7157
मन्त्रीमण्डलमा▁	-7158
बज	-7159
अफि	-7160
कमल	-7161
थाइ	-7162
दाह	-7163
दूध	-7164
मक▁	-7165
रोज	-7166
षा▁	-7167
सक▁	-7168
सब▁	-7169
समी	-7170
ारि	-7171
उद्य	-7172
कमल▁	-7173
कुशल	-7174
कोष▁	-7175
चुनि	-7176
जिया	-7177
जोडि	-7178
ज्ये	-7179
तथ्य	-7180
थलो▁	-7181
नजरु	-7182
नाभि	-7183
पोशा	-7184
फिट▁	-7185
बमा▁	-7186
बाक्	-7187
माता	-7188
मिसा	-7189
रहने	-7190
रेग्	-7191
वका▁	-7192
वात्	-7193
आगमन▁	-7194
आयाम▁	-7195
उप्रे	-7196
कलकत्	-7197
केदार	-7198
खैरो▁	-7199
गंगा▁	-7200
गरेको	-7201
जेठो▁	-7202
दाबी▁	-7203
दिइयो	-7204
देहरा	-7205
धरान▁	-7206
नाता▁	-7207
महाधि	-7208
माका▁	-7209
मोबाइ	-7210
योग्य	-7211
रचित▁	-7212
रिया▁	-7213
लागे▁	-7214
वलाई▁	-7215
वहाँ▁	-7216
विवाद	-7217
शाको▁	-7218
सत्ता	-7219
सिंहा	-7220
सुमेर	-7221
सोको▁	-7222
हाको▁	-7223
आफुले▁	-7224
केतिक▁	-7225
छैनन्▁	-7226
त्तिक▁	-7227
नागरिक	-7228
रमणीय▁	-7229
राजवंश	-7230
सङ्गीत	-7231
सुवर्ण	-7232
हुन्छन	-7233
आकर्षण▁	-7234
आफुलाई▁	-7235
उचाईमा▁	-7236
खानाको▁	-7237
गराएको▁	-7238
ग्रहको▁	-7239
जुम्ला▁	-7240
दुर्गा▁	-7241
धाराका▁	-7242
नुभएको▁	-7243
फर्केर▁	-7244
बिस्तार	-7245
महासागर	-7246
वर्गीय▁	-7247
सङ्ग्रा	-7248
समानुपा	-7249
स्वस्थ▁	-7250
हरुलाई▁	-7251
एकमात्र▁	-7252
ताप्लेजु	-7253
तिनीहरू▁	-7254
द्वीपमा▁	-7255
पर्वतको▁	-7256
मुकुन्द▁	-7257
संकटकाल▁	-7258
सगरमाथा▁	-7259
अभियानमा▁	-7260
त्यसकारण▁	-7261
त्यहाँको▁	-7262
प्रस्थान▁	-7263
महिलाहरू▁	-7264
विशेषगरी▁	-7265
अस्पतालमा▁	-7266
चलचित्रमा▁	-7267
जिल्लालाई▁	-7268
तात्कालिक▁	-7269
सिफारिसमा▁	-7270
अविश्वासको▁	-7271
काठमाडौंमा▁	-7272
महाकाव्यको▁	-7273
व्यवस्थामा▁	-7274
अन्त्येष्टि▁	-7275
खेत	-7276
छाप	-7277
छेउ	-7278
जटा	-7279
जति	-7280
दाङ	-7281
दोष	-7282
नं▁	-7283
बेल	-7284
यु▁	-7285
लव▁	-7286
कुवा	-7287
गलत▁	-7288
ङ्गी	-7289
छ्या	-7290
जसले	-7291
जाजर	-7292
तरल▁	-7293
तित▁	-7294
दसैँ	-7295
निभा	-7296
पुटि	-7297
बेल्	-7298
बोक्	-7299
वकाल	-7300
सहाय	-7301
साफ▁	-7302
साहे	-7303
सूर्	-7304
स्तो	-7305
हाइड	-7306
ाना▁	-7307
अम्बा	-7308
अस्थि	-7309
इस्ट▁	-7310
उडान▁	-7311
खाले▁	-7312
ङ्कर▁	-7313
चारै▁	-7314
च्याउ	-7315
छुट्ट	-7316
पछ्या	-7317
पदको▁	-7318
पेशा▁	-7319
बनायो	-7320
मेची▁	-7321
शर्त▁	-7322
शेयर▁	-7323
सात्य	-7324
हालै▁	-7325
१९९५▁	-7326
एकदमै▁	-7327
खानले▁	-7328
गिरिजा	-7329
जापान▁	-7330
जुद्ध▁	-7331
जोडेर▁	-7332
तोष्ण▁	-7333
द्रोणा	-7334
धनगढी▁	-7335
न्मुख▁	-7336
पोर्चु	-7337
प्राण▁	-7338
बन्दै▁	-7339
मध्यम▁	-7340
मानन्ध	-7341
शामिल▁	-7342
सृजना▁	-7343
सेन्ट▁	-7344
ग्रस्त▁	-7345
ध्वस्त▁	-7346
पारेका▁	-7347
बागमती▁	-7348
माइक्रो	-7349
राजदूत▁	-7350
लम्बाई▁	-7351
विश्रृं	-7352
संस्थान	-7353
सकिनेछ▁	-7354
जन्मेको▁	-7355
तत्कालै▁	-7356
दिन्छन्▁	-7357
दुर्योधन	-7358
पार्वती▁	-7359
बनाइएका▁	-7360
विविधता▁	-7361
व्याप्त▁	-7362
समितिले▁	-7363
सिंहलाई▁	-7364
इतिहासकार	-7365
चलिरहेको▁	-7366
तुरुन्तै▁	-7367
नरेन्द्र▁	-7368
पन्जाबको▁	-7369
सौन्दर्य▁	-7370
पुस्तकालय▁	-7371
प्रकृतिका▁	-7372
प्रार्थना▁	-7373
ल्यान्डको▁	-7374
विकिपिडिया	-7375
उपजिल्लामा▁	-7376
डिसेम्बरमा▁	-7377
प्रतिष्ठित▁	-7378
महिलाहरूले▁	-7379
साँस्कृतिक▁	-7380
कार्यक्रममा▁	-7381
मानिसहरूलाई▁	-7382
शान्तिपूर्ण▁	-7383
विश्रृंखलताका▁	-7384
एड	-7385
पल	-7386
बम	-7387
ंश▁	-7388
अद्	-7389
एफ▁	-7390
एल्	-7391
करु	-7392
कोइ	-7393
कौश	-7394
गुठ	-7395
जगत	-7396
टुँ	-7397
थार	-7398
दुइ	-7399
नको	-7400
नजर	-7401
मह▁	-7402
रङ▁	-7403
राग	-7404
लुङ	-7405
विन	-7406
शोध	-7407
हित	-7408
ंमा▁	-7409
कित▁	-7410
जुल्	-7411
ट्स▁	-7412
डलर▁	-7413
तौल▁	-7414
थारू	-7415
बार्	-7416
बीस▁	-7417
बुवा	-7418
ब्लग	-7419
भिटा	-7420
व्यू	-7421
शंकर	-7422
शिशु	-7423
स्ने	-7424
हाना	-7425
आनन्द	-7426
उचाइ▁	-7427
किने▁	-7428
कुशल▁	-7429
छलफल▁	-7430
जुका▁	-7431
डाँठ▁	-7432
तारा▁	-7433
त्यही	-7434
त्वा▁	-7435
दक्ष▁	-7436
दैलेख	-7437
नाति▁	-7438
निधि▁	-7439
नुका▁	-7440
बिम्ब	-7441
सर्ला	-7442
२०२२▁	-7443
अनौठो▁	-7444
आदिका▁	-7445
कल्याण	-7446
किन्छ▁	-7447
गढीको▁	-7448
तेस्रो	-7449
त्यहि▁	-7450
दोलखा▁	-7451
रेलवे▁	-7452
विजयी▁	-7453
व्यङ्ग	-7454
सम्वत▁	-7455
सिपाही	-7456
स्त्रा	-7457
हरियो▁	-7458
हातले▁	-7459
कुस्ती▁	-7460
खोलाको▁	-7461
गाह्रो▁	-7462
तर्फको▁	-7463
देवीका▁	-7464
नेपोलिय	-7465
पानीले▁	-7466
पुग्दा▁	-7467
प्रत्या	-7468
भक्तपुर	-7469
सभ्यता▁	-7470
हजारौं▁	-7471
कुरालाई▁	-7472
त्यसबाट▁	-7473
पूजाआजा▁	-7474
बहुमुखी▁	-7475
बिहारको▁	-7476
भएतापनि▁	-7477
शुरुवात▁	-7478
अनुसन्धान	-7479
आशीर्वाद▁	-7480
इन्टरनेट▁	-7481
क्याम्पस▁	-7482
परिषद्को▁	-7483
प्रभावले▁	-7484
प्रयुक्त▁	-7485
समुन्द्र▁	-7486
जंगबहादुर▁	-7487
निरन्तरता▁	-7488
पर्यटकहरू▁	-7489
मूर्तिहरू▁	-7490
शास्त्रमा▁	-7491
तमिलनाडुको▁	-7492
प्राथमिकता▁	-7493
स्वतन्त्रता	-7494
क्षेत्रफलमा▁	-7495
सरकारद्वारा▁	-7496
दक्षिणपूर्वी▁	-7497
छौ	-7498
एएफ	-7499
चट्	-7500
छर्	-7501
तक▁	-7502
पल▁	-7503
रक▁	-7504
लुट	-7505
लु▁	-7506
शैल	-7507
सदा	-7508
सला	-7509
५२▁	-7510
आफै▁	-7511
कदम▁	-7512
कोर्	-7513
गोपी	-7514
गौरी	-7515
देङ▁	-7516
देन▁	-7517
नजिक	-7518
निको	-7519
प्रच	-7520
फको▁	-7521
बद्ध	-7522
म्ब▁	-7523
रुचा	-7524
सहित	-7525
सिरी	-7526
सुनि	-7527
स्मि	-7528
स्वर	-7529
िएको	-7530
अनुमो	-7531
आउँछ▁	-7532
करीब▁	-7533
कारवा	-7534
काशी▁	-7535
केशर▁	-7536
क्षक▁	-7537
खराब▁	-7538
गरिए▁	-7539
चितवन	-7540
चिया▁	-7541
तेको▁	-7542
दायी▁	-7543
बानी▁	-7544
भगवती	-7545
भूभाग	-7546
मिले▁	-7547
रहित▁	-7548
वहरू▁	-7549
विधेय	-7550
शाश्व	-7551
सङ्कट	-7552
स्टाइ	-7553
स्रोत	-7554
स्वी▁	-7555
१९९१▁	-7556
अभिलेख	-7557
आर्मी▁	-7558
आश्रम▁	-7559
उपविधा	-7560
कक्षा▁	-7561
काउने▁	-7562
किशोर▁	-7563
खाद्या	-7564
खुकुरी	-7565
गढीमा▁	-7566
गण्डकी	-7567
टुक्रा	-7568
तालमा▁	-7569
नदीले▁	-7570
पवित्र	-7571
पाईन्छ	-7572
पीडित▁	-7573
बनाउनु	-7574
मंसिर▁	-7575
महोत्स	-7576
रेस्टु	-7577
वरदान▁	-7578
वरिपरि	-7579
विपक्ष	-7580
वेदमा▁	-7581
सम्मान	-7582
स्ट्रा	-7583
स्वच्छ	-7584
हल्का▁	-7585
ालयको▁	-7586
कैलाली▁	-7587
गाउँको▁	-7588
नामकरण▁	-7589
बिक्री▁	-7590
बिरामी▁	-7591
भण्डार▁	-7592
मन्त्र▁	-7593
राजाका▁	-7594
अहिलेको▁	-7595
कलात्मक▁	-7596
कात्तिक▁	-7597
नद्वारा▁	-7598
प्रसन्न▁	-7599
रेस्टुरे	-7600
विश्वकर्	-7601
सङ्ग्रह▁	-7602
समितिमा▁	-7603
सुधारका▁	-7604
सेवाहरू▁	-7605
स्वीकृत▁	-7606
हप्ताको▁	-7607
अल्पसंख्य	-7608
गर्नुपर्छ	-7609
तिब्बतमा▁	-7610
सङ्गठनको▁	-7611
नकारात्मक▁	-7612
राजतन्त्र▁	-7613
विज्ञानको▁	-7614
संक्षिप्त▁	-7615
कम्युनिष्ट▁	-7616
कार्यकालमा▁	-7617
गणतन्त्रको▁	-7618
निम्नलिखित▁	-7619
विश्वामित्र	-7620
सूर्यबहादुर▁	-7621
स्थानान्तरण▁	-7622
क्रान्तिकारी▁	-7623
विश्वविद्यालयका▁	-7624
आ▁	-7625
घन्	-7626
टप्	-7627
टाल	-7628
दुख	-7629
पनौ	-7630
पां	-7631
पिछ	-7632
फिन	-7633
भ्य	-7634
मङ्	-7635
मति	-7636
मृग	-7637
वरा	-7638
संक	-7639
हत▁	-7640
अर्ध	-7641
किङ▁	-7642
कुश▁	-7643
केश▁	-7644
क्टो	-7645
गोपन	-7646
घना▁	-7647
छिन▁	-7648
ठोस▁	-7649
दाहि	-7650
निवा	-7651
नेदर	-7652
पद्म	-7653
पल्ट	-7654
पेन्	-7655
बढि▁	-7656
माला	-7657
मास▁	-7658
मिसि	-7659
युना	-7660
वाग्	-7661
शमा▁	-7662
शरण▁	-7663
सतह▁	-7664
स्को	-7665
हले▁	-7666
ह्ला	-7667
०मा▁	-7668
कमान्	-7669
घेरा▁	-7670
त्तम▁	-7671
दिशा▁	-7672
पाइने	-7673
पैदा▁	-7674
प्रवृ	-7675
प्रशि	-7676
प्रेम	-7677
बच्न▁	-7678
बाबा▁	-7679
भरका▁	-7680
भेरी▁	-7681
रेशम▁	-7682
वर्ड▁	-7683
वाणी▁	-7684
स्कुल	-7685
हलको▁	-7686
हिउँ▁	-7687
१९९२▁	-7688
आवश्यक	-7689
काठको▁	-7690
कालका▁	-7691
गद्दी▁	-7692
जरुरी▁	-7693
टिमका▁	-7694
पुग्छ▁	-7695
रोक्न▁	-7696
लम्बन▁	-7697
लिगमा▁	-7698
समापन▁	-7699
सम्मिल	-7700
सूत्र▁	-7701
सैद्धा	-7702
स्मृति	-7703
हतियार	-7704
कल्याण▁	-7705
जनाएको▁	-7706
जित्ने▁	-7707
त्यस्तै	-7708
दसैँको▁	-7709
देवीले▁	-7710
धाराको▁	-7711
निबन्ध▁	-7712
पाण्डे▁	-7713
प्रष्ट▁	-7714
ललितपुर	-7715
वादीको▁	-7716
सिक्किम	-7717
हात्ती▁	-7718
आत्माको▁	-7719
उपन्यास▁	-7720
छोराहरु▁	-7721
तपाईँको▁	-7722
ध्यानमा▁	-7723
निकायको▁	-7724
निकुञ्ज▁	-7725
पानीलाई▁	-7726
बासिन्दा	-7727
बुद्धका▁	-7728
भूभागमा▁	-7729
यहाँबाट▁	-7730
विभागमा▁	-7731
व्यञ्जना	-7732
समयदेखि▁	-7733
हत्याको▁	-7734
हरूदेखि▁	-7735
गान्धीले▁	-7736
नागरिकको▁	-7737
मुक्तिका▁	-7738
सम्हालेका▁	-7739
सिक्किमको▁	-7740
किम्बदन्ती▁	-7741
दुर्योधनको▁	-7742
राजनीतिज्ञ▁	-7743
लक्ष्मीप्रसाद▁	-7744
उभ	-7745
आवि	-7746
एल▁	-7747
चतु	-7748
तान	-7749
बाख	-7750
भिम	-7751
रङ्	-7752
लिप	-7753
वत्	-7754
सडक	-7755
हलु	-7756
ापा	-7757
५५▁	-7758
९१▁	-7759
९९▁	-7760
काला	-7761
केटा	-7762
चुचु	-7763
दाङ▁	-7764
नित▁	-7765
बायो	-7766
बोट▁	-7767
भोजन	-7768
लिस▁	-7769
लेखे	-7770
ल्स▁	-7771
वहाँ	-7772
वाल्	-7773
विभू	-7774
शल्य	-7775
संबि	-7776
ारो▁	-7777
ियल▁	-7778
५मा▁	-7779
अक्षर	-7780
कालीन	-7781
कैको▁	-7782
जडीबु	-7783
टोपी▁	-7784
णहरू▁	-7785
ण्डै▁	-7786
निकाय	-7787
वाली▁	-7788
शंकर▁	-7789
स्ता▁	-7790
१०००▁	-7791
१९९९▁	-7792
अहिंसा	-7793
गएपछि▁	-7794
चट्टान	-7795
जस्ती▁	-7796
जातका▁	-7797
जीलाई▁	-7798
ज्ञात▁	-7799
नाचको▁	-7800
फाइनल▁	-7801
भवनको▁	-7802
भाद्र▁	-7803
युवराज	-7804
रूपको▁	-7805
लोकमा▁	-7806
ल्याई▁	-7807
वाहिक▁	-7808
सम्बत▁	-7809
हटाएर▁	-7810
हुलाक▁	-7811
अनेकौँ▁	-7812
आह्वान▁	-7813
इन्द्र▁	-7814
उत्पादन	-7815
उनीसँग▁	-7816
उपाध्या	-7817
गान्धार	-7818
जान्छन्	-7819
जीवनका▁	-7820
देहरादु	-7821
नगरेको▁	-7822
निकुञ्ज	-7823
पठाएका▁	-7824
बन्धित▁	-7825
बाबुको▁	-7826
भोजपुर▁	-7827
मृतकको▁	-7828
रास्ट्र	-7829
शरीरका▁	-7830
श्रीमद्	-7831
समानता▁	-7832
हदसम्म▁	-7833
कानूनको▁	-7834
किराँती▁	-7835
गतेदेखि▁	-7836
ज्योतिष▁	-7837
नियुक्ति	-7838
बताइएको▁	-7839
सिफारिस▁	-7840
हराउँदै▁	-7841
आत्मालाई▁	-7842
गरिसकेका▁	-7843
पश्चिमको▁	-7844
भीमसेनले▁	-7845
रणबहादुर▁	-7846
संस्थाको▁	-7847
समारोहमा▁	-7848
सूर्यलाई▁	-7849
तिनीहरूले▁	-7850
व्यक्तिका▁	-7851
दत्तात्रेय▁	-7852
काभ्रेपलाञ्च	-7853
विद्यार्थीहरूको▁	-7854
तू	-7855
ाँ	-7856
२९	-7857
३३	-7858
आगो	-7859
खस्	-7860
डेन	-7861
णि▁	-7862
तिन	-7863
दनु	-7864
दशम	-7865
पक्	-7866
बम▁	-7867
भोग	-7868
मेघ	-7869
यमु	-7870
रसु	-7871
वरी	-7872
शि▁	-7873
५३▁	-7874
ंदा▁	-7875
अङ्क	-7876
आशा▁	-7877
उता▁	-7878
उत्र	-7879
क्य▁	-7880
चैत▁	-7881
टार▁	-7882
दिने	-7883
दूर▁	-7884
पाठ▁	-7885
पेर▁	-7886
प्यु	-7887
फलाम	-7888
बाग्	-7889
भियत	-7890
भ्रा	-7891
मारा	-7892
यथा▁	-7893
यूरो	-7894
शिर▁	-7895
सदा▁	-7896
अखिल▁	-7897
कक्ष▁	-7898
कारक▁	-7899
क्रोध	-7900
चियन▁	-7901
ट्ने▁	-7902
दाका▁	-7903
धनुर्	-7904
पद्म▁	-7905
परेर▁	-7906
फलाम▁	-7907
बसाइँ	-7908
बिग्र	-7909
बोधन▁	-7910
रक्त▁	-7911
रोगी▁	-7912
रोमन▁	-7913
वसन्त	-7914
सहरी▁	-7915
स्वाय	-7916
हलमा▁	-7917
हलाई▁	-7918
आउँदा▁	-7919
कोटमा▁	-7920
गरिन्▁	-7921
च्याङ▁	-7922
जिल्या	-7923
द्धार▁	-7924
बस्दै▁	-7925
रेडियो	-7926
लासको▁	-7927
वयस्क▁	-7928
सट्टा▁	-7929
सेन्टि	-7930
स्तिना	-7931
हात्ती	-7932
ानन्द▁	-7933
कालिका▁	-7934
जलवायु▁	-7935
दिइन्छ▁	-7936
दिन्छन्	-7937
नुपर्छ▁	-7938
पद्धति▁	-7939
पर्दैन▁	-7940
प्रवर्त	-7941
प्रसार▁	-7942
बेलायती	-7943
भन्छन्▁	-7944
भिडियो▁	-7945
मनुष्य▁	-7946
यन्त्र▁	-7947
यसकारण▁	-7948
वरसिंह▁	-7949
वर्णित▁	-7950
वैष्णव▁	-7951
समन्वय▁	-7952
सुन्दरी	-7953
हजारौँ▁	-7954
हेक्टर▁	-7955
अनुमोदन▁	-7956
अभिनेता▁	-7957
अष्ट्रेल	-7958
उत्तिकै▁	-7959
दर्शनको▁	-7960
प्रेरणा▁	-7961
बनारसमा▁	-7962
मल्ललाई▁	-7963
राजनीतिक	-7964
रुपैयाँ▁	-7965
विवाहित▁	-7966
सौन्दर्य	-7967
हिमालको▁	-7968
काठमाडौं▁	-7969
निष्कर्ष▁	-7970
पंक्षीले▁	-7971
बासस्थान▁	-7972
लम्पिकमा▁	-7973
शान्तिको▁	-7974
सिमानामा▁	-7975
स्वरूपका▁	-7976
अवस्थालाई▁	-7977
क्षेत्रिय▁	-7978
प्रतिबन्ध▁	-7979
संस्कृतमा▁	-7980
सामग्रीको▁	-7981
इन्डोनेसिया	-7982
भ्रष्टाचार▁	-7983
मन्त्रिपरिष	-7984
महिलाहरूको▁	-7985
काङ्ग्रेसको▁	-7986
खेलाडीहरूको▁	-7987
प्रतिक्रिया▁	-7988
श्रीलङ्काको▁	-7989
उत्तराधिकारी▁	-7990
श्रीकृष्णलाई▁	-7991
अस	-7992
गइ	-7993
शन	-7994
सज	-7995
आसा	-7996
उज्	-7997
गोठ	-7998
ठकु	-7999
दशक	-8000
नेट	-8001
मदि	-8002
रघु	-8003
सति	-8004
हण▁	-8005
इष्ट	-8006
उदार	-8007
उद्ध	-8008
उही▁	-8009
कपिल	-8010
कुर्	-8011
क्सा	-8012
गराइ	-8013
गुवा	-8014
जंग▁	-8015
जाउ▁	-8016
जाती	-8017
ट्यु	-8018
डिभि	-8019
तिर्	-8020
तीस▁	-8021
दुध▁	-8022
बनाउ	-8023
बर्द	-8024
बीजा	-8025
भोट▁	-8026
माथे	-8027
वीरे	-8028
व्यु	-8029
सुबि	-8030
सेके	-8031
हाँस	-8032
ारण▁	-8033
्दै▁	-8034
किरा▁	-8035
कुँवर	-8036
खरायो	-8037
गुँड▁	-8038
घरका▁	-8039
डोटी▁	-8040
तथापि	-8041
दावी▁	-8042
दिदी▁	-8043
देखिए	-8044
नागरी	-8045
नारी▁	-8046
बहिनी	-8047
मणको▁	-8048
र्जा▁	-8049
षधीय▁	-8050
स्को▁	-8051
हरिहर	-8052
ुहरू▁	-8053
आफैले▁	-8054
आबद्ध▁	-8055
कस्तो▁	-8056
चितुवा	-8057
चित्त▁	-8058
पिण्ड▁	-8059
प्राणी	-8060
बिद्रो	-8061
बोहरा▁	-8062
भागेर▁	-8063
मारेर▁	-8064
मिनेट▁	-8065
रातमा▁	-8066
वृक्ष▁	-8067
व्यास▁	-8068
शरणमा▁	-8069
सुत्के	-8070
सुदृढ▁	-8071
सुल्ता	-8072
कर्तव्य	-8073
कलाकार▁	-8074
निकटता▁	-8075
निक्कै▁	-8076
निवारण▁	-8077
पहेँलो▁	-8078
पार्वती	-8079
भेटिन्छ	-8080
मारुनी▁	-8081
राजस्व▁	-8082
लक्ष्मण	-8083
वस्त्र▁	-8084
विकल्प▁	-8085
सङ्घका▁	-8086
सङ्घले▁	-8087
सर्पको▁	-8088
स्तुते▁	-8089
स्वच्छ▁	-8090
हिमाचल▁	-8091
अफ्रिका▁	-8092
कवितामा▁	-8093
कुनैपनि▁	-8094
ठाउँलाई▁	-8095
परिवर्तन	-8096
भइसकेका▁	-8097
यिनीहरु▁	-8098
योग्यता▁	-8099
लैङ्गिक▁	-8100
विष्टले▁	-8101
वीरगन्ज▁	-8102
समुद्री▁	-8103
सहयोगको▁	-8104
सूचीकृत▁	-8105
ग्रन्थमा▁	-8106
जात्राको▁	-8107
पुनर्गठन▁	-8108
प्रभुत्व▁	-8109
राजतन्त्र	-8110
वस्तुलाई▁	-8111
सम्मिलित▁	-8112
परिवारलाई▁	-8113
पाण्डवहरू▁	-8114
शास्त्रको▁	-8115
अर्थतन्त्र▁	-8116
अस्ट्रेलिया	-8117
क्रान्तिका▁	-8118
पुरातात्विक▁	-8119
लोकतान्त्रिक▁	-8120
च्याम्पियनसिप▁	-8121
खं	-8122
हड	-8123
ंसी	-8124
उडा	-8125
चना	-8126
छौ▁	-8127
जबर	-8128
टु▁	-8129
बटु	-8130
बेब	-8131
मथु	-8132
रिङ	-8133
वाङ	-8134
हरी	-8135
ंले▁	-8136
अंश▁	-8137
अमिल	-8138
आइन्	-8139
आउनु	-8140
गगन▁	-8141
गायक	-8142
चामल	-8143
चौतर	-8144
नदि▁	-8145
पती▁	-8146
परम▁	-8147
पले▁	-8148
पिन▁	-8149
बखत▁	-8150
बजे▁	-8151
बाजु	-8152
बाण▁	-8153
बोध▁	-8154
मदग्	-8155
महल▁	-8156
महार	-8157
यिनि	-8158
राधी	-8159
लिंग	-8160
वंशी	-8161
श्च▁	-8162
हिसा	-8163
्रे▁	-8164
अपभ्र	-8165
अरुण▁	-8166
इलाम▁	-8167
कस्तु	-8168
किम्व	-8169
क्षति	-8170
खानी▁	-8171
जवाफ▁	-8172
ठान्द	-8173
डुवर्	-8174
नपुर▁	-8175
नवीन▁	-8176
निमा▁	-8177
नुभयो	-8178
न्डर▁	-8179
बन्दि	-8180
बलात्	-8181
बृद्ध	-8182
मृतक▁	-8183
लिया▁	-8184
ल्लु▁	-8185
वर्षे	-8186
वान्▁	-8187
शान्त	-8188
शिखर▁	-8189
ष्टा▁	-8190
हृदय▁	-8191
अप्रिल	-8192
अवकाश▁	-8193
आउँछन्	-8194
आरोहण▁	-8195
कास्की	-8196
किताब▁	-8197
गङ्गा▁	-8198
गतेको▁	-8199
गुरुङ▁	-8200
गोप्य▁	-8201
तपस्या	-8202
त्रिशू	-8203
दायाँ▁	-8204
देवकोट	-8205
द्विती	-8206
नित्य▁	-8207
नेपछि▁	-8208
न्तिक▁	-8209
न्द्रा	-8210
पातलो▁	-8211
पाध्या	-8212
प्रती▁	-8213
फिलिपि	-8214
फूलको▁	-8215
बनारस▁	-8216
बिष्ट▁	-8217
बुटवल▁	-8218
भावको▁	-8219
भाषिक▁	-8220
मात्रा	-8221
मासिक▁	-8222
रणजित▁	-8223
राजले▁	-8224
वकालत▁	-8225
स्वाद▁	-8226
अनलाइन▁	-8227
कास्की▁	-8228
कोठामा▁	-8229
चलाउने▁	-8230
चलाएका▁	-8231
चाडपर्व	-8232
जापानी▁	-8233
पत्रको▁	-8234
प्रतिक▁	-8235
बोलिन्छ	-8236
भुमिका▁	-8237
मस्जिद▁	-8238
वंशावली	-8239
संसदमा▁	-8240
साधनको▁	-8241
सृष्टि▁	-8242
स्वर्ग▁	-8243
हाल्ने▁	-8244
कानुनको▁	-8245
क्यान्सर	-8246
क्षत्रिय	-8247
गर्नुका▁	-8248
निस्कने▁	-8249
भन्दछन्▁	-8250
राजस्थान	-8251
रामेछाप▁	-8252
व्याख्या	-8253
संगीतमा▁	-8254
अभिनेत्री	-8255
दार्शनिक▁	-8256
निकाल्ने▁	-8257
भानुभक्त▁	-8258
मूर्तिको▁	-8259
युद्धबाट▁	-8260
अर्थतन्त्र	-8261
उत्तराखण्ड	-8262
किंवदन्ती▁	-8263
भक्तपुरका▁	-8264
महिनासम्म▁	-8265
रंगशालामा▁	-8266
विद्यावारि	-8267
विश्वकपको▁	-8268
व्यवसायिक▁	-8269
कार्यपालिका	-8270
किलोमिटरको▁	-8271
प्रारम्भमा▁	-8272
मुलुकहरूमा▁	-8273
विराटनगरमा▁	-8274
सैद्धान्तिक▁	-8275
राजेन्द्रलाई▁	-8276
एथ	-8277
बच	-8278
शौ	-8279
ाङ	-8280
अम्	-8281
आफै	-8282
ईन्	-8283
एमा	-8284
खरी	-8285
चाै	-8286
जोर	-8287
डन▁	-8288
ढोल	-8289
फोर	-8290
बिर	-8291
भञ्	-8292
भला	-8293
यजु	-8294
वडा	-8295
वण▁	-8296
ालय	-8297
खगोल	-8298
गडा▁	-8299
ङ्गु	-8300
जनरल	-8301
जलाश	-8302
टुप्	-8303
तेर▁	-8304
दौड▁	-8305
नरसं	-8306
पुन▁	-8307
बगैं	-8308
बाली	-8309
म्स▁	-8310
लिङ▁	-8311
ल्लु	-8312
वरपर	-8313
वाहि	-8314
शको▁	-8315
शाला	-8316
सुका	-8317
सौं▁	-8318
हाल्	-8319
िन्▁	-8320
ुको▁	-8321
उनलाई	-8322
कयौं▁	-8323
गिरफ्	-8324
गोरु▁	-8325
ग्राम	-8326
ङ्गी▁	-8327
जन्मि	-8328
टबाट▁	-8329
तिहार	-8330
दामा▁	-8331
दायक▁	-8332
निलो▁	-8333
न्डा▁	-8334
पिरी▁	-8335
पृथक▁	-8336
बेइजि	-8337
मूलक▁	-8338
यसँग▁	-8339
साक्ष	-8340
साले▁	-8341
सिना▁	-8342
स्ति▁	-8343
िल्ली	-8344
्रास▁	-8345
१९०३▁	-8346
२०५१▁	-8347
असन्तु	-8348
आयोजन▁	-8349
उत्पत्	-8350
करणले▁	-8351
क्षको▁	-8352
गुप्त▁	-8353
चलाउन▁	-8354
ट्रफी▁	-8355
ठाउमा▁	-8356
डराएर▁	-8357
ढुंगा▁	-8358
तर्गत▁	-8359
दार्चु	-8360
दिँदै▁	-8361
निर्णय	-8362
पुण्य▁	-8363
बस्तु▁	-8364
बेबिलो	-8365
बेरोजग	-8366
भेट्न▁	-8367
मकैको▁	-8368
मारिए▁	-8369
संखुवा	-8370
सनातन▁	-8371
सारको▁	-8372
सुगन्ध	-8373
स्मरण▁	-8374
आवासीय▁	-8375
उठाउने▁	-8376
कक्षमा▁	-8377
जनाउने▁	-8378
टोलीको▁	-8379
ढुङ्गा▁	-8380
णात्मक▁	-8381
दिनलाई▁	-8382
पहाडमा▁	-8383
बङ्गाल▁	-8384
माटोको▁	-8385
राजवंश▁	-8386
राणाले▁	-8387
शिक्षक▁	-8388
शिवाजी▁	-8389
संगठित▁	-8390
समाजका▁	-8391
सम्वन्ध	-8392
सर्पले▁	-8393
अदालतले▁	-8394
उज्यालो▁	-8395
उपलब्धि▁	-8396
खुवाउने▁	-8397
गन्तव्य▁	-8398
चाँदीको▁	-8399
तथ्याङ्क	-8400
त्यसपछी▁	-8401
त्यागेर▁	-8402
पछिल्ला▁	-8403
पूर्वको▁	-8404
महाधिवेश	-8405
रहिआएको▁	-8406
ल्याएका▁	-8407
शब्दहरू▁	-8408
संगीतको▁	-8409
सकिएपछि▁	-8410
सन्धिको▁	-8411
स्तनपान▁	-8412
स्वदेशी▁	-8413
एकादशीलाई	-8414
काठमाण्डौ	-8415
जनसंख्या▁	-8416
प्रतिष्ठा	-8417
बिस्तारै▁	-8418
राजमार्ग▁	-8419
वैज्ञानिक	-8420
सदस्यलाई▁	-8421
सम्पुर्ण▁	-8422
हुनुहुन्छ	-8423
अध्यक्षता▁	-8424
ठाउँहरूमा▁	-8425
परीक्षामा▁	-8426
पुर्याउने▁	-8427
भक्तपुरको▁	-8428
वीरेन्द्र▁	-8429
संरक्षणका▁	-8430
उपजिल्लाको▁	-8431
व्यक्तित्व▁	-8432
हस्तान्तरण▁	-8433
महाराष्ट्रको▁	-8434
अड	-8435
कव	-8436
नू	-8437
अमा	-8438
आइत	-8439
आलु	-8440
खतर	-8441
गरु	-8442
गां	-8443
गाल	-8444
डल▁	-8445
दाग	-8446
दिल	-8447
नेश	-8448
बरि	-8449
बल्	-8450
बोल	-8451
भो▁	-8452
वट▁	-8453
वती	-8454
सिख	-8455
अमर▁	-8456
अली▁	-8457
उपर▁	-8458
कीरा	-8459
केही	-8460
ख्वा	-8461
गुप्	-8462
गैर▁	-8463
घुम्	-8464
चाप▁	-8465
चाल▁	-8466
चिहा	-8467
छाप▁	-8468
जाडो	-8469
जानु	-8470
ञ्ज▁	-8471
टिङ▁	-8472
तक्र	-8473
नर्म	-8474
नहर▁	-8475
नास▁	-8476
नोबे	-8477
पाती	-8478
पेट▁	-8479
पौष▁	-8480
बुर▁	-8481
बेग्	-8482
बेर▁	-8483
भिन्	-8484
रिवा	-8485
र्ड▁	-8486
वर्ध	-8487
विस्	-8488
संयो	-8489
सदन▁	-8490
सेतो	-8491
हेरि	-8492
िकी▁	-8493
अछाम▁	-8494
अनुसर	-8495
अवैध▁	-8496
उँदछ▁	-8497
केटी▁	-8498
ङलाई▁	-8499
जटिल▁	-8500
जन्मे	-8501
जमदग्	-8502
टिका▁	-8503
ड्दा▁	-8504
दशरथ▁	-8505
दोलखा	-8506
धनुष▁	-8507
निरङ्	-8508
नेली▁	-8509
पबाट▁	-8510
पाटी▁	-8511
पुष्प	-8512
प्रदु	-8513
यूरोप	-8514
राँची	-8515
राले▁	-8516
रोकथा	-8517
लोखर्	-8518
वंशज▁	-8519
वाक्य	-8520
श्वरी	-8521
सन्या	-8522
हाले▁	-8523
अतिथि▁	-8524
अनुयाय	-8525
अस्ट्र	-8526
आर्थिक	-8527
ईश्वर▁	-8528
उर्जा▁	-8529
कानमा▁	-8530
किल्ला	-8531
क्रमण▁	-8532
खेलेर▁	-8533
च्युत▁	-8534
टोलमा▁	-8535
तुलना▁	-8536
तैनाथ▁	-8537
देखिन▁	-8538
नवलपरा	-8539
नागार्	-8540
निएको▁	-8541
पण्डित	-8542
पार्थ▁	-8543
प्रचार	-8544
भर्ती▁	-8545
भागवत▁	-8546
मरेको▁	-8547
महान्▁	-8548
वर्धन▁	-8549
वस्ती▁	-8550
ष्टिक▁	-8551
सर्जन▁	-8552
अग्रणी▁	-8553
अमेरिकी	-8554
आजसम्म▁	-8555
कोरिया▁	-8556
खतरनाक▁	-8557
चारवटा▁	-8558
चिन्तन▁	-8559
जमिनमा▁	-8560
जयन्ती▁	-8561
टोलीका▁	-8562
ठाउँको▁	-8563
डिजाइन▁	-8564
देवराज▁	-8565
नपाउने▁	-8566
निकाला▁	-8567
निवासी▁	-8568
पक्षले▁	-8569
परशुराम	-8570
पाटनको▁	-8571
पात्रो▁	-8572
पुरातन▁	-8573
बन्दरगा	-8574
बिजुली▁	-8575
भारद्वा	-8576
भुमिमा▁	-8577
मार्क्स	-8578
माहिला▁	-8579
वशिष्ठ▁	-8580
विजयको▁	-8581
सभालाई▁	-8582
सम्वत्▁	-8583
सामाजिक	-8584
सुनसरी▁	-8585
स्मृति▁	-8586
आम्बेडकर	-8587
गठबन्धन▁	-8588
गर्दथ्यो	-8589
चारैतिर▁	-8590
प्रचण्ड▁	-8591
बहुदलीय▁	-8592
मातहतमा▁	-8593
मापदण्ड▁	-8594
मुद्रास्	-8595
शक्तिमा▁	-8596
श्रद्धा▁	-8597
सत्तामा▁	-8598
सम्मेलन▁	-8599
अनिरुद्र▁	-8600
उद्योगको▁	-8601
उनुपर्ने▁	-8602
निस्केको▁	-8603
पूर्णिमा▁	-8604
बङ्गालमा▁	-8605
बर्खास्त▁	-8606
विनियोजन▁	-8607
संस्थाले▁	-8608
समस्याको▁	-8609
इङ्ल्यान्ड	-8610
कम्पनीलाई▁	-8611
काठमाडौँको	-8612
कोइरालाले▁	-8613
देखिन्छन्▁	-8614
पत्रिकाको▁	-8615
परशुरामले▁	-8616
भाषाहरूको▁	-8617
रूपान्तरण▁	-8618
कांग्रेसको▁	-8619
सर्वसाधारण▁	-8620
हनुमानढोका▁	-8621
अध्यक्षतामा▁	-8622
कार्यालयहरू▁	-8623
जननिर्वाचित▁	-8624
निम्नानुसार▁	-8625
युद्धभुमिमा▁	-8626
राज्यमन्त्री▁	-8627
विश्वविद्यालयहो	-8628
गज	-8629
ङर	-8630
शत	-8631
सत	-8632
अपा	-8633
इएफ	-8634
कमि	-8635
कमे	-8636
गया	-8637
चिउ	-8638
चिल	-8639
छैट	-8640
णु▁	-8641
पसल	-8642
पिए	-8643
फत्	-8644
बढे	-8645
भिष	-8646
भु▁	-8647
मु▁	-8648
यान	-8649
हमा	-8650
हेम	-8651
कोशि	-8652
खनाल	-8653
च्छि	-8654
जगत▁	-8655
जोशी	-8656
टिने	-8657
त्तर	-8658
दफा▁	-8659
दामो	-8660
फमा▁	-8661
फुल▁	-8662
बद्र	-8663
बरु▁	-8664
यादव	-8665
रातो	-8666
रामा	-8667
रोज▁	-8668
लोपो	-8669
वश्य	-8670
वैशा	-8671
शुरू	-8672
हुड्	-8673
१५०▁	-8674
अङ्क▁	-8675
अरुणा	-8676
अवशेष	-8677
आउनु▁	-8678
आपूर्	-8679
इलाहा	-8680
उँदो▁	-8681
एण्ड▁	-8682
कष्ट▁	-8683
कोलका	-8684
कौरव▁	-8685
गिद्ध	-8686
ग्याँ	-8687
घरपाल	-8688
चारी▁	-8689
चोखो▁	-8690
चोरी▁	-8691
जंगल▁	-8692
जीवना	-8693
जेठी▁	-8694
तस्वी	-8695
दृष्ट	-8696
नाफा▁	-8697
नेमा▁	-8698
पाउने	-8699
फलफूल	-8700
बस्तु	-8701
भनें▁	-8702
भनेको	-8703
महीना	-8704
यात्र	-8705
लियन▁	-8706
लीले▁	-8707
सनमा▁	-8708
सहमत▁	-8709
ीकरण▁	-8710
१९३०▁	-8711
२०२१▁	-8712
काँही▁	-8713
गरिरहे	-8714
चिन्ह▁	-8715
छुट्टा	-8716
जेलमा▁	-8717
तृतीय▁	-8718
दशमलव▁	-8719
दिइन्छ	-8720
देवको▁	-8721
दोस्रो	-8722
द्रुपद	-8723
पाउनु▁	-8724
पातमा▁	-8725
पुर्व▁	-8726
पूर्वी	-8727
पोर्ट▁	-8728
राबाट▁	-8729
शून्य▁	-8730
संघर्ष	-8731
सङ्गठन	-8732
सभ्यता	-8733
साधारण	-8734
अनुसरण▁	-8735
अयोध्या	-8736
अवधारणा	-8737
आश्विन▁	-8738
उपमन्यु	-8739
खुकुरी▁	-8740
घटनाले▁	-8741
चाहन्थे	-8742
पञ्चायत	-8743
परिमार्	-8744
परिषद्▁	-8745
बाक्लो▁	-8746
भाषाहरू	-8747
भेदभाव▁	-8748
मृगौला▁	-8749
मौसममा▁	-8750
योग्यता	-8751
रूपबाट▁	-8752
लाग्दा▁	-8753
वाणिज्य	-8754
विविधता	-8755
विश्लेष	-8756
सकिएको▁	-8757
समूहको▁	-8758
सिद्धि▁	-8759
िरहेको▁	-8760
अंतर्गत▁	-8761
अध्यापक▁	-8762
अन्तरगत▁	-8763
अर्घाखाँ	-8764
गर्नुभयो	-8765
ग्रामिण▁	-8766
जापानमा▁	-8767
नेपालमै▁	-8768
परियोजना	-8769
प्रस्ताव	-8770
फाइनलमा▁	-8771
बैङ्कले▁	-8772
भट्टराई▁	-8773
भित्र्या	-8774
विभागीय▁	-8775
विश्वकै▁	-8776
संयन्त्र	-8777
सम्बोधन▁	-8778
सर्लाही▁	-8779
आक्रमणको▁	-8780
आविष्कार▁	-8781
निरीक्षण▁	-8782
नेपालबाट▁	-8783
प्रदेशका▁	-8784
प्रवर्द्ध	-8785
ब्राह्मी▁	-8786
भुक्तानी▁	-8787
रामकृष्ण▁	-8788
श्रीलङ्का	-8789
स्वभावका▁	-8790
नगरपालिकार	-8791
न्युजिल्या	-8792
प्रकाशनको▁	-8793
प्रतिपादन▁	-8794
महाराष्ट्र	-8795
रामेछापमा▁	-8796
हुनुभन्दा▁	-8797
कहिलेकाहीँ▁	-8798
प्रक्रियामा▁	-8799
प्रतिवेदनका▁	-8800
बङ्गलादेशमा▁	-8801
ँड	-8802
ठ्	-8803
तब	-8804
िङ	-8805
अदु	-8806
उप▁	-8807
एसि	-8808
क्▁	-8809
गौत	-8810
घोर	-8811
जेर	-8812
तले	-8813
थ्र	-8814
बिए	-8815
भएन	-8816
मञ्	-8817
यति	-8818
यम▁	-8819
यश▁	-8820
विग	-8821
हमे	-8822
ालो	-8823
ाव▁	-8824
३९▁	-8825
९५▁	-8826
अंगि	-8827
ईका▁	-8828
एक्ल	-8829
कालो	-8830
केवल	-8831
क्वे	-8832
खाल्	-8833
गोरु	-8834
घाम▁	-8835
चेत▁	-8836
जोर्	-8837
णिक▁	-8838
तना▁	-8839
ताला	-8840
त्था	-8841
दुल▁	-8842
धरान	-8843
नयाँ	-8844
नाते	-8845
नेल▁	-8846
न्ने	-8847
पहिच	-8848
पिङ▁	-8849
भीम▁	-8850
मादल	-8851
मिर्	-8852
मुगल	-8853
म्म▁	-8854
यिक▁	-8855
रोक्	-8856
लन्ड	-8857
ल्ड▁	-8858
विषा	-8859
सवै▁	-8860
साइँ	-8861
सिल्	-8862
सीता	-8863
आफैं▁	-8864
आयोग▁	-8865
उत्खन	-8866
किताब	-8867
कुमार	-8868
गञ्ज▁	-8869
चुरे▁	-8870
चोटी▁	-8871
जहाज▁	-8872
टरमा▁	-8873
दुर्ग	-8874
देखे▁	-8875
दैवी▁	-8876
धुरा▁	-8877
नाशक▁	-8878
न्या▁	-8879
पुनरा	-8880
प्रथम	-8881
बृहत▁	-8882
मतदान	-8883
माइल▁	-8884
मुखे▁	-8885
यरको▁	-8886
यामा▁	-8887
युइएफ	-8888
रुद्र	-8889
लाईन▁	-8890
लिकन▁	-8891
विराज	-8892
व्यय▁	-8893
सन्तो	-8894
सिलसि	-8895
हावा▁	-8896
हीको▁	-8897
हीमा▁	-8898
१९५३▁	-8899
अग्ला▁	-8900
आस्था▁	-8901
उपभोग▁	-8902
एकपटक▁	-8903
किसान▁	-8904
घनत्व▁	-8905
च्छेद▁	-8906
जन्मिए	-8907
जयद्रथ	-8908
तामाङ▁	-8909
त्यहा▁	-8910
पखेटा▁	-8911
पहुँच▁	-8912
पुरूष▁	-8913
बाघको▁	-8914
बारको▁	-8915
बिन्दु	-8916
बुर्जु	-8917
बोर्ड▁	-8918
भ्यागु	-8919
माध्यम	-8920
मुल्य▁	-8921
मेन्ट▁	-8922
म्बार▁	-8923
राज्या	-8924
लक्ष्य	-8925
लागेर▁	-8926
लाग्दछ	-8927
वसन्त▁	-8928
विसङ्ग	-8929
वृद्ध▁	-8930
संवाद▁	-8931
सकेनन्	-8932
समाचार	-8933
सरदार▁	-8934
सरुवा▁	-8935
सरेका▁	-8936
सल्यान	-8937
स्टार▁	-8938
अनुगमन▁	-8939
आकारमा▁	-8940
कान्छी▁	-8941
क्षुद्र	-8942
गायिका▁	-8943
जर्मनी▁	-8944
ज्यादा▁	-8945
तीनवटा▁	-8946
फ्रान्स	-8947
बकुल्ला	-8948
भागबाट▁	-8949
शासकको▁	-8950
शृङ्खला	-8951
सञ्चित▁	-8952
एसियाको▁	-8953
खोलाहरू▁	-8954
चिकित्सा	-8955
चौतरिया▁	-8956
छोरीलाई▁	-8957
जीवनलाई▁	-8958
ज्येष्ठ▁	-8959
तत्कालीन	-8960
थापालाई▁	-8961
नराम्रो▁	-8962
पदाधिकार	-8963
परामर्श▁	-8964
योजनाको▁	-8965
विद्वान▁	-8966
सम्बद्ध▁	-8967
अङ्ग्रेज▁	-8968
खेलकुदको▁	-8969
गरिदिएका▁	-8970
भूमिकामा▁	-8971
विष्णुले▁	-8972
शक्तिपीठ▁	-8973
स्वच्छन्द	-8974
छोराहरूले▁	-8975
परम्परामा▁	-8976
भाषाहरूमा▁	-8977
विषयवस्तु▁	-8978
गर्नेहिन्दू	-8979
बहुप्रसिद्ध	-8980
विश्वकर्मा▁	-8981
अर्थमन्त्री▁	-8982
मन्दिरहरूमा▁	-8983
युधिष्ठिरको▁	-8984
राजतन्त्रको▁	-8985
राजेन्द्रको▁	-8986
गिरिजाप्रसाद▁	-8987
मृत्युदण्डको▁	-8988
जौ	-8989
धौ	-8990
नह	-8991
सप	-8992
हँ	-8993
५५	-8994
अयु	-8995
असु	-8996
अहम	-8997
आशा	-8998
उति	-8999
एयर	-9000
कटि	-9001
खेर	-9002
चू▁	-9003
चैत	-9004
टोल	-9005
डै▁	-9006
दु▁	-9007
नौर	-9008
पहल	-9009
पौड	-9010
भी▁	-9011
मर▁	-9012
मुह	-9013
रमे	-9014
सको	-9015
हात	-9016
ेरी	-9017
ंकन▁	-9018
अप्ठ	-9019
उनै▁	-9020
कुहि	-9021
खुला	-9022
गोदा	-9023
घाजि	-9024
दिदी	-9025
धीर▁	-9026
पालन	-9027
पिछड	-9028
बुल्	-9029
ब्यब	-9030
भिड▁	-9031
भुत▁	-9032
रूख▁	-9033
वाली	-9034
वासु	-9035
व्यब	-9036
सङ्क	-9037
सोच▁	-9038
स्कट	-9039
स्ती	-9040
ियम▁	-9041
३मा▁	-9042
अनुभव	-9043
अनुभू	-9044
इलाका	-9045
एकदम▁	-9046
एन्टि	-9047
कीले▁	-9048
खरिद▁	-9049
गामी▁	-9050
चन्दन	-9051
चाहे▁	-9052
ड्डी▁	-9053
तथ्य▁	-9054
त्ति▁	-9055
दुलाल	-9056
पढाइ▁	-9057
परित▁	-9058
पूँजी	-9059
पोषण▁	-9060
प्रणा	-9061
बन्दो	-9062
ब्रहृ	-9063
भङ्ग▁	-9064
भट्ट▁	-9065
मर्या	-9066
माघे▁	-9067
रिहा▁	-9068
विना▁	-9069
संवेद	-9070
सिटी▁	-9071
स्कूल	-9072
स्ते▁	-9073
ेश्वर	-9074
१९५५▁	-9075
२०५२▁	-9076
अग्नि▁	-9077
अध्ययन	-9078
उनीहरू	-9079
एकसाथ▁	-9080
कोटको▁	-9081
कोतमा▁	-9082
खेलका▁	-9083
गतिशील	-9084
गरिदिए	-9085
घटेको▁	-9086
चीनले▁	-9087
छरिएर▁	-9088
ताइवान	-9089
तीर्ण▁	-9090
त्रिशु	-9091
दासको▁	-9092
द्वरा▁	-9093
न्वारा	-9094
पहिरन▁	-9095
पुस्तक	-9096
प्रताप	-9097
प्रबल▁	-9098
प्रेस▁	-9099
फर्के▁	-9100
बनायो▁	-9101
बृहत्▁	-9102
बृहस्प	-9103
भरिका▁	-9104
मानमा▁	-9105
म्याच▁	-9106
रात्रि	-9107
ल्यता▁	-9108
वार्ड▁	-9109
शकुन्त	-9110
सभापति	-9111
सांसद▁	-9112
साहित▁	-9113
सृष्टि	-9114
अध्यात्	-9115
इत्यादि	-9116
एघारौँ▁	-9117
कानूनी▁	-9118
किराती▁	-9119
क्लबले▁	-9120
छालाको▁	-9121
जुल्दो▁	-9122
जोगाउन▁	-9123
जोड्ने▁	-9124
डियाको▁	-9125
तर्फका▁	-9126
दिनबाट▁	-9127
नाच्ने▁	-9128
नीतिको▁	-9129
परिकार▁	-9130
पुजारी▁	-9131
प्रगति▁	-9132
प्रबन्ध	-9133
प्राणी▁	-9134
प्रेमी▁	-9135
बालुवा▁	-9136
मानेका▁	-9137
मुटुको▁	-9138
मेलामा▁	-9139
मैत्री▁	-9140
लामाले▁	-9141
वर्णको▁	-9142
वर्तमान	-9143
विभिन्न	-9144
शाश्वत▁	-9145
शिलालेख	-9146
संहिता▁	-9147
सक्दैन▁	-9148
सभामुख▁	-9149
सिपाही▁	-9150
सीताको▁	-9151
स्ट्राइ	-9152
असाधारण▁	-9153
उहाँलाई▁	-9154
काठमाडौ▁	-9155
गद्दीमा▁	-9156
चिकित्सक	-9157
छोरालाई▁	-9158
जहाँबाट▁	-9159
दरवारमा▁	-9160
नारायणहि	-9161
नेहरूको▁	-9162
न्यूनतम▁	-9163
मध्येका▁	-9164
मुलुकमा▁	-9165
यसबाहेक▁	-9166
युरोपमा▁	-9167
लडाइँमा▁	-9168
शङ्खहरु▁	-9169
सन्तुलन▁	-9170
समाप्ति▁	-9171
सार्वभौम	-9172
सालसम्म▁	-9173
सुर्खेत▁	-9174
हिउँदमा▁	-9175
एकीकरणको▁	-9176
कान्तिपुर	-9177
क्षेत्रको	-9178
जिल्लाले▁	-9179
दिनहरूमा▁	-9180
बारम्बार▁	-9181
मुद्राको▁	-9182
राज्यबाट▁	-9183
शक्तिलाई▁	-9184
संस्थाका▁	-9185
स्वर्गीय▁	-9186
स्वीकृति▁	-9187
खाद्यान्न▁	-9188
जनजातिहरू▁	-9189
जनविश्वास▁	-9190
प्रशासनको▁	-9191
महाभारतका▁	-9192
यातायातको▁	-9193
वर्षहरूमा▁	-9194
विरुद्धमा▁	-9195
शेरबहादुर▁	-9196
सल्लाहकार▁	-9197
कार्यालयको▁	-9198
रेस्टुरेन्ट	-9199
साहित्यकार▁	-9200
बाछिटालेखनको▁	-9201
बालबालिकालाई▁	-9202
युधिष्ठिरलाई▁	-9203
राज्यलक्ष्मी▁	-9204
कह	-9205
घृ	-9206
ोद	-9207
अरि	-9208
इस▁	-9209
एम▁	-9210
जीत	-9211
जेल	-9212
तरी	-9213
ताँ	-9214
ताज	-9215
थर्	-9216
दाउ	-9217
न्ज	-9218
बेग	-9219
बैं	-9220
मिथ	-9221
मुछ	-9222
मुज	-9223
यहा	-9224
लिन	-9225
वाम	-9226
वृह	-9227
ंत्र	-9228
ंदैन	-9229
इजला	-9230
ईशा▁	-9231
कुर▁	-9232
कोले	-9233
खिक▁	-9234
खिला	-9235
गहन▁	-9236
जगन्	-9237
जमीन	-9238
टिका	-9239
ठूला	-9240
डिजि	-9241
डोटी	-9242
ताना	-9243
ताली	-9244
तुल्	-9245
त्रै	-9246
दुम्	-9247
द्दा	-9248
धितो	-9249
पाउँ	-9250
बसी▁	-9251
बिर्	-9252
बुल▁	-9253
याल▁	-9254
राग्	-9255
लेटि	-9256
संगठ	-9257
सचिव	-9258
साथी	-9259
सिं▁	-9260
सिलि	-9261
सुरा	-9262
ंदैन▁	-9263
अयुब▁	-9264
अर्जे	-9265
आएकी▁	-9266
आत्म▁	-9267
आराम▁	-9268
काला▁	-9269
कोटा▁	-9270
गर्भव	-9271
गाको▁	-9272
गीता▁	-9273
गुरू▁	-9274
घाँस▁	-9275
चराचु	-9276
जुलाई	-9277
टाउको	-9278
तिथि▁	-9279
दीर्घ	-9280
दैत्य	-9281
निभर्	-9282
परिक▁	-9283
पुँजी	-9284
पुतली	-9285
बरको▁	-9286
बर्ट▁	-9287
बीको▁	-9288
बुटवल	-9289
बैतडी	-9290
माण्ड	-9291
माधव▁	-9292
माफी▁	-9293
मारिए	-9294
यजुर्	-9295
लिंग▁	-9296
विलिय	-9297
श्वर्	-9298
षिकेश	-9299
ष्कार	-9300
सकेन▁	-9301
सधैँ▁	-9302
समथर▁	-9303
हकको▁	-9304
हेटौँ	-9305
१९५२▁	-9306
१९९३▁	-9307
२०३२▁	-9308
कब्जिय	-9309
गिर्जा	-9310
गोलार्	-9311
चरणको▁	-9312
जंगली▁	-9313
जगतमा▁	-9314
तालिम▁	-9315
तुलसी▁	-9316
त्यसो▁	-9317
दशकको▁	-9318
दाबाद▁	-9319
नदीका▁	-9320
निकालि	-9321
निष्का	-9322
न्सको▁	-9323
पुलिस▁	-9324
फलफूल▁	-9325
बढाउन▁	-9326
बाह्र▁	-9327
बेहोस▁	-9328
भिक्टो	-9329
मतभेद▁	-9330
माग्न▁	-9331
मिल्दछ	-9332
रहँदै▁	-9333
वस्त्र	-9334
सुनसरी	-9335
स्कूल▁	-9336
हप्ता▁	-9337
आयुक्त▁	-9338
उपन्यास	-9339
एकातिर▁	-9340
एकीकृत▁	-9341
कर्मको▁	-9342
कारहरू▁	-9343
कारिणी▁	-9344
कोलागि▁	-9345
क्लबको▁	-9346
गन्तव्य	-9347
गुलियो▁	-9348
चढाउने▁	-9349
तत्काल▁	-9350
तेश्वर▁	-9351
थिएनन्▁	-9352
दस्तावे	-9353
दुल्लु▁	-9354
पिरामिड	-9355
बजारको▁	-9356
ब्रह्म▁	-9357
मध्यस्थ	-9358
लाग्दो▁	-9359
वर्गले▁	-9360
शिवलाई▁	-9361
संरक्षण	-9362
सङ्ग्रह	-9363
सामग्री	-9364
सुन्ने▁	-9365
हुन्छन▁	-9366
अधिवेशन▁	-9367
आम्दानी▁	-9368
उपचारको▁	-9369
कब्जामा▁	-9370
कम्तिमा▁	-9371
कलकत्ता▁	-9372
खलढुङ्गा	-9373
गर्नुको▁	-9374
जनावरको▁	-9375
त्रिपुरा	-9376
देखाएको▁	-9377
देवकोटा▁	-9378
धर्मलाई▁	-9379
नभएकाले▁	-9380
पदमुक्त▁	-9381
परापूर्व	-9382
परिभाषा▁	-9383
बिताएका▁	-9384
बुद्धले▁	-9385
भित्रका▁	-9386
भुटानको▁	-9387
महासचिव▁	-9388
मुजिबुर▁	-9389
विभागले▁	-9390
सदस्यमा▁	-9391
स्कुलमा▁	-9392
हुनुपर्छ	-9393
अर्जुनको▁	-9394
उत्तीर्ण▁	-9395
उपजिल्ला▁	-9396
क्षेत्री▁	-9397
पंक्षीको▁	-9398
शिक्षाका▁	-9399
सम्प्रदाय	-9400
सहरहरूमा▁	-9401
सामानहरू▁	-9402
हातहतियार	-9403
अफ्रिकामा▁	-9404
अभिनेत्री▁	-9405
अर्जुनलाई▁	-9406
कार्यवाहक▁	-9407
गगनसिंहको▁	-9408
देवकोटाले▁	-9409
मन्दिरलाई▁	-9410
रुद्राक्ष▁	-9411
शासकहरूले▁	-9412
संस्कारको▁	-9413
सुरक्षाका▁	-9414
अभिव्यक्ति▁	-9415
प्रतिक्रिया	-9416
स्वर्गद्वार	-9417
क्रान्तिलाई▁	-9418
प्रतिद्वन्द्	-9419
महानगरपालिका	-9420
विमानस्थलको▁	-9421
व्यवस्थापिका▁	-9422
डब्ल्यूडब्ल्यू	-9423
उपराष्ट्रपतिको▁	-9424
प्रतियोगिताहरू▁	-9425
कन	-9426
बड	-9427
रङ	-9428
आन▁	-9429
एके	-9430
काई	-9431
जले	-9432
जाइ	-9433
टेल	-9434
ढाल	-9435
देह	-9436
बज्	-9437
भवत	-9438
भेष	-9439
यौ▁	-9440
रवी	-9441
रसा	-9442
रि▁	-9443
वश▁	-9444
शार	-9445
१००	-9446
अवसर	-9447
एंगे	-9448
कुन्	-9449
क्टर	-9450
गरा▁	-9451
गाडि	-9452
गित▁	-9453
गीन▁	-9454
चौबि	-9455
जाँड	-9456
टेड▁	-9457
दत्त	-9458
दशरथ	-9459
दिउँ	-9460
दिभ्	-9461
धादि	-9462
धाम▁	-9463
नाला	-9464
पठाए	-9465
परक▁	-9466
बहस▁	-9467
बीर▁	-9468
ब्रो	-9469
मोह▁	-9470
यसमा	-9471
रुपा	-9472
रेड▁	-9473
लागी	-9474
लित▁	-9475
लुई▁	-9476
लेप्	-9477
वान्	-9478
संरच	-9479
सेरो	-9480
हारी	-9481
हेटौ	-9482
अरबी▁	-9483
ईसाई▁	-9484
उँने▁	-9485
उत्ते	-9486
उपाधि	-9487
कर्मी	-9488
कोङ्क	-9489
गहना▁	-9490
गाडी▁	-9491
गान्त	-9492
गोडा▁	-9493
गोल्ड	-9494
चलाए▁	-9495
चौडा▁	-9496
छेउछा	-9497
छोरो▁	-9498
जङ्ग▁	-9499
टीले▁	-9500
टुँडि	-9501
ट्टै▁	-9502
डडेल्	-9503
तारिख	-9504
न्दी▁	-9505
पनको▁	-9506
परेवा	-9507
भीषण▁	-9508
भ्रमण	-9509
मङ्गल	-9510
मिलन▁	-9511
मुक्त	-9512
मोहर▁	-9513
रसमा▁	-9514
रहमान	-9515
राका▁	-9516
राशि▁	-9517
लगाए▁	-9518
लुगा▁	-9519
शोषण▁	-9520
संकट▁	-9521
सर्व▁	-9522
सहजै▁	-9523
सिँचा	-9524
सैन्य	-9525
ियको▁	-9526
ीएको▁	-9527
इलेक्ट	-9528
उपदेश▁	-9529
किनकी▁	-9530
क्रिस्	-9531
घुम्न▁	-9532
चाँडै▁	-9533
चीनका▁	-9534
थियोे▁	-9535
नेशनल▁	-9536
पढ्ने▁	-9537
पन्थी▁	-9538
फत्तेज	-9539
बढावा▁	-9540
मत्स्य	-9541
मर्दा▁	-9542
मौखिक▁	-9543
यसअघि▁	-9544
लडेका▁	-9545
लासमा▁	-9546
वश्यक▁	-9547
वाहेक▁	-9548
विक्रम	-9549
विज्ञा	-9550
विषेश▁	-9551
समयका▁	-9552
हिमालय	-9553
ियाका▁	-9554
ियाले▁	-9555
ेदारी▁	-9556
अनुरुप▁	-9557
आदिलाई▁	-9558
आन्ध्र▁	-9559
आमाबाबु	-9560
खेलेको▁	-9561
खोलामा▁	-9562
चढाएको▁	-9563
च्यानल▁	-9564
जानिन्छ	-9565
टोलीमा▁	-9566
ठाँउमा▁	-9567
डिजिटल▁	-9568
तराईमा▁	-9569
तामाको▁	-9570
देवनागर	-9571
धनुषमा▁	-9572
धारामा▁	-9573
न्देही▁	-9574
बन्दुक▁	-9575
बागलुङ▁	-9576
बिलिबिल	-9577
बोक्रा▁	-9578
भूमिको▁	-9579
यथार्थ▁	-9580
राख्दै▁	-9581
श्रद्धा	-9582
श्वरको▁	-9583
संस्करण	-9584
सञ्चालन	-9585
समर्थक▁	-9586
समाजिक▁	-9587
सियाको▁	-9588
हारीमा▁	-9589
हितलाई▁	-9590
अयोध्या▁	-9591
गोत्रीय▁	-9592
घण्टाको▁	-9593
दक्षिणा▁	-9594
दाजुभाइ▁	-9595
देखाउने▁	-9596
निर्यात▁	-9597
पक्षबाट▁	-9598
प्रतिभा▁	-9599
प्रयत्न▁	-9600
फुटबलमा▁	-9601
बनाइन्छ▁	-9602
भैरहेको▁	-9603
रहेकोले▁	-9604
वैवाहिक▁	-9605
संचालित▁	-9606
संबिधान▁	-9607
समायोजन▁	-9608
सीतालाई▁	-9609
सुनकोशी▁	-9610
सैनिकको▁	-9611
उदाहरणका▁	-9612
उनीहरूका▁	-9613
उल्लेख्य▁	-9614
खेलाडीले▁	-9615
गर्नुभयो▁	-9616
तालिकामा▁	-9617
प्रमुखले▁	-9618
मानिन्छन्	-9619
मिलिमिटर▁	-9620
राज्याभिष	-9621
विधेयकमा▁	-9622
व्यापारी▁	-9623
सङ्गीतको▁	-9624
समेटिएको▁	-9625
स्थानलाई▁	-9626
हनुमानका▁	-9627
आयरल्यान्ड	-9628
खेलाडीहरू▁	-9629
नेताहरूले▁	-9630
भ्रष्टाचार	-9631
रिपब्लिकन▁	-9632
विश्वासका▁	-9633
विस्थापित▁	-9634
श्रद्धालु▁	-9635
षड्यन्त्र▁	-9636
समृद्धिको▁	-9637
सुनिश्चित▁	-9638
हुनुहुन्छ▁	-9639
उपजिल्लाका▁	-9640
गाउँपालिकार	-9641
दाहसंस्कार▁	-9642
धृष्टद्युम्	-9643
प्रमाणपत्र▁	-9644
विश्वेश्वर▁	-9645
संरचनात्मक▁	-9646
सङ्ग्रहालय▁	-9647
कार्यकारिणी▁	-9648
भक्तजनहरूको▁	-9649
यसलेसंविधान▁	-9650
सुदूरपश्चिम▁	-9651
कफ	-9652
लय	-9653
ुक	-9654
५२	-9655
ँदा	-9656
अवि	-9657
असं	-9658
आति	-9659
कटौ	-9660
कोश	-9661
क्क	-9662
ग्य	-9663
घरा	-9664
छाड	-9665
छैठ	-9666
ज्ज	-9667
ढे▁	-9668
ढोर	-9669
थेर	-9670
धाम	-9671
पदक	-9672
फरा	-9673
फरी	-9674
बीर	-9675
भजन	-9676
भस्	-9677
मम▁	-9678
शां	-9679
शिर	-9680
सती	-9681
हले	-9682
ह्य	-9683
ुका	-9684
ूत▁	-9685
अपरि	-9686
कर्फ	-9687
क्रु	-9688
ङ्गो	-9689
चौडा	-9690
जहाज	-9691
ट्रो	-9692
ठान▁	-9693
दशैं	-9694
दिना	-9695
नार▁	-9696
निरं	-9697
फिर्	-9698
बताए	-9699
भएन▁	-9700
मामि	-9701
राहु	-9702
रूपै	-9703
वटै▁	-9704
शिरो	-9705
सफ्ट	-9706
समया	-9707
सर्ब	-9708
सीक▁	-9709
स्तू	-9710
हीत▁	-9711
ानो▁	-9712
अपराध	-9713
आदर्श	-9714
इन्दि	-9715
एकाइ▁	-9716
कलियु	-9717
गायन▁	-9718
चल्न▁	-9719
छाला▁	-9720
जनार्	-9721
जम्मू	-9722
जुद्ध	-9723
डेरा▁	-9724
तामाङ	-9725
त्तीस	-9726
त्यहा	-9727
दण्ड▁	-9728
धुरी▁	-9729
पटना▁	-9730
पित्त	-9731
पेट्र	-9732
फिल्म	-9733
बाकी▁	-9734
भइन्▁	-9735
भावी▁	-9736
मार्क	-9737
यनमा▁	-9738
लगानी	-9739
लाखे▁	-9740
विज्ञ	-9741
शंका▁	-9742
शहरी▁	-9743
सत्या	-9744
सपना▁	-9745
सराइ▁	-9746
हानि▁	-9747
२०३३▁	-9748
अमिलो▁	-9749
आदिले▁	-9750
आयोजक▁	-9751
आवामी▁	-9752
उपकरण▁	-9753
उस्तै▁	-9754
कथाको▁	-9755
कविको▁	-9756
काखमा▁	-9757
कीलाई▁	-9758
कुमाल▁	-9759
कैलाश▁	-9760
क्यालि	-9761
क्रान्	-9762
चिन्ति	-9763
जित्यो	-9764
डिल्ली	-9765
तरबार▁	-9766
तिर्न▁	-9767
त्रिवे	-9768
दाहाल▁	-9769
दुल्लु	-9770
पिउने▁	-9771
पेक्ष▁	-9772
प्रभु▁	-9773
बगेको▁	-9774
बताउनु	-9775
बासको▁	-9776
भरतपुर	-9777
भुटान▁	-9778
मिल्दो	-9779
रात्री	-9780
रुक्मि	-9781
लाभको▁	-9782
लिम्बू	-9783
वलीमा▁	-9784
वादमा▁	-9785
सम्राट	-9786
सशक्त▁	-9787
साउने▁	-9788
स्कन्द	-9789
हराउन▁	-9790
हरिहर▁	-9791
अदृश्य▁	-9792
उपविधा▁	-9793
उपासना▁	-9794
कर्णेल▁	-9795
खुलेको▁	-9796
गरिदिए▁	-9797
चाहिने▁	-9798
छिट्टै▁	-9799
जनतामा▁	-9800
तेश्रो▁	-9801
देख्ने▁	-9802
नाचगान▁	-9803
नामहरू▁	-9804
पङ्क्ति	-9805
प्रचुर▁	-9806
बताएका▁	-9807
बोलाएर▁	-9808
भञ्ज्या	-9809
भारतले▁	-9810
माटोले▁	-9811
मान्नु▁	-9812
मोबाइल▁	-9813
यज्ञको▁	-9814
राणाको▁	-9815
रामेछाप	-9816
लगाउनु▁	-9817
वनस्पति	-9818
वर्तित▁	-9819
व्यञ्जन	-9820
शब्दले▁	-9821
शैलीका▁	-9822
सेनलाई▁	-9823
स्टाइन▁	-9824
स्वागत▁	-9825
हस्तिना	-9826
अमरसिंह▁	-9827
गर्भवती▁	-9828
ग्रहणको▁	-9829
घरभित्र▁	-9830
चिन्तित▁	-9831
छोराहरू▁	-9832
दुवैलाई▁	-9833
नभएसम्म▁	-9834
नेताहरू▁	-9835
पञ्चाङ्ग	-9836
पुत्रका▁	-9837
बनाईएको▁	-9838
बौद्धिक▁	-9839
रंगशाला▁	-9840
रचनाहरू▁	-9841
लक्ष्मण▁	-9842
समेटेको▁	-9843
सुधारको▁	-9844
स्थानका▁	-9845
स्विकार▁	-9846
अंग्रेजी▁	-9847
अधिराज्य▁	-9848
अर्जेन्टि	-9849
आयुक्तको▁	-9850
कोरियाली▁	-9851
दिल्लीको▁	-9852
प्रस्तुति	-9853
बासिन्दा▁	-9854
संख्याको▁	-9855
सेल्सियस▁	-9856
कर्मकाण्ड▁	-9857
कान्तिपुर▁	-9858
क्रियाकलाप	-9859
जङ्गबहादुर	-9860
पंक्षीहरू▁	-9861
प्रतिज्ञा▁	-9862
प्रतिष्ठा▁	-9863
बाहुल्यता▁	-9864
महत्त्वको▁	-9865
माथवरसिंह▁	-9866
यिनीहरूले▁	-9867
व्यापारमा▁	-9868
शृङ्खलाको▁	-9869
सोलुखुम्बु	-9870
हनुमानलाई▁	-9871
प्रजातन्त्र	-9872
अधिराजकुमार▁	-9873
कुरुक्षेत्र▁	-9874
मन्त्रालयले▁	-9875
सम्प्रदायमा▁	-9876
जङ्गबहादुरको▁	-9877
परिणामस्वरूप▁	-9878
प्रतिनिधिहरूले▁	-9879
यजुर्वेदीयशाखा▁	-9880
डब्ल्युडब्ल्युई▁	-9881
स्वच्छन्दतावादी▁	-9882
उस	-9883
यक	-9884
सख	-9885
ैं	-9886
अलौ	-9887
उखु	-9888
उपे	-9889
खाइ	-9890
गे▁	-9891
दिई	-9892
नहर	-9893
नू▁	-9894
बेह	-9895
मयु	-9896
मिन	-9897
रना	-9898
रवि	-9899
र्▁	-9900
वात	-9901
वाय	-9902
षु▁	-9903
सब्	-9904
सहस	-9905
ंकर▁	-9906
अंशु	-9907
अण्ड	-9908
इटाल	-9909
इण्ड	-9910
इति▁	-9911
इन्ड	-9912
इन्ध	-9913
उर्व	-9914
एसएल	-9915
किर्	-9916
केट▁	-9917
क्रू	-9918
क्लि	-9919
खाली	-9920
घाटे	-9921
चेक▁	-9922
जुर▁	-9923
जोगा	-9924
टोपी	-9925
डोल्	-9926
दानव	-9927
नगद▁	-9928
नपुर	-9929
नया▁	-9930
नायक	-9931
नारी	-9932
निस▁	-9933
पहल▁	-9934
फोक्	-9935
बासी	-9936
बिर▁	-9937
ब्यव	-9938
मनी▁	-9939
माना	-9940
मेसो	-9941
मोटर	-9942
मोरङ	-9943
योगि	-9944
राजो	-9945
रोगी	-9946
र्थि	-9947
लाहु	-9948
लेनि	-9949
लोगो	-9950
ल्हा	-9951
वाला	-9952
वाष्	-9953
विन्	-9954
शंख▁	-9955
सधै▁	-9956
हत्य	-9957
होस▁	-9958
अभियो	-9959
आवास▁	-9960
ईश्वर	-9961
उपदेश	-9962
कारा▁	-9963
कीरा▁	-9964
कृपा▁	-9965
गाली▁	-9966
ङ्गे▁	-9967
चढेर▁	-9968
टावर▁	-9969
णाले▁	-9970
थापाथ	-9971
थिएँ▁	-9972
दस्तु	-9973
देउवा	-9974
दैनन्	-9975
द्रोण	-9976
पुरूष	-9977
बर्ष▁	-9978
बहुमत	-9979
बोली▁	-9980
भरमा▁	-9981
भागमा	-9982
मान्▁	-9983
र्दै▁	-9984
लोमा▁	-9985
वाहन▁	-9986
वियोग	-9987
वीर्य	-9988
सरदर▁	-9989
सांसद	-9990
सिमा▁	-9991
सिस्ट	-9992
सेको▁	-9993
अध्याय	-9994
अनुहार	-9995
आधारमा	-9996
उदयपुर	-9997
उभिएर▁	-9998
एकजना▁	-9999
एक्लै▁	-10000
एक्सचे	-10001
कुमारी	-10002
कोषको▁	-10003
क्याले	-10004
क्र्या	-10005
खोल्न▁	-10006
गरिएको	-10007
जोखिम▁	-10008
तत्पर▁	-10009
तपाईं▁	-10010
तेक्वा	-10011
दौरान▁	-10012
धनकुटा	-10013
धुनिक▁	-10014
नुलाई▁	-10015
न्डमा▁	-10016
न्यून▁	-10017
बनाउने	-10018
बालुवा	-10019
भयानक▁	-10020
महोत्त	-10021
मिन्ता	-10022
मुरली▁	-10023
मेक्सि	-10024
मोर्चा	-10025
रक्सी▁	-10026
राखियो	-10027
राजारण	-10028
लिगका▁	-10029
विराट▁	-10030
विहीन▁	-10031
शिष्य▁	-10032
संगको▁	-10033
ससाना▁	-10034
साङ्गी	-10035
साधना▁	-10036
साबित▁	-10037
सिंजा▁	-10038
सूत्रा	-10039
स्त्री	-10040
स्पष्ट	-10041
स्मार्	-10042
आँखाको▁	-10043
इन्द्रा	-10044
उत्पति▁	-10045
एकिकरण▁	-10046
कल्पिक▁	-10047
गान्धी▁	-10048
दुबैको▁	-10049
नक्षत्र	-10050
नुवाकोट	-10051
नेवारी▁	-10052
परन्तु▁	-10053
भवनहरू▁	-10054
मध्यमा▁	-10055
मेलमिला	-10056
मैथिली▁	-10057
लिङ्गी▁	-10058
विलियम▁	-10059
शम्शेर▁	-10060
संघर्ष▁	-10061
समाजले▁	-10062
समातेर▁	-10063
सहरलाई▁	-10064
सापेक्ष	-10065
सुबिधा▁	-10066
इन्द्रिय	-10067
कानूनले▁	-10068
जापानको▁	-10069
जिल्लाहो	-10070
धिकारको▁	-10071
निर्वाण▁	-10072
पक्षलाई▁	-10073
पुरुषले▁	-10074
पौष्टिक▁	-10075
प्रबन्ध▁	-10076
प्रियता▁	-10077
भारतलाई▁	-10078
भाषाबाट▁	-10079
भिटामिन▁	-10080
माल्दिभ्	-10081
मेन्टको▁	-10082
विष्टको▁	-10083
सिन्धुली	-10084
हरूमाथि▁	-10085
उत्पादित▁	-10086
काप्रसाद▁	-10087
गर्नेथारू	-10088
जीवनशैली▁	-10089
तेक्वान्द	-10090
दागबत्ती▁	-10091
नियमावली▁	-10092
पन्जाबमा▁	-10093
फर्केपछि▁	-10094
बताउँछन्▁	-10095
मातृभाषा▁	-10096
मुद्दाको▁	-10097
वर्षदेखि▁	-10098
विद्रोही▁	-10099
उत्पादनका▁	-10100
तुलनात्मक▁	-10101
दिनुपर्ने▁	-10102
दृष्टिकोण▁	-10103
नागार्जुन▁	-10104
प्रशिक्षक▁	-10105
भण्डारखाल▁	-10106
राजाहरूको▁	-10107
साङ्गीतिक▁	-10108
कांग्रेसका▁	-10109
क्याम्पसमा▁	-10110
निर्वाचनको▁	-10111
बाछिटालेखन▁	-10112
ब्यक्तिलाई▁	-10113
महान्यायाधि	-10114
विद्यालयको▁	-10115
सम्पत्तिको▁	-10116
इन्जिनियरिङ▁	-10117
काठमाडौँबाट▁	-10118
श्रीकृष्णको▁	-10119
मिल्दोजुल्दो▁	-10120
सूत्रकविताको▁	-10121
कर्मचारीहरूको▁	-10122
राज्यतमिलनाडुको▁	-10123
गड	-10124
ढक	-10125
शय	-10126
ंस▁	-10127
आकृ	-10128
इनि	-10129
खप्	-10130
जिन	-10131
ञ्ज	-10132
टोक	-10133
डु▁	-10134
दया	-10135
धरो	-10136
फल्	-10137
बरे	-10138
भवा	-10139
मठ▁	-10140
र्ण	-10141
ल्स	-10142
वसु	-10143
शपथ	-10144
शिख	-10145
सवै	-10146
सिङ	-10147
हेड	-10148
ोल▁	-10149
ँले▁	-10150
अराज	-10151
कमै▁	-10152
क्यु	-10153
क्री	-10154
खाए▁	-10155
खेत▁	-10156
गले▁	-10157
गीता	-10158
चाह▁	-10159
चिसा	-10160
चेन▁	-10161
च्चा	-10162
जनी▁	-10163
डियो	-10164
देह▁	-10165
नता▁	-10166
नीत▁	-10167
नुन▁	-10168
न्ज▁	-10169
न्तु	-10170
पद्य	-10171
पाला	-10172
पुष▁	-10173
पोटा	-10174
फुर्	-10175
फ्लो	-10176
बडो▁	-10177
बनाई	-10178
बसे▁	-10179
बाह▁	-10180
बित्	-10181
मयमन	-10182
म्यू	-10183
युने	-10184
रोक▁	-10185
लगाइ	-10186
लान▁	-10187
लेखक	-10188
शित▁	-10189
सती▁	-10190
स्न▁	-10191
अन्वे	-10192
अमृत▁	-10193
आस्था	-10194
कहीं▁	-10195
किमी▁	-10196
कुम्भ	-10197
कोइला	-10198
कोठा▁	-10199
खड्ग▁	-10200
गर्छन	-10201
गाजा▁	-10202
गिरि▁	-10203
गुरुङ	-10204
घाटा▁	-10205
ङबाट▁	-10206
चुम्ब	-10207
चौतार	-10208
छाता▁	-10209
जर्ज▁	-10210
जानी▁	-10211
जीका▁	-10212
तीनै▁	-10213
दीले▁	-10214
दोषी▁	-10215
नाउँ▁	-10216
पैदल▁	-10217
बक्सि	-10218
बताए▁	-10219
बसाई▁	-10220
भएपछि	-10221
भद्रा	-10222
भाग्य	-10223
मेन्ट	-10224
मेली▁	-10225
रहको▁	-10226
रहेका	-10227
विलय▁	-10228
शिल्प	-10229
श्रीम	-10230
सवार▁	-10231
सामु▁	-10232
सेवक▁	-10233
स्ने▁	-10234
स्पद▁	-10235
हीका▁	-10236
ारको▁	-10237
अनन्त▁	-10238
अन्तर▁	-10239
उत्तरी	-10240
क्रमी▁	-10241
गोपनीय	-10242
चित्रा	-10243
तीहरू▁	-10244
दीबाट▁	-10245
देउडा▁	-10246
देखिए▁	-10247
नदिको▁	-10248
न्डको▁	-10249
बचाउन▁	-10250
बन्नु▁	-10251
बैज्ञा	-10252
ब्राहृ	-10253
भिडियो	-10254
मङ्गोल	-10255
मध्ययु	-10256
मनाउन▁	-10257
मामिला	-10258
रहेकी▁	-10259
रुखको▁	-10260
रोनाल्	-10261
विशेषत	-10262
शङ्कर▁	-10263
शिवले▁	-10264
संहिता	-10265
सङ्ख्य	-10266
सतहमा▁	-10267
सदनको▁	-10268
सहरका▁	-10269
सारिक▁	-10270
सुर्मा	-10271
स्तम्भ	-10272
स्वस्थ	-10273
हुनको▁	-10274
अधिकृत▁	-10275
आमालाई▁	-10276
उदयपुर▁	-10277
कपालमा▁	-10278
कलकत्ता	-10279
कुराले▁	-10280
खेतीको▁	-10281
गरेपछी▁	-10282
गुल्मी▁	-10283
चट्टान▁	-10284
जनकपुर▁	-10285
जन्मको▁	-10286
ढाक्ने▁	-10287
दामोदर▁	-10288
दुर्गम▁	-10289
धातुको▁	-10290
धेरैले▁	-10291
निष्क्र	-10292
पाँचौं▁	-10293
पुत्री▁	-10294
प्राङ्ग	-10295
भरिएको▁	-10296
मोर्चा▁	-10297
रङ्गको▁	-10298
रणनीति▁	-10299
रहन्छन्	-10300
वादलाई▁	-10301
व्यस्त▁	-10302
व्रतको▁	-10303
संयोजन▁	-10304
सकेनन्▁	-10305
सङ्घमा▁	-10306
सन्दर्भ	-10307
समयपछि▁	-10308
सल्यान▁	-10309
स्तनको▁	-10310
हराएका▁	-10311
अगाडिको▁	-10312
आसपासका▁	-10313
कमाण्डर▁	-10314
गोरखपुर▁	-10315
घाँटीमा▁	-10316
चतुर्दशी	-10317
जातिहरू▁	-10318
जान्छन्▁	-10319
ढाकिएको▁	-10320
तुरुन्त▁	-10321
तुलसीको▁	-10322
थालेपछि▁	-10323
भत्केको▁	-10324
मानसिंह▁	-10325
मानिसका▁	-10326
वर्षभरि▁	-10327
संसारका▁	-10328
सम्पादक▁	-10329
सारिएको▁	-10330
सेनाबाट▁	-10331
हरिद्वार	-10332
हुनसक्छ▁	-10333
अभिलेखमा▁	-10334
इतिहासका▁	-10335
उद्योगमा▁	-10336
एन्टिबायो	-10337
देखिन्छन्	-10338
नारायणको▁	-10339
पराक्रमी▁	-10340
प्रतिरोध▁	-10341
प्रशान्त▁	-10342
बाल्यकाल▁	-10343
बेलायतका▁	-10344
भद्रकाली▁	-10345
महिनापछि▁	-10346
मुम्बईमा▁	-10347
राजवंशको▁	-10348
लिच्छविका	-10349
व्यवस्थाप	-10350
शरणार्थी▁	-10351
षड्यन्त्र	-10352
समर्थनमा▁	-10353
सिकारलाई▁	-10354
सिन्धुली▁	-10355
स्मृतिमा▁	-10356
हुनसक्ने▁	-10357
क्यालिफोर्	-10358
जिल्लाबाट▁	-10359
देशव्यापी▁	-10360
निर्देशित▁	-10361
पत्रिकामा▁	-10362
बसाइँसराइ▁	-10363
राष्ट्रीय▁	-10364
व्यक्तित्व	-10365
व्यापारको▁	-10366
श्रेष्ठले▁	-10367
सञ्चालनको▁	-10368
साधारणतया▁	-10369
स्वामित्व▁	-10370
अधिराज्यमा▁	-10371
अप्रत्यक्ष▁	-10372
इङ्ल्यान्ड▁	-10373
छोराहरूलाई▁	-10374
त्रिचन्द्र▁	-10375
न्यायालयको▁	-10376
अर्थव्यवस्था	-10377
काङ्ग्रेसले▁	-10378
पशुपतिनाथको▁	-10379
महिलाहरूलाई▁	-10380
स्वामित्वमा▁	-10381
स्वास्थ्यको▁	-10382
उपराष्ट्रपति▁	-10383
विश्वयुद्धमा▁	-10384
व्यक्तिहरूलाई▁	-10385
मन्त्रिपरिषदको▁	-10386
मन्त्रिपरिषद्को▁	-10387
अठ	-10388
कठ	-10389
दम	-10390
दस	-10391
पण	-10392
रद	-10393
५३	-10394
अख्	-10395
अश्	-10396
ईं▁	-10397
कं▁	-10398
कोत	-10399
चिर	-10400
जसो	-10401
दत्	-10402
पिक	-10403
मोद	-10404
रास	-10405
रेख	-10406
वना	-10407
शव्	-10408
शही	-10409
शीत	-10410
सस्	-10411
सान	-10412
सि▁	-10413
सोध	-10414
हिज	-10415
ीण▁	-10416
आउने	-10417
आयु▁	-10418
आहमे	-10419
उग्र	-10420
केतु	-10421
कोत▁	-10422
कोदो	-10423
क्षण	-10424
खेलि	-10425
खोल्	-10426
गदा▁	-10427
गीर▁	-10428
घुमा	-10429
चूडा	-10430
ठूलो	-10431
ण्डे	-10432
तृती	-10433
तैया	-10434
त्यु	-10435
थाह▁	-10436
दही▁	-10437
दाई▁	-10438
धनु▁	-10439
धारि	-10440
नबने	-10441
नाच्	-10442
पाठे	-10443
पाली	-10444
पेय▁	-10445
फ्रि	-10446
भुइँ	-10447
मतदा	-10448
मूलत	-10449
राजे	-10450
लता▁	-10451
वचन▁	-10452
वेशि	-10453
शाली	-10454
श्रम	-10455
सनल▁	-10456
समुह	-10457
सहि▁	-10458
सिना	-10459
सेतु	-10460
सेमी	-10461
हाई▁	-10462
०को▁	-10463
२मा▁	-10464
अविना	-10465
असिरी	-10466
आहार▁	-10467
इनका▁	-10468
उचाई▁	-10469
एमाले	-10470
कश्यप	-10471
काउन्	-10472
कालिन	-10473
कालु▁	-10474
कोदो▁	-10475
कौशल▁	-10476
गद्य▁	-10477
छँदा▁	-10478
छात्र	-10479
ठानी▁	-10480
तिनै▁	-10481
दर्जन	-10482
दर्शा	-10483
धागो▁	-10484
धामी▁	-10485
ध्वज▁	-10486
नैतिक	-10487
पन्त▁	-10488
परिवे	-10489
पार्क	-10490
प्रथा	-10491
प्रमू	-10492
प्वाँ	-10493
बन्दी	-10494
ब्रज▁	-10495
भद्र▁	-10496
भाँडा	-10497
मधुर▁	-10498
महरू▁	-10499
मोचन▁	-10500
रङ्ग▁	-10501
रोयल▁	-10502
लद्दा	-10503
लसँग▁	-10504
ल्लो▁	-10505
वरको▁	-10506
वर्णा	-10507
वाचन▁	-10508
शिष्य	-10509
शुक्ल	-10510
शोभा▁	-10511
सङ्ग▁	-10512
समेट्	-10513
सर्वे	-10514
सलाम▁	-10515
सीका▁	-10516
ेपछि▁	-10517
२०५३▁	-10518
अनुमान	-10519
आक्रमण	-10520
उद्गम▁	-10521
उन्मूल	-10522
कमलको▁	-10523
कलिला▁	-10524
कात्या	-10525
कारले▁	-10526
कुराका	-10527
कृष्णा	-10528
खत्री▁	-10529
खोज्न▁	-10530
गाउँले	-10531
गुल्मी	-10532
गोकर्ण	-10533
घिमिरे	-10534
जलाएर▁	-10535
जीवात्	-10536
जेम्स▁	-10537
टाहरू▁	-10538
टिमको▁	-10539
टीलाई▁	-10540
तथापि▁	-10541
थाल्छ▁	-10542
दर्शना	-10543
दिइने▁	-10544
नभएका▁	-10545
नाचमा▁	-10546
पङ्क्ष	-10547
पचाउन▁	-10548
पर्छन्	-10549
पर्दैन	-10550
पार्थि	-10551
पृष्ठ▁	-10552
पेटमा▁	-10553
प्रश्न	-10554
बन्धन▁	-10555
बसाइँ▁	-10556
मङ्गल▁	-10557
मौर्य▁	-10558
यथार्थ	-10559
राक्षस	-10560
राजस्व	-10561
रालाई▁	-10562
रोगका▁	-10563
ल्याए▁	-10564
विमुख▁	-10565
सञ्जाल	-10566
सफ्टवे	-10567
सम्भवत	-10568
सोह्र▁	-10569
स्थायि	-10570
ात्मक▁	-10571
अंग्रेज	-10572
अंशुवर्	-10573
अग्निहो	-10574
आलोचना▁	-10575
कलेजमा▁	-10576
काललाई▁	-10577
कृषिमा▁	-10578
क्रिस्ट	-10579
खण्डको▁	-10580
चीनबाट▁	-10581
चुनावी▁	-10582
ज्योति▁	-10583
टिमबाट▁	-10584
तिम्रा▁	-10585
दाहिने▁	-10586
नहुँदा▁	-10587
पठाएको▁	-10588
पत्रकार	-10589
पुच्छर▁	-10590
बारीमा▁	-10591
बार्ने▁	-10592
बालकको▁	-10593
बिरुवा▁	-10594
भएकोमा▁	-10595
भन्दछन्	-10596
भविष्य▁	-10597
मिडिया▁	-10598
रङ्पुर▁	-10599
समूहले▁	-10600
हुनुका▁	-10601
अवलम्बन▁	-10602
ईश्वरको▁	-10603
उपमन्यु▁	-10604
कुराहरु▁	-10605
घटनालाई▁	-10606
चन्द्रमा	-10607
चम्किलो▁	-10608
जडिबुटी▁	-10609
देखिएका▁	-10610
नलाग्ने▁	-10611
पठाइएको▁	-10612
पहिलेको▁	-10613
पृष्ठमा▁	-10614
बाबुराम▁	-10615
भीष्मले▁	-10616
मान्छन्▁	-10617
मुस्ताङ▁	-10618
म्यानमार	-10619
युवाहरू▁	-10620
रणनीतिक▁	-10621
लडाकुको▁	-10622
लोकबाजा▁	-10623
विचारको▁	-10624
विषयलाई▁	-10625
शमशेरका▁	-10626
समाजलाई▁	-10627
स्कूलमा▁	-10628
अध्यायमा▁	-10629
कार्यभार▁	-10630
खानेकुरा▁	-10631
खेलाडीको▁	-10632
गिरफ्तार▁	-10633
ग्रन्थका▁	-10634
घरपालुवा▁	-10635
जिन्नाको▁	-10636
नेपालीको▁	-10637
प्रकाशको▁	-10638
प्रयासमा▁	-10639
प्रशिद्ध▁	-10640
बालकृष्ण▁	-10641
मान्छेको▁	-10642
मान्छेले▁	-10643
मित्रसेन▁	-10644
राजदरबार▁	-10645
विष्टलाई▁	-10646
सरकारबाट▁	-10647
कार्यविधि▁	-10648
त्यसभन्दा▁	-10649
प्रगतिशील▁	-10650
मृत्युपछि▁	-10651
राष्ट्रका▁	-10652
लक्ष्मीको▁	-10653
लोपोन्मुख▁	-10654
शम्शेरलाई▁	-10655
संस्करणमा▁	-10656
साहित्यकार	-10657
हरूकोगोत्र	-10658
कांग्रेसले▁	-10659
काठमाडौँका▁	-10660
प्रणालीलाई▁	-10661
प्रदर्शनमा▁	-10662
मृत्युदण्ड▁	-10663
लोकप्रियता▁	-10664
विधिपूर्वक▁	-10665
सूर्यग्रहण▁	-10666
सोलुखुम्बु▁	-10667
हाराहारीमा▁	-10668
अस्ट्रेलिया▁	-10669
कार्यपालिका▁	-10670
कृष्णप्रसाद▁	-10671
जंगबहादुरले▁	-10672
विश्वामित्र▁	-10673
अर्थतन्त्रको▁	-10674
पुनर्निर्माण▁	-10675
मातृकाप्रसाद▁	-10676
अर्थव्यवस्थाको▁	-10677
मन्त्रिमण्डलमा▁	-10678
प्रधानमन्त्रीले▁	-10679
ंध	-10680
टू	-10681
टै	-10682
तद	-10683
धव	-10684
मस	-10685
्न	-10686
.,▁	-10687
ंगी	-10688
अभय	-10689
आइ▁	-10690
करे	-10691
कीय	-10692
केर	-10693
खन▁	-10694
घोड	-10695
घ्र	-10696
जिव	-10697
ट्स	-10698
ढो▁	-10699
तवि	-10700
दथे	-10701
दह▁	-10702
देल	-10703
पदो	-10704
बसि	-10705
बाण	-10706
बि▁	-10707
बूढ	-10708
भति	-10709
भया	-10710
रजौ	-10711
लोड	-10712
वेब	-10713
सहम	-10714
हम्	-10715
हम▁	-10716
्र्	-10717
०२▁	-10718
०९▁	-10719
९३▁	-10720
अठार	-10721
असार	-10722
आश्च	-10723
इचो▁	-10724
उपाय	-10725
किक▁	-10726
कुवे	-10727
कौरव	-10728
क्वय	-10729
खरेल	-10730
गच्छ	-10731
गुना	-10732
ग्य▁	-10733
घार▁	-10734
चेर▁	-10735
छाड्	-10736
छोडि	-10737
जाड▁	-10738
जिन▁	-10739
टोत्	-10740
डाउन	-10741
डोर▁	-10742
त्मक	-10743
दूता	-10744
धारी	-10745
नाचि	-10746
न्दू	-10747
न्दै	-10748
पाई▁	-10749
बडा▁	-10750
बारु	-10751
बिही	-10752
ब्बा	-10753
भाग्	-10754
भोग्	-10755
मुन्	-10756
र्सा	-10757
लडाँ	-10758
लिमि	-10759
लेक्	-10760
लोड▁	-10761
ल्यो	-10762
वाण▁	-10763
ष्मा	-10764
साना	-10765
हानि	-10766
ुण्ड	-10767
अशोक▁	-10768
उदार▁	-10769
उद्या	-10770
गाले▁	-10771
चामल▁	-10772
चारु▁	-10773
चासो▁	-10774
टापु▁	-10775
दुरुप	-10776
नहुने	-10777
नियो▁	-10778
न्ते▁	-10779
न्वार	-10780
पाको▁	-10781
पीडा▁	-10782
पुण्य	-10783
प्रदू	-10784
प्रहर	-10785
बादी▁	-10786
बाबजु	-10787
बासी▁	-10788
बाहिर	-10789
बिहे▁	-10790
बीचमा	-10791
मर्न▁	-10792
मानस▁	-10793
मुजफ्	-10794
मोहक▁	-10795
युनाइ	-10796
राजपू	-10797
रिक्त	-10798
र्वाण	-10799
विकार	-10800
शाक्य	-10801
श्याम	-10802
सगरमा	-10803
सनका▁	-10804
सयौं▁	-10805
सारी▁	-10806
सुसज्	-10807
सेता▁	-10808
सोहरा	-10809
सोहि▁	-10810
स्टक▁	-10811
स्तो▁	-10812
हटाई▁	-10813
२०२९▁	-10814
२०५९▁	-10815
आयोजना	-10816
उपलब्ध	-10817
एकीकरण	-10818
कुलका▁	-10819
कृत्रि	-10820
खानको▁	-10821
गीतका▁	-10822
चरणका▁	-10823
छैटौँ▁	-10824
जागिर▁	-10825
तत्त्व	-10826
तहहरू▁	-10827
तिरको▁	-10828
थालियो	-10829
दिएकी▁	-10830
नतिजा▁	-10831
नियमित	-10832
नुभयो▁	-10833
नेतृत्	-10834
नेपालर	-10835
पटकको▁	-10836
पतिमा▁	-10837
परमात्	-10838
पाईने▁	-10839
प्रवल▁	-10840
बजाउन▁	-10841
बाइबल▁	-10842
बाख्रा	-10843
भीष्म▁	-10844
मजदुर▁	-10845
मागको▁	-10846
मानिसह	-10847
मुखको▁	-10848
मोक्ष▁	-10849
यातना▁	-10850
राजेश▁	-10851
रातभर▁	-10852
लेखेर▁	-10853
वशिष्ठ	-10854
वाध्य▁	-10855
विरुवा	-10856
संग्रा	-10857
सालका▁	-10858
हराको▁	-10859
ियरको▁	-10860
अधिनमा▁	-10861
अभावमा▁	-10862
आदिबाट▁	-10863
आमन्त्र	-10864
आसामको▁	-10865
इरहेका▁	-10866
उपपर्व▁	-10867
कांस्य▁	-10868
कारागार	-10869
जनाउँछ▁	-10870
ढुङ्गे▁	-10871
तत्त्व▁	-10872
त्साहन▁	-10873
थापाका▁	-10874
थेरवाद▁	-10875
दात्री▁	-10876
दृष्टि▁	-10877
नेताको▁	-10878
न्यानो▁	-10879
पटनाको▁	-10880
पाटनका▁	-10881
प्रशासन	-10882
प्रह्ला	-10883
बोल्छन्	-10884
मल्लका▁	-10885
माछाको▁	-10886
मालपोत▁	-10887
म्यूजिय	-10888
राज्यको	-10889
रोजगार▁	-10890
शब्दमा▁	-10891
सबैजसो▁	-10892
समुहमा▁	-10893
सम्पन्न	-10894
सामयिक▁	-10895
होइनन्▁	-10896
ानीलकण्	-10897
अपेक्षा▁	-10898
अस्थायी▁	-10899
उत्तरार्	-10900
उनुपर्छ▁	-10901
गङ्गाको▁	-10902
गोरखाली▁	-10903
चर्चामा▁	-10904
टाउकोमा▁	-10905
त्रिपुरे	-10906
त्साहित▁	-10907
देहान्त▁	-10908
पशुपालन▁	-10909
पारिएको▁	-10910
पार्थिव▁	-10911
प्रशंसा▁	-10912
प्राथमिक	-10913
बताउँछन्	-10914
बस्न्यात	-10915
बैङ्कमा▁	-10916
मिश्रित▁	-10917
वक्ताको▁	-10918
व्याकरण▁	-10919
सद्वारा▁	-10920
सन्दर्भ▁	-10921
समूहलाई▁	-10922
सर्वत्र▁	-10923
सुन्तला▁	-10924
हानाहान▁	-10925
आइपुग्दा▁	-10926
इन्द्रले▁	-10927
इलेक्ट्रो	-10928
उदाहरणको▁	-10929
कार्यलाई▁	-10930
कार्यहरु▁	-10931
किच्चकको▁	-10932
जबरजस्ती▁	-10933
देवताहरू▁	-10934
परराष्ट्र	-10935
पर्यटनको▁	-10936
पश्चिमका▁	-10937
प्रयोगको▁	-10938
बन्दरगाह▁	-10939
बाहिरबाट▁	-10940
मामिलामा▁	-10941
विभाजनको▁	-10942
शिक्षकको▁	-10943
समानताको▁	-10944
उपन्यासमा▁	-10945
कलकत्तामा▁	-10946
काठमाण्डौ▁	-10947
क्यानडाका▁	-10948
क्षेत्रहरू	-10949
खेलाडीलाई▁	-10950
प्रवृत्ति▁	-10951
प्रशासकीय▁	-10952
प्रान्तमा▁	-10953
मुख्तियार▁	-10954
युधिष्ठिर▁	-10955
राजधानीको▁	-10956
राजधानीमा▁	-10957
वंशावलीमा▁	-10958
संस्करणको▁	-10959
साङ्केतिक▁	-10960
साम्यवादी▁	-10961
सिलसिलामा▁	-10962
स्थापनामा▁	-10963
स्मारकहरू▁	-10964
कांग्रेसमा▁	-10965
कार्यालयमा▁	-10966
किसानहरूले▁	-10967
क्रान्तिमा▁	-10968
पत्रकारिता▁	-10969
पदयात्राको▁	-10970
राजमार्गले▁	-10971
समानुपातिक▁	-10972
सेन्टिमिटर▁	-10973
अङ्ग्रेजीमा▁	-10974
ज्ञानेन्द्र▁	-10975
दुर्योधनलाई▁	-10976
पूर्णिमापछि▁	-10977
युधिष्ठिरले▁	-10978
विद्यालयहरू▁	-10979
विमानस्थलमा▁	-10980
उत्तरपूर्वमा▁	-10981
अर्थशास्त्रमा▁	-10982
उपमहानगरपालिका	-10983
राष्ट्रपतिलाई▁	-10984
काभ्रेपलाञ्चोक▁	-10985
अ▁	-10986
चट	-10987
तक	-10988
थै	-10989
मठ	-10990
शव	-10991
०३	-10992
अली	-10993
उता	-10994
एजे	-10995
गनि	-10996
जिब	-10997
ठाउ	-10998
दधि	-10999
दुल	-11000
धमि	-11001
निध	-11002
पंच	-11003
पित	-11004
बोट	-11005
भग्	-11006
भाई	-11007
भैं	-11008
मीर	-11009
म्य	-11010
यहु	-11011
यहू	-11012
यौन	-11013
रोध	-11014
वला	-11015
ष्म	-11016
सरि	-11017
सीम	-11018
हाङ	-11019
हेन	-11020
हैह	-11021
५९▁	-11022
अहमद	-11023
आदर▁	-11024
आर्क	-11025
ईसा▁	-11026
उदेश	-11027
उपर्	-11028
एकाइ	-11029
कन्द	-11030
काले	-11031
कासु	-11032
कुण्	-11033
कुसु	-11034
कोच▁	-11035
क्यो	-11036
गञ्ज	-11037
गभर्	-11038
घात▁	-11039
चका▁	-11040
चासो	-11041
छाला	-11042
छुवा	-11043
जगत्	-11044
जारी	-11045
ज्यू	-11046
ठहर▁	-11047
ठिक▁	-11048
डेढ▁	-11049
द्वय	-11050
नाल▁	-11051
निरु	-11052
फासी	-11053
फैरा	-11054
बच्च	-11055
बजाए	-11056
बम्ब	-11057
भातृ	-11058
भित्	-11059
भूरि	-11060
मागे	-11061
मानी	-11062
मारे	-11063
मिठा	-11064
मेगा	-11065
यां▁	-11066
याम▁	-11067
रिस▁	-11068
लगाउ	-11069
लिस्	-11070
वाह▁	-11071
वेट▁	-11072
वैभव	-11073
शोभा	-11074
समै▁	-11075
सहन▁	-11076
साग▁	-11077
सिले	-11078
सेल▁	-11079
हाे▁	-11080
हुम्	-11081
हृदय	-11082
हैन▁	-11083
होम▁	-11084
अर्का	-11085
आँसु▁	-11086
आकाश▁	-11087
आत्मह	-11088
आदान▁	-11089
आफैँ▁	-11090
उकास्	-11091
उपलव्	-11092
एकेडे	-11093
काटी▁	-11094
किमि▁	-11095
कुकुर	-11096
खतरा▁	-11097
खाएर▁	-11098
खुशी▁	-11099
गरिरह	-11100
गर्भ▁	-11101
गाढा▁	-11102
गाहा▁	-11103
गुडी▁	-11104
घटोत्	-11105
घाटु▁	-11106
चुच्च	-11107
चेतना	-11108
जनमत▁	-11109
जादा▁	-11110
जीर्ण	-11111
जीवी▁	-11112
टोको▁	-11113
तुलसी	-11114
तोके▁	-11115
पठाए▁	-11116
प्रता	-11117
बलका▁	-11118
भाकल▁	-11119
भोलि▁	-11120
मतको▁	-11121
मोक्ष	-11122
यतको▁	-11123
राखे▁	-11124
रुकुम	-11125
रूसी▁	-11126
लगाउँ	-11127
लाग्छ	-11128
लिन्छ	-11129
लोका▁	-11130
लोजी▁	-11131
व्री▁	-11132
षिको▁	-11133
संधि▁	-11134
सङ्का	-11135
समुह▁	-11136
सम्भा	-11137
सल्तन	-11138
साइत▁	-11139
साढे▁	-11140
सुपर▁	-11141
स्टा▁	-11142
स्त्य	-11143
हाँस▁	-11144
हिलो▁	-11145
हुनत▁	-11146
ेच्च▁	-11147
१९११▁	-11148
अक्साइ	-11149
अवशेष▁	-11150
आर्जन▁	-11151
उत्सव▁	-11152
उर्वर▁	-11153
कर्नाट	-11154
कार्बो	-11155
किएका▁	-11156
किमको▁	-11157
कोपार्	-11158
क्षित▁	-11159
खंडको▁	-11160
गराएर▁	-11161
गरीन्छ	-11162
गरेता▁	-11163
ङ्ग्रो	-11164
चाहने▁	-11165
छत्तीस	-11166
छात्र▁	-11167
जानकी▁	-11168
टुप्पो	-11169
ढाँचा▁	-11170
तनहुँ▁	-11171
तिबाट▁	-11172
तैयार▁	-11173
दिनमै▁	-11174
देशकै▁	-11175
द्धको▁	-11176
द्रुत▁	-11177
धारमा▁	-11178
पहिचान	-11179
पोशाक▁	-11180
बन्दछ▁	-11181
बस्नेत	-11182
बुध्द▁	-11183
मालिक▁	-11184
मुकाम▁	-11185
योर्क▁	-11186
रुकुम▁	-11187
लडेको▁	-11188
लाग्यो	-11189
लीबाट▁	-11190
विनाश▁	-11191
साप्ता	-11192
स्कुल▁	-11193
स्थानी	-11194
स्वयम्	-11195
ालक्ष्	-11196
अनुकूल▁	-11197
अवधिका▁	-11198
अहिंसा▁	-11199
आकाशमा▁	-11200
कर्णको▁	-11201
कालागि▁	-11202
कृष्णा▁	-11203
कोटबाट▁	-11204
खानाले▁	-11205
ग्रहमा▁	-11206
चीनलाई▁	-11207
जंगलमा▁	-11208
जसकारण▁	-11209
डियामा▁	-11210
तिथिमा▁	-11211
तिमिले▁	-11212
तेह्रथु	-11213
त्यसपछि	-11214
दक्षिणा	-11215
दायित्व	-11216
दोहोरो▁	-11217
नजरबन्द	-11218
न्तरित▁	-11219
पब्लिक▁	-11220
पर्वका▁	-11221
पिताले▁	-11222
प्रकोप▁	-11223
प्रमूख▁	-11224
फाल्ने▁	-11225
बनाइयो▁	-11226
बाँडफाँ	-11227
बैठकको▁	-11228
भक्तियो	-11229
भण्डारी	-11230
भूमिगत▁	-11231
भूरिश्र	-11232
महावीर▁	-11233
माटोमा▁	-11234
मान्यता	-11235
मितिले▁	-11236
मिश्रण▁	-11237
म्यानमा	-11238
यात्री▁	-11239
लागिरी▁	-11240
लिपपोत▁	-11241
लेखेको▁	-11242
विश्वास	-11243
व्याकरण	-11244
शाहजहाँ	-11245
श्रावण▁	-11246
सन्तोष▁	-11247
स्टेडिय	-11248
हाइड्रो	-11249
अतिरिक्त	-11250
अदालतका▁	-11251
अनुयायी▁	-11252
आवश्यकता	-11253
इस्लामी▁	-11254
कर्ताको▁	-11255
कर्ताले▁	-11256
कर्मचारी	-11257
कविताका▁	-11258
क्लबबाट▁	-11259
गोत्रका▁	-11260
गोवर्धन▁	-11261
चाहन्थे▁	-11262
द्वीपको▁	-11263
धर्मराज▁	-11264
नजिकैको▁	-11265
प्रारम्भ	-11266
बताइन्छ▁	-11267
बाबासाहे	-11268
बैङ्कका▁	-11269
भरतवंशी▁	-11270
महोत्सव▁	-11271
मारिएका▁	-11272
मुसलमान▁	-11273
राखिएका▁	-11274
विसङ्गति	-11275
व्यावहार	-11276
शक्तिका▁	-11277
समग्रमा▁	-11278
हटाइएको▁	-11279
अधिकारमा▁	-11280
गर्दैनन्▁	-11281
गर्नेछन्▁	-11282
जर्मनीमा▁	-11283
जिन्नाले▁	-11284
दिल्लीमा▁	-11285
दुरुपयोग▁	-11286
नबनेसम्म▁	-11287
निरङ्कुश▁	-11288
पुस्तकालय	-11289
प्रतीकको▁	-11290
प्रभावको▁	-11291
प्रयोगले▁	-11292
प्रान्तको	-11293
प्रायजसो▁	-11294
बढिरहेको▁	-11295
बहादुरले▁	-11296
मध्येबाट▁	-11297
राख्दछन्▁	-11298
रामायणमा▁	-11299
वर्गीकृत▁	-11300
व्यङ्ग्य▁	-11301
शम्शेरले▁	-11302
श्रेणीमा▁	-11303
सञ्चारको▁	-11304
सदस्यहरु▁	-11305
सुत्केरी▁	-11306
स्याङ्जा▁	-11307
आर्यघाटमा▁	-11308
कार्यकर्ता	-11309
क्रियाशील▁	-11310
धृतरास्ट्र	-11311
निकुञ्जको▁	-11312
निकुञ्जमा▁	-11313
पहिलेदेखि▁	-11314
पुर्याएका▁	-11315
बूढानीलकण्	-11316
माइक्रोसफ्	-11317
मानिन्छन्▁	-11318
राजोपाध्या	-11319
राष्ट्रमा▁	-11320
रुपान्तरण▁	-11321
लेखापरीक्ष	-11322
विद्यार्थी	-11323
संविधानले▁	-11324
संवेदनशील▁	-11325
सङ्घर्षको▁	-11326
समुन्द्री▁	-11327
सर्वाेच्च▁	-11328
स्थायित्व▁	-11329
हातहतियार▁	-11330
अभिमन्युको▁	-11331
उद्देश्यका▁	-11332
खानेपानीको▁	-11333
गोपनीयताको▁	-11334
चलचित्रहरू▁	-11335
दुर्घटनामा▁	-11336
प्रवर्द्धन▁	-11337
प्राप्तिको▁	-11338
मध्यवर्गीय▁	-11339
राष्ट्रहरू▁	-11340
सम्बन्धलाई▁	-11341
सैनिकहरूको▁	-11342
हुनुहुन्थ्यो	-11343
गाउँपालिकाको▁	-11344
धृतरास्ट्रका▁	-11345
राष्ट्रप्रमुख	-11346
सिन्धुपाल्चोक▁	-11347
कार्यक्रमहरूको▁	-11348
रेस्टुरेन्टहरू▁	-11349
सम्बन्धीहरूलाई▁	-11350
प्रधानमन्त्रीथिए	-11351
खड	-11352
डट	-11353
नस	-11354
वत	-11355
अङ्	-11356
आजा	-11357
उमा	-11358
एलि	-11359
कोख	-11360
कौट	-11361
खटा	-11362
गजे	-11363
गोड	-11364
घटा	-11365
घुँ	-11366
चां	-11367
च्य	-11368
जरू	-11369
तिल	-11370
दाइ	-11371
धरह	-11372
नचि	-11373
नाघ	-11374
निश	-11375
पख▁	-11376
पटे	-11377
बाढ	-11378
बुल	-11379
भएर	-11380
यदु	-11381
रही	-11382
लठ्	-11383
वहा	-11384
वाग	-11385
विद	-11386
वेग	-11387
शूर	-11388
साग	-11389
ौपा	-11390
्न्	-11391
अर्ग	-11392
असफल	-11393
इनार	-11394
ईने▁	-11395
उडान	-11396
कथन▁	-11397
कलम▁	-11398
कामा	-11399
काल्	-11400
खानी	-11401
खेले	-11402
खोले	-11403
चोट▁	-11404
चौला	-11405
छत्र	-11406
छुत▁	-11407
जाने	-11408
जेने	-11409
टीका	-11410
ट्टा	-11411
डुबा	-11412
थुम्	-11413
दाना	-11414
दीप▁	-11415
दोभा	-11416
द्व▁	-11417
नमस्	-11418
नली▁	-11419
नां▁	-11420
पहिर	-11421
प्यू	-11422
बरी▁	-11423
बाग▁	-11424
बारी	-11425
बाल्	-11426
भाले	-11427
भुत्	-11428
मता▁	-11429
मधेश	-11430
महा▁	-11431
माणि	-11432
मामा	-11433
मीन▁	-11434
मोडे	-11435
यदी▁	-11436
रसाय	-11437
रहि▁	-11438
लगी▁	-11439
लामि	-11440
लामो	-11441
लिया	-11442
लुगा	-11443
विला	-11444
शान▁	-11445
शालि	-11446
शीर▁	-11447
षष्ठ	-11448
सति▁	-11449
सुनु	-11450
स्मा	-11451
स्यौ	-11452
हाहा	-11453
ाउन▁	-11454
िल्य	-11455
ेरा▁	-11456
ेसन▁	-11457
अण्डा	-11458
आरती▁	-11459
कमला▁	-11460
गौरव▁	-11461
ङ्गत▁	-11462
चीनको	-11463
छाना▁	-11464
जयपुर	-11465
ज्ने▁	-11466
टिको▁	-11467
टिप्प	-11468
दबाब▁	-11469
दाले▁	-11470
दृष्य	-11471
धनको▁	-11472
धारणा	-11473
धिमा▁	-11474
निगरा	-11475
निरूप	-11476
न्ता▁	-11477
न्यू▁	-11478
पत्य▁	-11479
परिषद	-11480
पामा▁	-11481
फर्का	-11482
बार्स	-11483
बिष्ण	-11484
मधेश▁	-11485
मुटु▁	-11486
मुनी▁	-11487
मोटो▁	-11488
योगी▁	-11489
रङको▁	-11490
राजन▁	-11491
रावण▁	-11492
रुपी▁	-11493
रेको▁	-11494
लोगो▁	-11495
ल्याइ	-11496
वरपर▁	-11497
वाद्य	-11498
वैद्य	-11499
शङ्ख▁	-11500
ष्ठा▁	-11501
संसद्	-11502
सचेत▁	-11503
ससुरा	-11504
सहाय▁	-11505
सानै▁	-11506
सालको	-11507
हप्ता	-11508
होचो▁	-11509
होरा▁	-11510
१९२९▁	-11511
१९३५▁	-11512
२०५०▁	-11513
आकृति▁	-11514
इस्लाम	-11515
उल्टो▁	-11516
एंगेल्	-11517
काट्न▁	-11518
कार्की	-11519
कुकुर▁	-11520
क्याथो	-11521
खेलकुद	-11522
गुराँस	-11523
घरबाट▁	-11524
घाँटी▁	-11525
चर्को▁	-11526
चाँडो▁	-11527
च्याउ▁	-11528
जानकार	-11529
ज्वाला	-11530
ञ्चित▁	-11531
टेस्ट▁	-11532
डाबाट▁	-11533
धनुषा▁	-11534
नगर्नु	-11535
नजरुल▁	-11536
नागको▁	-11537
निएका▁	-11538
नोबेल▁	-11539
न्नति▁	-11540
न्यौपा	-11541
पराजय▁	-11542
प्रतीक	-11543
फाल्गु	-11544
बनाउँछ	-11545
बस्नु▁	-11546
बाहुन▁	-11547
बोल्न▁	-11548
भिवेट▁	-11549
महाकवि	-11550
मिलाई▁	-11551
म्भमा▁	-11552
रेलको▁	-11553
लाउने▁	-11554
वाल्मी	-11555
विस्फो	-11556
शिरमा▁	-11557
सुदूर▁	-11558
सेडिङ▁	-11559
स्ट्रि	-11560
स्वचाल	-11561
हाकिम▁	-11562
हिउँद▁	-11563
आयुर्वे	-11564
उनुपर्छ	-11565
उपधारा▁	-11566
उहाँका▁	-11567
कन्काई▁	-11568
कामहरू▁	-11569
कीर्ति▁	-11570
क्रिकेट	-11571
क्वयेर▁	-11572
खेल्दै▁	-11573
खोज्ने▁	-11574
गर्छिन्	-11575
गीतकार▁	-11576
गीर्वाण	-11577
जडिबुटी	-11578
जनजाति▁	-11579
जातीको▁	-11580
ढोकाको▁	-11581
ढोकामा▁	-11582
त्रैलोक	-11583
दिनपछि▁	-11584
दिवसीय▁	-11585
नजिकका▁	-11586
नसकिने▁	-11587
पटनामा▁	-11588
पुग्दछ▁	-11589
पेशामा▁	-11590
प्रमाणी	-11591
बनाइन्छ	-11592
बाँधेर▁	-11593
बेग्लै▁	-11594
भट्टको▁	-11595
भाइहरू▁	-11596
भागहरू▁	-11597
मनमोहक▁	-11598
मिलेको▁	-11599
म्बरमा▁	-11600
यात्मक▁	-11601
युनिभर्	-11602
विषालु▁	-11603
शीर्षक▁	-11604
सरकारले	-11605
सुकेको▁	-11606
सुभद्रा	-11607
स्वभाव▁	-11608
हरूबीच▁	-11609
अरुणाचल▁	-11610
अर्काको▁	-11611
उपलब्धी▁	-11612
कुण्डमा▁	-11613
खुवाइन्छ	-11614
गर्नबाट▁	-11615
चार्यको▁	-11616
छुटकारा▁	-11617
जङ्गलमा▁	-11618
टेलिफोन▁	-11619
द्वारको▁	-11620
निकालेर▁	-11621
निर्देशन	-11622
न्यायको▁	-11623
पट्टीको▁	-11624
प्रज्ञा▁	-11625
प्रतिमा▁	-11626
फौजदारी▁	-11627
बार्सिलो	-11628
ब्यक्ति▁	-11629
मंगलबार▁	-11630
राजशाही▁	-11631
विसर्जन▁	-11632
शाखाहरू▁	-11633
शितोष्ण▁	-11634
सेनाहरू▁	-11635
स्रोतको▁	-11636
ारखंडको▁	-11637
अध्ययनको▁	-11638
अनुमानित▁	-11639
अभिमन्यु▁	-11640
एकादशीको▁	-11641
कम्पनीका▁	-11642
कविताहरू▁	-11643
कीर्तिपुर	-11644
कुमारीको▁	-11645
तामाकोशी▁	-11646
दिइरहेका▁	-11647
परियोजना▁	-11648
प्रवृत्ति	-11649
बेलायतले▁	-11650
मध्यमाञ्च	-11651
मनोकामना▁	-11652
मनोरञ्जन▁	-11653
वरिपरिको▁	-11654
विकासशील▁	-11655
वृद्धिको▁	-11656
वैकल्पिक▁	-11657
संगीतकार▁	-11658
सांसारिक▁	-11659
स्तनधारी▁	-11660
स्वायत्त▁	-11661
अन्नपूर्ण▁	-11662
उपर्युक्त▁	-11663
जीविकोपार्	-11664
ताप्लेजुङ▁	-11665
थाइल्याण्ड	-11666
देवकोटाको▁	-11667
निर्वासित▁	-11668
पृष्ठभूमि▁	-11669
प्रकाशनमा▁	-11670
प्रादेशिक▁	-11671
मुद्रास्फी	-11672
राजकुमारी▁	-11673
राधाकृष्ण▁	-11674
रामचन्द्र▁	-11675
सम्पर्कमा▁	-11676
सम्बन्धको▁	-11677
सम्मेलनमा▁	-11678
सुपुत्रका▁	-11679
हरियाणाको▁	-11680
ह्याभिवेट▁	-11681
कल्याणकारी▁	-11682
क्रान्तिकार	-11683
क्रिस्चियन▁	-11684
टेलिभिजनको▁	-11685
तत्पश्चात्▁	-11686
परिवर्तनको▁	-11687
पूर्णरूपमा▁	-11688
प्रशिक्षित▁	-11689
प्राप्तिका▁	-11690
मस्तिष्कमा▁	-11691
संविधानसभा▁	-11692
सदस्यहरूले▁	-11693
अन्धविश्वास▁	-11694
कम्प्युटरको▁	-11695
न्यायाधीशले▁	-11696
पश्चिमाञ्चल▁	-11697
श्रीलङ्कामा▁	-11698
हरूकोगोत्रहो	-11699
उपमहाद्वीपमा▁	-11700
प्रतियोगितामा	-11701
मुसलमानहरूको▁	-11702
राष्ट्रहरूले▁	-11703
सिन्धुपाल्चोक	-11704
हुनुहुन्थ्यो▁	-11705
अङ्ग्रेजहरूको▁	-11706
अर्थशास्त्रको▁	-11707
मन्त्रिपरिषद्▁	-11708
उपमहानगरपालिका▁	-11709
गई	-11710
हन	-11711
असा	-11712
आठप	-11713
ईन▁	-11714
उछ▁	-11715
उडि	-11716
उसै	-11717
एला	-11718
कण▁	-11719
कपा	-11720
कोण	-11721
खे▁	-11722
गमन	-11723
घुम	-11724
जगद	-11725
टक▁	-11726
दं▁	-11727
दमन	-11728
नव▁	-11729
पट▁	-11730
पो▁	-11731
भक्	-11732
भरी	-11733
मरण	-11734
महल	-11735
यत्	-11736
रमा	-11737
र्क	-11738
वसो	-11739
विध	-11740
शंख	-11741
समर	-11742
सुँ	-11743
हक्	-11744
हवे	-11745
ंकार	-11746
अमाव	-11747
कच्च	-11748
काज▁	-11749
काटि	-11750
कोड▁	-11751
कोण▁	-11752
क्लो	-11753
खुम्	-11754
घुइँ	-11755
जनै▁	-11756
जरी▁	-11757
जोडी	-11758
जोसे	-11759
टेक्	-11760
ठमेल	-11761
डडेल	-11762
डुब्	-11763
ढ्या	-11764
तम्▁	-11765
तातो	-11766
तीक▁	-11767
तृप्	-11768
नाता	-11769
पाट▁	-11770
पिठो	-11771
फिक▁	-11772
बसाल	-11773
बाधा	-11774
बेच▁	-11775
भुजा	-11776
भृगु	-11777
भेट्	-11778
भैरह	-11779
मकतू	-11780
मन्थ	-11781
मन्न	-11782
माधव	-11783
मुग्	-11784
मुहा	-11785
म्यु	-11786
राजप	-11787
रेश▁	-11788
रोह▁	-11789
र्स▁	-11790
वरो▁	-11791
विर्	-11792
शेयर	-11793
संघ▁	-11794
सन्थ	-11795
साम्	-11796
सेट▁	-11797
स्टी	-11798
स्थू	-11799
हरिश	-11800
हात्	-11801
हुदै	-11802
अजिमा	-11803
अथर्व	-11804
अर्ब▁	-11805
आत्मा	-11806
आपसी▁	-11807
एन्ड▁	-11808
करार▁	-11809
कैलाश	-11810
खम्बा	-11811
खरीद▁	-11812
गरेन▁	-11813
गोलो▁	-11814
ङ्की▁	-11815
चाँगु	-11816
जङ्गल	-11817
जलमा▁	-11818
ट्टी▁	-11819
ठाकुर	-11820
डबाट▁	-11821
डेब्य	-11822
ढिपी▁	-11823
त्से▁	-11824
थरको▁	-11825
थारु▁	-11826
थियोे	-11827
दाहाल	-11828
नग्रा	-11829
पत्थर	-11830
फाइदा	-11831
फाले▁	-11832
बद्री	-11833
बन्धु	-11834
बाजी▁	-11835
बुढा▁	-11836
भौतिक	-11837
मग्न▁	-11838
मनसा▁	-11839
मस्यौ	-11840
महरु▁	-11841
युक्त	-11842
रमेश▁	-11843
राती▁	-11844
रिन्छ	-11845
लड्न▁	-11846
ललित▁	-11847
लुतो▁	-11848
शल्य▁	-11849
सनीय▁	-11850
सायद▁	-11851
सुत्र	-11852
सुयोग	-11853
सेयर▁	-11854
१९३९▁	-11855
२०३०▁	-11856
अन्तरा	-11857
अवश्य▁	-11858
आख्यान	-11859
उल्लङ्	-11860
कामदार	-11861
कारमा▁	-11862
कुलको▁	-11863
क्याना	-11864
गतिको▁	-11865
गर्दैन	-11866
गर्नेछ	-11867
गुलाम▁	-11868
चौदण्ड	-11869
छोड्न▁	-11870
जुम्ला	-11871
जेष्ठ▁	-11872
ट्रिक▁	-11873
ताँदो▁	-11874
त्मकता	-11875
दर्शक▁	-11876
दिनका▁	-11877
नमुना▁	-11878
नसकेर▁	-11879
निकाल्	-11880
न्तमा▁	-11881
न्समा▁	-11882
पंक्ति	-11883
पठाउन▁	-11884
परिवेश	-11885
पेटको▁	-11886
फ्रेन्	-11887
बढ्यो▁	-11888
बाँदर▁	-11889
बुल्ला	-11890
भनियो▁	-11891
मनलाई▁	-11892
मरेका▁	-11893
माणिक▁	-11894
मिल्न▁	-11895
योगको▁	-11896
रगतको▁	-11897
रहन्न▁	-11898
रातको▁	-11899
रेखदेख	-11900
लिनको▁	-11901
वलोकन▁	-11902
वानमा▁	-11903
विश्रा	-11904
सडकमा▁	-11905
सन्धी▁	-11906
सम्भाव	-11907
साँच्च	-11908
स्टिक▁	-11909
हितको▁	-11910
हिसाब▁	-11911
ारोपण▁	-11912
अन्यथा▁	-11913
अपेक्षा	-11914
अमान्य▁	-11915
उच्चतम▁	-11916
उन्नति▁	-11917
उपलव्ध▁	-11918
काहारी▁	-11919
किनबेच▁	-11920
किम्वु▁	-11921
कोलेस्ट	-11922
खुलेका▁	-11923
खोजीमा▁	-11924
घुइँचो▁	-11925
चराचुरु	-11926
जमिनको▁	-11927
जोडेको▁	-11928
तोकेको▁	-11929
त्मकता▁	-11930
देखाएर▁	-11931
देख्दा▁	-11932
नदिहरू▁	-11933
नदीलाई▁	-11934
निगमको▁	-11935
नैदेखि▁	-11936
न्तरमा▁	-11937
पठाउने▁	-11938
परास्त▁	-11939
परिस्थि	-11940
पुरबाट▁	-11941
प्रतिभा	-11942
फुल्ने▁	-11943
बक्सिङ▁	-11944
बाङ्गो▁	-11945
बाराही▁	-11946
बिन्दु▁	-11947
बेलुका▁	-11948
बेल्जिय	-11949
मङ्सिर▁	-11950
मारारा▁	-11951
रोप्ने▁	-11952
रोल्पा▁	-11953
लक्षित▁	-11954
लगाइने▁	-11955
लम्बाइ▁	-11956
लविकास▁	-11957
वरपरका▁	-11958
वास्ता▁	-11959
विपरित▁	-11960
विशेषता	-11961
सम्शेर▁	-11962
सिनेमा▁	-11963
सुचारु▁	-11964
स्टेशन▁	-11965
स्वदेश▁	-11966
हरुबीच▁	-11967
अफ्रिकी▁	-11968
अश्वत्था	-11969
इरानेली▁	-11970
उच्चारण▁	-11971
कलेजबाट▁	-11972
चिनाउने▁	-11973
जनात्मक▁	-11974
जन्मजात▁	-11975
ज्योतिर्	-11976
टाढाबाट▁	-11977
डाँडामा▁	-11978
तत्कालिन	-11979
तारिखका▁	-11980
तीमध्ये▁	-11981
दयानन्द▁	-11982
दिनदेखि▁	-11983
देवताका▁	-11984
नियमहरू▁	-11985
नेपालतथा	-11986
पत्नीको▁	-11987
पर्यटकीय	-11988
पाइँदैन▁	-11989
पुतनाको▁	-11990
पुत्रको▁	-11991
पृष्ठको▁	-11992
प्रशाको▁	-11993
बोलाउने▁	-11994
मनकामना▁	-11995
महाद्वीप	-11996
मोहम्मद▁	-11997
ल्याटिन▁	-11998
विपक्षी▁	-11999
विवादमा▁	-12000
विवादित▁	-12001
विश्वभर▁	-12002
सदस्यले▁	-12003
साधनहरू▁	-12004
आधुनिकता▁	-12005
उपभोक्ता▁	-12006
उपाध्याय▁	-12007
कम्पनीमा▁	-12008
गरेतापनि▁	-12009
चन्द्रमा▁	-12010
जनावरहरू▁	-12011
जर्मनीले▁	-12012
तरकारीको▁	-12013
त्यतिखेर▁	-12014
देशहरूले▁	-12015
निजहरूले▁	-12016
पुग्दछन्▁	-12017
प्रतिदिन▁	-12018
प्रवर्तक▁	-12019
प्रहरीको▁	-12020
बलरामलाई▁	-12021
भूकम्पले▁	-12022
माध्यमको▁	-12023
यात्रामा▁	-12024
युवावस्था	-12025
विचारधारा	-12026
विचारलाई▁	-12027
विज्ञापन▁	-12028
विदेशबाट▁	-12029
विद्याको▁	-12030
विराजमान▁	-12031
विशेषज्ञ▁	-12032
श्रीखण्ड▁	-12033
सङ्गीतमा▁	-12034
सुसज्जित▁	-12035
स्वर्गमा▁	-12036
हुनुभएको▁	-12037
अधिकारीको▁	-12038
अधिकारीले▁	-12039
आन्दोलनका▁	-12040
इन्जिनियर▁	-12041
इन्द्रलाई▁	-12042
उपन्यासको▁	-12043
केन्द्रमा▁	-12044
जलविद्युत▁	-12045
त्यत्तिकै▁	-12046
त्यसमध्ये▁	-12047
दक्षिणतिर▁	-12048
दार्जिलिङ▁	-12049
पार्वतीको▁	-12050
पाहुनालाई▁	-12051
प्रयोजनका▁	-12052
फ्रान्सेली	-12053
बालबालिका▁	-12054
बेरोजगारी▁	-12055
भट्टराईले▁	-12056
मध्ययुगीन▁	-12057
महारानीले▁	-12058
रचनाहरूको▁	-12059
संस्कारमा▁	-12060
संस्थानको▁	-12061
सम्हाल्नु▁	-12062
सिक्किममा▁	-12063
अत्याधुनिक▁	-12064
अन्तर्गतका▁	-12065
अपेक्षाकृत▁	-12066
अस्पतालहरू▁	-12067
आयुर्वेदको▁	-12068
आयुर्वेदिक▁	-12069
काठमाडौंको▁	-12070
कार्यालयले▁	-12071
क्याम्पसको▁	-12072
नारायणहिटी▁	-12073
नियन्त्रित▁	-12074
प्रगतिवादी▁	-12075
प्रोत्साहन▁	-12076
मानिसहरूमा▁	-12077
आवश्यकतालाई▁	-12078
जंगबहादुरको▁	-12079
त्रिपुरेश्वर	-12080
क्षेत्रहरूको▁	-12081
धृतराष्ट्रको▁	-12082
राजारणबहादुर▁	-12083
स्वर्गद्वारी▁	-12084
कार्यपालिकाको▁	-12085
विद्यार्थीहरू▁	-12086
प्रतिद्वन्द्वी▁	-12087
उपप्रधानमन्त्री▁	-12088
ंज	-12089
चं	-12090
रक	-12091
०१	-12092
अपद	-12093
आँप	-12094
आषा	-12095
उभि	-12096
एलो	-12097
किल	-12098
खिच	-12099
गरू	-12100
चाइ	-12101
छठ▁	-12102
छि▁	-12103
छे▁	-12104
जरि	-12105
ज्र	-12106
ठान	-12107
डार	-12108
तता	-12109
तवर	-12110
थल▁	-12111
नक▁	-12112
नमू	-12113
पहु	-12114
पिप	-12115
फुल	-12116
बक्	-12117
बाक	-12118
मां	-12119
मेद	-12120
मो▁	-12121
रिस	-12122
रोल	-12123
र्ट	-12124
लक्	-12125
लब्	-12126
लाङ	-12127
शाल	-12128
षध▁	-12129
सरे	-12130
ेर्	-12131
अचल▁	-12132
अपरे	-12133
अौँ▁	-12134
आउट▁	-12135
आदान	-12136
इङ्ग	-12137
उपज▁	-12138
गाँउ	-12139
गाईं	-12140
गाडी	-12141
गोठा	-12142
घोडे	-12143
चामु	-12144
चिसो	-12145
जुधा	-12146
टेली	-12147
डका▁	-12148
तनाव	-12149
तहट▁	-12150
थिइन	-12151
दिवस	-12152
दुला	-12153
द्वै	-12154
निषे	-12155
न्तो	-12156
पंचा	-12157
पारे	-12158
फुट्	-12159
बिना	-12160
भएछ▁	-12161
भन्छ	-12162
भरण▁	-12163
भरत▁	-12164
मकर▁	-12165
मजबु	-12166
मारी	-12167
मिनि	-12168
मुसो	-12169
म्पो	-12170
राजि	-12171
रुवा	-12172
रेली	-12173
रोका	-12174
र्ना	-12175
र्षा	-12176
लण्ड	-12177
लेट▁	-12178
वल्ल	-12179
वाङ▁	-12180
वाणी	-12181
शिया	-12182
सँगै	-12183
सगै▁	-12184
सहिद	-12185
सिग्	-12186
सुम्	-12187
स्का	-12188
स्थी	-12189
हिम▁	-12190
ेरो▁	-12191
अगुवा	-12192
अद्या	-12193
आक्रा	-12194
एफसी▁	-12195
कक्षा	-12196
कचुर▁	-12197
कण्ठ▁	-12198
कानून	-12199
क्रो▁	-12200
खानु▁	-12201
गार्ह	-12202
गाविस	-12203
गौरी▁	-12204
ग्रहण	-12205
चलाख▁	-12206
चाको▁	-12207
चालक▁	-12208
चिठी▁	-12209
चेको▁	-12210
जिन्द	-12211
जीवाण	-12212
जुमा▁	-12213
जैसी▁	-12214
तुको▁	-12215
दन्ती	-12216
दायाँ	-12217
निकल▁	-12218
नुको▁	-12219
पदका▁	-12220
परमान	-12221
पराजु	-12222
परिमा	-12223
पहाडी	-12224
पीको▁	-12225
प्रज्	-12226
प्राइ	-12227
फाँट▁	-12228
बदला▁	-12229
बनाइए	-12230
बर्मा	-12231
बहावल	-12232
बिदा▁	-12233
बियन▁	-12234
बिष्ट	-12235
बिसं▁	-12236
भरको▁	-12237
भोटे▁	-12238
मराठी	-12239
मलामी	-12240
महाले	-12241
मार्फ	-12242
यमराज	-12243
ल्याए	-12244
वासन▁	-12245
वित्त	-12246
विरोध	-12247
वेला▁	-12248
शब्दा	-12249
शिशु▁	-12250
साटो▁	-12251
हाली▁	-12252
हुदा▁	-12253
ियाँ▁	-12254
१९५९▁	-12255
५०००▁	-12256
अनुमति	-12257
अनेकौ▁	-12258
आवद्ध▁	-12259
एसियन▁	-12260
कथानक▁	-12261
कल्पना	-12262
कार्ति	-12263
कुँवर▁	-12264
कुलीन▁	-12265
केदार▁	-12266
क्यारो	-12267
क्रिश्	-12268
गाइने▁	-12269
गिकरण▁	-12270
घाटको▁	-12271
चन्दन▁	-12272
चिकृत▁	-12273
चिडिया	-12274
चोरेर▁	-12275
जम्मू▁	-12276
जरूरी▁	-12277
जागरण▁	-12278
जीर्णो	-12279
जेठमा▁	-12280
टप्पु▁	-12281
ट्याग▁	-12282
ठानेर▁	-12283
डुबुल्	-12284
डेभिड▁	-12285
तलेजु▁	-12286
दार्जी	-12287
नदिने▁	-12288
नन्दन▁	-12289
नाथले▁	-12290
निर्या	-12291
नुपर्छ	-12292
नेटवर्	-12293
पकाएर▁	-12294
पालको▁	-12295
प्राणि	-12296
प्रिया	-12297
प्रेत▁	-12298
बढुवा▁	-12299
बन्यो▁	-12300
बिरालो	-12301
भाषाहो	-12302
भोग्न▁	-12303
मागेर▁	-12304
माथेमा	-12305
यमुना▁	-12306
यसैको▁	-12307
रेस्लि	-12308
लाग्ने	-12309
वंशले▁	-12310
वासमा▁	-12311
विभाजन	-12312
विरोधी	-12313
विषयक▁	-12314
वृन्दा	-12315
वेस्ट▁	-12316
व्याक्	-12317
श्राप▁	-12318
षधिको▁	-12319
समयमै▁	-12320
साइबर▁	-12321
स्वेज▁	-12322
हातको▁	-12323
ालयमा▁	-12324
अब्दुल▁	-12325
अभिन्न▁	-12326
असम्भव▁	-12327
असहयोग▁	-12328
आँखामा▁	-12329
इरहेको▁	-12330
इसकेको▁	-12331
कुनामा▁	-12332
क्षणमा▁	-12333
खानामा▁	-12334
गराइन्छ	-12335
गुठीको▁	-12336
गृहस्थ▁	-12337
चतुर्दश	-12338
चलाएको▁	-12339
जनाउँदछ	-12340
जन्ममा▁	-12341
जाजरकोट	-12342
जिन्ना▁	-12343
जिब्रो▁	-12344
डेब्यु▁	-12345
ढुवानी▁	-12346
तराईका▁	-12347
तराईको▁	-12348
दनुवार▁	-12349
देखिको▁	-12350
द्धारा▁	-12351
नदीबाट▁	-12352
नरहेको▁	-12353
नवरात्र	-12354
नातेदार	-12355
निन्दा▁	-12356
नेताका▁	-12357
पक्षका▁	-12358
पराउने▁	-12359
पसलहरू▁	-12360
पाइँदैन	-12361
पोर्चुग	-12362
बस्छन्▁	-12363
बाँसको▁	-12364
बारेका▁	-12365
बिषालु▁	-12366
बेइजिङ▁	-12367
भइरहने▁	-12368
भक्तको▁	-12369
भट्टले▁	-12370
भित्ता▁	-12371
भिमसेन▁	-12372
मनोनीत▁	-12373
महाकवि▁	-12374
महायान▁	-12375
मारेको▁	-12376
मुस्ताङ	-12377
यथावत्▁	-12378
राशिमा▁	-12379
रुक्मिण	-12380
रोक्ने▁	-12381
रोगबाट▁	-12382
वाराही▁	-12383
शुरुमा▁	-12384
सप्तरी▁	-12385
सिंहका▁	-12386
सिन्धु▁	-12387
स्तम्भ▁	-12388
हरुबाट▁	-12389
हातबाट▁	-12390
हुन्थे▁	-12391
इत्यादी▁	-12392
इन्दिरा▁	-12393
उत्पत्ति	-12394
उन्मूलन▁	-12395
किसिमले▁	-12396
कृत्रिम▁	-12397
गतिविधि▁	-12398
गरिएपछि▁	-12399
गाउँहरू▁	-12400
गुणस्तर▁	-12401
गेश्वरी▁	-12402
ग्रहहरू▁	-12403
चाहिन्छ▁	-12404
जनार्दन▁	-12405
जाजरकोट▁	-12406
डाउनलोड▁	-12407
नमस्कार▁	-12408
नियमावली	-12409
परिष्कार	-12410
पार्श्व▁	-12411
प्रत्यक▁	-12412
फेब्रुअर	-12413
बकुल्ला▁	-12414
ब्राहृमण	-12415
भक्तिमा▁	-12416
भूमिलाई▁	-12417
मोतीलाल▁	-12418
ल्याण्ड▁	-12419
वंशावली▁	-12420
वाग्मती▁	-12421
शिलालेख▁	-12422
संसारकै▁	-12423
सिंहासन▁	-12424
हत्यारा▁	-12425
ईसापूर्व▁	-12426
उल्लिखित▁	-12427
कथाहरूमा▁	-12428
किल्लामा▁	-12429
कोरियाको▁	-12430
क्षमताको▁	-12431
गरिसकेको▁	-12432
गोर्खाली▁	-12433
च्याउहरू▁	-12434
ज्ञानलाई▁	-12435
टुप्पोमा▁	-12436
दर्शनार्थ	-12437
दुर्योधन▁	-12438
देखाइएको▁	-12439
नेपोलियन▁	-12440
परमात्मा▁	-12441
परमेश्वर▁	-12442
पर्यटकिय▁	-12443
प्रतिबद्ध	-12444
प्रहरीले▁	-12445
माध्यमले▁	-12446
मानदेवले▁	-12447
मुख्तियार	-12448
रामायणको▁	-12449
विरुवाको▁	-12450
सुगन्धित▁	-12451
सुरुवाती▁	-12452
सूचीबद्ध▁	-12453
सूर्यबाट▁	-12454
कीर्तिपुर▁	-12455
गोरखापत्र▁	-12456
जातिहरूको▁	-12457
निर्माणका▁	-12458
पाठ्यक्रम▁	-12459
भक्तजनहरू▁	-12460
यातायातका▁	-12461
रक्षात्मक▁	-12462
राजनीतिज्ञ	-12463
राष्ट्रले▁	-12464
वातावरणमा▁	-12465
विज्ञानमा▁	-12466
विनाशकारी▁	-12467
व्यवहारमा▁	-12468
आन्दोलनलाई▁	-12469
कहिलेकाँही▁	-12470
कालीगण्डकी▁	-12471
क्रियाकलाप▁	-12472
गान्धारीको▁	-12473
चाडपर्वहरू▁	-12474
टेलिभिजनले▁	-12475
परम्परालाई▁	-12476
प्रयोगवादी▁	-12477
मकवानपुरमा▁	-12478
महाकाव्यका▁	-12479
राजमार्गको▁	-12480
वस्तुहरूको▁	-12481
संस्कृतिमा▁	-12482
सक्नुहुन्छ▁	-12483
आफन्तहरूलाई▁	-12484
पाण्डवहरूको▁	-12485
प्रतिबन्धित▁	-12486
रेजिमेन्टको▁	-12487
संस्थाहरूको▁	-12488
संस्थाहरूमा▁	-12489
नगरपालिकाहरू▁	-12490
सङ्ग्रहालयमा▁	-12491
ज्ञानेन्द्रले▁	-12492
प्रकारकोचराको▁	-12493
अङ	-12494
अश	-12495
आक	-12496
उा	-12497
खू	-12498
गम	-12499
छी	-12500
डम	-12501
नल	-12502
िँ	-12503
आइस	-12504
उठ▁	-12505
एम्	-12506
एवं	-12507
कीट	-12508
कुं	-12509
गलै	-12510
जता	-12511
जस्	-12512
टम▁	-12513
टया	-12514
तं▁	-12515
तोड	-12516
धरण	-12517
नम्	-12518
नसु	-12519
नाई	-12520
पछी	-12521
परो	-12522
पुछ	-12523
भिक	-12524
मक्	-12525
मनी	-12526
मेन	-12527
रता	-12528
लस▁	-12529
लोभ	-12530
शर▁	-12531
साव	-12532
हट▁	-12533
हाथ	-12534
िली	-12535
्ँ▁	-12536
०३▁	-12537
ँठी▁	-12538
ँमा▁	-12539
अटल▁	-12540
इंग्	-12541
उनको	-12542
उष्ण	-12543
कसै▁	-12544
कामि	-12545
केने	-12546
खपत▁	-12547
खप्त	-12548
खर्च	-12549
गया▁	-12550
ङ्गि	-12551
चाहे	-12552
जाँच	-12553
ट्रफ	-12554
तयार	-12555
तिमी	-12556
तुम्	-12557
दम्प	-12558
दिक्	-12559
दिग्	-12560
दीन▁	-12561
धनञ्	-12562
धुलि	-12563
धुवा	-12564
ध्र▁	-12565
नजङ्	-12566
नारद	-12567
निधन	-12568
न्डे	-12569
परिव	-12570
पशु▁	-12571
पाका	-12572
पाक्	-12573
पाद▁	-12574
पुण▁	-12575
प्रव	-12576
फ्ट▁	-12577
बर्त	-12578
बहु▁	-12579
बाेल	-12580
भेडा	-12581
मापे	-12582
मिहि	-12583
मीक▁	-12584
मुरा	-12585
मोटा	-12586
मोड▁	-12587
मौलि	-12588
यसको	-12589
याहु	-12590
युथ▁	-12591
योनि	-12592
राइ▁	-12593
रैथा	-12594
लेखन	-12595
विदु	-12596
श्मि	-12597
संके	-12598
सलाई	-12599
सीर▁	-12600
सुवा	-12601
सोमे	-12602
स्रे	-12603
हतार	-12604
हर्ष	-12605
हवाई	-12606
हालै	-12607
ह्वा	-12608
ादैन	-12609
ुका▁	-12610
ेेेे	-12611
ैमा▁	-12612
अभिधा	-12613
असुल▁	-12614
आधुनि	-12615
ईतिहा	-12616
एकको▁	-12617
एकता▁	-12618
कपालि	-12619
कमण्ड	-12620
कम्बो	-12621
कल्प▁	-12622
कहीँ▁	-12623
कीमा▁	-12624
कुरो▁	-12625
कृतिक	-12626
खामा▁	-12627
गन्ध▁	-12628
गरिने	-12629
गिराव	-12630
चर्च▁	-12631
चिनी▁	-12632
चीको▁	-12633
च्छे▁	-12634
छठको▁	-12635
छिन्न	-12636
छोटा▁	-12637
जवान▁	-12638
जिते▁	-12639
जिला▁	-12640
ञ्चल▁	-12641
टाका▁	-12642
टिकल▁	-12643
तटीय▁	-12644
तलको▁	-12645
ताम्र	-12646
ध्रुव	-12647
नवाब▁	-12648
नुले▁	-12649
न्तरण	-12650
पठाउँ	-12651
बंगला	-12652
बन्दछ	-12653
बन्दे	-12654
बर्ग▁	-12655
बलले▁	-12656
बापत▁	-12657
बाला▁	-12658
बोलाई	-12659
ब्बा▁	-12660
भाषण▁	-12661
भीष्म	-12662
मंगोल	-12663
मधुसू	-12664
मीठो▁	-12665
रोटी▁	-12666
रोधी▁	-12667
लक्षण	-12668
लिकप्	-12669
लिङ्क	-12670
वाराण	-12671
विदा▁	-12672
शंकरा	-12673
शिला▁	-12674
ष्टी▁	-12675
सम्या	-12676
सिँह▁	-12677
सिंगा	-12678
सिजन▁	-12679
सिधै▁	-12680
हरको▁	-12681
हुदैन	-12682
२५००▁	-12683
३०००▁	-12684
आयुक्त	-12685
उपभोक्	-12686
एक्लो▁	-12687
किराँत	-12688
कीकरण▁	-12689
कुष्मा	-12690
कोर्षा	-12691
कोषमा▁	-12692
खाँदा▁	-12693
खाएमा▁	-12694
खुट्कि	-12695
गरेनन्	-12696
गीतले▁	-12697
गुणको▁	-12698
गोपीनी	-12699
गौदान▁	-12700
चिन्न▁	-12701
चोकको▁	-12702
छोएको▁	-12703
जन्मे▁	-12704
जलवायु	-12705
तर्पण▁	-12706
तीक्ष्	-12707
तीहरु▁	-12708
तुच्छ▁	-12709
दिइएको	-12710
दूषित▁	-12711
द्रोण▁	-12712
धर्ममा	-12713
धारको▁	-12714
परिषद▁	-12715
पर्खाल	-12716
पसिना▁	-12717
पुग्दछ	-12718
पेरिस▁	-12719
पोखरेल	-12720
प्रजा▁	-12721
फूलडाँ	-12722
बन्दुक	-12723
बहादुर	-12724
बाेलि▁	-12725
बिम्ब▁	-12726
बिरुवा	-12727
बोक्रा	-12728
भन्नु▁	-12729
भयंकर▁	-12730
भावमा▁	-12731
भिक्षु	-12732
मजबुत▁	-12733
मलामी▁	-12734
मिल्यो	-12735
मुद्दा	-12736
यान्दे	-12737
रुखमा▁	-12738
लक्षणा	-12739
लमजुङ▁	-12740
लामिछा	-12741
लिमिटे	-12742
लियाली	-12743
वंशीय▁	-12744
विन्या	-12745
विहार▁	-12746
वृत्त▁	-12747
श्रेय▁	-12748
संक्रम	-12749
सबैमा▁	-12750
समर्थ▁	-12751
सहरले▁	-12752
सामथ्र	-12753
सिएको▁	-12754
सिमसार	-12755
सुन्न▁	-12756
हरामा▁	-12757
हरिया▁	-12758
हाइकु▁	-12759
ियन्स▁	-12760
अछामको▁	-12761
अद्भुत▁	-12762
अभिमान▁	-12763
अलिकति▁	-12764
आश्रित▁	-12765
उब्जाउ▁	-12766
कर्मयोग	-12767
कृतिहरू	-12768
केहीले▁	-12769
क्रमिक▁	-12770
गाडेको▁	-12771
गाड्दा▁	-12772
गोल्डकप	-12773
घरधुरी▁	-12774
चन्द्रा	-12775
चेस्टर▁	-12776
चौबिसे▁	-12777
जनालाई▁	-12778
जेलबाट▁	-12779
डिभिजन▁	-12780
ढाकाको▁	-12781
ढाकेको▁	-12782
तस्वीर▁	-12783
तालिका▁	-12784
तिम्बु▁	-12785
त्रिपाठ	-12786
त्वलाई▁	-12787
द्रव्य▁	-12788
नहरूमा▁	-12789
नेपालका	-12790
न्थिन्▁	-12791
पक्षीय▁	-12792
पदवियोग	-12793
पन्तले▁	-12794
परामर्श	-12795
परिप्रे	-12796
पर्छन्▁	-12797
पाइएका▁	-12798
पानीका▁	-12799
पिच्छे▁	-12800
पुर्वी▁	-12801
पूर्वको	-12802
पोर्टल▁	-12803
प्रयाग▁	-12804
प्रेरणा	-12805
बजाइन्छ	-12806
बनाउँछ▁	-12807
बाजाको▁	-12808
बाजाहो▁	-12809
बृद्धि▁	-12810
भावलाई▁	-12811
भैरवको▁	-12812
मरेपछि▁	-12813
महिनामा	-12814
मान्दै▁	-12815
मिसाएर▁	-12816
मीटरको▁	-12817
मुस्लिम	-12818
म्याकमे	-12819
युइएफए▁	-12820
रहेकोछ▁	-12821
रोबर्ट▁	-12822
लेखनमा▁	-12823
लेखिन्छ	-12824
लेप्चा▁	-12825
लेश्वर▁	-12826
शहरलाई▁	-12827
शान्ती▁	-12828
शाहसँग▁	-12829
षडानन्द	-12830
समाउने▁	-12831
समारोह▁	-12832
सहरूले▁	-12833
साक्षी▁	-12834
सियामा▁	-12835
सुब्बा▁	-12836
स्तनमा▁	-12837
स्तुति▁	-12838
स्वरले▁	-12839
हटाउने▁	-12840
हरियाणा	-12841
हेलिकप्	-12842
अन्यत्र▁	-12843
अपभ्रंश▁	-12844
अम्बाको▁	-12845
इजरायली▁	-12846
उत्सवको▁	-12847
एएफसीको▁	-12848
कतिपयले▁	-12849
कपडाहरू▁	-12850
कांग्रेस	-12851
कारवाही▁	-12852
क्रोधित▁	-12853
खानाहरू▁	-12854
गर्दैनन्	-12855
गर्नेको▁	-12856
गोरखाको▁	-12857
चलिआएको▁	-12858
जनचेतना▁	-12859
त्रिभुवन	-12860
दायरामा▁	-12861
देवनागरी	-12862
द्वन्द्व	-12863
नुभन्दा▁	-12864
पङ्क्षी▁	-12865
पुराणको▁	-12866
पुरोहित▁	-12867
प्रथाको▁	-12868
प्रदायक▁	-12869
प्रमण्डल	-12870
प्रवासी▁	-12871
बनाउनको▁	-12872
बुर्जुआ▁	-12873
भरद्वाज▁	-12874
भेटिन्छ▁	-12875
महालक्ष्	-12876
महालेखा▁	-12877
मानिसहरू	-12878
रूपैयाँ▁	-12879
लागेपछि▁	-12880
लिच्छवि▁	-12881
वर्षेनी▁	-12882
वल्लीमा▁	-12883
विवाहका▁	-12884
विशेषज्ञ	-12885
शास्त्रा	-12886
शिक्षित▁	-12887
शीतोष्ण▁	-12888
सकेसम्म▁	-12889
सचिवालय▁	-12890
सदस्यीय▁	-12891
सम्पत्ति	-12892
साँच्चै▁	-12893
सामन्ती▁	-12894
सुन्दरी▁	-12895
सुरूवात▁	-12896
सेल्सियस	-12897
अनावश्यक▁	-12898
अनुपातमा▁	-12899
कम्प्युटर	-12900
कुखुराको▁	-12901
कृष्णाले▁	-12902
गीतहरूको▁	-12903
जिम्मेवार	-12904
त्रिपुरा▁	-12905
दुर्गाको▁	-12906
दृश्यहरू▁	-12907
दृष्टिकोण	-12908
नदीहरूको▁	-12909
निरपेक्ष▁	-12910
नेपालीले▁	-12911
परिवारले▁	-12912
प्रधानको▁	-12913
प्रभावमा▁	-12914
प्रश्नको▁	-12915
फिलिपिन्स	-12916
बहिष्कार▁	-12917
बेलायतमा▁	-12918
भूतपूर्व▁	-12919
मन्दिरका▁	-12920
मान्दछन्▁	-12921
राजिनामा▁	-12922
लक्ष्यमा▁	-12923
वासस्थान▁	-12924
विष्णुका▁	-12925
शीर्षकमा▁	-12926
शुक्रबार▁	-12927
सांकेतिक▁	-12928
सृष्टिको▁	-12929
स्वर्गको▁	-12930
आत्महत्या▁	-12931
कारागारमा▁	-12932
कार्यान्वय	-12933
गन्तव्यमा▁	-12934
जीवनानन्द▁	-12935
पारिश्रमिक	-12936
पुनरावेदन▁	-12937
पूर्वाधार▁	-12938
प्रतिशतले▁	-12939
प्रयोगलाई▁	-12940
भनिन्थ्यो▁	-12941
भरद्वाजको▁	-12942
भातृत्वको▁	-12943
मूल्यांकन▁	-12944
योद्धाहरु▁	-12945
ललितपुरका▁	-12946
लोकतन्त्र▁	-12947
वंशावलीले▁	-12948
संरक्षणको▁	-12949
सिद्धार्थ▁	-12950
स्थापनाका▁	-12951
हरुद्वारा▁	-12952
अभिमन्युले▁	-12953
जनावरहरूको▁	-12954
नारायणगोपाल	-12955
प्राध्यापक▁	-12956
मन्त्रीहरू▁	-12957
मित्रसेनले▁	-12958
मूल्याङ्कन▁	-12959
लक्ष्मीदेवी	-12960
सूत्रकविता▁	-12961
हेर्नुहोस्▁	-12962
क्षुद्रग्रह▁	-12963
खुट्किलाहरू▁	-12964
दार्जिलिङको▁	-12965
नागरिकहरूको▁	-12966
लेखापरीक्षण▁	-12967
विशेषाधिकार▁	-12968
सम्प्रदायको▁	-12969
गाउँपालिकामा▁	-12970
धृतराष्ट्रका▁	-12971
राष्ट्रहरूमा▁	-12972
व्यक्तिहरूले▁	-12973
बिहारप्रान्तको	-12974
विकिपिडियालाई▁	-12975
विद्यालयहरूमा▁	-12976
विशेषाधिकारको▁	-12977
प्रतियोगिताहरूमा	-12978
पच	-12979
पस	-12980
बँ	-12981
सङ	-12982
ेक	-12983
०५	-12984
उस्	-12985
कछु	-12986
कहा	-12987
जरी	-12988
टिए	-12989
तपो	-12990
तवा	-12991
तोप	-12992
दिस	-12993
दौड	-12994
धम्	-12995
नाँ	-12996
निल	-12997
नोट	-12998
पेय	-12999
बख्	-13000
बाध	-13001
बाव	-13002
भवि	-13003
भू▁	-13004
मं▁	-13005
मरी	-13006
माछ	-13007
माम	-13008
यता	-13009
रगत	-13010
रहन	-13011
लन▁	-13012
लेन	-13013
वरु	-13014
शिल	-13015
षत▁	-13016
संय	-13017
सघा	-13018
सबी	-13019
सौ▁	-13020
हीन	-13021
०१▁	-13022
अंति	-13023
अतुल	-13024
अलग्	-13025
असुर	-13026
एफएम	-13027
काका	-13028
कील▁	-13029
कुम▁	-13030
कृपा	-13031
कोला	-13032
कौशल	-13033
क्सी	-13034
खर्क	-13035
खुब▁	-13036
गंगा	-13037
गना▁	-13038
गेट▁	-13039
ग्ला	-13040
चिया	-13041
चुरो	-13042
छवि▁	-13043
छाड▁	-13044
जामु	-13045
जोत्	-13046
डेन▁	-13047
डेमो	-13048
डेल्	-13049
णां▁	-13050
णिर्	-13051
दशै▁	-13052
दुरी	-13053
द्धि	-13054
नाप▁	-13055
निधि	-13056
पक्र	-13057
पटना	-13058
पादु	-13059
पारा	-13060
पिठ▁	-13061
बनाव	-13062
बर्ण	-13063
बिभा	-13064
बेन्	-13065
भास▁	-13066
भौति	-13067
मष्ट	-13068
मिथि	-13069
म्य▁	-13070
यणी▁	-13071
याक्	-13072
रहयो	-13073
रावल	-13074
रेट▁	-13075
रोकि	-13076
लोके	-13077
वेल▁	-13078
शिल▁	-13079
शिवि	-13080
ष्टी	-13081
सालि	-13082
सुक्	-13083
सुगौ	-13084
सेलु	-13085
सैन▁	-13086
सोल्	-13087
स्ते	-13088
हिजो	-13089
हिटल	-13090
होलि	-13091
ुन्ड	-13092
१२०▁	-13093
२५०▁	-13094
ंकित▁	-13095
ंगिक▁	-13096
अक्षा	-13097
अछुत▁	-13098
आतङ्क	-13099
आवस्य	-13100
इमिरे	-13101
उत्सव	-13102
उल्लं	-13103
कत्यु	-13104
कसँग▁	-13105
किरण▁	-13106
कुटी▁	-13107
कृत्य	-13108
केशव▁	-13109
क्रमा	-13110
गहुँ▁	-13111
जलेर▁	-13112
तेनी▁	-13113
थरका▁	-13114
थिइन▁	-13115
दर्शी	-13116
दाँत▁	-13117
दुष्य	-13118
धुलो▁	-13119
नित्य	-13120
नियन▁	-13121
नौलो▁	-13122
न्ध्र	-13123
पचास▁	-13124
पदले▁	-13125
परिसर	-13126
पाठन▁	-13127
प्वाल	-13128
फाको▁	-13129
फेडेर	-13130
बनाउँ	-13131
बन्छ▁	-13132
बाँदर	-13133
बाँधि	-13134
बाँध▁	-13135
बाहुन	-13136
बिराट	-13137
भएकै▁	-13138
भालु▁	-13139
माइती	-13140
मानवि	-13141
मेको▁	-13142
रायण▁	-13143
रिजा▁	-13144
वक्ता	-13145
विद्ध	-13146
विधाय	-13147
विशाल	-13148
षिका▁	-13149
संगम▁	-13150
सहायत	-13151
साँघु	-13152
सुर्य	-13153
स्वर्	-13154
स्वाद	-13155
हेरी▁	-13156
ीबाट▁	-13157
ौंको▁	-13158
२०५५▁	-13159
अंतिम▁	-13160
अभयारण	-13161
अर्कै▁	-13162
अवरोध▁	-13163
असहाय▁	-13164
उकालो▁	-13165
उत्साह	-13166
उन्नत▁	-13167
एएफसी▁	-13168
एकाले▁	-13169
कच्चा▁	-13170
कच्ची▁	-13171
कर्मी▁	-13172
कलामा▁	-13173
कश्यप▁	-13174
कात्ति	-13175
कायमै▁	-13176
कोसिस▁	-13177
खड्का▁	-13178
गतेका▁	-13179
गुजरात	-13180
गोसाइँ	-13181
ग्रीक▁	-13182
घट्दै▁	-13183
चुचुरा	-13184
जनाउँछ	-13185
जानको▁	-13186
जोसेफ▁	-13187
तिरिवा	-13188
तिहाइ▁	-13189
तुल्या	-13190
त्यागि	-13191
दर्शी▁	-13192
द्धमा▁	-13193
द्वीप▁	-13194
धमारी▁	-13195
निजले▁	-13196
न्दार▁	-13197
पढ्दा▁	-13198
परमाणु	-13199
पुरुषो	-13200
फारसी▁	-13201
बढ्ने▁	-13202
भाग्न▁	-13203
भेगका▁	-13204
मान्ने	-13205
मौसमी▁	-13206
रहमान▁	-13207
रहस्य▁	-13208
रुमाल▁	-13209
रूसको▁	-13210
रोधमा▁	-13211
लिएकी▁	-13212
वरीमा▁	-13213
वासको▁	-13214
विवादा	-13215
विवेक▁	-13216
व्युत्	-13217
संहार▁	-13218
सक्दछ▁	-13219
सहस्र▁	-13220
साइबेर	-13221
साक्षा	-13222
सेनका▁	-13223
सौर्य▁	-13224
स्वधा▁	-13225
हालका▁	-13226
हुन्न▁	-13227
ारोहण▁	-13228
ियोमा▁	-13229
अक्टोबर	-13230
अष्ट्रे	-13231
असमर्थ▁	-13232
आउँछन्▁	-13233
आख्यान▁	-13234
उत्खनन▁	-13235
उद्धार▁	-13236
उमेरका▁	-13237
काँधमा▁	-13238
कान्छो▁	-13239
क्रीले▁	-13240
ख्याति▁	-13241
गतिलाई▁	-13242
गन्धर्व	-13243
गुम्बा▁	-13244
चासोका▁	-13245
चितामा▁	-13246
छन्दमा▁	-13247
जरासन्ध	-13248
जोडिने▁	-13249
ट्रिपल▁	-13250
ठाउँका▁	-13251
तुल्सी▁	-13252
त्यहीं▁	-13253
दसैँमा▁	-13254
दाजुभाइ	-13255
देखेका▁	-13256
देशबाट▁	-13257
नरसंहार	-13258
निकटतम▁	-13259
नीतिमा▁	-13260
न्दाले▁	-13261
पाक्ने▁	-13262
पुर्खा▁	-13263
पूजाको▁	-13264
प्राचिन	-13265
फूलहरू▁	-13266
बजाईन्छ	-13267
बढाएको▁	-13268
बाँच्न▁	-13269
बाघहरू▁	-13270
बाढीले▁	-13271
बुबाको▁	-13272
बेलुकी▁	-13273
भरतपुर▁	-13274
भारम्भ▁	-13275
भुटानी▁	-13276
मेलाको▁	-13277
रामवरण▁	-13278
रैथाने▁	-13279
रोगहरू▁	-13280
लाग्दछ▁	-13281
लाग्दै▁	-13282
लामखुट्	-13283
लेकाली▁	-13284
लैजाने▁	-13285
वंशजको▁	-13286
वञ्चित▁	-13287
विजयपुर	-13288
विधामा▁	-13289
विषयका▁	-13290
शस्त्र▁	-13291
श्रृङ्ख	-13292
सङ्खुवा	-13293
सत्यको▁	-13294
समूहका▁	-13295
साल्पा▁	-13296
सुर्खेत	-13297
सुवर्ण▁	-13298
सोमबार▁	-13299
हरूसंग▁	-13300
हावामा▁	-13301
ियतामा▁	-13302
इन्डियन▁	-13303
इलाकामा▁	-13304
कारोबार▁	-13305
काव्यको▁	-13306
कुकुरको▁	-13307
गाउँबाट▁	-13308
गायत्री▁	-13309
गृहयुद्ध	-13310
जडीबुटी▁	-13311
जनघनत्व▁	-13312
तरिकामा▁	-13313
दलहरूको▁	-13314
पन्जाबी▁	-13315
पर्वतीय▁	-13316
पहाडतर्फ	-13317
पार्कमा▁	-13318
बजाइन्छ▁	-13319
बाहेकका▁	-13320
बिद्रोह▁	-13321
बिहारमा▁	-13322
मर्यादा▁	-13323
मानिसमा▁	-13324
मानेपाल▁	-13325
मुहम्मद▁	-13326
रहमानको▁	-13327
रामेश्वर	-13328
रावणलाई▁	-13329
लाभदायक▁	-13330
वर्षाले▁	-13331
विरोधमा▁	-13332
संस्थान▁	-13333
सन्धिका▁	-13334
सन्धिमा▁	-13335
समकालीन▁	-13336
सम्पूर्ण	-13337
सामुहिक▁	-13338
सिकाउने▁	-13339
सुनेपछि▁	-13340
सुम्पेर▁	-13341
स्पेनमा▁	-13342
स्मरणीय▁	-13343
हजुरबुवा	-13344
अधिकारका▁	-13345
अभियानका▁	-13346
अर्जुनका▁	-13347
अवस्थाले▁	-13348
इस्लामिक▁	-13349
कश्मीरको▁	-13350
कूटनीतिक▁	-13351
गर्दथ्यो▁	-13352
जन्माउने▁	-13353
देशहरूको▁	-13354
नवलपरासी▁	-13355
निरीक्षक▁	-13356
निर्णयका▁	-13357
पदयात्रा▁	-13358
परापूर्व▁	-13359
पार्टीमा▁	-13360
पाल्पाली▁	-13361
पुस्तकमा▁	-13362
प्रत्यक्ष	-13363
प्रशस्तै▁	-13364
बलात्कार▁	-13365
बहुमतबाट▁	-13366
भीमसेनको▁	-13367
राजकुमारी	-13368
राजगद्दी▁	-13369
लक्षणहरू▁	-13370
लोडसेडिङ▁	-13371
शताब्दीमा	-13372
संहितामा▁	-13373
सक्दैनन्▁	-13374
सद्विचार▁	-13375
स्ट्राइक▁	-13376
स्वचालित▁	-13377
हरूभन्दा▁	-13378
हैसियतमा▁	-13379
असन्तुष्ट▁	-13380
कुराहरूमा▁	-13381
क्षेत्रले▁	-13382
द्रौपदीका▁	-13383
नागरिकहरू▁	-13384
निष्क्रिय▁	-13385
पृथ्वीलाई▁	-13386
प्रयोगबाट▁	-13387
फ्रान्समा▁	-13388
बाबासाहेब▁	-13389
भारतलगायत▁	-13390
मूर्तिलाई▁	-13391
वातावरणको▁	-13392
व्यवसायको▁	-13393
शास्त्रका▁	-13394
सङ्ग्रहित▁	-13395
समस्याहरू▁	-13396
सम्हालेको▁	-13397
हिन्दुस्ता	-13398
अल्पसंख्यक▁	-13399
आदानप्रदान▁	-13400
उम्मेदवारी▁	-13401
कालान्तरमा▁	-13402
कोइरालालाई▁	-13403
गृहयुद्धको▁	-13404
तिनीहरूलाई▁	-13405
तेक्वान्दो▁	-13406
पञ्चवर्षीय▁	-13407
भन्नुपर्दा▁	-13408
राजस्थानको▁	-13409
विवादास्पद▁	-13410
स्मरणशक्ति▁	-13411
अर्थशास्त्र▁	-13412
प्रोत्साहित▁	-13413
राष्ट्रियता▁	-13414
विद्यालयबाट▁	-13415
सम्पत्तिलाई▁	-13416
सुरेन्द्रको▁	-13417
पुनर्स्थापना▁	-13418
प्रतिनिधिसभा▁	-13419
राष्ट्रहरूको▁	-13420
क्षेत्रहरूलाई▁	-13421
उछ	-13422
एं	-13423
खट	-13424
चक	-13425
थौ	-13426
दं	-13427
दन	-13428
यल	-13429
रम	-13430
ैँ	-13431
ंडा	-13432
अठा	-13433
इञ्	-13434
उभय	-13435
उरु	-13436
कंश	-13437
कतै	-13438
गणि	-13439
गरो	-13440
गेर	-13441
चिन	-13442
जाउ	-13443
जि▁	-13444
तट▁	-13445
तद्	-13446
द्द	-13447
नलि	-13448
नस▁	-13449
नाव	-13450
पसे	-13451
बां	-13452
भेग	-13453
मोड	-13454
रजि	-13455
रोय	-13456
लज्	-13457
शता	-13458
शेख	-13459
सिन	-13460
सूर	-13461
ेरो	-13462
ैव▁	-13463
०५▁	-13464
ँका▁	-13465
ंगजे	-13466
इलाम	-13467
उम्र	-13468
कटुस	-13469
कासि	-13470
किए▁	-13471
कुटी	-13472
कूट▁	-13473
कृषक	-13474
कोसे	-13475
कौशि	-13476
क्षय	-13477
खुल्	-13478
गायन	-13479
घडी▁	-13480
ङ्गे	-13481
चिङ▁	-13482
चिम्	-13483
चिह्	-13484
चेपा	-13485
चेल▁	-13486
चौध▁	-13487
छाडि	-13488
जटाम	-13489
जतात	-13490
जती▁	-13491
जोड्	-13492
डाँठ	-13493
ढोका	-13494
तराइ	-13495
तिव्	-13496
तीत▁	-13497
थोक▁	-13498
दुश्	-13499
देखी	-13500
देल▁	-13501
देवल	-13502
द्दि	-13503
द्वे	-13504
धरणी	-13505
धागो	-13506
नगरे	-13507
नरिव	-13508
नवमी	-13509
पठाई	-13510
पाइ▁	-13511
पाणि	-13512
पीठ▁	-13513
पोलि	-13514
पोल्	-13515
फटया	-13516
फेर्	-13517
बदल▁	-13518
बहुल	-13519
बाइस	-13520
बिहि	-13521
बीउ▁	-13522
बोधो	-13523
भाई▁	-13524
भुट्	-13525
मगध▁	-13526
मां▁	-13527
मुला	-13528
मुस्	-13529
मेम्	-13530
मोहन	-13531
मौला	-13532
म्ले	-13533
युवे	-13534
योनी	-13535
रहरु	-13536
रहेन	-13537
राङ्	-13538
रेन्	-13539
लेन▁	-13540
लोको	-13541
वतार	-13542
वाषि	-13543
विचल	-13544
विता	-13545
विभु	-13546
वृष▁	-13547
वेल्	-13548
सत्र	-13549
सपथ▁	-13550
सराइ	-13551
सिङ▁	-13552
सिडि	-13553
सीन▁	-13554
सेमि	-13555
स्कर	-13556
हुनै	-13557
िएका	-13558
्दा▁	-13559
अवलोक	-13560
असुर▁	-13561
अहमद▁	-13562
आडमा▁	-13563
आलोक▁	-13564
आश्रम	-13565
इनमा▁	-13566
उष्ण▁	-13567
एघार▁	-13568
कट्टर	-13569
कठिना	-13570
कम्यु	-13571
करीव▁	-13572
कीका▁	-13573
कृती▁	-13574
केपी▁	-13575
क्कर▁	-13576
क्या▁	-13577
क्रस▁	-13578
खुवा▁	-13579
खेति▁	-13580
खेरी▁	-13581
गरको▁	-13582
गरेमा	-13583
गामा▁	-13584
छाडी▁	-13585
छोडी▁	-13586
जडान▁	-13587
जलपाई	-13588
ञ्चाल	-13589
ठकुरी	-13590
ठम्या	-13591
डोमा▁	-13592
ड्नु▁	-13593
तहका▁	-13594
त्कम▁	-13595
दाना▁	-13596
दुरी▁	-13597
देउसी	-13598
द्रवि	-13599
नरेश▁	-13600
पण्डि	-13601
पर्दा	-13602
पूरक▁	-13603
फेदी▁	-13604
बकुल्	-13605
बत्ती	-13606
बेसी▁	-13607
ब्रे▁	-13608
भगवद्	-13609
भुवन▁	-13610
माचू▁	-13611
मेरी▁	-13612
मेलम्	-13613
यमान▁	-13614
याज्ञ	-13615
यादव▁	-13616
रहस्य	-13617
राजी▁	-13618
रिमा▁	-13619
रुसी▁	-13620
रोको▁	-13621
लर्ड▁	-13622
लहरी▁	-13623
वरमा▁	-13624
वाचा▁	-13625
वामा▁	-13626
विलास	-13627
वीपी▁	-13628
वेशी▁	-13629
षधको▁	-13630
सफाई▁	-13631
सम्भो	-13632
सवारी	-13633
सांस्	-13634
स्कर▁	-13635
स्ववि	-13636
होटल▁	-13637
ैसँग▁	-13638
१९२०▁	-13639
अंकित▁	-13640
अगाडी▁	-13641
अनुपम▁	-13642
अन्याय	-13643
अश्वमे	-13644
उनुभयो	-13645
उन्नाइ	-13646
एकाग्र	-13647
कथाका▁	-13648
काँडा▁	-13649
किनार▁	-13650
कुखुरा	-13651
कुमाउँ	-13652
क्रममा	-13653
क्सको▁	-13654
खण्डी▁	-13655
गलामा▁	-13656
घाँसे▁	-13657
चालिसे	-13658
चैत्य▁	-13659
चोकमा▁	-13660
छायाँ▁	-13661
जनश्रु	-13662
जनाउन▁	-13663
जमेको▁	-13664
जागीर▁	-13665
ज्वरो▁	-13666
तरवार▁	-13667
तिर्थ▁	-13668
तीरमा▁	-13669
तीसँग▁	-13670
थरीका▁	-13671
दानको▁	-13672
दुसान्	-13673
दैत्य▁	-13674
नाकमा▁	-13675
पट्टि▁	-13676
पढेका▁	-13677
पनिवेश	-13678
पराशर▁	-13679
पुर्वा	-13680
प्रयाग	-13681
फर्किए	-13682
फौजको▁	-13683
बढीमा▁	-13684
बाँके▁	-13685
बेच्न▁	-13686
बैतडी▁	-13687
ब्याट्	-13688
भन्छन्	-13689
भाविक▁	-13690
भीमको▁	-13691
भेषमा▁	-13692
मर्ने▁	-13693
मुखले▁	-13694
मेम्फि	-13695
रगञ्ज▁	-13696
रसायन▁	-13697
राजदूत	-13698
रामका▁	-13699
लगाएत▁	-13700
लड्ने▁	-13701
लाहोर▁	-13702
वंशमा▁	-13703
वनवास▁	-13704
वस्था▁	-13705
व्यापी	-13706
शुक्र▁	-13707
श्वास▁	-13708
समाधान	-13709
सिंगार	-13710
स्तुते	-13711
स्वामी	-13712
हानमा▁	-13713
ह्रास▁	-13714
िकाको▁	-13715
ेेेको▁	-13716
अङ्कित▁	-13717
अनिंगजे	-13718
अमरनाथ▁	-13719
अर्थात्	-13720
अवज्ञा▁	-13721
आत्रेय▁	-13722
आदिवासी	-13723
इच्छुक▁	-13724
उन्मुख▁	-13725
कलेजको▁	-13726
कहरूका▁	-13727
कुन्ती▁	-13728
केसीले▁	-13729
कोखबाट▁	-13730
कोठाको▁	-13731
खोल्ने▁	-13732
गुफामा▁	-13733
ग्याँस▁	-13734
चिनियाँ	-13735
छन्दको▁	-13736
छातीमा▁	-13737
जनाएका▁	-13738
ज्ञानी▁	-13739
त्वाकर्	-13740
दुईपटक▁	-13741
देवानी▁	-13742
नलिएको▁	-13743
निवेदन▁	-13744
निसाना▁	-13745
पाल्ने▁	-13746
पितामह▁	-13747
पुग्नु▁	-13748
पुरानै▁	-13749
पेट्रोल	-13750
प्रवृत्	-13751
बगैंचा▁	-13752
बङ्गाली	-13753
बागडोर▁	-13754
बाल्ने▁	-13755
बिगाहा▁	-13756
बित्दै▁	-13757
बिन्ती▁	-13758
बेलाको▁	-13759
भोजनमा▁	-13760
मद्रास▁	-13761
मलेसिया	-13762
महानगर▁	-13763
महारथी▁	-13764
माभारत▁	-13765
मार्नु▁	-13766
मास्टर▁	-13767
मुर्ति▁	-13768
राधाको▁	-13769
रामपुर▁	-13770
रावणले▁	-13771
लाग्नु▁	-13772
लेखिने▁	-13773
लैंगिक▁	-13774
वसोवास▁	-13775
विन्दु▁	-13776
शनिबार▁	-13777
शिवराज▁	-13778
शिशुको▁	-13779
संसदले▁	-13780
सचिवालय	-13781
सम्पति▁	-13782
सात्यकि	-13783
सामान्य	-13784
सालबाट▁	-13785
सिलगढी▁	-13786
सीमामा▁	-13787
सेरोफेर	-13788
स्थापित	-13789
स्वार्थ	-13790
हरसिंह▁	-13791
अञ्चलमा▁	-13792
अप्टिकल▁	-13793
आँखाबाट▁	-13794
ईश्वरीय▁	-13795
कमान्डर▁	-13796
कर्मबाट▁	-13797
क्रमलाई▁	-13798
गिरीलाई▁	-13799
गोदावरी▁	-13800
गोविन्द▁	-13801
जनाउँदै▁	-13802
ज्ञानयोग	-13803
ताइवानी▁	-13804
दर्शनमा▁	-13805
देशभक्त▁	-13806
द्वारमा▁	-13807
नभएकोले▁	-13808
निकाल्न▁	-13809
नौरथाको▁	-13810
पञ्जाबी▁	-13811
परिषदले▁	-13812
पानीबाट▁	-13813
पुटिनको▁	-13814
पेन्द्र▁	-13815
प्रतापी▁	-13816
प्रतिपदा	-13817
प्रस्तर▁	-13818
बजारबाट▁	-13819
बन्धनमा▁	-13820
ब्रह्मा▁	-13821
मधुसूदन▁	-13822
मस्यौदा▁	-13823
महाराजा▁	-13824
मिन्ताङ▁	-13825
मुजिबले▁	-13826
राँचीमा▁	-13827
राक्षसी▁	-13828
लगाइन्छ▁	-13829
लगाउँदा▁	-13830
विचारका▁	-13831
वेदान्त▁	-13832
शर्माले▁	-13833
सञ्चालक▁	-13834
समितिका▁	-13835
समृद्धि▁	-13836
साथीहरू▁	-13837
हुनेछन्▁	-13838
हेरिएको▁	-13839
अदालतबाट▁	-13840
अध्ययनले▁	-13841
अनुहारमा▁	-13842
अमेरिकाको	-13843
आचार्यले▁	-13844
आयोजनाको▁	-13845
एकदिवसीय▁	-13846
गुरिल्ला▁	-13847
चीनसँगको▁	-13848
छापाखाना▁	-13849
छुट्याउन▁	-13850
त्रिवेणी▁	-13851
निजहरूमा▁	-13852
निबन्धमा▁	-13853
निष्कासन▁	-13854
पदोन्नति▁	-13855
पनिवेशिक▁	-13856
परिपूर्ण▁	-13857
पर्यावरण▁	-13858
पुरुषार्थ	-13859
बमोजिमको▁	-13860
भावनाबाट▁	-13861
भूभागलाई▁	-13862
मनुष्यको▁	-13863
मार्गबाट▁	-13864
मृत्युका▁	-13865
मोर्चामा▁	-13866
यात्राका▁	-13867
युधिष्ठिर	-13868
रसंयुक्त▁	-13869
राधाकृष्ण	-13870
वाक्यहरु▁	-13871
विश्वलाई▁	-13872
शम्शेरका▁	-13873
संरचनामा▁	-13874
साक्षरता▁	-13875
स्वशासित▁	-13876
हरिद्वार▁	-13877
हरिहरपुर▁	-13878
हिजबुल्ला	-13879
हुनुपर्दछ	-13880
हैसियतले▁	-13881
अधिकारलाई▁	-13882
अनौपचारिक▁	-13883
उद्योगहरू▁	-13884
कर्नाटकको▁	-13885
केन्द्रिय▁	-13886
चरिकोटबाट▁	-13887
डडेल्धुरा▁	-13888
तत्वहरूको▁	-13889
नजरबन्दमा▁	-13890
निकालिएको▁	-13891
निबन्धलाई▁	-13892
नेपालीहरू▁	-13893
परिमार्जन▁	-13894
परिवर्तित▁	-13895
परिस्थिति▁	-13896
पिरामिडको▁	-13897
प्रयोजनको▁	-13898
बीजापुरका▁	-13899
बेलायतबाट▁	-13900
भारदारहरू▁	-13901
महिनावारी▁	-13902
मान्छेहरू▁	-13903
रूपन्देही▁	-13904
विविधताको▁	-13905
विशेषताका▁	-13906
शृङ्खलामा▁	-13907
संरक्षणमा▁	-13908
सभ्यतालाई▁	-13909
समशितोष्ण▁	-13910
हरिशचन्द्र	-13911
अहिंसात्कम▁	-13912
इलाकाहरूमा▁	-13913
उत्तराधिकार	-13914
तथाअष्ट्रेल	-13915
पवित्रताको▁	-13916
प्रणालीहरू▁	-13917
फर्किन्छन्▁	-13918
ब्याट्सम्या	-13919
महीनाभित्र▁	-13920
उपराष्ट्रपति	-13921
क्षेत्रफलको▁	-13922
देवताहरूलाई▁	-13923
द्रोणाचार्य▁	-13924
निम्त्याएको▁	-13925
परिस्थितिको▁	-13926
पर्यटकहरूका▁	-13927
ब्रह्माजीले▁	-13928
व्यवस्थापिका	-13929
शताब्दीदेखि▁	-13930
शताब्दीसम्म▁	-13931
सदस्यहरूलाई▁	-13932
सर्वश्रेष्ठ▁	-13933
अर्थव्यवस्था▁	-13934
अष्ट्रेलियाली	-13935
एकादशीभनिन्छ▁	-13936
परिष्कारवादी▁	-13937
पाकिस्तानलाई▁	-13938
मन्त्रिपरिषद▁	-13939
मन्त्रीहरूको▁	-13940
रेसलमेनियामा▁	-13941
सर्वसाधारणको▁	-13942
सिद्धिनरसिंह▁	-13943
सुरेन्द्रलाई▁	-13944
उपनिषदसंस्कृत▁	-13945
स्वतन्त्रताका▁	-13946
उपप्रधानमन्त्री	-13947
ईं	-13948
खग	-13949
खौ	-13950
ङक	-13951
पड	-13952
भँ	-13953
वध	-13954
ीर	-13955
्व	-13956
५१	-13957
आका	-13958
आखि	-13959
आलो	-13960
आशि	-13961
उछि	-13962
उड्	-13963
उड▁	-13964
एथ्	-13965
कजा	-13966
कथन	-13967
खाए	-13968
खैँ	-13969
गंज	-13970
गजु	-13971
गदा	-13972
घर्	-13973
चौर	-13974
जल्	-13975
टल्	-13976
टान	-13977
डिल	-13978
तलै	-13979
त्न	-13980
दय▁	-13981
दृष	-13982
नम▁	-13983
नाउ	-13984
नील	-13985
फड्	-13986
फूट	-13987
बगा	-13988
बलु	-13989
बाई	-13990
बाउ	-13991
बोग	-13992
भय▁	-13993
भवे	-13994
महँ	-13995
महे	-13996
मास	-13997
यही	-13998
र्ग	-13999
र्त	-14000
लखे	-14001
लडे	-14002
लाय	-14003
शकु	-14004
शीघ	-14005
शो▁	-14006
सतल	-14007
सवि	-14008
सेल	-14009
हेल	-14010
होम	-14011
ाई▁	-14012
ेण▁	-14013
आईपी	-14014
आएको	-14015
आतिथ	-14016
आलु▁	-14017
आसाम	-14018
उचाइ	-14019
कन्न	-14020
कपास	-14021
कम्▁	-14022
किरण	-14023
कुटु	-14024
कृष▁	-14025
कोलो	-14026
कौं▁	-14027
खाइ▁	-14028
खाडी	-14029
खुसी	-14030
खोजि	-14031
गजल▁	-14032
घरमा	-14033
घिउ▁	-14034
घोर▁	-14035
घोष▁	-14036
चलाए	-14037
चले▁	-14038
चिर्	-14039
चिल्	-14040
चैव▁	-14041
चौथा	-14042
छाया	-14043
छिर्	-14044
जरबै	-14045
जागृ	-14046
जुक▁	-14047
जोर▁	-14048
ठुला	-14049
डेटा	-14050
ड्डी	-14051
तरी▁	-14052
तां▁	-14053
त्रो	-14054
थिन्	-14055
दलित	-14056
दुख▁	-14057
देउ▁	-14058
देवि	-14059
दौरा	-14060
नगरा	-14061
नभेट	-14062
नमो▁	-14063
निङ▁	-14064
नीक▁	-14065
पढाइ	-14066
पि्र	-14067
पोल▁	-14068
फोटो	-14069
बहन▁	-14070
बिज▁	-14071
बेहु	-14072
ब्ले	-14073
भाउ▁	-14074
भात▁	-14075
भित▁	-14076
मणी▁	-14077
मरणो	-14078
मांस	-14079
मिया	-14080
मीर▁	-14081
मुसा	-14082
रिउ▁	-14083
र्या	-14084
लाटो	-14085
लाम्	-14086
लिएर	-14087
वत्स	-14088
विनि	-14089
वृष्	-14090
शरद▁	-14091
शाही	-14092
शीत▁	-14093
श्ले	-14094
श्वा	-14095
षधी▁	-14096
सघन▁	-14097
सर्ग	-14098
सानो	-14099
साहु	-14100
सिङ्	-14101
सीप▁	-14102
स्पो	-14103
हाङ▁	-14104
हिल्	-14105
होली	-14106
ेदार	-14107
अङ्गि	-14108
असहज▁	-14109
अस्ता	-14110
आक्रो	-14111
उत्पी	-14112
एकरूप	-14113
करले▁	-14114
कलकार	-14115
कसले▁	-14116
कास्य	-14117
किला▁	-14118
कैमा▁	-14119
क्षित	-14120
क्षु▁	-14121
खत्री	-14122
खनाल▁	-14123
खान्छ	-14124
खेलमा	-14125
गढको▁	-14126
गर्व▁	-14127
गाँउ▁	-14128
घाटी▁	-14129
ङ्गाल	-14130
चित्त	-14131
चुरा▁	-14132
जगार▁	-14133
जन्तु	-14134
जबाट▁	-14135
जरिबा	-14136
जहरू▁	-14137
जुठो▁	-14138
टेका▁	-14139
ट्री▁	-14140
ढिलो▁	-14141
ढ्ने▁	-14142
तरवार	-14143
तर्न▁	-14144
दबाट▁	-14145
दलमा▁	-14146
देखेर	-14147
नदिई▁	-14148
नानी▁	-14149
पठाई▁	-14150
परको▁	-14151
पागल▁	-14152
पुग्छ	-14153
पुजार	-14154
पुर्ण	-14155
पोषक▁	-14156
पौडी▁	-14157
बढ्छ▁	-14158
बढ्यो	-14159
बनाउन	-14160
बरमा▁	-14161
बाले▁	-14162
बिक्र	-14163
बोहरा	-14164
ब्रत▁	-14165
भारतर	-14166
भाषी▁	-14167
मणले▁	-14168
महाजन	-14169
मारवा	-14170
मेरठ▁	-14171
रसको▁	-14172
रूपी▁	-14173
रोपाई	-14174
लङ्गु	-14175
लाउन▁	-14176
लाङटा	-14177
लिपी▁	-14178
वहार▁	-14179
वारा▁	-14180
विगत▁	-14181
वेस्ट	-14182
श्रवण	-14183
सताब्	-14184
समयाव	-14185
सहानु	-14186
स्टार	-14187
स्तान	-14188
स्पर▁	-14189
स्री▁	-14190
हाउस▁	-14191
हेर्न	-14192
हैदरा	-14193
ह्रै▁	-14194
ारिक▁	-14195
ाल्या	-14196
िएमा▁	-14197
१९०५▁	-14198
१९२३▁	-14199
२०२५▁	-14200
२०३९▁	-14201
अन्तत▁	-14202
अरूले▁	-14203
आजीवन▁	-14204
आसपास▁	-14205
इजिप्ट	-14206
उनाले▁	-14207
एकआधार	-14208
एघारौँ	-14209
एथलेटि	-14210
काग्रे	-14211
कुण्ठ▁	-14212
क्रोध▁	-14213
खरानी▁	-14214
खाँची▁	-14215
खोटाङ▁	-14216
गढवाल▁	-14217
गरेकोछ	-14218
गरेपछि	-14219
घटोत्क	-14220
चल्ला▁	-14221
चाँदी▁	-14222
चाैरी▁	-14223
चौधरी▁	-14224
जन्मा▁	-14225
जमाउन▁	-14226
जम्मु▁	-14227
जितेर▁	-14228
ज्याज▁	-14229
ञ्चोक▁	-14230
ढुङ्गे	-14231
तिहार▁	-14232
दलहरू▁	-14233
दालाई▁	-14234
दिँदा▁	-14235
दिंदै▁	-14236
दिष्ट▁	-14237
दृष्ट्	-14238
देशहरू	-14239
द्रव्य	-14240
द्रिक▁	-14241
नरकमा▁	-14242
नास्ति	-14243
नियमन▁	-14244
नियाँ▁	-14245
नीलकण्	-14246
नोक्सा	-14247
पक्की▁	-14248
पञ्चमी	-14249
पनौती▁	-14250
पर्दो▁	-14251
पाँचौ▁	-14252
पार्छ▁	-14253
पिङको▁	-14254
पुतली▁	-14255
प्रबर्	-14256
प्रसाद	-14257
फौजले▁	-14258
बढाएर▁	-14259
बिचको▁	-14260
बिबाह▁	-14261
भएकाले	-14262
भगवान्	-14263
भीमसेन	-14264
भूगोल▁	-14265
भ्रातृ	-14266
मंसीर▁	-14267
मदिरा▁	-14268
मर्मत▁	-14269
महलको▁	-14270
मानवता	-14271
मासमा▁	-14272
मूख्य▁	-14273
म्याने	-14274
युक्रे	-14275
रगतले▁	-14276
राईको▁	-14277
रिजाल▁	-14278
लगायो▁	-14279
लाहुरे	-14280
लेपछि▁	-14281
वर्णमा	-14282
विजया▁	-14283
विहान▁	-14284
व्यापक	-14285
व्यूह▁	-14286
शोषित▁	-14287
श्याम▁	-14288
षिकेश▁	-14289
सडकको▁	-14290
सन्तति	-14291
सम्शेर	-14292
सालिक▁	-14293
सीलाई▁	-14294
स्पोर्	-14295
ालेको▁	-14296
अनलाईन▁	-14297
अनुदान▁	-14298
अर्चना▁	-14299
असंख्य▁	-14300
आदित्य▁	-14301
ईतिहास▁	-14302
एसएलसी▁	-14303
कथालाई▁	-14304
कपालको▁	-14305
कर्णाली	-14306
कर्नाटक	-14307
कर्ममा▁	-14308
कस्मिक▁	-14309
कार्बन▁	-14310
कालीको▁	-14311
क्लबका▁	-14312
खतराको▁	-14313
खानपान▁	-14314
खुलासा▁	-14315
गभर्नर▁	-14316
गुणहरू▁	-14317
गुनासो▁	-14318
गुराँस▁	-14319
गोविन्द	-14320
चीनसँग▁	-14321
छोडेका▁	-14322
जनशक्ति	-14323
जहाजको▁	-14324
जानकारी	-14325
तथ्याङ्	-14326
थालियो▁	-14327
दिउँसो▁	-14328
दुवैमा▁	-14329
देखाउन▁	-14330
परान्त▁	-14331
पर्थ्यो	-14332
पाँचथर▁	-14333
पातहरू▁	-14334
पाहुना▁	-14335
पुग्छन्	-14336
पुस्ता▁	-14337
प्रज्ञा	-14338
प्राकृत	-14339
बताएको▁	-14340
बस्नेत▁	-14341
ब्रिटेन	-14342
भिन्नै▁	-14343
भेटघाट▁	-14344
माग्ने▁	-14345
मिथिला▁	-14346
मुटुमा▁	-14347
मुनिले▁	-14348
मुलुकी▁	-14349
रणोद्दी	-14350
राखियो▁	-14351
राग्लाइ	-14352
रात्मक▁	-14353
रामीको▁	-14354
लगाइन्छ	-14355
लिम्बु▁	-14356
लिम्बू▁	-14357
लेखिएको	-14358
वहाँको▁	-14359
विक्री▁	-14360
शस्त्रा	-14361
शासनका▁	-14362
संख्यक▁	-14363
सञ्जाल▁	-14364
समाहित▁	-14365
सरकारको	-14366
सहितका▁	-14367
सामरिक▁	-14368
सारलाई▁	-14369
सिँचाइ▁	-14370
सिंचाइ▁	-14371
सिक्का▁	-14372
सुगौली▁	-14373
सुनुवार	-14374
स्तरिय▁	-14375
स्वरको▁	-14376
हावाको▁	-14377
हिजोआज▁	-14378
हुड्के▁	-14379
हृदयमा▁	-14380
हेर्नु▁	-14381
अघिदेखि▁	-14382
अधिराज्य	-14383
अपराधको▁	-14384
आक्रामक▁	-14385
आश्वासन▁	-14386
आसपासको▁	-14387
उपेक्षा▁	-14388
उस्मानी▁	-14389
कर्नाटक▁	-14390
काँक्री▁	-14391
काण्डको▁	-14392
कार्तिके	-14393
गराइएको▁	-14394
गोलाकार▁	-14395
छापामार▁	-14396
जगन्नाथ▁	-14397
जरिबाना▁	-14398
जिल्लामा	-14399
जोडिएका▁	-14400
ठाउँहरू▁	-14401
डिसेम्बर	-14402
दरबारका▁	-14403
धाराहरू▁	-14404
नरेन्द्र	-14405
निस्केर▁	-14406
नृत्यमा▁	-14407
पुग्छन्▁	-14408
पुराणका▁	-14409
प्राप्ति	-14410
फराकिलो▁	-14411
बनाउँदा▁	-14412
बनाउनका▁	-14413
बर्माको▁	-14414
बिहीबार▁	-14415
भैसकेको▁	-14416
मातहतका▁	-14417
मित्रता▁	-14418
मिसिएका▁	-14419
मुल्यको▁	-14420
मूल्यमा▁	-14421
मेन्टमा▁	-14422
मैदानको▁	-14423
याज्ञवल्	-14424
रोजगारी▁	-14425
लगाउँदै▁	-14426
लालमोहर▁	-14427
ल्याउनु▁	-14428
वाषिर्क▁	-14429
वास्तविक	-14430
विकासले▁	-14431
शक्तिपीठ	-14432
शरीरबाट▁	-14433
शर्माको▁	-14434
शासकहरु▁	-14435
शासकहरू▁	-14436
शासनकाल▁	-14437
शिवलिङ्ग	-14438
सँगसँगै▁	-14439
सूचनाको▁	-14440
स्तनधारी	-14441
स्पेनको▁	-14442
स्वीकार्	-14443
हितकारी▁	-14444
अदालतलाई▁	-14445
आचार्यको▁	-14446
इष्टमित्र	-14447
उपविधाका▁	-14448
कार्यविधि	-14449
कुराकानी▁	-14450
चलचित्रमा	-14451
जनमुक्ति▁	-14452
ठूलाठूला▁	-14453
द्वन्द्व▁	-14454
धवलागिरी▁	-14455
निर्दलीय▁	-14456
न्द्रनाथ▁	-14457
पद्धतिको▁	-14458
पद्धतिमा▁	-14459
पुस्तकको▁	-14460
प्रकाशमा▁	-14461
प्रमाणको▁	-14462
प्रयासको▁	-14463
फत्तेजंग▁	-14464
बेरोजगार▁	-14465
भविष्यको▁	-14466
भाइहरूको▁	-14467
भावनालाई▁	-14468
भूकम्पमा▁	-14469
माध्यमका▁	-14470
म्याग्दी▁	-14471
रोकथामका▁	-14472
वसन्तपुर▁	-14473
विक्रमको▁	-14474
विद्यापति	-14475
विषयवस्तु	-14476
विस्थापन▁	-14477
श्रेणीको▁	-14478
षडयन्त्र▁	-14479
समसामयिक▁	-14480
समानुपाति	-14481
सैनिकहरू▁	-14482
हात्तीको▁	-14483
हानिकारक▁	-14484
अर्घाखाँची	-14485
अस्पतालहरू	-14486
आन्दोलनले▁	-14487
उपमन्त्री▁	-14488
कीर्तिमान▁	-14489
केन्द्रका▁	-14490
क्रिकेटमा▁	-14491
ग्रहहरूको▁	-14492
जीवनकालमा▁	-14493
त्रैलोक्य▁	-14494
दृष्टिबाट▁	-14495
नेताहरूको▁	-14496
नेपालगन्ज▁	-14497
नेपाललगायत	-14498
पञ्चायतको▁	-14499
प्रतिबद्ध▁	-14500
प्रतिलिपि▁	-14501
बैज्ञानिक▁	-14502
भण्डारीको▁	-14503
मानिन्थ्यो	-14504
वर्तमानमा▁	-14505
विद्रोहको▁	-14506
व्यवसायीक▁	-14507
संस्कृतको▁	-14508
सरस्वतीको▁	-14509
सहानुभूति▁	-14510
साप्ताहिक▁	-14511
सुरेन्द्र▁	-14512
स्विडेनको▁	-14513
अमेरिकाबाट▁	-14514
कीर्तिनिधि▁	-14515
क्यान्सरको▁	-14516
त्रिभुवनको▁	-14517
देवताहरूको▁	-14518
देवनागरीको▁	-14519
पुरुषहरूको▁	-14520
पूर्ववर्ती▁	-14521
प्याराग्लाइ	-14522
प्यालेस्टाइ	-14523
प्रशासनलाई▁	-14524
ब्राह्मणका▁	-14525
मरणोपरान्त▁	-14526
लक्ष्मणलाई▁	-14527
वर्णनात्मक▁	-14528
व्यावहारिक▁	-14529
सैनिकहरूले▁	-14530
हुँदाहुँदै▁	-14531
काङ्ग्रेसमा▁	-14532
प्राधिकरणको▁	-14533
योगनरेन्द्र▁	-14534
राष्ट्रवादी▁	-14535
व्यवस्थालाई▁	-14536
सिद्धान्तका▁	-14537
हिन्दुहरूको▁	-14538
एन्टिबायोटिक▁	-14539
च्याम्पियन्स▁	-14540
जिल्लानेपालको	-14541
जिल्लाभारतको▁	-14542
धृतराष्ट्रले▁	-14543
प्रतिनिधिहरु▁	-14544
सार्वभौमसत्ता▁	-14545
अन्तर्राष्ट्रिय	-14546
इतिहासकारहरूको▁	-14547
एकअष्ट्रेलियाली	-14548
कार्यक्रमहरूमा▁	-14549
अज	-14550
खब	-14551
जप	-14552
टौ	-14553
मथ	-14554
लभ	-14555
लर	-14556
,,▁	-14557
ँचा	-14558
ंड▁	-14559
अदि	-14560
आधा	-14561
आर▁	-14562
इम्	-14563
उपन	-14564
कढु	-14565
कपू	-14566
काे	-14567
किए	-14568
किङ	-14569
गएर	-14570
ग्न	-14571
चमक	-14572
चाङ	-14573
चोप	-14574
छोड	-14575
जीउ	-14576
जैन	-14577
थरी	-14578
दवा	-14579
दही	-14580
दिउ	-14581
दित	-14582
दिय	-14583
दू▁	-14584
दृढ	-14585
धित	-14586
नपा	-14587
पड▁	-14588
बद्	-14589
बरी	-14590
बे▁	-14591
भरण	-14592
मजब	-14593
मनि	-14594
मरू	-14595
राघ	-14596
लक▁	-14597
लाज	-14598
विप	-14599
वेल	-14600
वैष	-14601
षधी	-14602
सित	-14603
ाएर	-14604
ेय▁	-14605
ंगी▁	-14606
ंडा▁	-14607
अन्ड	-14608
आराम	-14609
आसन▁	-14610
इस्ट	-14611
एन्ड	-14612
एमाल	-14613
कर्क	-14614
कांग	-14615
काइ▁	-14616
कुब्	-14617
केरा	-14618
खला▁	-14619
गान्	-14620
गिरी	-14621
गोडा	-14622
गोन्	-14623
घाँस	-14624
घाउ▁	-14625
घेरा	-14626
चान्	-14627
चिनी	-14628
छरे▁	-14629
जुट▁	-14630
टिभी	-14631
ढाक्	-14632
तारो	-14633
तीनव	-14634
तुवा	-14635
थरी▁	-14636
थोप्	-14637
दिङ्	-14638
दुष्	-14639
धुरा	-14640
धुरी	-14641
नयन▁	-14642
नरम▁	-14643
नाका	-14644
नैति	-14645
पकड▁	-14646
पखाल	-14647
पाखु	-14648
पाटी	-14649
पिंध	-14650
प्रौ	-14651
फाँट	-14652
फेर▁	-14653
बडी▁	-14654
बढाए	-14655
बनी▁	-14656
बहाल	-14657
बाटु	-14658
बिस▁	-14659
बोधि	-14660
ब्र▁	-14661
भरा▁	-14662
भर्ख	-14663
भान▁	-14664
भिजा	-14665
मनाइ	-14666
मन्ड	-14667
महसू	-14668
माफ▁	-14669
मिर▁	-14670
मिसी	-14671
मेन▁	-14672
मोल▁	-14673
मोहो	-14674
म्प▁	-14675
रमाई	-14676
रहनु	-14677
रुचि	-14678
र्ग▁	-14679
र्छ▁	-14680
लिला	-14681
विध्	-14682
व्यं	-14683
श्नु	-14684
संभू	-14685
सजाय	-14686
सजाव	-14687
सास▁	-14688
सुहा	-14689
सेर्	-14690
सेलि	-14691
स्लो	-14692
स्वै	-14693
हटाइ	-14694
हाम▁	-14695
हास▁	-14696
हिं▁	-14697
हैहय	-14698
ह्यु	-14699
ीकरण	-14700
ंगता▁	-14701
अजरबै	-14702
अठार▁	-14703
अधिकृ	-14704
अनिश्	-14705
अब्रा	-14706
इनको▁	-14707
इलेक्	-14708
एकाई▁	-14709
कान्य	-14710
काल्प	-14711
कुलघा	-14712
कुष्ठ	-14713
केबल▁	-14714
कोइली	-14715
खर्क▁	-14716
खाद्य	-14717
गढवाल	-14718
गुणा▁	-14719
गुह्य	-14720
चौकी▁	-14721
जवासी	-14722
जाग्र	-14723
जाले▁	-14724
टर्की	-14725
ढुकढु	-14726
तत्र▁	-14727
ताइपे	-14728
त्वं▁	-14729
दरले▁	-14730
दाउन्	-14731
दिगो▁	-14732
दुखी▁	-14733
दुर्र	-14734
देउरा	-14735
देही▁	-14736
धरोहर	-14737
ध्यान	-14738
नचिके	-14739
नरिवल	-14740
नियर▁	-14741
न्दै▁	-14742
पकको▁	-14743
पछाडि	-14744
पट्ट▁	-14745
पदवी▁	-14746
पनमा▁	-14747
पहुँच	-14748
पाचन▁	-14749
पारस्	-14750
पालो▁	-14751
पितृ▁	-14752
पौडेल	-14753
प्दै▁	-14754
फट्या	-14755
बनाइ▁	-14756
बराल▁	-14757
बायाँ	-14758
बिहान	-14759
बुढी▁	-14760
भन्ने	-14761
भूषा▁	-14762
भेदन▁	-14763
भैलो▁	-14764
मच्छि	-14765
मजदुर	-14766
मन्द▁	-14767
मर्म▁	-14768
मार्च	-14769
मौर्य	-14770
राना▁	-14771
रालो▁	-14772
रिजर्	-14773
रिने▁	-14774
रूपले	-14775
रूवा▁	-14776
लसुन▁	-14777
लागत▁	-14778
लायक▁	-14779
लिटर▁	-14780
लीका▁	-14781
लेबना	-14782
लोले▁	-14783
विनय▁	-14784
विषेश	-14785
वीरे▁	-14786
वेको▁	-14787
व्यास	-14788
शाण्ड	-14789
संग्र	-14790
सक्रा	-14791
साइकल	-14792
साउथ▁	-14793
सार्थ	-14794
सिको▁	-14795
सुगम▁	-14796
सैनी▁	-14797
स्काउ	-14798
स्केट	-14799
िकाई▁	-14800
१९५१▁	-14801
अगष्ट▁	-14802
अगस्त▁	-14803
अघिका▁	-14804
अघिको▁	-14805
अण्डा▁	-14806
अरबका▁	-14807
अर्न्त	-14808
अव्यय▁	-14809
अशक्त▁	-14810
आंध्र▁	-14811
आगामी▁	-14812
आहमेद▁	-14813
इटाली▁	-14814
उठाउन▁	-14815
उर्ध्व	-14816
कानको▁	-14817
कारीक▁	-14818
कास्य▁	-14819
कुन्ति	-14820
कैयौँ▁	-14821
कैलाली	-14822
ग्यास▁	-14823
घन्टा▁	-14824
चर्चित	-14825
जन्तु▁	-14826
जापाठ▁	-14827
तहलाई▁	-14828
तिएको▁	-14829
तिनले▁	-14830
त्विक▁	-14831
थर्मल▁	-14832
दाउरा▁	-14833
दिएमा▁	-14834
नन्दा▁	-14835
निपुण▁	-14836
पठाएर▁	-14837
पदभार▁	-14838
परेकी▁	-14839
पुतना▁	-14840
पुष्प▁	-14841
फरिया▁	-14842
फर्कन▁	-14843
बगाले▁	-14844
बजाएर▁	-14845
बस्यो▁	-14846
बाजार▁	-14847
बादमा▁	-14848
भएनन्▁	-14849
भग्नाव	-14850
भाइरस▁	-14851
भारतका	-14852
महलमा▁	-14853
मापेहो	-14854
मार्क्	-14855
म्यान▁	-14856
यात्रु	-14857
यानको▁	-14858
युगका▁	-14859
युनेस्	-14860
यौनिक▁	-14861
रहेकोछ	-14862
रहोस्▁	-14863
राख्दछ	-14864
रुद्ध▁	-14865
रुष्ट▁	-14866
रोपनी▁	-14867
लिगले▁	-14868
वादका▁	-14869
वृष्णि	-14870
व्याया	-14871
शस्त्र	-14872
षिलाई▁	-14873
ष्कृत▁	-14874
सङ्कट▁	-14875
सहभागि	-14876
सिलेट▁	-14877
सुदुर▁	-14878
सुब्बा	-14879
सेरले▁	-14880
सौहार्	-14881
स्टाइन	-14882
स्ट्रो	-14883
स्थापन	-14884
ारखण्ड	-14885
ौताको▁	-14886
अग्रसर▁	-14887
अजन्मा▁	-14888
अज्ञात▁	-14889
अनेकौं▁	-14890
अमृतसर▁	-14891
अवसरको▁	-14892
आपूर्ति	-14893
आश्चर्य	-14894
इलाममा▁	-14895
उत्थान▁	-14896
उनीहरु▁	-14897
कबड्डी▁	-14898
कश्मीर▁	-14899
कष्टकर▁	-14900
कस्तुरी	-14901
कागजात▁	-14902
कार्तवि	-14903
क्यानडा	-14904
खेल्नु▁	-14905
गिरिजा▁	-14906
गोरखाली	-14907
गौतमले▁	-14908
ग्रीष्म	-14909
घुम्ने▁	-14910
घोडाको▁	-14911
चर्यको▁	-14912
चाहेको▁	-14913
चिनारी▁	-14914
चिन्ता▁	-14915
छोरीको▁	-14916
जगदम्बा	-14917
जताततै▁	-14918
जागरुक▁	-14919
जान्थे▁	-14920
जितेकी▁	-14921
टिस्टा▁	-14922
टेश्वर▁	-14923
टोकेको▁	-14924
डेनमार्	-14925
दिव्री▁	-14926
धरानको▁	-14927
धारिलो▁	-14928
नमस्ते▁	-14929
नारदले▁	-14930
निजलाई▁	-14931
निष्ठा▁	-14932
पश्चात्	-14933
पिकनिक▁	-14934
प्रकाशि	-14935
प्रसङ्ग	-14936
प्राप्त	-14937
फलामको▁	-14938
फासिस्ट	-14939
बजाउदै▁	-14940
बजेटको▁	-14941
बन्देज▁	-14942
बाबजुद▁	-14943
बालाजु▁	-14944
बास्केट	-14945
बुवाको▁	-14946
ब्रह्मण	-14947
भनिनेछ▁	-14948
भिक्षु▁	-14949
भियतनाम	-14950
भोजनको▁	-14951
भ्रमित▁	-14952
मानवको▁	-14953
मारेका▁	-14954
मियाको▁	-14955
मुखबाट▁	-14956
म्बरका▁	-14957
यसलाईबढ	-14958
यात्रु▁	-14959
राख्छन्	-14960
रोमाञ्च	-14961
लिच्छवि	-14962
लिस्नो▁	-14963
लेख्नु▁	-14964
लोककथा▁	-14965
वर्णसङ्	-14966
विद्युत	-14967
विर्ता▁	-14968
वीरहरु▁	-14969
वेबसाइट	-14970
शासकले▁	-14971
शाहीले▁	-14972
श्रमको▁	-14973
सत्कार▁	-14974
सन्यास▁	-14975
समष्टि▁	-14976
समुचित▁	-14977
सहरबाट▁	-14978
साहसिक▁	-14979
सिनाले▁	-14980
सिस्नो▁	-14981
सेवनले▁	-14982
स्कन्द▁	-14983
स्थलका▁	-14984
स्थामा▁	-14985
हाल्यो▁	-14986
हेरचाह▁	-14987
अपरिवर्त	-14988
अपांगता▁	-14989
अविनाशी▁	-14990
आत्मकथा▁	-14991
आश्रमको▁	-14992
उदाउँदो▁	-14993
उपचारका▁	-14994
उपभोग्य▁	-14995
करुणाले▁	-14996
कानुनले▁	-14997
किलोमिटर	-14998
खगोलविद्	-14999
खान्छन्▁	-15000
खेलिएको▁	-15001
गइरहेको▁	-15002
गर्भबाट▁	-15003
गोकुलमा▁	-15004
गोरखाका▁	-15005
चाैरीको▁	-15006
चुनावको▁	-15007
जनशक्ति▁	-15008
जन्माष्ट	-15009
जलाशयमा▁	-15010
तत्वहरू▁	-15011
दाउन्ने▁	-15012
नमान्ने▁	-15013
निवासमा▁	-15014
न्वारान▁	-15015
परिश्रम▁	-15016
पोखराका▁	-15017
पोखरीका▁	-15018
प्युठान▁	-15019
प्रजनन्▁	-15020
प्रभुका▁	-15021
प्रसङ्ग▁	-15022
प्रहरीको	-15023
फर्केको▁	-15024
फैलाउने▁	-15025
फोर्सले▁	-15026
बर्मामा▁	-15027
बाजाहरू▁	-15028
ब्रजवासी	-15029
भण्डारी▁	-15030
भाँडाकुँ	-15031
भारद्वाज	-15032
मनपर्ने▁	-15033
मलेसिया▁	-15034
मान्दछन्	-15035
मार्फत्▁	-15036
मेसोपोटा	-15037
रक्तचाप▁	-15038
रङ्गशाला	-15039
लेख्नको▁	-15040
लेनेपाल▁	-15041
वर्षअघि▁	-15042
विभूषित▁	-15043
विरोधको▁	-15044
संग्राहल	-15045
समालोचना	-15046
समेतलाई▁	-15047
सेकेन्ड▁	-15048
सेवाबाट▁	-15049
हुन्छिन्	-15050
अधिवक्ता▁	-15051
अनुरोधमा▁	-15052
अविश्वास▁	-15053
एकआधारहो▁	-15054
एतिहासिक▁	-15055
कञ्चनपुर▁	-15056
कपिलवस्तु	-15057
कान्यकुब्	-15058
कारहरूमा▁	-15059
कोर्षापण▁	-15060
क्षत्रिय▁	-15061
खण्डकाव्य	-15062
खानेपानी▁	-15063
खेलकुदका▁	-15064
गुजरातको▁	-15065
गोपहरूले▁	-15066
ङ्गेश्वर▁	-15067
चांदीबाट▁	-15068
चाहन्छन्▁	-15069
तन्त्रका▁	-15070
दक्षिणको▁	-15071
देवतालाई▁	-15072
निबन्धका▁	-15073
निर्वाचक▁	-15074
निस्केका▁	-15075
परिषद्का▁	-15076
पाण्डेको▁	-15077
पुत्रहरू▁	-15078
पुस्ताका▁	-15079
पुस्ताको▁	-15080
पुस्ताले▁	-15081
प्यागोडा▁	-15082
प्रसारित▁	-15083
फेडेरेसन▁	-15084
फेब्रुअरी	-15085
बङ्गालका▁	-15086
बनाउँछन्▁	-15087
बनारसबाट▁	-15088
बिरामीको▁	-15089
ब्यबस्था▁	-15090
ब्याख्या▁	-15091
मूर्तिमा▁	-15092
रामचन्द्र	-15093
रेग्मीले▁	-15094
विपक्षमा▁	-15095
शाकाहारी▁	-15096
शिवाजीले▁	-15097
संखुवासभा	-15098
संरचनाका▁	-15099
संरचनागत▁	-15100
संसारलाई▁	-15101
सदनात्मक▁	-15102
सन्तुलित▁	-15103
सम्पदाको▁	-15104
सरकारसँग▁	-15105
सिखहरूको▁	-15106
सिङ्गापुर	-15107
स्रोतहरू▁	-15108
हनुमानले▁	-15109
अध्ययनबाट▁	-15110
अभिवृद्धि▁	-15111
अवधारणाको▁	-15112
अस्पतालको▁	-15113
कुम्भकर्ण▁	-15114
कृष्णालाई▁	-15115
गोपीनीहरू▁	-15116
घटनाहरूको▁	-15117
चलचित्रका▁	-15118
छुट्याएको▁	-15119
जातजातिले▁	-15120
जातिहरूमा▁	-15121
जानकारीको▁	-15122
ताइवानलाई▁	-15123
निस्किएको▁	-15124
परिकल्पना▁	-15125
पारस्परिक▁	-15126
पार्टीबाट▁	-15127
प्रतिबिम्ब	-15128
प्रदर्शित▁	-15129
प्रदेशलाई▁	-15130
प्रभावलाई▁	-15131
फटयाङ्ग्रा	-15132
भित्रिएको▁	-15133
यान्देक्स▁	-15134
योजनाबद्ध▁	-15135
रोजगारीका▁	-15136
विश्वेश्वर	-15137
विस्तारित▁	-15138
वेबसाइटको▁	-15139
व्यवसायमा▁	-15140
शब्दहरूको▁	-15141
सत्याग्रह▁	-15142
सांस्कृतिक	-15143
सिङ्गापुर▁	-15144
सिद्धिचरण▁	-15145
सूत्रकविता	-15146
स्त्रीहरु▁	-15147
हत्याकाण्ड	-15148
हानाहानमा▁	-15149
अर्घाखाँची▁	-15150
आइन्स्टाइन▁	-15151
आम्बेडकरले▁	-15152
उत्तराखण्ड▁	-15153
कार्यकर्ता▁	-15154
कार्यकालको▁	-15155
क्यालेन्डर▁	-15156
क्रिश्चियन▁	-15157
गृहमन्त्री▁	-15158
चन्द्रमाको▁	-15159
नियुक्तिका▁	-15160
निर्देशनमा▁	-15161
निष्कर्षमा▁	-15162
न्यायपालिका	-15163
पुराणहरूमा▁	-15164
प्रमाणीकरण▁	-15165
ब्राह्मणको▁	-15166
माथेमामाथि▁	-15167
यिनीहरूलाई▁	-15168
राष्ट्रलाई▁	-15169
शक्तिहरूको▁	-15170
सङ्खुवासभा▁	-15171
समस्यादेखि▁	-15172
सूत्रात्मक▁	-15173
सैनिकहरुका▁	-15174
अङ्ग्रेजीको▁	-15175
त्यागिदिएको▁	-15176
पितृकार्यको▁	-15177
प्रतिबद्धता▁	-15178
प्रयोगकर्ता▁	-15179
ब्रह्मपुत्र▁	-15180
राज्याभिषेक▁	-15181
वायुमण्डलमा▁	-15182
वीरेन्द्रले▁	-15183
श्रीलङ्काली▁	-15184
सन्धिअनुसार▁	-15185
सफलतापूर्वक▁	-15186
सम्प्रदायका▁	-15187
अधिकारीहरूको▁	-15188
उत्तरदायित्व▁	-15189
न्यायाधीशलाई▁	-15190
पत्रकारिताको▁	-15191
प्रान्तहरूमा▁	-15192
मुद्रास्फीति▁	-15193
राष्ट्रसंघको▁	-15194
लिच्छविकालमा▁	-15195
विकिपिडियामा▁	-15196
विद्यार्थीले▁	-15197
विमानस्थलबाट▁	-15198
समानुपातिकमा▁	-15199
अस्ट्रेलियाको▁	-15200
पार्टीनेपालको▁	-15201
हिन्दूपञ्चाङ्ग	-15202
बालबालिकाहरूको▁	-15203
राज्यहरियाणाको▁	-15204
ईस	-15205
उं	-15206
घू	-15207
टं	-15208
बट	-15209
लघ	-15210
ेण	-15211
९०	-15212
अटा	-15213
अमृ	-15214
अस्	-15215
आहु	-15216
एस्	-15217
कमी	-15218
कयौ	-15219
कवा	-15220
किट	-15221
कोह	-15222
खार	-15223
खिल	-15224
खोक	-15225
गजल	-15226
गौँ	-15227
चुन	-15228
जनै	-15229
जाड	-15230
जाफ	-15231
जेठ	-15232
टिन	-15233
डाल	-15234
णे▁	-15235
नहु	-15236
पठन	-15237
पने	-15238
पाङ	-15239
पेश	-15240
बले	-15241
भदौ	-15242
भरो	-15243
मका	-15244
रञ्	-15245
रसि	-15246
रुस	-15247
लेक	-15248
विं	-15249
शक▁	-15250
षी▁	-15251
सस▁	-15252
सुत	-15253
हट्	-15254
हाड	-15255
होस	-15256
ाइ▁	-15257
्नु	-15258
अछाम	-15259
अभिष	-15260
अलौ▁	-15261
आवास	-15262
उतार	-15263
एमए▁	-15264
करं▁	-15265
कली▁	-15266
कहाँ	-15267
काटे	-15268
कामी	-15269
किल▁	-15270
कोश▁	-15271
गिन▁	-15272
गुडी	-15273
गोस्	-15274
गोही	-15275
गौरव	-15276
ग्वा	-15277
चरित	-15278
चियो	-15279
च्यू	-15280
छेउ▁	-15281
छौं▁	-15282
जवाफ	-15283
जाना	-15284
जेन▁	-15285
ट्यू	-15286
ड्रि	-15287
ण्ट▁	-15288
तस्क	-15289
तान▁	-15290
तालु	-15291
तीर▁	-15292
दन्त	-15293
दाँ▁	-15294
दुख्	-15295
दुरा	-15296
दूर्	-15297
धुन▁	-15298
नभइ▁	-15299
नरत▁	-15300
नाना	-15301
नास्	-15302
नेट▁	-15303
नोर्	-15304
न्टे	-15305
न्ता	-15306
पहें	-15307
पिशा	-15308
प्रक	-15309
प्रग	-15310
फुट▁	-15311
फोर▁	-15312
फोहो	-15313
बराल	-15314
बारे	-15315
बीज▁	-15316
बेक्	-15317
ब्यु	-15318
भइन्	-15319
भारो	-15320
भावा	-15321
भोगा	-15322
मनु▁	-15323
मरी▁	-15324
मादी	-15325
मानो	-15326
मायू	-15327
मारू	-15328
मिस▁	-15329
मुगु	-15330
मोल्	-15331
यसी▁	-15332
येन▁	-15333
राजु	-15334
राप्	-15335
रुल▁	-15336
रूढ▁	-15337
रूस▁	-15338
रेवा	-15339
रोड▁	-15340
र्के	-15341
लेफ्	-15342
वनार	-15343
वादि	-15344
विस▁	-15345
शाब्	-15346
संत▁	-15347
समना	-15348
साय▁	-15349
सारा	-15350
सुल्	-15351
सेक▁	-15352
हामी	-15353
हाला	-15354
हिर्	-15355
ेता▁	-15356
ँलाई▁	-15357
ंबाट▁	-15358
अचेल▁	-15359
अच्यु	-15360
अनन्त	-15361
अलिक▁	-15362
आफनो▁	-15363
आवरण▁	-15364
ईबाट▁	-15365
उज्बे	-15366
उठाए▁	-15367
उबाट▁	-15368
उसका▁	-15369
एकअर्	-15370
एसिड▁	-15371
कटवाल	-15372
कथित▁	-15373
काभ्र	-15374
कामधे	-15375
कुना▁	-15376
कुला▁	-15377
कोटी▁	-15378
कोदाल	-15379
कोमल▁	-15380
क्रूर	-15381
क्षय▁	-15382
खड्का	-15383
खाजा▁	-15384
गन्धा	-15385
गरीब▁	-15386
गर्भा	-15387
गानो▁	-15388
ग्याल	-15389
ग्राह	-15390
ग्वेद	-15391
चन्द▁	-15392
चल्यो	-15393
चेली▁	-15394
चोटि▁	-15395
च्छा▁	-15396
जहां▁	-15397
जाँड▁	-15398
जाँदा	-15399
जिनपि	-15400
जोशी▁	-15401
टाले▁	-15402
टिकट▁	-15403
टोले▁	-15404
ड्के▁	-15405
तनाव▁	-15406
तरङ्ग	-15407
तरबार	-15408
तारे▁	-15409
तोरी▁	-15410
थाल्छ	-15411
थिईन्	-15412
दमाहा	-15413
दराई▁	-15414
दशमी▁	-15415
दाम्प	-15416
दिनमा	-15417
दिनाज	-15418
देशको	-15419
नाजी▁	-15420
नारा▁	-15421
[...]
