{"!":0,",":1,"-":2,".":3,"?":4,"ँ":5,"ं":6,"ः":7,"अ":8,"आ":9,"इ":10,"ई":11,"उ":12,"ऊ":13,"ऋ":14,"ए":15,"ऐ":16,"ऑ":17,"ऒ":18,"ओ":19,"औ":20,"क":21,"ख":22,"ग":23,"घ":24,"ङ":25,"च":26,"छ":27,"ज":28,"झ":29,"ञ":30,"ट":31,"ठ":32,"ड":33,"ढ":34,"ण":35,"त":36,"थ":37,"द":38,"ध":39,"न":40,"ऩ":41,"प":42,"फ":43,"ब":44,"भ":45,"म":46,"य":47,"र":48,"ऱ":49,"ल":50,"ळ":51,"व":52,"श":53,"ष":54,"स":55,"ह":56,"़":57,"ऽ":58,"ा":59,"ि":60,"ी":61,"ु":62,"ू":63,"ृ":64,"ॅ":65,"े":66,"ै":67,"ॉ":68,"ॊ":69,"ो":70,"ौ":71,"्":72,"ॐ":73,"॑":74,"॒":75,"ॠ":76,"।":77,"॥":78,"०":79,"१":80,"२":81,"३":82,"४":83,"५":84,"६":85,"७":86,"८":87,"९":88,"॰":89,"को":90,"मा":91,"्र":92,"न्":93,"का":94,"र्":95,"--":96,"्य":97,"ला":98,"रा":99,"ने":100,"स्":101,"ले":102,"रू":103,"नि":104,"प्र":105,"यो":106,"ना":107,"वि":108,"पा":109,"----":110,"क्":111,"ति":112,"ार":113,"हरू":114,"वा":115,"गर":116,"ता":117,"थि":118,"त्र":119,"लाई":120,"म्":121,"बा":122,"था":123,"सा":124,"हु":125,"हा":126,"एको":127,"त्":128,"गर्":129,"न्छ":130,"दे":131,"्या":132,"क्ष":133,"------":134,"नी":135,"न्द":136,"ल्":137,"हि":138,"या":139,"हो":140,"लि":141,"यस":142,"जा":143,"त्य":144,"रि":145,"भा":146,"द्":147,"ेको":148,"ष्":149,"ङ्":150,"दा":151,"नु":152,"पु":153,"सि":154,"ली":155,"सं":156,"दि":157,"जि":158,"कार":159,"गा":160,"पनि":161,"ती":162,"रह":163,"मु":164,"राज":165,"मि":166,"थियो":167,"नेपा":168,"कु":169,"एक":170,"बाट":171,"उन":172,"कि":173,"रु":174,"लो":175,"री":176,"सम्":177,"स्था":178,"गरि":179,"ेर":180,"धि":181,"धा":182,"गि":183,"छन्":184,"थिए":185,"सु":186,"टा":187,"चि":188,"श्":189,"शा":190,"ष्ट":191,"स्त":192,"के":193,"भएको":194,"ेका":195,"भि":196,"सम":197,"यु":198,"नेपाल":199,"पू":200,"छि":201,"रूप":202,"ल्ला":203,"नै":204,"से":205,"खि":206,"चा":207,"पर्":208,"वर्":209,"क्र":210,"न्त":211,"एका":212,"देश":213,"तथा":214,"२०":215,"भार":216,"दु":217,"न्त्र":218,"जिल्ला":219,"लागि":220,"नको":221,"खा":222,"रहेको":223,"हरूको":224,"पछि":225,"नो":226,"द्ध":227,"जन":228,"पूर्":229,"ष्ट्र":230,"व्य":231,"ङ्ग":232,"दी":233,"रूपमा":234,"योग":235,"क्षे":236,"ध्य":237,"हुन्छ":238,"ण्":239,"दै":240,"कृ":241,"वी":242,"रो":243,"भने":244,"आफ":245,"मे":246,"क्षेत्र":247,"समा":248,"उँ":249,"डा":250,"बि":251,"सन्":252,"ही":253,"तर":254,"की":255,"बै":256,"्रा":257,"प्रा":258,"१९":259,"देखि":260,"शि":261,"गर्ने":262,"नमा":263,"पि":264,"मी":265,"निर्":266,"राष्ट्र":267,"मुख":268,"प्":269,"ण्ड":270,"न्य":271,"राज्य":272,"र्य":273,"क्त":274,"जी":275,"उप":276,"वे":277,"न्न":278,"रण":279,"जु":280,"आफ्":281,"अनु":282,"गो":283,"रे":284,"श्र":285,"खे":286,"गर्न":287,"न्द्र":288,"प्रति":289,"परि":290,"उत्":291,"डि":292,"भारत":293,"त्यस":294,"हाँ":295,"न्दा":296,"त्व":297,"गु":298,"भए":299,"िय":300,"सह":301,"सो":302,"ञ्":303,"टि":304,"ग्":305,"श्व":306,"सर":307,"षा":308,"सार":309,"मान":310,"उनी":311,"महा":312,"सम्म":313,"अव":314,"क्ति":315,"सी":316,"पुर":317,"हरूमा":318,"गरी":319,"भाग":320,"णा":321,"भन्दा":322,"सबै":323,"हुन्":324,"ँग":325,"मन्त्र":326,"ब्":327,"गरिएको":328,"उने":329,"लको":330,"गत":331,"स्ता":332,"मानि":333,"धार":334,"बु":335,"गरे":336,"गरेका":337,"लमा":338,"अर्":339,"बे":340,"नाम":341,"ग्र":342,"निक":343,"कर्":344,"मो":345,"सँग":346,"आफ्नो":347,"धान":348,"हरूले":349,"्रो":350,"दछ":351,"बना":352,"मध्य":353,"्यो":354,"स्व":355,"ज्":356,"लय":357,"हुने":358,"नेपाली":359,"च्":360,"सङ्":361,"चार":362,"वार":363,"एर":364,"भाषा":365,"हे":366,"हरु":367,"ठा":368,"राजा":369,"जना":370,"न्ध":371,"गरेको":372,"पहि":373,"उनले":374,"लेख":375,"पर":376,"बी":377,"लगा":378,"वर्ष":379,"तिक":380,"सको":381,"डी":382,"टी":383,"मन्त्री":384,"क्रम":385,"रको":386,"अधि":387,"कार्य":388,"अन्त":389,"ुट":390,"पूर्ण":391,"स्थि":392,"दिन":393,"धेर":394,"तीय":395,"ची":396,"र्म":397,"न्दि":398,"रमा":399,"पाइ":400,"हरूलाई":401,"जो":402,"सद":403,"धेरै":404,"एउ":405,"लु":406,"साथ":407,"प्रयोग":408,"उनको":409,"भिन्न":410,"भू":411,"लन":412,"ज्ञ":413,"वन":414,"विद":415,"पति":416,"न्ने":417,"विश्व":418,"भयो":419,"ख्या":420,"क्षि":421,"यसको":422,"राम":423,"दान":424,"मन्दि":425,"भनि":426,"म्प":427,"बो":428,"मह":429,"छा":430,"प्त":431,"वै":432,"गी":433,"शी":434,"शु":435,"द्वा":436,"मात्र":437,"लिका":438,"भएका":439,"एउटा":440,"पो":441,"शास":442,"समय":443,"टो":444,"कुनै":445,"अन्य":446,"सरकार":447,"रहेका":448,"शे":449,"महि":450,"स्थाप":451,"कै":452,"नेपालको":453,"यि":454,"पश्":455,"नगर":456,"विभिन्न":457,"गरिन्छ":458,"क्षा":459,"बढ":460,"व्यव":461,"अनुसार":462,"काम":463,"ते":464,"सेना":465,"छो":466,"र्थ":467,"बल":468,"देव":469,"सू":470,"हुन":471,"जुन":472,"फा":473,"बार":474,"ल्या":475,"व्या":476,"ष्ण":477,"सक्":478,"राष्ट्रिय":479,"षि":480,"द्वारा":481,"दो":482,"मुख्य":483,"धर्म":484,"हुँ":485,"जार":486,"यत":487,"यी":488,"युद्ध":489,"भन्ने":490,"भारतीय":491,"जस":492,"टे":493,"ौँ":494,"स्थ":495,"यन":496,"केही":497,"पूर्व":498,"००":499,"मार्":500,"प्रमुख":501,"..":502,"पे":503,"कारण":504,"ेत":505,"जन्":506,"गर्दछ":507,"प्रधान":508,"टक":509,"प्रदेश":510,"ट्":511,"सम्ब":512,"तन्त्र":513,"आदि":514,"र्व":515,"स्थित":516,"फल":517,"ीय":518,"नदी":519,"सकि":520,"यहाँ":521,"माण":522,"पालिका":523,"विद्या":524,"तु":525,"टर":526,"श्री":527,"स्य":528,"करण":529,"खो":530,"हिन्द":531,"जे":532,"ज्ञा":533,"मन्दिर":534,"चल":535,"पहिलो":536,"मू":537,"ताको":538,"पद":539,"ब्र":540,"मृ":541,"न्ति":542,"बेला":543,"चित":544,"इन्":545,"युक्त":546,"गाउँ":547,"ंग":548,"भनिन्छ":549,"दक्षि":550,"नका":551,"वं":552,"पश्चि":553,"न्या":554,"सै":555,"स्थापना":556,"जाति":557,"१८":558,"स्तु":559,"भग":560,"शेष":561,"गर्नु":562,"भाव":563,"सिं":564,"दक्षिण":565,"भु":566,"कारी":567,"दुई":568,"ठू":569,"भे":570,"ख्":571,"पानी":572,"स्तै":573,"तिहा":574,"पर्ने":575,"खु":576,"काठ":577,"वास":578,"फुट":579,"विका":580,"क्षेत्रमा":581,"तो":582,"जिल्लाको":583,"बर":584,"हार":585,"डे":586,"समेत":587,"प्रकार":588,"कम":589,"संस्":590,"स्थान":591,"क्रि":592,"याँ":593,"निय":594,"सामा":595,"पी":596,"भारतको":597,"घा":598,"तको":599,"ैन":600,"कको":601,"चु":602,"त्त्व":603,"आधार":604,"दर्":605,"व्यक्ति":606,"अभि":607,"स्रो":608,"निर्वा":609,"त्या":610,"विशेष":611,"सङ्ख्या":612,"पार्":613,"मिक":614,"पाइन्छ":615,"दैन":616,"लोक":617,"चित्र":618,"प्राप्त":619,"स्ट":620,"िक":621,"जन्म":622,"भो":623,"पुरा":624,"ढा":625,"सभा":626,"नेपालमा":627,"मानिस":628,"मक":629,"स्तो":630,"धन":631,"साम":632,"मै":633,"२००":634,"हरूका":635,"निर्माण":636,"स्त्र":637,"ड्":638,"केन्द्र":639,"दर":640,"दछन्":641,"ित":642,"सहर":643,"वेश":644,"बहा":645,"नामा":646,"सबैभन्दा":647,"प्रधानमन्त्री":648,"कुरा":649,"दुर":650,"काठमा":651,"सकिन्छ":652,"।।":653,"महत्त्व":654,"न्थ":655,"गरेर":656,"घो":657,"मन":658,"सदस्य":659,"श्य":660,"ष्ठ":661,"बने":662,"उत्तर":663,"दन":664,"्रे":665,"खेल":666,"सञ्":667,"फि":668,"पश्चिम":669,"व्यवस्था":670,"भित्र":671,"कृष्ण":672,"ङ्गा":673,"चना":674,"सिंह":675,"देवी":676,"च्च":677,"राजनी":678,"तृ":679,"गर्दा":680,"२०१":681,"मेरि":682,"तमा":683,"सुरु":684,"धु":685,"वटा":686,"विष":687,"धी":688,"फुटबल":689,"गरा":690,"छैन":691,"द्र":692,"काल":693,"गण":694,"ठूलो":695,"समु":696,"हर":697,"हित":698,"तर्":699,"न्ड":700,"अध्य":701,"अमेरि":702,"इएको":703,"काठमाड":704,"मध्ये":705,"यसलाई":706,"सेवा":707,"मानिन्छ":708,"शक्ति":709,"ध्या":710,"वान":711,"काली":712,"वल":713,"लग":714,"वर":715,"वाद":716,"बीच":717,"विकास":718,"त्रि":719,"मको":720,"शाह":721,"्यु":722,"पर्व":723,"कृति":724,"साथै":725,"माथि":726,"सम्बन्ध":727,"नले":728,"क्षण":729,"कार्":730,"तामा":731,"ह्":732,"विद्यालय":733,"ठाउँ":734,"बहादुर":735,"हाल":736,"फे":737,"राय":738,"महिला":739,"डो":740,"त्यु":741,"सङ्ग":742,"त्रा":743,"कम्प":744,"कृत":745,"विश्":746,"वाह":747,"आर्":748,"चो":749,"सिया":750,"कमा":751,"क्या":752,"अधिकार":753,"नाले":754,"त्यसै":755,"मण":756,"वादी":757,"शन":758,"पृ":759,"उनका":760,"अवस्था":761,"पटक":762,"मृत्यु":763,"जय":764,"अन्तर":765,"जित":766,"नगरपालिका":767,"कर":768,"अन्तर्":769,"समयमा":770,"गर्छ":771,"साहि":772,"कुल":773,"गर्दै":774,"बस्":775,"प्रत्य":776,"क्रा":777,"राष्ट्रपति":778,"हुनु":779,"अर्थ":780,"तीन":781,"लगायत":782,"भूमि":783,"तन":784,"चलचित्र":785,"गे":786,"पत्":787,"त्यका":788,"उनलाई":789,"योजना":790,"किस्ता":791,"सर्":792,"दृ":793,"प्रका":794,"चौ":795,"तार":796,"अन्तर्गत":797,"जनसङ्ख्या":798,"वर्ण":799,"सफल":800,"बढी":801,"कर्ता":802,"दाय":803,"उल्":804,"भी":805,"साल":806,"त्यो":807,"अवस्थित":808,"तर्फ":809,"झा":810,"हुन्छन्":811,"शासन":812,"आएको":813,"वृ":814,"इन्छ":815,"पोख":816,"पाकिस्ता":817,"जस्ता":818,"त्मक":819,"शेर":820,"हिले":821,"लिक":822,"योगदान":823,"सिक":824,"छोरा":825,"परा":826,"चन":827,"रिक":828,"स्थल":829,"कवि":830,"घर":831,"दू":832,"सिद्ध":833,"बसो":834,"लामा":835,"योगि":836,"पर्छ":837,"कथा":838,"पार":839,"पाँ":840,"टु":841,"नीय":842,"केको":843,"द्धि":844,"गते":845,"पक्ष":846,"बास":847,"काठमाडौँ":848,"घि":849,"यसले":850,"धार्":851,"सुर":852,"दार":853,"यार":854,"विभाग":855,"तह":856,"संर":857,"गीत":858,"१७":859,"कुमा":860,"लाग्":861,"राख्":862,"जिल्लामा":863,"जस्तै":864,"सङ्घ":865,"ल्य":866,"स्वा":867,"इन":868,"उपत्यका":869,"ीको":870,"शिक्षा":871,"स्वतन्त्र":872,"ग्रह":873,"लित":874,"चीन":875,"काय":876,"गर्दछन्":877,"संवि":878,"इतिहा":879,"थे":880,"तिर":881,"उक्त":882,"ताल":883,"सालमा":884,"णाली":885,"प्रतियोगि":886,"पर्य":887,"अर्को":888,"जिक":889,"ौं":890,"संयुक्त":891,"बर्":892,"जसले":893,"महत्त्वपूर्ण":894,"साहित्य":895,"१०":896,"सामान्य":897,"भएर":898,"ल्ने":899,"हिमा":900,"रुप":901,"विषय":902,"नयाँ":903,"शै":904,"वर्ग":905,"मौ":906,"स्या":907,"उत्त":908,"उनु":909,"आव":910,"बाँ":911,"अमेरिका":912,"शो":913,"पत्र":914,"समाज":915,"्राष्ट्र":916,"ङ्क":917,"अन्तर्राष्ट्र":918,"विक":919,"शिव":920,"उद":921,"मत":922,"सर्व":923,"रिया":924,"कला":925,"लक्ष":926,"म्परा":927,"अन्तर्राष्ट्रिय":928,"णी":929,"परम्परा":930,"मना":931,"१२":932,"विधि":933,"क्ल":934,"उत्पा":935,"श्वर":936,"धारण":937,"पदा":938,"राजनीतिक":939,"षद":940,"ल्लो":941,"राज्यको":942,"चन्द्र":943,"तत्":944,"शम":945,"चिनि":946,"ज्य":947,"दुर्":948,"ल्ल":949,"पुन":950,"अस्":951,"न्छन्":952,"भर":953,"पूजा":954,"गढ":955,"दल":956,"विवाह":957,"ज्ञान":958,"मण्ड":959,"निम्":960,"उच्च":961,"तया":962,"पहा":963,"न्दो":964,"वीर":965,"द्धा":966,"सञ्चा":967,"थ्":968,"१५":969,"शास्त्र":970,"ष्टि":971,"सके":972,"थिक":973,"ङ्गला":974,"घट":975,"यक":976,"शरी":977,"सन":978,"लाग":979,"निधि":980,"दिए":981,"नेपालका":982,"ेक":983,"नाराय":984,"पर्दछ":985,"घोष":986,"गठ":987,"श्यक":988,"अङ्ग":989,"कृतिक":990,"धार्मिक":991,"परिवार":992,"ग्री":993,"छन":994,"भक्त":995,"उल्लेख":996,"म्बर":997,"आर्थिक":998,"नाथ":999,"नाको":1000,"मार्ग":1001,"अघि":1002,"पञ्":1003,"प्रसा":1004,"प्रसिद्ध":1005,"वेद":1006,"वंश":1007,"टिम":1008,"त्त":1009,"मिटर":1010,"थापा":1011,"लिन":1012,"....":1013,"बसोबास":1014,"तिमा":1015,"यसमा":1016,"२०७":1017,"पूर्वी":1018,"दोस्रो":1019,"अथ":1020,"कां":1021,"यसै":1022,"धानी":1023,"१६":1024,"देशको":1025,"रोग":1026,"१९७":1027,"जीवन":1028,"हिन्दू":1029,"मेर":1030,"पार्टी":1031,"तृत्व":1032,"बङ्गला":1033,"१९९":1034,"जीव":1035,"प्रदान":1036,"पृथ्":1037,"घोषणा":1038,"राणा":1039,"राजधानी":1040,"त्यसपछि":1041,"कम्पनी":1042,"प्रसाद":1043,"जसमा":1044,"आवश्यक":1045,"पृथ्वी":1046,"ब्रा":1047,"लक":1048,"शब्":1049,"गर्छन्":1050,"राई":1051,"आमा":1052,"प्रभाव":1053,"आधारमा":1054,"उद्":1055,"म्ब":1056,"र्ति":1057,"चलन":1058,"न्धि":1059,"र्मा":1060,"पुग":1061,"ठु":1062,"पुग्":1063,"सहयोग":1064,"रक":1065,"वस्तु":1066,"प्रणाली":1067,"साइ":1068,"बन्ध":1069,"यर":1070,"शता":1071,"त्यहाँ":1072,"प्रतिनिधि":1073,"ूल":1074,"भारतीयराज्य":1075,"क्रिया":1076,"धारा":1077,"केट":1078,"ब्दी":1079,"कप":1080,"जसको":1081,"राख":1082,"त्री":1083,"हिन्दु":1084,"हजार":1085,"शब्द":1086,"बजार":1087,"आन्दो":1088,"बहु":1089,"षण":1090,"नेतृत्व":1091,"विश्वास":1092,"काव्य":1093,"भाइ":1094,"संस्था":1095,"हुँदै":1096,"भव":1097,"पुरु":1098,"पाइने":1099,"दरबार":1100,"अनि":1101,"सलाई":1102,"राखि":1103,"कार्या":1104,"गौ":1105,"संविधान":1106,"शमशेर":1107,"ऋषि":1108,"जल":1109,"लिएको":1110,"गावि":1111,"अन्":1112,"सहित":1113,"ताका":1114,"एसिया":1115,"जङ्ग":1116,"जहाँ":1117,"अथवा":1118,"मल्ल":1119,"नारायण":1120,"स्थानमा":1121,"स्थानीय":1122,"विश्वविद्यालय":1123,"टन":1124,"मित":1125,"ममा":1126,"सक्ने":1127,"विभा":1128,"संग":1129,"गाउँपालिका":1130,"पाँच":1131,"चे":1132,"अफ":1133,"जब":1134,"प्रे":1135,"निकै":1136,"१४":1137,"मान्य":1138,"खेला":1139,"किलो":1140,"दिने":1141,"पित":1142,"मानव":1143,"प्रत्येक":1144,"टमा":1145,"प्रथ":1146,"क्रमण":1147,"बन्द":1148,"भौ":1149,"थिइन्":1150,"पुर्":1151,"रानी":1152,"च्छ":1153,"तिहासिक":1154,"अध्ययन":1155,"जान":1156,"एकी":1157,"कालीन":1158,"उपा":1159,"थ्यो":1160,"सले":1161,"शताब्दी":1162,"पन्न":1163,"कान":1164,"पाण्ड":1165,"त्ता":1166,"दाल":1167,"भनेर":1168,"प्रकारको":1169,"म्या":1170,"लामो":1171,"संघ":1172,"दुवै":1173,"हेर्":1174,"अहिले":1175,"करि":1176,"घु":1177,"थाले":1178,"कले":1179,"फर्":1180,"पहिले":1181,"यिनी":1182,"कर्ताहरूका":1183,"२०६":1184,"बनेको":1185,"गरिने":1186,"प्रथम":1187,"दश":1188,"हेक":1189,"पुरुष":1190,"फो":1191,"विरु":1192,"सित":1193,"निर्वाचन":1194,"भै":1195,"ूह":1196,"प्रजाति":1197,"पुत्र":1198,"वारी":1199,"तिको":1200,"आफ्ना":1201,"ुट्":1202,"त्यसैले":1203,"सूर्य":1204,"जसलाई":1205,"टको":1206,"बङ्गा":1207,"लाको":1208,"लक्ष्":1209,"लिपि":1210,"क्रान्ति":1211,"खेलाडी":1212,"फै":1213,"लै":1214,"राम्रो":1215,"हरी":1216,"बारे":1217,"आइ":1218,"विधा":1219,"विस्त":1220,"समुदाय":1221,"पोखरी":1222,"ऐतिहासिक":1223,"तः":1224,"द्य":1225,"हत्या":1226,"ग्रे":1227,"स्कार":1228,"समावेश":1229,"कीय":1230,"भगवान":1231,"अगा":1232,"्रि":1233,"थु":1234,"स्क":1235,"महिना":1236,"सक्छ":1237,"हरा":1238,"तम":1239,"बस":1240,"लेर":1241,"सां":1242,"भारतमा":1243,"भारतका":1244,"क्षेत्रको":1245,"एवं":1246,"नर":1247,"हरि":1248,"ृह":1249,"१९५":1250,"हुँदा":1251,"ठी":1252,"सम्पूर्ण":1253,"भागमा":1254,"क्रिकेट":1255,"चर्":1256,"लेखि":1257,"उँछ":1258,"प्राचीन":1259,"वर्षको":1260,"नौ":1261,"नागरि":1262,"अवस्थामा":1263,"बाहेक":1264,"प्राय":1265,"सय":1266,"विचार":1267,"म्बी":1268,"ब्रि":1269,"ग्रा":1270,"थर":1271,"बौ":1272,"म्भ":1273,"२५":1274,"समूह":1275,"देखिन्छ":1276,"सैनिक":1277,"अदाल":1278,"इरा":1279,"ढु":1280,"तीको":1281,"परिवर्":1282,"क्रममा":1283,"सूची":1284,"दर्शन":1285,"समि":1286,"१३":1287,"थो":1288,"भइ":1289,"गरियो":1290,"औँ":1291,"इतिहास":1292,"क्लब":1293,"न्धित":1294,"आज":1295,"उपनि":1296,"टै":1297,"आक्रमण":1298,"पौ":1299,"नेक":1300,"फु":1301,"भ्र":1302,"बाहि":1303,"ज्या":1304,"भएपछि":1305,"वरण":1306,"कर्म":1307,"प्रि":1308,"११":1309,"कोट":1310,"युरो":1311,"पुरस्कार":1312,"तान":1313,"गुरु":1314,"उत्पादन":1315,"सञ्चालन":1316,"कल":1317,"सकेको":1318,"स्वरूप":1319,"ठो":1320,"बता":1321,"आफू":1322,"अध्यक्ष":1323,"रामा":1324,"पाल":1325,"ठुलो":1326,"अत्य":1327,"सार्व":1328,"१९८":1329,"नेता":1330,"आत्":1331,"लाम":1332,"सामाजिक":1333,"अगाडि":1334,"लाल":1335,"देखा":1336,"मान्यता":1337,"जस्तो":1338,"शत":1339,"लिग":1340,"पुस्त":1341,"खण्ड":1342,"सानो":1343,"नियन्त्र":1344,"गति":1345,"परी":1346,"कालमा":1347,"विजय":1348,"म्मे":1349,"लिने":1350,"म्बा":1351,"अं":1352,"प्रवेश":1353,"देख":1354,"लिया":1355,"मनो":1356,"यस्तो":1357,"व्र":1358,"यात्रा":1359,"श्रे":1360,"न्थ्यो":1361,"१९६":1362,"निर्देश":1363,"भाषामा":1364,"खोला":1365,"वलम्बी":1366,"कार्यालय":1367,"३०":1368,"तिब्":1369,"गुण":1370,"पं":1371,"पाई":1372,"रहे":1373,"ष्णु":1374,"तिब्ब":1375,"माध्य":1376,"किन":1377,"गोर":1378,"नागरिक":1379,"ून":1380,"बाल":1381,"धिका":1382,"न्स":1383,"प्रजा":1384,"प्रिय":1385,"२०५":1386,"रचना":1387,"बङ्गलादेश":1388,"लक्ष्मी":1389,"प्रस्तु":1390,"यसका":1391,"ठाउँमा":1392,"सहा":1393,"सात":1394,"१९४":1395,"एपछि":1396,"भई":1397,"भएकाले":1398,"संस्कृत":1399,"गठन":1400,"यसरी":1401,"जिल्लाभारतीयराज्य":1402,"पश्चा":1403,"मूल":1404,"अध्या":1405,"लाख":1406,"सँगै":1407,"अन्त्य":1408,"०००":1409,"न्याया":1410,"अङ्ग्रे":1411,"सदर":1412,"र्थी":1413,"ल्यान्ड":1414,"उहाँ":1415,"जम्":1416,"विध":1417,"हुनाले":1418,"सम्बन्धी":1419,"फ्रा":1420,"जारी":1421,"कानु":1422,"अति":1423,"डु":1424,"ब्रह्":1425,"करिब":1426,"आउने":1427,"सौ":1428,"किरा":1429,"्राज्य":1430,"कट":1431,"जग":1432,"माओ":1433,"काको":1434,"निया":1435,"सरकारले":1436,"दर्श":1437,"कामा":1438,"र्ष":1439,"तालाई":1440,"साम्राज्य":1441,"बौद्ध":1442,"अप":1443,"इने":1444,"त्न":1445,"लीको":1446,"किसि":1447,"स्थापित":1448,"भनेको":1449,"बुद्ध":1450,"विदेश":1451,"परेको":1452,"गएको":1453,"नलाई":1454,"कृषि":1455,"विस्तार":1456,"आँ":1457,"च्या":1458,"मध्येको":1459,"आयोजना":1460,"पछ":1461,"चार्य":1462,"नियन्त्रण":1463,"सन्त":1464,"न्ट":1465,"विष्णु":1466,"निर्ण":1467,"प्रतिशत":1468,"लगभग":1469,"आयो":1470,"न्ती":1471,"देश्य":1472,"जिल्लाहरू":1473,"कार्यक्रम":1474,"सुरक्षा":1475,"विरुद्ध":1476,"भर्":1477,"सल":1478,"वर्त":1479,"प्रकाश":1480,"्न":1481,"नीति":1482,"संसार":1483,"प्रान्त":1484,"जको":1485,"स्ना":1486,"लीमा":1487,"हुनेछ":1488,"परिवर्तन":1489,"सका":1490,"भाषाको":1491,"लाग्ने":1492,"प्रतियोगिता":1493,"नीको":1494,"धिक":1495,"डिया":1496,"षित":1497,"नन्द":1498,"ताप":1499,"ल्प":1500,"त्यही":1501,"निर्वाचित":1502,"उत्तरी":1503,"शहर":1504,"युद्धमा":1505,"प्रदेशको":1506,"धुनिक":1507,"अन्ति":1508,"निर्णय":1509,"थी":1510,"संरक्षण":1511,"प्रया":1512,"सिक्":1513,"पुरानो":1514,"द्रा":1515,"चरा":1516,"पन":1517,"अर्था":1518,"ग्रन्थ":1519,"उमेर":1520,"जंग":1521,"पक":1522,"उँछन्":1523,"नामक":1524,"अग्":1525,"महे":1526,"२४":1527,"सम्बन्धित":1528,"लगायतका":1529,"मर":1530,"लेको":1531,"निर":1532,"हाम":1533,"सुन्द":1534,"आएका":1535,"मती":1536,"यही":1537,"सीमा":1538,"मोजि":1539,"केन्द्रीय":1540,"कुमार":1541,"प्रार":1542,"सरकारी":1543,"अस्प":1544,"वात":1545,"हात":1546,"जाने":1547,"त्यस्तै":1548,"थिएन":1549,"गृह":1550,"स्वी":1551,"मिश्र":1552,"उद्देश्य":1553,"ध्":1554,"फ्":1555,"ये":1556,"वार्":1557,"बनाउने":1558,"सरकारको":1559,"उद्यो":1560,"अन्तिम":1561,"हरूबाट":1562,"साधारण":1563,"नदीको":1564,"तत्कालीन":1565,"शरीर":1566,"अनेक":1567,"धर्मा":1568,"वासी":1569,"त्यसको":1570,"जमा":1571,"दशी":1572,"प्रशास":1573,"कुद":1574,"तेस्रो":1575,"इन्द्र":1576,"मुकाम":1577,"रोध":1578,"महाकाव्य":1579,"मात्रा":1580,"उपनिषद":1581,"ँडा":1582,"तयार":1583,"मका":1584,"रङ्ग":1585,"लका":1586,"उद्योग":1587,"इयो":1588,"झै":1589,"हरे":1590,"बाजा":1591,"लियो":1592,"न्याय":1593,"खेलकुद":1594,"२७":1595,"विमान":1596,"हामी":1597,"लिएर":1598,"जात्रा":1599,"रहने":1600,"शान्ति":1601,"छोरी":1602,"निम्न":1603,"विज्ञान":1604,"देवता":1605,"आधुनिक":1606,"शं":1607,"मिल":1608,"बुझ":1609,"क्षित":1610,"बस्ने":1611,"पदार्थ":1612,"घटना":1613,"राखिएको":1614,"ँदा":1615,"लब्":1616,"क्स":1617,"संसद":1618,"दिएको":1619,"२०४":1620,"मेल":1621,"आधिका":1622,"यम":1623,"ङ्ख":1624,"आन्दोलन":1625,"बमोजि":1626,"हन":1627,"शित":1628,"स्थिति":1629,"संस्कृति":1630,"कायम":1631,"अत्यन्त":1632,"छे":1633,"जर":1634,"रव":1635,"न्यु":1636,"प्रहरी":1637,"विक्रम":1638,"आधिकारिक":1639,"ढो":1640,"२८":1641,"अर्जुन":1642,"दौ":1643,"साना":1644,"सेन":1645,"मन्त्रा":1646,"प्रकारका":1647,"सञ्चार":1648,"पत्ति":1649,"दृष्टि":1650,"ंगा":1651,"कौ":1652,"चरण":1653,"बच्":1654,"वती":1655,"म्पि":1656,"मिला":1657,"युद्धको":1658,"भूमिका":1659,"माओवादी":1660,"चै":1661,"तै":1662,"पारि":1663,"मुलु":1664,"पिता":1665,"हिन्दी":1666,"भीम":1667,"फरक":1668,"नाव":1669,"रेल":1670,"विभाजन":1671,"मन्त्रालय":1672,"णि":1673,"भरि":1674,"सिल":1675,"मूर्ति":1676,"यस्ता":1677,"सेनाले":1678,"लोकप्रिय":1679,"पहाड":1680,"पठा":1681,"छिटा":1682,"भागी":1683,"पशु":1684,"हरण":1685,"२१":1686,"वित":1687,"क्षम":1688,"यान":1689,"डेर":1690,"यता":1691,"कोइरा":1692,"स्कृतिक":1693,"डियो":1694,"अमेरिकी":1695,"रुपमा":1696,"पहाडी":1697,"बाहिर":1698,"अरु":1699,"पन्":1700,"स्पति":1701,"ल्न":1702,"समस्या":1703,"युग":1704,"ञ्चल":1705,"गढी":1706,"गोरखा":1707,"गै":1708,"यती":1709,"लडा":1710,"क्षेत्रका":1711,"पूर्वमा":1712,"२२":1713,"ारी":1714,"बाबु":1715,"क्षी":1716,"तुल":1717,"बेलायत":1718,"धीश":1719,"ब्राह्":1720,"निका":1721,"भएकोले":1722,"बढा":1723,"बनेका":1724,"पुनः":1725,"बमोजिम":1726,"होस्":1727,"संख्या":1728,"पूरा":1729,"प्राकृतिक":1730,"उपलब्":1731,"हुँदैन":1732,"पछी":1733,"देख्":1734,"सुधार":1735,"ग्रहण":1736,"प्रस्तुत":1737,"सरी":1738,"लाइ":1739,"ल्पा":1740,"दिएका":1741,"मित्र":1742,"जनावर":1743,"पुराण":1744,"हरेक":1745,"षद्":1746,"माता":1747,"नाच":1748,"पाठ":1749,"द्वार":1750,"आफ्नै":1751,"विद्यार्थी":1752,"बारेमा":1753,"उमा":1754,"पै":1755,"पात":1756,"बाछिटा":1757,"आधारित":1758,"आठ":1759,"फूल":1760,"दिक":1761,"शाखा":1762,"देशमा":1763,"प्रतिनिधित्व":1764,"गाविस":1765,"वर्तमान":1766,"जरा":1767,"बजा":1768,"कारणले":1769,"महेन्द्र":1770,"नव":1771,"२३":1772,"सेनाको":1773,"ब्रिटि":1774,"जनिक":1775,"खान":1776,"अधिक":1777,"नियम":1778,"सार्वजनिक":1779,"कति":1780,"गल":1781,"किना":1782,"गोत्र":1783,"पञ्चा":1784,"अर":1785,"मल":1786,"वडा":1787,"वायु":1788,"रेन्द्र":1789,"नामले":1790,"मन्दिरमा":1791,"ठूला":1792,"बीचमा":1793,"जर्म":1794,"ह्र":1795,"ेश":1796,"५०":1797,"यात":1798,"ण्डा":1799,"समान":1800,"ग्न":1801,"सामान्यतया":1802,"सदरमुकाम":1803,"इस्":1804,"कहरू":1805,"वरी":1806,"खित":1807,"सहभागी":1808,"ट्ट":1809,"चोक":1810,"पाकिस्तानी":1811,"घरमा":1812,"चला":1813,"रै":1814,"२६":1815,"नाइ":1816,"लिखित":1817,"सिद्धा":1818,"न्यायाधीश":1819,"कसै":1820,"भन्":1821,"मर्":1822,"हनु":1823,"माको":1824,"निकाय":1825,"गोल":1826,"प्रत्यक्ष":1827,"किलोमिटर":1828,"उचा":1829,"पढ":1830,"मले":1831,"पाउने":1832,"सालको":1833,"पर्यट":1834,"छुट्":1835,"ीत":1836,"त्रु":1837,"दिनु":1838,"खाना":1839,"जोडि":1840,"यिक":1841,"श्रेष्ठ":1842,"जम्मा":1843,"अक्":1844,"तल":1845,"एकादशी":1846,"परिषद्":1847,"दृश्य":1848,"कविता":1849,"ब्य":1850,"सत्य":1851,"पात्र":1852,"साँ":1853,"एफ":1854,"हम":1855,"लिङ":1856,"बनाउन":1857,"अङ्ग्रेजी":1858,"उदा":1859,"गए":1860,"सचि":1861,"तियार":1862,"दिव":1863,"गिक":1864,"सामग्री":1865,"चर":1866,"माघ":1867,"दीय":1868,"गुन":1869,"टोली":1870,"भ्य":1871,"कालो":1872,"विविध":1873,"साय":1874,"........":1875,"पको":1876,"ब्या":1877,"रथ":1878,"ेन्द्र":1879,"विरा":1880,"त्ती":1881,"जिम्मे":1882,"भावना":1883,"अदालत":1884,"इला":1885,"वास्त":1886,"बिहार":1887,"ञ्ज":1888,"गरेपछि":1889,"सहरहरू":1890,"पश्चिममा":1891,"वृद्धि":1892,"स्वतन्त्रता":1893,"धर्मावलम्बी":1894,"आर":1895,"औष":1896,"लले":1897,"२९":1898,"प्रो":1899,"वर्षा":1900,"प्रकाशित":1901,"फ्रान्":1902,"जसो":1903,"यौ":1904,"ृत":1905,"रहन":1906,"सम्पन्न":1907,"शाली":1908,"२०३":1909,"जिल्लाका":1910,"देवीको":1911,"अस्पताल":1912,"प्रती":1913,"सम्झ":1914,"चाह":1915,"जनता":1916,"सिक्कि":1917,"्ने":1918,"मुक्ति":1919,"चीनको":1920,"संरचना":1921,"कुमारी":1922,"पुगेको":1923,"केर":1924,"बन्न":1925,"लङ्":1926,"सिमा":1927,"दिइएको":1928,"आकार":1929,"हटा":1930,"एन":1931,"पण":1932,"यदि":1933,"माइ":1934,"माछा":1935,"जात":1936,"शील":1937,"यहाँको":1938,"ब्राह्मण":1939,"छु":1940,"तथ":1941,"माग":1942,"लेका":1943,"प्रमाण":1944,"तिनी":1945,"बाद":1946,"हान":1947,"हिं":1948,"मुक्त":1949,"समर्थ":1950,"कर्ण":1951,"सैन्य":1952,"चिनिन्छ":1953,"कानून":1954,"प्रायः":1955,"एस":1956,"हक":1957,"निधन":1958,"जाब":1959,"सुन":1960,"युवा":1961,"सम्मको":1962,"देवको":1963,"व्यापा":1964,"सङ्गठ":1965,"प्रक्रिया":1966,"क्ता":1967,"मानिसहरू":1968,"गणना":1969,"क्याम्प":1970,"रस":1971,"रंग":1972,"नामबाट":1973,"स्थ्य":1974,"पदक":1975,"सर्वो":1976,"मति":1977,"म्म":1978,"साई":1979,"रहन्छ":1980,"अधिकां":1981,"शासक":1982,"स्थापन":1983,"पाण्डव":1984,"बच्चा":1985,"ँड":1986,"पमा":1987,"रक्षा":1988,"वत्":1989,"शाला":1990,"भनिएको":1991,"रङ":1992,"प्रकृति":1993,"ल्ली":1994,"धर्मको":1995,"टेलि":1996,"ट्टा":1997,"पदमा":1998,"पश्चिमी":1999,"पर्यटक":2000,"जानकारी":2001,"सुन्दर":2002,"उको":2003,"ऐन":2004,"खर्":2005,"यू":2006,"रोड":2007,"व्यापार":2008,"दूर":2009,"सांस्कृतिक":2010,"नियुक्त":2011,"सुरू":2012,"शाही":2013,"सेतो":2014,"उपयोग":2015,"फागुन":2016,"सभाको":2017,"गणतन्त्र":2018,"मात्रामा":2019,"कहिले":2020,"फत":2021,"बसाइ":2022,"भ्या":2023,"श्रा":2024,"सत्ता":2025,"बाटो":2026,"गरिएका":2027,"धानिक":2028,"उनीहरूको":2029,"भक्तपुर":2030,"बरा":2031,"वरि":2032,"ष्य":2033,"सड":2034,"प्रै":2035,"नाश":2036,"त्यस्तो":2037,"दार्":2038,"गाई":2039,"शाख":2040,"उनीहरू":2041,"शुरु":2042,"राजनीति":2043,"लनमा":2044,"गर्यो":2045,"योग्य":2046,"श्रम":2047,"मृत":2048,"राख्ने":2049,"परम्परागत":2050,"कांग्रे":2051,"समिति":2052,"सिद्धान्त":2053,"ढी":2054,"क्षर":2055,"सन्धि":2056,"खेती":2057,"गरेकी":2058,"अधिकांश":2059,"अन":2060,"फी":2061,"बन्":2062,"द्व":2063,"पुगे":2064,"सम्मान":2065,"वनस्पति":2066,"दक्षिणी":2067,"प्या":2068,"र्खा":2069,"म्बु":2070,"देउ":2071,"न्तु":2072,"अवतार":2073,"धारणा":2074,"महिनामा":2075,"वर्णन":2076,"आयोग":2077,"उन्":2078,"तरि":2079,"सहि":2080,"काँ":2081,"निज":2082,"ताइ":2083,"खाने":2084,"मन्दिरको":2085,"दक्षिणमा":2086,"थुप्रै":2087,"कोइराला":2088,"उपलब्ध":2089,"हल":2090,"प्रस्ता":2091,"तिमी":2092,"उँदै":2093,"अवधि":2094,"ब्जा":2095,"च्छा":2096,"ड्ने":2097,"आकर्":2098,"यद्य":2099,"शह":2100,"स्पर्":2101,"त्यति":2102,"ष्ठा":2103,"न्तर":2104,"सकेका":2105,"व्रत":2106,"कम्":2107,"ललित":2108,"सभ्य":2109,"माझ":2110,"सिन्ध":2111,"बैङ्क":2112,"राज्यमा":2113,"बनाएको":2114,"गएर":2115,"धै":2116,"धनु":2117,"पल्":2118,"मस्":2119,"राइ":2120,"गर्द":2121,"मेला":2122,"लेखक":2123,"अधिकारी":2124,"बढ्":2125,"धर्मका":2126,"सर्वोच्च":2127,"इँ":2128,"गम":2129,"ट्र":2130,"मार":2131,"राव":2132,"मन्त्रि":2133,"वैधानिक":2134,"यिनको":2135,"नेट":2136,"स्प":2137,"नाटक":2138,"ारि":2139,"ञ्च":2140,"बनाइएको":2141,"वैदिक":2142,"सङ्ग्र":2143,"कानुन":2144,"अप्रि":2145,"क्य":2146,"खर":2147,"परे":2148,"बहि":2149,"निको":2150,"द्वी":2151,"परिषद":2152,"स्वास्थ्य":2153,"स्टा":2154,"लिएका":2155,"संस":2156,"प्रस्ताव":2157,"मं":2158,"हावा":2159,"क्षक":2160,"शाल":2161,"डिसे":2162,"सहरमा":2163,"मार्च":2164,"त्रिभु":2165,"हृ":2166,"मान्छ":2167,"नेर":2168,"प्रच":2169,"वित्र":2170,"जान्छ":2171,"राजमार्ग":2172,"उँदा":2173,"विद्यु":2174,"श्रीकृष्ण":2175,"पोखरा":2176,"आई":2177,"चेत":2178,"जला":2179,"नजि":2180,"यं":2181,"शृ":2182,"स्ती":2183,"सुविधा":2184,"क्रिय":2185,"तर्फबाट":2186,"हाम्रो":2187,"भिक":2188,"मुख्यतया":2189,"भोज":2190,"न्थे":2191,"समुद्र":2192,"पर्वत":2193,"पुनर्":2194,"अध्याय":2195,"पर्यटकीय":2196,"घण्":2197,"नजिक":2198,"भक्ति":2199,"कोशी":2200,"काले":2201,"श्रो":2202,"हुन्थ्यो":2203,"संस्कार":2204,"यद्यपि":2205,"ँस":2206,"एम":2207,"चढा":2208,"पवित्र":2209,"भण्ड":2210,"क्रो":2211,"व्यापी":2212,"पेली":2213,"भेटि":2214,"स्थानहरूमा":2215,"२००७":2216,"प्रयास":2217,"हमा":2218,"काश":2219,"तापनि":2220,"म्बि":2221,"थाल":2222,"सान":2223,"हासिल":2224,"गोर्खा":2225,"खेलमा":2226,"सुरुवात":2227,"अरू":2228,"अलग":2229,"आचार्य":2230,"भनी":2231,"भन्द":2232,"भवन":2233,"लेखा":2234,"प्रदाय":2235,"पान":2236,"लिङ्ग":2237,"मूल्य":2238,"उत्तरमा":2239,"नेतृत्वमा":2240,"भ्रमण":2241,"माध्यम":2242,"प्रान्तको":2243,"प्रशासनिक":2244,"ज्यो":2245,"र्ता":2246,"रातो":2247,"वान्":2248,"वाला":2249,"बाग":2250,"सागर":2251,"मुद्रा":2252,"रीमा":2253,"अवसर":2254,"सूचना":2255,"अल":2256,"सजि":2257,"सतह":2258,"पूर्णि":2259,"ज्ञानिक":2260,"जातिको":2261,"चुनाव":2262,"पत्नी":2263,"देखेर":2264,"आँखा":2265,"विराट":2266,"जै":2267,"बद्ध":2268,"भट्ट":2269,"विकि":2270,"वाता":2271,"लिम":2272,"राजेन्द्र":2273,"रीको":2274,"छिन्":2275,"खास":2276,"सन्तान":2277,"गर्नका":2278,"श्रीलङ्":2279,"बेलायती":2280,"पानीको":2281,"निर्वाच":2282,"मानिसहरूको":2283,"प्रतियोगितामा":2284,"मण्डल":2285,"अब":2286,"औं":2287,"घे":2288,"वत":2289,"निश्":2290,"विशाल":2291,"वाल":2292,"थाहा":2293,"दिनमा":2294,"त्यसलाई":2295,"मार्फत":2296,"विषयमा":2297,"पञ्च":2298,"उमेरमा":2299,"करोड":2300,"र्ड":2301,"स्मा":2302,"प्रविधि":2303,"सम्पा":2304,"स्तर":2305,"मात्रै":2306,"उत्पाद":2307,"चिनियाँ":2308,"तब":2309,"यज्ञ":2310,"है":2311,"नाग":2312,"ल्ड":2313,"रिक्त":2314,"द्दा":2315,"तीमा":2316,"वर्गी":2317,"चारी":2318,"राजाको":2319,"सकिने":2320,"पृष्ठ":2321,"पाकिस्तान":2322,"हिमालय":2323,"लेखिएको":2324,"झु":2325,"र्जा":2326,"केश":2327,"बिच":2328,"उपविभाग":2329,"उत्पन्न":2330,"स्रोत":2331,"पाइन्छन्":2332,"बङ्गालको":2333,"किसिमको":2334,"वातावरण":2335,"ंक":2336,"गयो":2337,"नभएको":2338,"पत्रि":2339,"वली":2340,"र्क":2341,"त्ति":2342,"हिक":2343,"उनीहरूले":2344,"ब्रु":2345,"पश्चात्":2346,"विदेशी":2347,"हनुमान":2348,"जति":2349,"टल":2350,"नं":2351,"मारि":2352,"होइन":2353,"भिजन":2354,"रूपले":2355,"चान":2356,"जनवरी":2357,"राष्ट्रको":2358,"डिग्री":2359,"पुरको":2360,"व्यापक":2361,"आवश्यकता":2362,"उठा":2363,"तत्व":2364,"थप":2365,"द्यो":2366,"सृ":2367,"रह्यो":2368,"मिन":2369,"जन्मि":2370,"लागेको":2371,"कपडा":2372,"अफ्रि":2373,"अप्रिल":2374,"खी":2375,"तराई":2376,"नन्":2377,"एकै":2378,"भुटा":2379,"विकसित":2380,"पन्जाब":2381,"सचिव":2382,"ँदै":2383,"अपरा":2384,"हाइ":2385,"दुबै":2386,"उपचार":2387,"तेल":2388,"ल्याण्ड":2389,"ध्व":2390,"गङ्गा":2391,"डब्":2392,"वय":2393,"कोण":2394,"काजी":2395,"याको":2396,"संवैधानिक":2397,"ध्ये":2398,"बनाई":2399,"लगाउने":2400,"सेनापति":2401,"सङ्गीत":2402,"उदय":2403,"जङ्गबहादुर":2404,"फैलिएको":2405,"आए":2406,"ङको":2407,"नदि":2408,"निस्":2409,"योजन":2410,"द्वि":2411,"गान्ध":2412,"चाहि":2413,"अनुसन्":2414,"सहरको":2415,"सोही":2416,"भूत":2417,"षिक":2418,"सहायक":2419,"ज्योति":2420,"अस्ट":2421,"कब्जा":2422,"ग्या":2423,"८०":2424,"माल":2425,"हातमा":2426,"त्सा":2427,"युक्ति":2428,"जिल्लाभारतको":2429,"शुरू":2430,"संस्करण":2431,"२०१७":2432,"मौसम":2433,"मण्डलको":2434,"लागू":2435,"एसियाली":2436,"चर्चित":2437,"शृङ्ख":2438,"जमी":2439,"सक्रिय":2440,"राको":2441,"बालिका":2442,"कुण्ड":2443,"तिकै":2444,"ख्यात":2445,"फाइ":2446,"काठमाडौं":2447,"सर्वा":2448,"अमेरिकाको":2449,"३१":2450,"४०":2451,"राण":2452,"प्रशि":2453,"द्द":2454,"तीर्थ":2455,"मिल्":2456,"पहिला":2457,"२०१६":2458,"संघीय":2459,"कलेज":2460,"त्रिभुवन":2461,"चक्र":2462,"मय":2463,"वाको":2464,"भएमा":2465,"युरोपेली":2466,"झार":2467,"ठि":2468,"माटो":2469,"न्ज":2470,"काग":2471,"लाभ":2472,"नागरी":2473,"हिउँ":2474,"राजकुमार":2475,"प्रतिस्पर्":2476,"टिक":2477,"्युनि":2478,"समाजमा":2479,"पश्चात":2480,"ब्रिटिस":2481,"उदाहरण":2482,"मान्छे":2483,"अझै":2484,"यण":2485,"रल":2486,"स्टे":2487,"हरूसँग":2488,"टाढा":2489,"बनाएर":2490,"चितवन":2491,"शाहको":2492,"शैली":2493,"बङ्गलादेशको":2494,"गौतम":2495,"अक्टो":2496,"गन":2497,"चरि":2498,"ट्या":2499,"धे":2500,"रज":2501,"रत्न":2502,"३५":2503,"पालि":2504,"साधन":2505,"चिकि":2506,"स्तन":2507,"नैं":2508,"न्त्रिक":2509,"नाममा":2510,"पोर्":2511,"सक्नु":2512,"भोग":2513,"ष्ठि":2514,"भौगो":2515,"अर्थात्":2516,"निरन्तर":2517,"जोडिएको":2518,"अन्न":2519,"आम":2520,"ख्य":2521,"तल्लो":2522,"तमिल":2523,"दमा":2524,"र्न":2525,"निकु":2526,"पाल्पा":2527,"द्दी":2528,"ष्टा":2529,"दिन्छ":2530,"गाभि":2531,"धानको":2532,"समध्ये":2533,"चाड":2534,"ण्डकी":2535,"अनुमान":2536,"बनाए":2537,"यहाँका":2538,"उपाधि":2539,"पंक्षी":2540,"स्पष्ट":2541,"संसदीय":2542,"धरा":2543,"पत":2544,"पथ":2545,"पय":2546,"मगर":2547,"्युट":2548,"याता":2549,"दास":2550,"मुस्":2551,"रुख":2552,"युधि":2553,"सीको":2554,"ध्यान":2555,"अस्ति":2556,"डिसेम्बर":2557,"इच्छा":2558,"तक":2559,"बले":2560,"प्रचलन":2561,"न्तरण":2562,"वेदन":2563,"अनुवाद":2564,"वैज्ञानिक":2565,"व्यवस्थापन":2566,"नदीमा":2567,"२००८":2568,"फेरि":2569,"इतिहासमा":2570,"रामायण":2571,"प्रजातन्त्र":2572,"जिम्मेवारी":2573,"भौगोलिक":2574,"कू":2575,"काण्ड":2576,"कालिन":2577,"तारा":2578,"ङ्ग्रे":2579,"मानिसको":2580,"विद्रो":2581,"व्यवहार":2582,"माथिल्लो":2583,"हिमाल":2584,"१९७१":2585,"शताब्दीको":2586,"अर्थात":2587,"प्रारम्भ":2588,"विमानस्थल":2589,"सडक":2590,"घण्टा":2591,"युधिष्ठि":2592,"ऋतु":2593,"सल्ला":2594,"कोष":2595,"मातृ":2596,"बाइ":2597,"ेरो":2598,"कृष्ट":2599,"आफै":2600,"जुर":2601,"ग्ने":2602,"प्रदेशमा":2603,"दैनन्":2604,"नामाकरण":2605,"जीवनको":2606,"ब्रह्मा":2607,"अग्लो":2608,"अञ्चल":2609,"नृ":2610,"रक्त":2611,"कोरिया":2612,"काई":2613,"लागे":2614,"प्रसार":2615,"क्टर":2616,"नैतिक":2617,"डाँडा":2618,"पुरमा":2619,"एउटै":2620,"भूभाग":2621,"विश्वकप":2622,"महत्व":2623,"पुग्न":2624,"क्षमता":2625,"लियन":2626,"संगीत":2627,"चाँ":2628,"बिरा":2629,"बैठ":2630,"शुद्ध":2631,"पुस्तक":2632,"निर्देशक":2633,"किराँ":2634,"देख्न":2635,"कतिपय":2636,"पल्ट":2637,"जहा":2638,"दय":2639,"पट्":2640,"माया":2641,"निजी":2642,"नियुक्ति":2643,"तिथि":2644,"सिम":2645,"थिएँ":2646,"जनक":2647,"जुलाई":2648,"श्वरी":2649,"सङ्क":2650,"विश्वको":2651,"अभियान":2652,"बीचको":2653,"उपत्यकाको":2654,"पुर्या":2655,"बालबालिका":2656,"दम":2657,"फौ":2658,"हुदै":2659,"मिलेर":2660,"केत":2661,"केहि":2662,"समे":2663,"प्ति":2664,"बुद्धि":2665,"लेखमा":2666,"खुवा":2667,"आत्म":2668,"सिन्धु":2669,"अस्तित्व":2670,"एमा":2671,"खुट्":2672,"चन्द":2673,"डल":2674,"तपाई":2675,"पका":2676,"बलको":2677,"म्भिक":2678,"जातीय":2679,"केवल":2680,"सूत्र":2681,"मकवान":2682,"दुर्यो":2683,"पृथ्वीनारायण":2684,"भौतिक":2685,"आत्मा":2686,"आन्त":2687,"खस":2688,"झि":2689,"टेको":2690,"द्रो":2691,"वमा":2692,"शर्मा":2693,"ेय":2694,"स्वर्ण":2695,"प्रभा":2696,"भियत":2697,"समर्":2698,"सक्छन्":2699,"भगवती":2700,"नियमित":2701,"प्रकाशन":2702,"राख्न":2703,"अनुसन्धान":2704,"तले":2705,"बजे":2706,"यस्तै":2707,"काङ्ग्रे":2708,"निबन्ध":2709,"तान्त्रिक":2710,"बाघ":2711,"हिसा":2712,"सम्पदा":2713,"तरण":2714,"प्राथ":2715,"प्टे":2716,"रेडियो":2717,"मणि":2718,"पराजित":2719,"मुलुक":2720,"उचाइ":2721,"प्रतिस्पर्धा":2722,"अक्टोबर":2723,"टरको":2724,"्री":2725,"र्ने":2726,"स्वर्ग":2727,"पालन":2728,"कुर":2729,"निर्धारण":2730,"परिचित":2731,"भाषाहरू":2732,"राजाले":2733,"शासनका":2734,"दारी":2735,"अतिरिक्त":2736,"आवा":2737,"आयु":2738,"पछा":2739,"लग्न":2740,"सत":2741,"प्रशासन":2742,"प्रख्यात":2743,"कुश":2744,"उनकी":2745,"किल्ला":2746,"ङ्गे":2747,"रोधी":2748,"उत्कृष्ट":2749,"बनाएका":2750,"स्वयं":2751,"हरुको":2752,"यिनले":2753,"भेद":2754,"विशेषता":2755,"दुर्गा":2756,"एकीकरण":2757,"शताब्दीमा":2758,"प्रारम्भिक":2759,"अग":2760,"ओल":2761,"जनको":2762,"नय":2763,"मनु":2764,"सब":2765,"३४":2766,"प्रश्":2767,"प्रजन":2768,"ारो":2769,"वाणि":2770,"पुरी":2771,"सम्हा":2772,"रोप":2773,"१९०":2774,"महाराज":2775,"महादेव":2776,"जेल":2777,"बेलामा":2778,"फिफा":2779,"विश्वा":2780,"बसोवास":2781,"पशुपति":2782,"आदेश":2783,"आर्य":2784,"उसको":2785,"दण्ड":2786,"पला":2787,"बद":2788,"३६":2789,"कान्छ":2790,"रामे":2791,"साध":2792,"त्मा":2793,"दाजु":2794,"पर्दछन्":2795,"क्री":2796,"दुइ":2797,"समाप्त":2798,"उपमहा":2799,"उत्पत्ति":2800,"शुक्ल":2801,"वंशी":2802,"कम्युनि":2803,"स्वामी":2804,"निम्ति":2805,"हेर्दा":2806,"तथ्या":2807,"हिंसा":2808,"माझी":2809,"विराटनगर":2810,"निश्चित":2811,"प्राथमिक":2812,"एव":2813,"डको":2814,"बन":2815,"यल":2816,"सला":2817,"र्भ":2818,"निष्":2819,"नीले":2820,"गायक":2821,"गरिन्थ्यो":2822,"धिकारी":2823,"धातु":2824,"देशहरूमा":2825,"नोट":2826,"पूर्ति":2827,"महान":2828,"कर्त":2829,"स्वर":2830,"परेका":2831,"फेब्रु":2832,"पाकिस्तानको":2833,"पाँडे":2834,"विभाजित":2835,"कर्मचारी":2836,"आन्तरिक":2837,"औद्यो":2838,"गण्डकी":2839,"छुट":2840,"जसमध्ये":2841,"लनको":2842,"शम्":2843,"नार":2844,"पार्व":2845,"दिशा":2846,"सम्भव":2847,"उपन्या":2848,"भोजन":2849,"हिमाली":2850,"पुर्ण":2851,"मनोर":2852,"फेब्रुअ":2853,"अग्र":2854,"खड्":2855,"पट":2856,"व्":2857,"७१":2858,"विज्ञा":2859,"विवरण":2860,"संलग्न":2861,"शिष्ट":2862,"धारी":2863,"हरुका":2864,"क्षिक":2865,"सम्बन्धमा":2866,"नगरपालिकाको":2867,"२०७३":2868,"ग्राम":2869,"टेलिभिजन":2870,"अपराध":2871,"चक":2872,"जले":2873,"सन्द":2874,"बाली":2875,"त्स":2876,"दिएर":2877,"सम्प्रदाय":2878,"जोर":2879,"पूर्वक":2880,"गणेश":2881,"पार्टीको":2882,"नियन्त्रणमा":2883,"तापक्रम":2884,"अरब":2885,"यौन":2886,"वाणिज्य":2887,"आएर":2888,"खल":2889,"णको":2890,"शरण":2891,"षक":2892,"कारि":2893,"विरोध":2894,"गर्नको":2895,"त्यसमा":2896,"सिर्":2897,"दिल्ली":2898,"मुनि":2899,"स्थायी":2900,"टाउको":2901,"कर्णाली":2902,"लुङ":2903,"हारी":2904,"गराउने":2905,"सङ्गठन":2906,"निर्वाचनमा":2907,"कल्प":2908,"कसरी":2909,"जवा":2910,"पढा":2911,"मरा":2912,"लासलाई":2913,"तात्":2914,"हिम":2915,"लिन्छ":2916,"ङ्गो":2917,"प्ता":2918,"गोली":2919,"धर्मवलम्बी":2920,"जेठ":2921,"घाट":2922,"२०११":2923,"लडाकु":2924,"प्रचलित":2925,"असार":2926,"आश्र":2927,"जगत":2928,"झर":2929,"सप्त":2930,"कास्":2931,"नेवार":2932,"प्रश":2933,"पास":2934,"जाय":2935,"युव":2936,"निर्मित":2937,"इन्जि":2938,"गाउँमा":2939,"फिल्":2940,"राष्ट्रपतिको":2941,"तिब्बती":2942,"ब्रह्म":2943,"इस्लाम":2944,"भण्डार":2945,"धर्मवलम्बीको":2946,"अत्या":2947,"कं":2948,"हस्ता":2949,"प्रदर्शन":2950,"नाई":2951,"व्यक्त":2952,"क्षेत्रीय":2953,"बिना":2954,"बनाइ":2955,"घोडा":2956,"फिर्ता":2957,"शाहले":2958,"शरीरको":2959,"प्रेम":2960,"सिक्किम":2961,"गर्दथे":2962,"मुस्लिम":2963,"उम्मे":2964,"टेर":2965,"सधै":2966,"पाएका":2967,"क्का":2968,"त्तर":2969,"दिनको":2970,"पर्या":2971,"प्ले":2972,"राज्यका":2973,"भएपनि":2974,"सङ्केत":2975,"वर्षमा":2976,"स्थिर":2977,"पहिलोपटक":2978,"मानिसहरूले":2979,"कम्प्युट":2980,"देखी":2981,"अस्ट्रे":2982,"करा":2983,"रगत":2984,"शस्त्र":2985,"विष्ट":2986,"वाई":2987,"ताले":2988,"सामु":2989,"दियो":2990,"कारको":2991,"सेप्टे":2992,"खेल्ने":2993,"नामको":2994,"साथी":2995,"भूकम्प":2996,"वैशाख":2997,"कैला":2998,"व्यवसाय":2999,"पानीमा":3000,"खुला":3001,"अर्थशास्त्र":3002,"देवकोटा":3003,"ओलम्पि":3004,"कर्तव्य":3005,"तप":3006,"भविष":3007,"हतियार":3008,"३२":3009,"वानको":3010,"नीमा":3011,"सिर":3012,"सुख":3013,"भाषाका":3014,"स्थापक":3015,"साहित्यिक":3016,"छुट्टै":3017,"ललितपुर":3018,"राणिक":3019,"चय":3020,"दसै":3021,"नम":3022,"प्य":3023,"बलि":3024,"राधा":3025,"कुरी":3026,"किएको":3027,"शान्त":3028,"शासनको":3029,"व्याख्या":3030,"धर्ममा":3031,"अन्तर्गतको":3032,"शोक":3033,"संघको":3034,"पौराणिक":3035,"तिब्बत":3036,"पञ्चायत":3037,"क्याम्पस":3038,"सक्नुहुन्छ":3039,"भविष्य":3040,"कतै":3041,"गएका":3042,"गमन":3043,"जग्":3044,"टार":3045,"दलको":3046,"यन्त्र":3047,"कालि":3048,"विना":3049,"क्षेत्रफल":3050,"बिता":3051,"गुजरा":3052,"पहिचान":3053,"शीर्ष":3054,"खोज":3055,"सफलता":3056,"भैरव":3057,"सार्वभौ":3058,"सन्तु":3059,"ढोका":3060,"भन्नाले":3061,"सर्वाधिक":3062,"पालिकार":3063,"ङमा":3064,"नहुने":3065,"भय":3066,"७५":3067,"लास":3068,"स्को":3069,"विवाद":3070,"पाउन":3071,"सिद्धि":3072,"२०१८":3073,"जनताको":3074,"कीर्ति":3075,"शिला":3076,"अनुमति":3077,"गुप्त":3078,"लेखन":3079,"क्यान्":3080,"सर्प":3081,"परीक्षा":3082,"औद्योगिक":3083,"असो":3084,"अड्":3085,"उठ":3086,"उसले":3087,"रत":3088,"रकम":3089,"६०":3090,"७०":3091,"रात":3092,"स्पे":3093,"वितरण":3094,"क्ने":3095,"बाह":3096,"सायिक":3097,"क्षमा":3098,"क्षति":3099,"गाँ":3100,"मुद्दा":3101,"शासित":3102,"प्रतिष्ठा":3103,"बुबा":3104,"लगाएर":3105,"जोड":3106,"छाप":3107,"घाँ":3108,"पत्ता":3109,"शैक्षिक":3110,"मनाइन्छ":3111,"हेर्न":3112,"आफूलाई":3113,"किनारमा":3114,"सिमाना":3115,"वरिपरि":3116,"बहिनी":3117,"उम्मेद":3118,"आप":3119,"उडा":3120,"खन":3121,"धो":3122,"फू":3123,"भन्न":3124,"मकै":3125,"मन्यु":3126,"१००":3127,"काका":3128,"पाए":3129,"नेपालले":3130,"नोभे":3131,"क्षेत्रहरू":3132,"महाभारत":3133,"व्याव":3134,"व्यक्तिगत":3135,"लोकन":3136,"राजनीतिमा":3137,"शक्तिशाली":3138,"महिलाको":3139,"दूध":3140,"उपत्यकामा":3141,"मौलिक":3142,"मण्डलमा":3143,"ढुङ्गा":3144,"वास्तविक":3145,"यातायात":3146,"प्रभावित":3147,"ँदैन":3148,"आदी":3149,"एल":3150,"खत":3151,"मरण":3152,"मदन":3153,"हरिया":3154,"मानको":3155,"कान्ति":3156,"विशिष्ट":3157,"हिस्":3158,"जाल":3159,"जाडो":3160,"ष्म":3161,"पुल":3162,"मुना":3163,"जनरल":3164,"दैनिक":3165,"मेकी":3166,"वेबसाइ":3167,"खेत":3168,"सहज":3169,"मानसिक":3170,"मध्यको":3171,"लगाउन":3172,"फाइन":3173,"आदिको":3174,"समुन्द्र":3175,"हालसम्म":3176,"चौथो":3177,"पक्षमा":3178,"मनाउने":3179,"मेरो":3180,"क्रान्तिको":3181,"पूर्णिमा":3182,"मकवानपुर":3183,"युवराज":3184,"अझ":3185,"असर":3186,"ईमा":3187,"खै":3188,"जन्तु":3189,"रन":3190,"शू":3191,"शत्रु":3192,"३९":3193,"लागी":3194,"स्ति":3195,"प्रभु":3196,"गर्भ":3197,"दैलेख":3198,"गुफा":3199,"टिन":3200,"महाभारतको":3201,"सँगको":3202,"महिनाको":3203,"क्यान":3204,"काठमाडौँमा":3205,"पर्यटन":3206,"भरत":3207,"किसिमका":3208,"द्वन्द":3209,"शृङ्खला":3210,"ँची":3211,"आकाश":3212,"कहि":3213,"घन":3214,"पचार":3215,"िन्छ":3216,"ेश्वर":3217,"स्वि":3218,"सामान":3219,"साझा":3220,"लिनु":3221,"नुसार":3222,"गिरि":3223,"समाचार":3224,"मुखी":3225,"उपयुक्त":3226,"इन्टर":3227,"सभामा":3228,"काठमाडौँको":3229,"बाँकी":3230,"लक्ष्य":3231,"बङ्गाली":3232,"दिवस":3233,"नजिकै":3234,"सल्लाह":3235,"नृत्य":3236,"एवम्":3237,"अस्ट्रेलिया":3238,"दन्ती":3239,"पद्":3240,"४५":3241,"र्ण":3242,"स्मृ":3243,"विद्वा":3244,"विरोधी":3245,"पाट":3246,"तिम":3247,"साह":3248,"रुवा":3249,"देशका":3250,"क्षेत्रहरूमा":3251,"मोह":3252,"शुराम":3253,"२००६":3254,"विभागको":3255,"राख्नु":3256,"साहित्यको":3257,"साहित्यमा":3258,"खर्च":3259,"थाल्यो":3260,"सेप्टेम्बर":3261,"अभाव":3262,"इज":3263,"कन्":3264,"गई":3265,"गमा":3266,"बसे":3267,"ह्या":3268,"ौता":3269,"र्पा":3270,"रूपा":3271,"यसबाट":3272,"सम्भावना":3273,"स्तरमा":3274,"जनगणना":3275,"आफु":3276,"डाँ":3277,"निकट":3278,"कार्यमा":3279,"लुवा":3280,"भेट":3281,"२००४":3282,"दरवार":3283,"सङ्घीय":3284,"चर्चा":3285,"साम्राज्यको":3286,"युधिष्ठिर":3287,"सङ्कलन":3288,"सन्दर्भ":3289,"सिर्जना":3290,"ँचा":3291,"अल्":3292,"गहि":3293,"नम्बर":3294,"यथा":3295,"सत्":3296,"कालय":3297,"प्रथा":3298,"बाबा":3299,"बालक":3300,"स्थानको":3301,"मीको":3302,"रेखा":3303,"ञ्जन":3304,"अवधारणा":3305,"मानिएको":3306,"न्ध्र":3307,"कार्यकारी":3308,"पेशा":3309,"अभिलेख":3310,"सुरक्षित":3311,"उत्तरा":3312,"शरीरमा":3313,"पुस्तकालय":3314,"दृष्टिकोण":3315,"प्रतीक":3316,"गान्धी":3317,"दसैँ":3318,"आम्":3319,"कन्या":3320,"मलाई":3321,"मधु":3322,"लक्षण":3323,"हस्त":3324,"न्टि":3325,"काशी":3326,"र्षि":3327,"न्दु":3328,"ल्छ":3329,"राजतन्त्र":3330,"समृ":3331,"२०००":3332,"जीको":3333,"अनुभव":3334,"साथमा":3335,"यित्व":3336,"सेनामा":3337,"गराए":3338,"पुग्यो":3339,"स्वीकार":3340,"कसैले":3341,"फेब्रुअरी":3342,"जग्गा":3343,"ढि":3344,"भएकी":3345,"लं":3346,"वाण":3347,"हालको":3348,"गर्थे":3349,"श्मी":3350,"चार्":3351,"रोह":3352,"पिण्ड":3353,"गोपाल":3354,"उनीहरूलाई":3355,"वर्षसम्म":3356,"त्याग":3357,"मैदान":3358,"स्त्री":3359,"पुगेका":3360,"फर्कि":3361,"खण्डमा":3362,"माध्यमिक":3363,"च्याम्पि":3364,"श्राद्ध":3365,"विद्युत":3366,"नबाट":3367,"पण्ड":3368,"ल्यु":3369,"सफा":3370,"र्स":3371,"तालको":3372,"क्षत्र":3373,"मिति":3374,"पूर्वा":3375,"जुम्":3376,"सम्ममा":3377,"परशुराम":3378,"टीको":3379,"विश्वका":3380,"देवनागरी":3381,"अभिनेता":3382,"टुक्रा":3383,"राखेर":3384,"शमशेरले":3385,"प्रजनन":3386,"पचारिक":3387,"इजि":3388,"षी":3389,"न्दे":3390,"विसं":3391,"क्वा":3392,"क्ष्":3393,"लीय":3394,"गाह":3395,"सुकै":3396,"२०१९":3397,"सोभियत":3398,"बारी":3399,"जातिमा":3400,"भगव":3401,"भगवान्":3402,"अभिनय":3403,"२००९":3404,"२०१५":3405,"विश्ले":3406,"मल्लले":3407,"कानू":3408,"समितिको":3409,"स्नान":3410,"दृष्टिले":3411,"चरित्र":3412,"गाभिएका":3413,"विद्रोह":3414,"खुट्टा":3415,"कम्प्युटर":3416,"अछा":3417,"आय":3418,"दको":3419,"दत्त":3420,"धर":3421,"मद्द":3422,"लम":3423,"हजुर":3424,"विज":3425,"तिनको":3426,"पुण":3427,"रही":3428,"मुगल":3429,"कुटा":3430,"रीय":3431,"उपस्थित":3432,"परिणा":3433,"सरस्व":3434,"सेनालाई":3435,"मुख्यत":3436,"विकासको":3437,"पुराना":3438,"पर्वमा":3439,"अर्थतन्त्र":3440,"अमेरिकामा":3441,"तत्कालिन":3442,"पृथ्वीको":3443,"शब्दको":3444,"गाविसमा":3445,"गाविसहरू":3446,"चेतना":3447,"शम्शेर":3448,"आस":3449,"कल्या":3450,"घरको":3451,"छै":3452,"जक":3453,"दशै":3454,"पतन":3455,"बडा":3456,"यति":3457,"वो":3458,"सेर":3459,"हं":3460,"३३":3461,"४८":3462,"लिच्छ":3463,"सिफ":3464,"संस्थापक":3465,"धिकार":3466,"ण्ठ":3467,"क्षेत्रलाई":3468,"बैङ्":3469,"प्राणी":3470,"शिक":3471,"श्रद्धा":3472,"मोहन":3473,"हरुले":3474,"टीका":3475,"विश्वव्यापी":3476,"शुक्र":3477,"गर्दछन":3478,"तुर्":3479,"धनकुटा":3480,"तारि":3481,"भारतीयराज्यपश्चिम":3482,"बन्दी":3483,"पाण्डे":3484,"परीक्षण":3485,"बुझिन्छ":3486,"वास्तवमा":3487,"आउँछ":3488,"खरा":3489,"पद्ध":3490,"बृह":3491,"बलियो":3492,"३८":3493,"विधान":3494,"वानी":3495,"ल्स":3496,"नुवा":3497,"गरिरहेका":3498,"मीटर":3499,"खेल्":3500,"वर्षे":3501,"शेख":3502,"फुटबलको":3503,"पार्न":3504,"ल्यै":3505,"सकेपछि":3506,"बहुमत":3507,"भइरहेको":3508,"वार्षिक":3509,"औषधि":3510,"माध्यमबाट":3511,"भट्टराई":3512,"डब्ल्यु":3513,"तथ्याङ्क":3514,"क्यान्सर":3515,"उम्मेदवार":3516,"नोभेम्बर":3517,"आगो":3518,"कडा":3519,"कलक":3520,"मला":3521,"रचि":3522,"मासु":3523,"स्टि":3524,"रूख":3525,"त्तिकै":3526,"ल्क":3527,"लिए":3528,"लिइन्छ":3529,"जापान":3530,"जित्न":3531,"राजी":3532,"राजवंश":3533,"सम्पत्ति":3534,"चिन्":3535,"छिमेकी":3536,"जुङ":3537,"श्रृ":3538,"चारै":3539,"लेख्ने":3540,"लगानी":3541,"बोल्":3542,"व्यक्तिको":3543,"व्यक्तिले":3544,"सिंहको":3545,"सङ्घको":3546,"१९९०":3547,"आन्दोलनमा":3548,"कार्यान्":3549,"बसेको":3550,"निर्देशन":3551,"सहायता":3552,"रङ्गशाला":3553,"तुलनामा":3554,"................":3555,"भन्दै":3556,"द्वन्द्":3557,"अमर":3558,"ईको":3559,"कठि":3560,"गद्दी":3561,"धृत":3562,"फर":3563,"लम्बा":3564,"सना":3565,"३७":3566,"निन्छ":3567,"विवा":3568,"विजे":3569,"पाप":3570,"तिन":3571,"साउन":3572,"याद":3573,"रित":3574,"सिख":3575,"दित":3576,"मुटु":3577,"चिसो":3578,"समग्र":3579,"रोजग":3580,"क्षेत्री":3581,"तरकारी":3582,"देखिने":3583,"जीत":3584,"खेलको":3585,"शुभ":3586,"प्रतियोगिताको":3587,"कलाकार":3588,"प्रजातिका":3589,"बन्यो":3590,"पत्रिका":3591,"पार्वती":3592,"आं":3593,"गं":3594,"झो":3595,"धनी":3596,"लघु":3597,"९०":3598,"नाति":3599,"हरूमध्ये":3600,"किसान":3601,"चिन":3602,"बिहान":3603,"गुरू":3604,"महारानी":3605,"कार्यहरू":3606,"स्थितिमा":3607,"बोला":3608,"बोलिने":3609,"करणको":3610,"व्यक्तिलाई":3611,"ढाका":3612,"घोषित":3613,"बसेका":3614,"चिकित्सा":3615,"अष्ट्र":3616,"कल्":3617,"घरे":3618,"दस":3619,"र्त":3620,"रात्मक":3621,"नात्मक":3622,"त्वा":3623,"गर्नाले":3624,"पुष्":3625,"सिकार":3626,"धानमा":3627,"टाइ":3628,"पर्दा":3629,"मीका":3630,"बुवा":3631,"बुझा":3632,"अर्का":3633,"स्थलको":3634,"जन्मेका":3635,"२०१३":3636,"शक्तिको":3637,"पक्षको":3638,"आमाको":3639,"राखी":3640,"पुरुषको":3641,"अङ्ग्रेज":3642,"समर्थन":3643,"दार्जि":3644,"आधा":3645,"उसलाई":3646,"चू":3647,"दमन":3648,"धमा":3649,"नजी":3650,"बह":3651,"बचा":3652,"ललाई":3653,"वनमा":3654,"हेर":3655,"नाका":3656,"नारी":3657,"सामू":3658,"रिएको":3659,"भागि":3660,"सिलो":3661,"लोको":3662,"सम्पर्":3663,"सुधार्":3664,"टापु":3665,"शालामा":3666,"सेली":3667,"दुः":3668,"खाद्य":3669,"दीको":3670,"परिण":3671,"त्यसबेला":3672,"डीमा":3673,"लुम्बि":3674,"शेर्पा":3675,"कामना":3676,"वर्गमा":3677,"शास्त्रीय":3678,"आन्दोलनको":3679,"अदालतको":3680,"थोरै":3681,"फ्रान्स":3682,"सौन्द":3683,"फ्ट":3684,"भीमसेन":3685,"संख्यामा":3686,"त्रुटि":3687,"व्यापारिक":3688,"सम्पादन":3689,"ज्योतिष":3690,"फौज":3691,"झरना":3692,"आनन्द":3693,"इत्या":3694,"डर":3695,"द्या":3696,"बं":3697,"भद्र":3698,"लभ":3699,"वध":3700,"४मा":3701,"नेसिया":3702,"पाएको":3703,"रिङ":3704,"भानु":3705,"सिका":3706,"सुर्":3707,"समक्ष":3708,"क्रमा":3709,"ध्यक्ष":3710,"शिवा":3711,"जीले":3712,"मानिने":3713,"मुख्यमन्त्री":3714,"भुमि":3715,"मैदा":3716,"ड्न":3717,"प्रधानमन्त्रीको":3718,"भित्री":3719,"वटाजिल्लाहरू":3720,"बस्न":3721,"गीतहरू":3722,"परिवारमा":3723,"उपाय":3724,"ढुंगा":3725,"भर्ना":3726,"गैर":3727,"द्वीप":3728,"दुर्योधन":3729,"हिसाबले":3730,"सार्वभौम":3731,"अड्डा":3732,"हिस्सा":3733,"सौन्दर्य":3734,"अा":3735,"उचित":3736,"कन":3737,"चम्":3738,"पहे":3739,"बृ":3740,"भदौ":3741,"वक्ता":3742,"क्लो":3743,"बाध्य":3744,"जानु":3745,"सिन्दा":3746,"संहि":3747,"सुनको":3748,"रेकर्":3749,"मानित":3750,"विश्वमा":3751,"छोटो":3752,"इन्डो":3753,"पार्क":3754,"सङ्घर्ष":3755,"प्रभावकारी":3756,"बजारमा":3757,"प्रजातिको":3758,"नरसिंह":3759,"मन्त्रिपरिषद्":3760,"प्रश्न":3761,"असोज":3762,"सिफारि":3763,"घार":3764,"महो":3765,"हर्":3766,"ौला":3767,"मान्ने":3768,"लागु":3769,"राखे":3770,"नेत्री":3771,"योद्धा":3772,"नाडु":3773,"हरूद्वारा":3774,"रहेर":3775,"राजनि":3776,"मिटरको":3777,"कुँ":3778,"कुन":3779,"सेनले":3780,"मोर्":3781,"क्रमश":3782,"कार्यकाल":3783,"वंशा":3784,"गराउन":3785,"छैनन्":3786,"झापा":3787,"मनाइने":3788,"दशक":3789,"किनभने":3790,"अत्यन्तै":3791,"मस्जि":3792,"घरेलु":3793,"परिणत":3794,"अभ्या":3795,"कय":3796,"कूल":3797,"गञ्ज":3798,"दह":3799,"भलि":3800,"कोठा":3801,"निस्क":3802,"प्रकट":3803,"क्ती":3804,"हारा":3805,"न्द्रा":3806,"पुत":3807,"राजदू":3808,"कुरु":3809,"समयस":3810,"उँदछ":3811,"शिक्षण":3812,"पिडिया":3813,"बोल्ने":3814,"दोल":3815,"पीठ":3816,"पार्ने":3817,"२०१४":3818,"दृढ":3819,"समाजको":3820,"२०७२":3821,"वस्तुको":3822,"बन्धन":3823,"राखेको":3824,"ऋषिहरु":3825,"विस्तृत":3826,"उहाँले":3827,"अपना":3828,"जंगबहादुर":3829,"मिश्रको":3830,"पैसा":3831,"आरम्भ":3832,"सहितको":3833,"निकुञ्ज":3834,"प्रशस्त":3835,"पण्डित":3836,"औपचारिक":3837,"नभए":3838,"नगरी":3839,"बू":3840,"रहि":3841,"वु":3842,"शर":3843,"कोही":3844,"मामा":3845,"स्ने":3846,"क्न":3847,"क्सा":3848,"क्लिक":3849,"वार्य":3850,"साउ":3851,"सामेल":3852,"ल्का":3853,"लिई":3854,"पुर्व":3855,"दिइयो":3856,"पर्न":3857,"क्षेत्रबाट":3858,"प्राप्ति":3859,"मोरङ":3860,"लेखेका":3861,"अन्तरि":3862,"व्यासलाई":3863,"जसका":3864,"प्रदेशप्रान्तको":3865,"ट्न":3866,"गर्नुपर्ने":3867,"व्यक्तिहरू":3868,"नगरपालिकामा":3869,"वृत्ति":3870,"कम्पनीको":3871,"पुग्ने":3872,"अनिवार्य":3873,"गाविसको":3874,"पाईन्छ":3875,"उपनिषदहो":3876,"शहरको":3877,"जिल्लाभारतकोउत्तर":3878,"इन्जिनिय":3879,"कहिल्यै":3880,"च्याम्पियन":3881,"परिणाम":3882,"दार्जिलिङ":3883,"सुधार्न":3884,"अक्षर":3885,"आदर्श":3886,"कका":3887,"करी":3888,"झे":3889,"नभएर":3890,"वन्य":3891,"प्रचार":3892,"प्रहार":3893,"हालय":3894,"गर्मी":3895,"भाले":3896,"पुस्ता":3897,"सुदूर":3898,"स्तरीय":3899,"पछिको":3900,"परिसर":3901,"अवलोकन":3902,"मोती":3903,"तेज":3904,"जेठा":3905,"दर्जा":3906,"गर्छन":3907,"लाग्छ":3908,"उत्तराख":3909,"सहयोगी":3910,"जङ्गल":3911,"सक्नेछ":3912,"बङ्गाल":3913,"समुदायको":3914,"अत्यधिक":3915,"सलमान":3916,"येसको":3917,"हमला":3918,"फ्रान्सेली":3919,"सम्झौता":3920,"शहरमा":3921,"विकिपिडिया":3922,"कम्युनिस्ट":3923,"कास्की":3924,"तपस्या":3925,"वेबसाइट":3926,"नुवाकोट":3927,"अधी":3928,"आजा":3929,"ओग":3930,"कश्मी":3931,"गन्ज":3932,"चलि":3933,"डमा":3934,"दया":3935,"भनाइ":3936,"्यू":3937,"क्ट":3938,"जाँ":3939,"जाँदा":3940,"दायित्व":3941,"मुल":3942,"जनजाति":3943,"हुन्छन":3944,"पितृ":3945,"जीवित":3946,"गरेमा":3947,"भूति":3948,"संस्कृ":3949,"सभापति":3950,"कृष्णले":3951,"२०१०":3952,"बस्ती":3953,"थापाले":3954,"२०६३":3955,"संसारमा":3956,"स्नातक":3957,"अग्नि":3958,"शंकर":3959,"संसदको":3960,"सरस्वती":3961,"त्रुटिहरु":3962,"अंग":3963,"आउ":3964,"आश्":3965,"गगन":3966,"चट्टा":3967,"जर्":3968,"बन्ने":3969,"स्र":3970,"सल्या":3971,"मान्":3972,"प्रगति":3973,"पाटन":3974,"क्सि":3975,"तालमा":3976,"पुजा":3977,"सिने":3978,"गार्":3979,"एकि":3980,"किता":3981,"केका":3982,"खाल":3983,"ङ्गी":3984,"वीरेन्द्र":3985,"निर्माता":3986,"उपकरण":3987,"परिचय":3988,"सोम":3989,"बोली":3990,"महर्षि":3991,"यिनै":3992,"ल्याएको":3993,"मानिसले":3994,"गरेरयस":3995,"शिक्षाको":3996,"सर्वप्रथम":3997,"सर्वसाधारण":3998,"भक्तजन":3999,"जीवनमा":4000,"संगै":4001,"थालेको":4002,"१९५०":4003,"उपनिषदहरूको":4004,"ब्यक्ति":4005,"स्मारक":4006,"जमीन":4007,"प्रसारण":4008,"किराँत":4009,"शासनकालमा":4010,"मद्दत":4011,"कल्याण":4012,"मस्जिद":4013,"दोलखा":4014,"इङ्":4015,"एच":4016,"डेका":4017,"तौ":4018,"धनको":4019,"फार":4020,"बग्ने":4021,"यहा":4022,"वण":4023,"श्या":4024,"हू":4025,"ुक":4026,"राशि":4027,"नालाई":4028,"थान":4029,"क्षु":4030,"रहरु":4031,"सम्रा":4032,"पर्यो":4033,"डाको":4034,"प्ती":4035,"श्रव्य":4036,"परियोजना":4037,"सहभागि":4038,"परराष्ट्र":4039,"प्रयोगकर्ता":4040,"राम्र":4041,"जसरी":4042,"खोज्":4043,"१८०":4044,"१८९":4045,"समुह":4046,"दरबारमा":4047,"शमशेरको":4048,"स्कूल":4049,"बसेर":4050,"सूचीमा":4051,"नेकपा":4052,"मन्त्रालयको":4053,"तरिका":4054,"सभ्यता":4055,"सङ्ग्रह":4056,"सजिलै":4057,"जन्मिएका":4058,"मुख्यतवेद":4059,"रचियता":4060,"ंश":4061,"अल्प":4062,"आपूर्ति":4063,"कलि":4064,"कप्":4065,"कक्षा":4066,"गम्":4067,"दलित":4068,"धर्":4069,"नष्ट":4070,"बम":4071,"वको":4072,"सदा":4073,"सजाय":4074,"५००":4075,"माला":4076,"माने":4077,"र्वे":4078,"क्सी":4079,"गरमा":4080,"बाह्र":4081,"हात्ती":4082,"सिपा":4083,"संवत्":4084,"एकउपनिषदहो":4085,"चालन":4086,"दुध":4087,"बैशाख":4088,"बेल":4089,"बनाउनु":4090,"लगाई":4091,"लगाए":4092,"भनिने":4093,"गीतको":4094,"सरकारका":4095,"व्यवस्थित":4096,"फाँ":4097,"आदिवासी":4098,"अभिया":4099,"अभिनेत्री":4100,"धनगढी":4101,"खेलहरू":4102,"सेवाको":4103,"ध्याय":4104,"वृक्ष":4105,"अफगा":4106,"सूर्यको":4107,"भइसकेको":4108,"गुरुङ":4109,"विष्णुको":4110,"हिन्दीबाट":4111,"युगमा":4112,"धनुष":4113,"अफ्रिका":4114,"द्वितीय":4115,"महत्वपूर्ण":4116,"विद्वान":4117,"इसाई":4118,"चढ":4119,"छन्द":4120,"जैन":4121,"टर्":4122,"डेको":4123,"भरी":4124,"मद":4125,"मल्":4126,"वधि":4127,"सशस्त्र":4128,"मान्द":4129,"राउ":4130,"पाल्":4131,"पाती":4132,"ारे":4133,"बासिन्दा":4134,"ल्लु":4135,"जापा":4136,"सिट":4137,"जित्":4138,"पनिषद":4139,"मुसलमान":4140,"राजनैतिक":4141,"उनकै":4142,"सुना":4143,"चिन्त":4144,"खालको":4145,"हीन":4146,"गोला":4147,"श्रमिक":4148,"डित":4149,"त्यसका":4150,"सीता":4151,"बुटी":4152,"रामको":4153,"सरकारलाई":4154,"देवताको":4155,"पेट":4156,"१८५":4157,"अभिमन्यु":4158,"केन्द्रित":4159,"डोटी":4160,"संविधानको":4161,"मतदान":4162,"युरोप":4163,"जर्मनी":4164,"कांग्रेस":4165,"सहिद":4166,"त्यतिबेला":4167,"सङ्ग्रहालय":4168,"उपविभागभारतीयराज्यपश्चिम":4169,"फाइदा":4170,"फिल्म":4171,"इजराय":4172,"सामूहिक":4173,"भलिबल":4174,"अला":4175,"असफल":4176,"कमी":4177,"दक्ष":4178,"लर":4179,"लता":4180,"षड":4181,"काइ":4182,"राक्ष":4183,"नाक":4184,"नायक":4185,"बारा":4186,"याम":4187,"मियर":4188,"गरिन्":4189,"भारदार":4190,"प्राण":4191,"गर्नेछ":4192,"वेब":4193,"बुढा":4194,"चीनमा":4195,"वैष्ण":4196,"शासकीय":4197,"समयको":4198,"स्थलमा":4199,"इन्डिया":4200,"गर्नुपर्छ":4201,"कमल":4202,"सामना":4203,"२०१२":4204,"अधिकारको":4205,"त्यसैगरी":4206,"चलचित्रमा":4207,"सालदेखि":4208,"१९७०":4209,"सौर्य":4210,"उद्देश्यले":4211,"दूरसञ्चार":4212,"ताइवान":4213,"चाहिँ":4214,"तमिलनाडु":4215,"छुट्या":4216,"उपन्यास":4217,"हस्ताक्षर":4218,"पर्याप्त":4219,"कप्तान":4220,"अक्ष":4221,"अञ्च":4222,"आउन":4223,"इटा":4224,"उर्":4225,"कहाँ":4226,"पचा":4227,"भजन":4228,"मन्":4229,"मरु":4230,"लू":4231,"वयन":4232,"माध":4233,"म्न":4234,"देखे":4235,"ल्मी":4236,"लिम्बु":4237,"जाती":4238,"ङ्गिक":4239,"दाङ":4240,"जिम्":4241,"कुखु":4242,"क्रे":4243,"मुख्या":4244,"आफ्नी":4245,"गुठी":4246,"भनिन्थ्यो":4247,"यिका":4248,"सम्बन्धि":4249,"ब्रे":4250,"१८६":4251,"२००३":4252,"सञ्चालनमा":4253,"जबकि":4254,"प्रस्तुति":4255,"चरणमा":4256,"लडाइँ":4257,"बढ्दै":4258,"वर्गीकरण":4259,"मनुष्य":4260,"स्मृति":4261,"विश्लेषण":4262,"कार्यान्वयन":4263,"समयसम्म":4264,"उत्तराखण्ड":4265,"उनि":4266,"चलेको":4267,"टौँ":4268,"दबा":4269,"पल":4270,"मज":4271,"शारी":4272,"शपथ":4273,"४३":4274,"४६":4275,"मामिला":4276,"विकार":4277,"पारी":4278,"वाट":4279,"वाली":4280,"बाल्य":4281,"सारा":4282,"देहा":4283,"सिन":4284,"गान्":4285,"कुलमा":4286,"उनमा":4287,"किशो":4288,"सुस":4289,"स्तरको":4290,"केटी":4291,"जिल्लाअन्तर्गतको":4292,"मेनिया":4293,"राज्यले":4294,"सम्मका":4295,"सीमित":4296,"च्ने":4297,"लेख्":4298,"डीको":4299,"कार्यरत":4300,"दिनसम्म":4301,"बोट":4302,"सेनाका":4303,"डेल":4304,"व्यवस्थाको":4305,"वादको":4306,"तहको":4307,"१७९":4308,"संविधानमा":4309,"शिवको":4310,"छनौ":4311,"एसियामा":4312,"नौती":4313,"छेउमा":4314,"कौरव":4315,"ब्रिटिश":4316,"हकः":4317,"राजनीतिज्ञ":4318,"हृदय":4319,"पद्म":4320,"कठिन":4321,"सम्राट":4322,"ँजी":4323,"अलि":4324,"अन्ध":4325,"गन्ध":4326,"दरा":4327,"ध्र":4328,"नभई":4329,"वहाँ":4330,"शय":4331,"सवारी":4332,"माई":4333,"कारा":4334,"रूद्ध":4335,"निस्ता":4336,"निवास":4337,"प्रवाह":4338,"विन":4339,"वास्तु":4340,"बार्":4341,"होस":4342,"दिई":4343,"दिन्छन्":4344,"गाउने":4345,"कित":4346,"वीय":4347,"प्न":4348,"न्यू":4349,"गुमा":4350,"सबैको":4351,"नेपालीहरूको":4352,"भाषालाई":4353,"बीमा":4354,"जोडी":4355,"रामले":4356,"ट्स":4357,"श्रीमती":4358,"खोजी":4359,"चलनमा":4360,"दुईवटा":4361,"सङ्ख्यामा":4362,"सेवामा":4363,"विकासका":4364,"कार्तिक":4365,"स्थलहरू":4366,"पारेको":4367,"पारेर":4368,"स्वामि":4369,"विषयको":4370,"ङ्कन":4371,"लागेका":4372,"अघिल्लो":4373,"टिमअन्तर्राष्ट्रिय":4374,"च्छे":4375,"फोर्":4376,"समुदायमा":4377,"अंग्रे":4378,"१९४७":4379,"ल्यान्डको":4380,"हाम्रा":4381,"थिएनन्":4382,"विविधता":4383,"इलाका":4384,"बराबर":4385,"आकर्षित":4386,"हावापानी":4387,"सजिलो":4388,"बिचमा":4389,"तपाईँ":4390,"आवाज":4391,"सबभन्दा":4392,"व्यावसायिक":4393,"विजेता":4394,"इत्यादि":4395,"मोर्चा":4396,"क्रमशः":4397,"च्याम्पियनसि":4398,"किताब":4399,"मुख्यालय":4400,"ँगा":4401,"आत":4402,"आयुक्त":4403,"इएका":4404,"ईसा":4405,"चयन":4406,"जरु":4407,"पन्त":4408,"बगै":4409,"मता":4410,"मत्":4411,"रवी":4412,"स्कुल":4413,"तातो":4414,"त्रेय":4415,"बाही":4416,"होला":4417,"नुभयो":4418,"कुम":4419,"कुन्ती":4420,"एकल":4421,"गिर":4422,"गिरी":4423,"क्षेप":4424,"डामा":4425,"प्रतिवेदन":4426,"ग्रि":4427,"नगरपालिकार":4428,"सक्दैन":4429,"पेश":4430,"जन्मा":4431,"भोलि":4432,"कालदेखि":4433,"तर्क":4434,"न्डर":4435,"भीर":4436,"चिनिने":4437,"नारायणी":4438,"वेदको":4439,"ठुला":4440,"राखेका":4441,"राखिन्छ":4442,"विरुवा":4443,"फैसला":4444,"स्नातको":4445,"खेलकुदमा":4446,"पञ्चायती":4447,"सहभागीता":4448,"औषध":4449,"सतहबाट":4450,"उचाइमा":4451,"पछाडि":4452,"आपसमा":4453,"कान्तिपुर":4454,"राजनिति":4455,"राम्ररी":4456,"स्वामित्व":4457,"ंड":4458,"ंचा":4459,"गह":4460,"जू":4461,"णु":4462,"तला":4463,"नमो":4464,"पङ्":4465,"बकु":4466,"बत्ती":4467,"मङ्ग":4468,"हद":4469,"हवाई":4470,"ैयाँ":4471,"वाँ":4472,"बाहु":4473,"कारबाही":4474,"गाड्ने":4475,"देशिक":4476,"पछिल्लो":4477,"बिन":4478,"अनुरोध":4479,"गोरु":4480,"पुरै":4481,"ब्लग":4482,"बुट":4483,"धेरैजसो":4484,"बोकेको":4485,"छाला":4486,"सरकारमा":4487,"मैले":4488,"२००५":4489,"काठमाण्ड":4490,"व्यवस्थापि":4491,"सुरुमा":4492,"गराएका":4493,"तामाङ":4494,"फेला":4495,"राष्ट्रपतिले":4496,"चौध":4497,"कविताको":4498,"लैङ्गिक":4499,"समुदायले":4500,"प्रिमियर":4501,"आयोजित":4502,"तथ्य":4503,"परिषदको":4504,"वर्गीय":4505,"जहाज":4506,"सिमसार":4507,"समर्पित":4508,"गहिरो":4509,"राजीनामा":4510,"रेकर्ड":4511,"शारीरिक":4512,"स्नातकोत्तर":4513,"ंव":4514,"ऋण":4515,"एघार":4516,"खमा":4517,"खडा":4518,"खनिज":4519,"दलीय":4520,"नल":4521,"बलमा":4522,"बस्तु":4523,"सक्षम":4524,"ेलिया":4525,"नेन्द्र":4526,"स्मरण":4527,"निरी":4528,"नाल":4529,"पाली":4530,"वालय":4531,"तालिका":4532,"थालिएको":4533,"सान्":4534,"लिस":4535,"दिइन्छ":4536,"रीका":4537,"चाल":4538,"समाधान":4539,"देखिएको":4540,"शिकार":4541,"शिशु":4542,"शिष्ठ":4543,"स्वरुप":4544,"हरुमा":4545,"परमा":4546,"लगाएका":4547,"जोन":4548,"प्रयोगमा":4549,"तुवा":4550,"व्यक्तित्व":4551,"सदस्यको":4552,"कृतिहरू":4553,"साहित्यका":4554,"पक्षी":4555,"पत्रकार":4556,"प्रणालीको":4557,"उपाध्यक्ष":4558,"हेर्नु":4559,"फुल":4560,"गतिविधि":4561,"बुद्धको":4562,"प्रतियोगिताहरूमा":4563,"व्यापारी":4564,"रावण":4565,"अवसरमा":4566,"भुटान":4567,"अस्तित्वमा":4568,"खड्ग":4569,"सन्दर्भमा":4570,"जुम्ला":4571,"अष्ट्रेलिया":4572,"लुम्बिनी":4573,"गरमाथा":4574,"छनौट":4575,"राजनितिज्ञ":4576,"उदै":4577,"कक्ष":4578,"गार":4579,"जमिन":4580,"पब्":4581,"भ्रे":4582,"रचित":4583,"लम्":4584,"वसन्त":4585,"हम्":4586,"मापन":4587,"नाता":4588,"नाम्":4589,"विनाश":4590,"हिँ":4591,"ष्कार":4592,"पुच्छ":4593,"जिते":4594,"रुचि":4595,"रुद्र":4596,"खिल":4597,"चालित":4598,"डाक्टर":4599,"उत्स":4600,"ञ्चोक":4601,"सबैले":4602,"स्वभाव":4603,"पोथी":4604,"ट्ने":4605,"खुसी":4606,"कमजोर":4607,"घाटन":4608,"मानिसलाई":4609,"बहादु":4610,"सिंहले":4611,"हुनुपर्छ":4612,"हेर्ने":4613,"फर्के":4614,"आफूले":4615,"प्रजातान्त्रिक":4616,"कानुनी":4617,"सुरक्षाको":4618,"चैत":4619,"जनावरहो":4620,"दीयशाखा":4621,"चुनावमा":4622,"सृष्टि":4623,"जङ्गबहादुरले":4624,"कूट":4625,"कान्छा":4626,"यादव":4627,"इन्डोनेसिया":4628,"अष्ट":4629,"आउनु":4630,"कथ":4631,"गंगा":4632,"जमि":4633,"भव्य":4634,"शङ्ख":4635,"४४":4636,"प्रताप":4637,"प्रचलनमा":4638,"वित्":4639,"वाइ":4640,"वाङ":4641,"वाही":4642,"बाला":4643,"यामा":4644,"ष्णा":4645,"दाँ":4646,"संख्य":4647,"दिदी":4648,"गाउन":4649,"मिलि":4650,"मिसि":4651,"लोचना":4652,"गरिरहेको":4653,"केदार":4654,"एकाइ":4655,"२०२०":4656,"हीँ":4657,"कीरा":4658,"जुद्ध":4659,"प्रतिक्रिया":4660,"त्यसरी":4661,"भागहरूमा":4662,"कर्नाटक":4663,"राजालाई":4664,"लगातार":4665,"टोपी":4666,"छोडेर":4667,"निर्वाह":4668,"स्टु":4669,"सदस्यहरू":4670,"द्रु":4671,"द्रौ":4672,"सकेन":4673,"दिएपछि":4674,"परिवारका":4675,"थापाको":4676,"यसैले":4677,"विश्वविद्यालयमा":4678,"गाउँपालिकाहरू":4679,"म्याच":4680,"दशरथ":4681,"फोन":4682,"सातौँ":4683,"अन्त्यमा":4684,"मलेसिया":4685,"भोजपुर":4686,"पद्धति":4687,"अभ्यास":4688,"ंस":4689,"अनौ":4690,"अमृत":4691,"आरा":4692,"इस्ट":4693,"खबर":4694,"गन्त":4695,"दही":4696,"फला":4697,"रमण":4698,"सगरमाथा":4699,"१मा":4700,"४२":4701,"७२":4702,"मानी":4703,"माथी":4704,"न्ता":4705,"निवार":4706,"प्रदर्श":4707,"क्क":4708,"हार्":4709,"हानी":4710,"रिस":4711,"संकट":4712,"दिव्य":4713,"सम्मानित":4714,"स्थानी":4715,"भिडियो":4716,"समस्त":4717,"डाइ":4718,"ण्डि":4719,"राज्यहरू":4720,"डिङ":4721,"त्यसले":4722,"बेड":4723,"बनायो":4724,"बनाइयो":4725,"अधिराज्यको":4726,"पाइएको":4727,"गीतमा":4728,"व्याकरण":4729,"पूर्वमन्त्री":4730,"जातिका":4731,"घाइ":4732,"शाहका":4733,"विद्यालयमा":4734,"हुनुहुन्छ":4735,"शैलीमा":4736,"मौका":4737,"उत्तम":4738,"अमेरिकाका":4739,"दुर्लभ":4740,"गठित":4741,"पूर्वीय":4742,"रोगको":4743,"ब्राजि":4744,"प्रणालीमा":4745,"यिनीहरू":4746,"पोखरीमा":4747,"बाहिरी":4748,"बङ्गलादेशी":4749,"संसारको":4750,"वार्ता":4751,"तयारी":4752,"हामीले":4753,"सुनसरी":4754,"जवाहर":4755,"बकुल्ला":4756,"अना":4757,"एक्स":4758,"ओखल":4759,"कष्ट":4760,"कदम":4761,"छनोट":4762,"दत्ता":4763,"नसक्ने":4764,"बझा":4765,"भृ":4766,"भनाई":4767,"यरको":4768,"वस्था":4769,"५६":4770,"७७":4771,"काला":4772,"काभ्रे":4773,"वारा":4774,"हुदैन":4775,"त्यस्ता":4776,"जिया":4777,"रहनु":4778,"लोप":4779,"सुनेर":4780,"सेल्":4781,"सेन्ट":4782,"रहेकोे":4783,"रोगी":4784,"सन्देश":4785,"ण्डर":4786,"ञ्चन":4787,"महात्मा":4788,"ठाँ":4789,"बोध":4790,"द्वाज":4791,"बढि":4792,"बढ्न":4793,"ल्याउने":4794,"सक्दछ":4795,"दोश्रो":4796,"ंगे":4797,"खुम्बु":4798,"व्यक्तिहरूको":4799,"मैथि":4800,"वरपर":4801,"जयप्रकाश":4802,"जितेको":4803,"बस्न्या":4804,"तनहुँ":4805,"तहमा":4806,"समाजवादी":4807,"तत्काल":4808,"परिवारको":4809,"उल्लेखनीय":4810,"लक्ष्मण":4811,"लिपिमा":4812,"लेखित":4813,"ब्रिटे":4814,"किनकि":4815,"उहाँको":4816,"किरात":4817,"झैँ":4818,"अर्जुनले":4819,"मिलाएर":4820,"धर्मावलम्बीहरूको":4821,"तिनीहरूको":4822,"वरिष्ठ":4823,"सम्पाद":4824,"ऋतुमा":4825,"बिरामी":4826,"कैलाली":4827,"बाह्य":4828,"हस्तक्षेप":4829,"वन्यजन्तु":4830,"अफगानिस्ता":4831,"द्रौप":4832,"अप्":4833,"आशा":4834,"आग्रह":4835,"झन्":4836,"तस्":4837,"धू":4838,"पराज":4839,"पन्थ":4840,"फलको":4841,"फ्रे":4842,"वरको":4843,"शल्य":4844,"पाउ":4845,"बाधा":4846,"थारू":4847,"रहँदा":4848,"मुस्ता":4849,"मिल्ने":4850,"स्थाना":4851,"श्लोक":4852,"स्तम्भ":4853,"दीर्":4854,"राज्यलाई":4855,"परिभा":4856,"टीमा":4857,"अन्तराष्ट्रिय":4858,"अन्ततः":4859,"विश्वयुद्ध":4860,"शुल्क":4861,"सूक्ष्":4862,"दोष":4863,"फलस्वरूप":4864,"पश्चिमा":4865,"गर्नुभएको":4866,"घाटमा":4867,"विशेषतया":4868,"जनसङ्ख्याको":4869,"कथामा":4870,"साहित्यकार":4871,"विधिक":4872,"अस्वी":4873,"लाग्यो":4874,"वंशको":4875,"२०७४":4876,"थालेका":4877,"ज्यादै":4878,"अपहरण":4879,"२०४६":4880,"जिम्मेवार":4881,"म्मद":4882,"अवधिमा":4883,"सभ्यताको":4884,"ष्टाचार":4885,"बजेट":4886,"शिलालेख":4887,"इजिप्":4888,"ओगटेको":4889,"सिपाही":4890,"पब्लिक":4891,"अली":4892,"आग":4893,"आसाम":4894,"आश्रम":4895,"कश्य":4896,"गहुँ":4897,"जरको":4898,"तट":4899,"तस":4900,"पखे":4901,"फलाम":4902,"बसा":4903,"मधे":4904,"वनको":4905,"तिष्":4906,"बाण":4907,"बायाँ":4908,"त्म":4909,"त्तिक":4910,"ल्नु":4911,"हिरण":4912,"जिन्":4913,"मुजि":4914,"बाटै":4915,"सुरेन्द्र":4916,"सेवन":4917,"जिल्लाहरूमा":4918,"खानी":4919,"आफन्त":4920,"मेन्ट":4921,"बिर":4922,"प्राचिन":4923,"पिक":4924,"उपस्थिति":4925,"अनुया":4926,"परिक्रमा":4927,"गुम्बा":4928,"सोलु":4929,"सरल":4930,"जोशी":4931,"बढेको":4932,"मार्न":4933,"...":4934,"पेक्ष":4935,"आधारभूत":4936,"२००२":4937,"सदस्यता":4938,"कृष्णको":4939,"हालै":4940,"सङ्गी":4941,"उल्लेखित":4942,"शोधन":4943,"क्रियाकला":4944,"प्रकारकोजनावरहो":4945,"दशकमा":4946,"ज्यान":4947,"चराको":4948,"आठौँ":4949,"बजाउने":4950,"जर्मन":4951,"पात्रो":4952,"आकारको":4953,"तरिकाले":4954,"कल्पना":4955,"सधैं":4956,"उत्तराधिकारी":4957,"दुःख":4958,"गम्भीर":4959,"मल्लको":4960,"औसत":4961,"ट्रा":4962,"नक":4963,"भ्":4964,"रसमा":4965,"वट":4966,"वस्त्र":4967,"सल्":4968,"सरह":4969,"ेे":4970,"५१":4971,"राति":4972,"स्टो":4973,"निरा":4974,"नाय":4975,"थाइ":4976,"यसो":4977,"नुपर्ने":4978,"गाएर":4979,"मिरे":4980,"कुट":4981,"किङ":4982,"टाङ":4983,"स्तार":4984,"डाका":4985,"बिष्ट":4986,"प्राविधिक":4987,"शिर":4988,"प्ला":4989,"राज्यहरूको":4990,"खेल्न":4991,"परिकार":4992,"हाँस":4993,"कर्ष":4994,"स्वच्छ":4995,"वर्षीय":4996,"विद्य":4997,"देवले":4998,"जुनसुकै":4999,"व्यास":5000,"टेड":5001,"ज्ञानेन्द्र":5002,"साम्य":5003,"निर्माणमा":5004,"कुरामा":5005,"कुराहरू":5006,"जितेका":5007,"स्वतन्त्रताको":5008,"सहयोगमा":5009,"नेतृत्वको":5010,"पाण्डु":5011,"क्रान्तिकारी":5012,"सांसद":5013,"लेखिएका":5014,"इतिहासकार":5015,"भ्रष्टाचार":5016,"सुन्दरी":5017,"माओवादीले":5018,"बेलायतको":5019,"फ्रान्सको":5020,"योग्यता":5021,"आकर्षण":5022,"मस्तिष्":5023,"बढ्दो":5024,"श्रोत":5025,"भन्दछन्":5026,"धरान":5027,"बैठक":5028,"अगस्ट":5029,"विश्वामित्र":5030,"इन्टरनेट":5031,"तिम्रो":5032,"सम्पर्क":5033,"पहेँ":5034,"संहिता":5035,"कुँवर":5036,"जाँच":5037,"इङ्ल्यान्ड":5038,"काठमाण्डौ":5039,"वित्तीय":5040,"परिभाषित":5041,"आज्ञा":5042,"आध्या":5043,"इलाम":5044,"ऊर्जा":5045,"खेर":5046,"गको":5047,"झण्डा":5048,"ठे":5049,"ठार":5050,"धृ":5051,"धना":5052,"फ्या":5053,"बध":5054,"बनि":5055,"बली":5056,"मठ":5057,"मरि":5058,"मनमा":5059,"यको":5060,"लौ":5061,"सप":5062,"सही":5063,"सफ्ट":5064,"४१":5065,"निजा":5066,"तिहार":5067,"त्मिक":5068,"नील":5069,"पुरे":5070,"संहार":5071,"दिला":5072,"धाम":5073,"सुवर्ण":5074,"चिया":5075,"पूरै":5076,"वर्ती":5077,"दुल्लु":5078,"भनेका":5079,"मेरा":5080,"पिल":5081,"उपभोग":5082,"श्रु":5083,"टिएको":5084,"महाभारतमा":5085,"भागको":5086,"लेख्न":5087,"अन्तमा":5088,"जोखि":5089,"महल":5090,"यिनलाई":5091,"१८८":5092,"स्तुते":5093,"भोट":5094,"घटन":5095,"नाथको":5096,"विश्वविद्यालयबाट":5097,"लिगको":5098,"गोरख":5099,"नागरिकता":5100,"चैत्र":5101,"कोइरालाको":5102,"अधिकतम":5103,"पढ्न":5104,"कहिलेका":5105,"तिमीले":5106,"उत्पादनको":5107,"केशर":5108,"समर्पण":5109,"रामेछाप":5110,"हरियाणा":5111,"गिरिजा":5112,"पुण्य":5113,"नजीकै":5114,"सल्यान":5115,"वैष्णव":5116,"कुखुरा":5117,"अहम":5118,"आयर":5119,"इले":5120,"उर्जा":5121,"कता":5122,"चतुर्":5123,"छल":5124,"छरि":5125,"तका":5126,"मंग":5127,"लडि":5128,"४७":5129,"माहि":5130,"मारु":5131,"कालाई":5132,"कात्तिक":5133,"लाइन":5134,"विद्":5135,"विरूद्ध":5136,"हाट":5137,"लिइएको":5138,"संक":5139,"दिइ":5140,"दिल्":5141,"मुर्":5142,"किम":5143,"टाको":5144,"नेपालकै":5145,"कृष्णा":5146,"बिक्रम":5147,"रेसल":5148,"डिजा":5149,"भएन":5150,"सहमति":5151,"सोह्र":5152,"मानक":5153,"अर्घा":5154,"बनाइन्छ":5155,"बीर":5156,"मन्त्रीमण्डलमा":5157,"पर्नेछ":5158,"खुकुरी":5159,"चित्रण":5160,"सभाका":5161,"धुरा":5162,"फेरी":5163,"आर्मी":5164,"ल्यू":5165,"वंशका":5166,"पार्टीका":5167,"पार्टीले":5168,"उद्घाटन":5169,"त्यहाँबाट":5170,"बहुप्रसिद्ध":5171,"प्रेरित":5172,"समूहमा":5173,"ढुङ्गे":5174,"उपनिवेश":5175,"अध्यक्षको":5176,"साँझ":5177,"भेटिन्छ":5178,"जैविक":5179,"उदयपुर":5180,"जमीनमा":5181,"अत्याधिक":5182,"उडान":5183,"धृतराष्ट्र":5184,"सहभागिता":5185,"किशोर":5186,"बुटवल":5187,"जवाहरलाल":5188,"तसर्थ":5189,"अनुयायी":5190,"ंको":5191,"अङ्":5192,"अश्व":5193,"कठो":5194,"कञ्चन":5195,"जटि":5196,"नग":5197,"नरेन्द्र":5198,"पन्छ":5199,"पन्ध्र":5200,"फलमा":5201,"बेर":5202,"लखन":5203,"वशिष्ठ":5204,"सती":5205,"हले":5206,"६५":5207,"कालिका":5208,"राप्ती":5209,"स्टर":5210,"ल्दै":5211,"याममा":5212,"गित":5213,"समन्":5214,"छिटो":5215,"मेलन":5216,"बिस्तार":5217,"देखिन्छन्":5218,"प्ने":5219,"ञ्जना":5220,"टिका":5221,"मानवीय":5222,"महादेवको":5223,"महासागर":5224,"महाराष्ट्रको":5225,"भागलाई":5226,"सबैलाई":5227,"हुन्थे":5228,"कर्मी":5229,"च्चा":5230,"पतिको":5231,"यिनका":5232,"नगरमा":5233,"काममा":5234,"ल्याउन":5235,"मार्ने":5236,"विकासमा":5237,"प्रकारले":5238,"सामन्त":5239,"कुराको":5240,"गराउनु":5241,"मृत्युदण्ड":5242,"संरक्षित":5243,"पत्रमा":5244,"पत्रकारि":5245,"१५०":5246,"त्तै":5247,"२०७०":5248,"जलवायु":5249,"म्यानमा":5250,"संघर्ष":5251,"हरियो":5252,"१९६०":5253,"२०५८":5254,"संस्कृतिको":5255,"पारित":5256,"बाछिटाको":5257,"सचिवालय":5258,"कम्तीमा":5259,"भण्डारी":5260,"उत्पादनमा":5261,"चाडपर्व":5262,"प्रजातन्त्रको":5263,"काङ्ग्रेस":5264,"पछाडी":5265,"खैरो":5266,"डाँठ":5267,"आध्यात्मिक":5268,"रेसलमेनिया":5269,"अयो":5270,"ईश्वर":5271,"ङले":5272,"झ्या":5273,"नवा":5274,"पहल":5275,"बग":5276,"बको":5277,"मग":5278,"मरे":5279,"लव":5280,"स्वाद":5281,"रूष":5282,"प्रेर":5283,"विर":5284,"तिर्थ":5285,"साफ":5286,"भान्":5287,"पुस":5288,"तीव्र":5289,"राजको":5290,"राजकीय":5291,"एकमात्र":5292,"नेपाललाई":5293,"देशी":5294,"दुरीमा":5295,"बिन्दु":5296,"निर्भर":5297,"जुली":5298,"खेलेका":5299,"महासचिव":5300,"नेपालीमा":5301,"बीस":5302,"कार्यको":5303,"रमाइ":5304,"साथसाथै":5305,"भिन्नता":5306,"क्षिप्त":5307,"छापा":5308,"सम्बत":5309,"मन्दिरहरू":5310,"भगवानको":5311,"गर्नुभयो":5312,"गराई":5313,"अर्थमा":5314,"पाकिस्तानमा":5315,"स्याङ्":5316,"पदावधि":5317,"चन्द्रमा":5318,"मार्गको":5319,"पृथ्वीमा":5320,"२०६५":5321,"आइरहेको":5322,"हरिहर":5323,"१९८०":5324,"बढाउने":5325,"हनुमानको":5326,"सामग्रीहरू":5327,"टोलीले":5328,"आयोगको":5329,"मारिए":5330,"डब्ल्यू":5331,"पट्टी":5332,"बैङ्कको":5333,"राजदूत":5334,"साउदी":5335,"अन्तरिम":5336,"अधीनमा":5337,"घाइते":5338,"आस्था":5339,"आएपछि":5340,"इस":5341,"इको":5342,"कलाई":5343,"च्यु":5344,"ढङ्ग":5345,"नहर":5346,"पती":5347,"बला":5348,"बरि":5349,"यहि":5350,"रले":5351,"हण":5352,"ूर":5353,"ौली":5354,"५२":5355,"५४":5356,"माताको":5357,"मातह":5358,"काउ":5359,"काे":5360,"लाही":5361,"विघटन":5362,"हुला":5363,"जागर":5364,"त्यहा":5365,"ङ्कर":5366,"दायाँ":5367,"दाबाद":5368,"नुवार":5369,"पुरूष":5370,"जिन":5371,"राजस्व":5372,"सम्मेलन":5373,"तथापि":5374,"रोज":5375,"मेची":5376,"बिलि":5377,"राज्यहरूमा":5378,"वेश्वर":5379,"डिएको":5380,"सहरी":5381,"अवशेष":5382,"बनारस":5383,"लयको":5384,"वर्षपछि":5385,"पोषण":5386,"शेयर":5387,"नगरको":5388,"पेय":5389,"तुरु":5390,"स्थानबाट":5391,"२००१":5392,"विश्वेश्वर":5393,"चलचित्रको":5394,"घरहरू":5395,"उपत्यकाका":5396,"विषयवस्तु":5397,"वर्गका":5398,"टिमले":5399,"कम्पनीले":5400,"म्बरमा":5401,"पुग्छ":5402,"दरबारको":5403,"जङ्गली":5404,"प्रजातिहरू":5405,"पोखरीको":5406,"ग्रामी":5407,"त्यहीँ":5408,"युगको":5409,"महेन्द्रले":5410,"भन्नु":5411,"चाहन्थे":5412,"आयोगले":5413,"बागमती":5414,"खासगरी":5415,"श्रीलङ्का":5416,"प्रशिक्षण":5417,"पोर्चु":5418,"किराँती":5419,"मनोरम":5420,"आम्बेड":5421,"पुष्प":5422,"मैदानमा":5423,"सुदूरपश्चिम":5424,"अञ्चलको":5425,"पहेँलो":5426,"कठोर":5427,"अब्":5428,"अम्बा":5429,"एक्":5430,"एसि":5431,"चण्ड":5432,"जून":5433,"तय":5434,"दलाई":5435,"द्यु":5436,"पक्रा":5437,"भत्":5438,"मन्द":5439,"सति":5440,"ीकरण":5441,"३००":5442,"६२":5443,"६७":5444,"कालको":5445,"काएर":5446,"र्श":5447,"राह":5448,"रात्रि":5449,"नेको":5450,"नित":5451,"पातिक":5452,"पालामा":5453,"पाउनु":5454,"वाणी":5455,"देह":5456,"याल":5457,"भालु":5458,"नुपातिक":5459,"पुष्टि":5460,"सिटी":5461,"गान":5462,"गाय":5463,"मिड":5464,"थियोे":5465,"किम्ब":5466,"गरिए":5467,"टाउन":5468,"देशहरू":5469,"बिक्री":5470,"शिखर":5471,"पिताको":5472,"भएपछी":5473,"स्वस्थ":5474,"च्न":5475,"च्छि":5476,"बोर्ड":5477,"बोलिन्छ":5478,"दोहो":5479,"पूर्वको":5480,"नदीहरू":5481,"श्रीम":5482,"ख्खा":5483,"दर्ता":5484,"निर्माणको":5485,"ष्ठित":5486,"भित्रको":5487,"शक्तिपीठ":5488,"अन्तरगत":5489,"कलाको":5490,"१९९८":5491,"भवनमा":5492,"बन्दर":5493,"फोर":5494,"लिपिको":5495,"ठीक":5496,"पुस्तकहरू":5497,"ग्रन्थहरूमा":5498,"वार्ड":5499,"छेउ":5500,"चैते":5501,"तुलसी":5502,"पाठ्य":5503,"पढ्":5504,"बिहारको":5505,"जनताले":5506,"माइक्रो":5507,"प्रमाणित":5508,"ताइवानको":5509,"आकर्षक":5510,"द्वीपमा":5511,"पूर्णिमाको":5512,"घेरिएको":5513,"चिकित्स":5514,"दिशामा":5515,"ओलम्पिक":5516,"समृद्धि":5517,"चट्टान":5518,"धृष्ट":5519,"तुरुन्त":5520,"ंगी":5521,"ंदैन":5522,"आहार":5523,"उछ":5524,"ऋग्":5525,"एन्":5526,"एएफ":5527,"खारे":5528,"जन्य":5529,"जडि":5530,"तडी":5531,"तत्त्व":5532,"नगर्ने":5533,"पराम":5534,"रसा":5535,"शरि":5536,"सँ":5537,"सद्":5538,"सनको":5539,"्यन्त्र":5540,"प्रवर्":5541,"प्रबन्ध":5542,"विनि":5543,"विन्द":5544,"विषा":5545,"साझे":5546,"ल्दो":5547,"यसपछि":5548,"जान्छन्":5549,"दायी":5550,"सियत":5551,"संशोधन":5552,"मुकु":5553,"राजकुमारी":5554,"मिले":5555,"कुस्ती":5556,"रीले":5557,"सुख्खा":5558,"भिम":5559,"सेन्":5560,"पर्दैन":5561,"२०२२":5562,"मेडि":5563,"कीको":5564,"न्यून":5565,"राज्यलक्ष्मी":5566,"प्रतिभा":5567,"परिचालन":5568,"भारतबाट":5569,"गुल्मी":5570,"श्वरको":5571,"बुल":5572,"बनाइने":5573,"मध्यम":5574,"मध्यमा":5575,"सङ्कट":5576,"वारि":5577,"राम्रा":5578,"छाडेर":5579,"पोत":5580,"तेह्र":5581,"ल्याइएको":5582,"आदिमा":5583,"फलफूल":5584,"दक्षिणपूर्वी":5585,"भेला":5586,"खुवास":5587,"स्ट्र":5588,"स्टार":5589,"पुरातात्":5590,"फिट":5591,"मानिन्छन्":5592,"माथिको":5593,"भूमिमा":5594,"कथाहरू":5595,"१७८":5596,"दलका":5597,"१९९२":5598,"गौरी":5599,"अहिलेसम्म":5600,"करिव":5601,"गरिनेछ":5602,"आजको":5603,"विधे":5604,"हामीलाई":5605,"जात्रामा":5606,"घटनाहरू":5607,"पारिश्रमिक":5608,"चरम":5609,"सायनिक":5610,"नजिकको":5611,"सृजना":5612,"हाइड":5613,"गान्धीको":5614,"डलर":5615,"आयुर्":5616,"पलाञ्चोक":5617,"आश्रममा":5618,"न्देही":5619,"आसपा":5620,"कलकत्ता":5621,"लम्बाई":5622,"षड्यन्त्र":5623,"जिम्मा":5624,"गन्तव्य":5625,"अस्वीकार":5626,"लडिरहेका":5627,"अयोध्या":5628,"परामर्श":5629,"आउँछन्":5630,"आरोह":5631,"उस":5632,"उरा":5633,"उता":5634,"उद्ध":5635,"औजार":5636,"कटु":5637,"गन्":5638,"थार":5639,"नवी":5640,"ब्रो":5641,"मध":5642,"मही":5643,"शनिक":5644,"सक":5645,"सता":5646,"सट्टा":5647,"हप्":5648,"ऽहं":5649,"िएको":5650,"कात्मक":5651,"काटेर":5652,"रान":5653,"नेपो":5654,"निहित":5655,"विपरी":5656,"ारण":5657,"बासी":5658,"हुर्":5659,"हानि":5660,"हाना":5661,"देवा":5662,"दानी":5663,"दाहाल":5664,"सिङ":5665,"सिना":5666,"मुर":5667,"मुम्ब":5668,"किंव":5669,"न्तो":5670,"ङ्गु":5671,"रोमन":5672,"समानुपातिक":5673,"प्रार्थ":5674,"शिया":5675,"शिष्य":5676,"शिक्षक":5677,"निर्णा":5678,"वेत":5679,"न्नति":5680,"महाकाली":5681,"लगाइएको":5682,"अधिराज्य":5683,"कार्यपालिका":5684,"चीनका":5685,"लुगा":5686,"रामलाई":5687,"बोक्रा":5688,"कामको":5689,"भेगमा":5690,"डेल्":5691,"चुर":5692,"सदस्यहरूको":5693,"काठमाडौ":5694,"महिलाले":5695,"सर्लाही":5696,"भीड":5697,"पाकिस्तानका":5698,"दूरीमा":5699,"निम्ना":5700,"१९९५":5701,"प्रभावशाली":5702,"संस्थाहरू":5703,"एसियाका":5704,"कार्यक्रमहरू":5705,"२०४८":5706,"कौश":5707,"मुलुकको":5708,"पुराणमा":5709,"किनारामा":5710,"कसैलाई":5711,"एकादशीलाई":5712,"तिनीहरू":5713,"उपयोगी":5714,"प्याले":5715,"काठमाडौंमा":5716,"सिन्धुपाल्":5717,"तपाईं":5718,"भानुभक्त":5719,"सुर्खेत":5720,"तमिलनाडुको":5721,"बहादुरको":5722,"द्रौपदी":5723,"पन्थी":5724,"सूक्ष्म":5725,"कश्यप":5726,"रमाइलो":5727,"मेडिकल":5728,"खुवासभा":5729,"अमि":5730,"अङ्क":5731,"अतः":5732,"आलु":5733,"आयात":5734,"उभि":5735,"कपा":5736,"चर्य":5737,"छौ":5738,"नस":5739,"नजर":5740,"६६":5741,"निमि":5742,"नाला":5743,"क्कै":5744,"ताप्ले":5745,"हालेर":5746,"ल्दा":5747,"ल्डो":5748,"लिय":5749,"पुत्री":5750,"गायन":5751,"मुल्य":5752,"स्थानिय":5753,"सुन्त":5754,"चित्त":5755,"स्ते":5756,"युनि":5757,"सेती":5758,"खाँची":5759,"मेश्वर":5760,"डान":5761,"प्राव":5762,"प्राध्या":5763,"निर्धार":5764,"अनुरूप":5765,"गोल्ड":5766,"प्रतिबन्ध":5767,"भएता":5768,"नामका":5769,"लगाउँछन्":5770,"बोकेर":5771,"महसुस":5772,"दक्षिणा":5773,"काठको":5774,"कृष्णलाई":5775,"पर्वको":5776,"महिलाहरू":5777,"सङ्ग्रा":5778,"परापूर्व":5779,"लाग्दछ":5780,"ग्रहको":5781,"बर्ग":5782,"हिमाचल":5783,"बाँध":5784,"पूजाआजा":5785,"विवाहको":5786,"वेदमा":5787,"वेदका":5788,"१९७५":5789,"म्बू":5790,"विश्वविद्यालयको":5791,"किलोमीटर":5792,"यिनीहरूको":5793,"विचारधारा":5794,"अदालतमा":5795,"बताउँछन्":5796,"अंश":5797,"१९४९":5798,"अध्यापन":5799,"इन्द्रको":5800,"प्रतीकात्मक":5801,"सिक्किमको":5802,"बाटोमा":5803,"बैठकमा":5804,"भरतपुर":5805,"समृद्ध":5806,"भगवतीको":5807,"अछाम":5808,"विजयी":5809,"ध्रु":5810,"दत्तात्रेय":5811,"बझाङ":5812,"मुस्ताङ":5813,"हिरण्य":5814,"सोलुखुम्बु":5815,"पक्राउ":5816,"ंदै":5817,"आख्या":5818,"आगमन":5819,"इट":5820,"उज्या":5821,"खरि":5822,"चल्ने":5823,"ट्रे":5824,"तटमा":5825,"तनाव":5826,"बेरो":5827,"भन्छन्":5828,"यशो":5829,"वन्ध":5830,"शक्त":5831,"सरो":5832,"४९":5833,"मावली":5834,"रारा":5835,"लेट":5836,"विवे":5837,"पाटी":5838,"तिजा":5839,"वासमा":5840,"यसप्रकार":5841,"दायिक":5842,"पुगि":5843,"सिस":5844,"लीन":5845,"गाडी":5846,"मिनेट":5847,"भारी":5848,"जिल्लालाई":5849,"जनवादी":5850,"ङ्ग्रा":5851,"कृपा":5852,"मेन्":5853,"मेजर":5854,"बित":5855,"पिरा":5856,"उपभो":5857,"उपजिल्लामा":5858,"वेज":5859,"रेड":5860,"गुरा":5861,"गुँड":5862,"गरेकाले":5863,"अर्ध":5864,"मोबाइ":5865,"भाषाहरूमा":5866,"राजाहरूले":5867,"लगाएको":5868,"वर्षका":5869,"सदन":5870,"भूभागमा":5871,"यहाँबाट":5872,"मूर्":5873,"ब्रज":5874,"स्थानहरू":5875,"सभाले":5876,"सभामुख":5877,"मानिसहरूलाई":5878,"ड्डी":5879,"लगेर":5880,"त्रिपुरा":5881,"शाहलाई":5882,"महिलालाई":5883,"वाहक":5884,"हुनुपर्ने":5885,"अर्थव्यवस्था":5886,"तर्फको":5887,"दलले":5888,"शास्त्रमा":5889,"सकेनन्":5890,"गठबन्धन":5891,"बताए":5892,"श्रेणी":5893,"विदेशमा":5894,"विरुद्धको":5895,"जंगल":5896,"दौड":5897,"माओवादीको":5898,"पहाडको":5899,"अरुण":5900,"पन्जा":5901,"इस्ला":5902,"समर्थक":5903,"दार्शनिक":5904,"प्रचण्ड":5905,"लिङ्गी":5906,"स्तरका":5907,"हैसियत":5908,"स्तनधारी":5909,"निकुञ्":5910,"चन्दन":5911,"नारद":5912,"फाइनल":5913,"क्षत्रिय":5914,"चारैतिर":5915,"रोजगारी":5916,"मङ्गल":5917,"एघारौँ":5918,"विद्यमान":5919,"प्रेरणा":5920,"आम्बेडकर":5921,"विधेयक":5922,"निमित्त":5923,"आन्ध्र":5924,"इं":5925,"एड":5926,"एन्ड":5927,"जडी":5928,"थलो":5929,"नक्":5930,"नरि":5931,"पहुँ":5932,"बमा":5933,"बग्":5934,"वल्":5935,"वकाल":5936,"सबाट":5937,"सवै":5938,"५३":5939,"७४":5940,"कोत":5941,"कोदो":5942,"माले":5943,"मान्न":5944,"रासायनिक":5945,"प्रशं":5946,"नास":5947,"नापुर":5948,"बालुवा":5949,"साको":5950,"साङ्":5951,"हाई":5952,"देन":5953,"यात्री":5954,"लिंग":5955,"जानिन्छ":5956,"भाद्र":5957,"पुजारी":5958,"गाइ":5959,"गाउ":5960,"गायिका":5961,"मिलन":5962,"मिलियन":5963,"रुक्":5964,"सुत्":5965,"चितुवा":5966,"केटा":5967,"चाहे":5968,"दुल":5969,"खाली":5970,"योगी":5971,"हीं":5972,"उपदेश":5973,"गोडा":5974,"प्रतिपा":5975,"सारी":5976,"महाकवि":5977,"स्वस्थानी":5978,"जनाउँछ":5979,"कार्यकर्ता":5980,"छात्र":5981,"गीता":5982,"जसबाट":5983,"पदण्ड":5984,"पदयात्रा":5985,"भेष":5986,"खुल्ला":5987,"घाँस":5988,"ढाँचा":5989,"भित्रै":5990,"देवीका":5991,"देवीलाई":5992,"लगत्तै":5993,"ठाउँबाट":5994,"वर्णित":5995,"छोराको":5996,"हिमालको":5997,"शैलीको":5998,"घटनामा":5999,"त्तम":6000,"संस्थाको":6001,"शमशेरलाई":6002,"फैला":6003,"१९५६":6004,"लिगमा":6005,"विस्तारै":6006,"पदार्थको":6007,"पठाए":6008,"पैदा":6009,"जर्मनीको":6010,"विद्युतीय":6011,"जलाउने":6012,"श्रीलङ्काको":6013,"प्रारम्भमा":6014,"विश्वासको":6015,"पढाइ":6016,"मराठी":6017,"रोजगार":6018,"भोलिपल्ट":6019,"आराधना":6020,"डिजाइन":6021,"ढङ्गले":6022,"ग्रामीण":6023,"खारेज":6024,"मुकुन्द":6025,"मधेश":6026,"विपरीत":6027,"निर्णायक":6028,"निम्नानुसार":6029,"निर्धारित":6030,"पहुँच":6031,"अजि":6032,"उदार":6033,"खत्री":6034,"गया":6035,"झन्ड":6036,"ट्रि":6037,"दमै":6038,"बज":6039,"ब्यु":6040,"मझ":6041,"यम्":6042,"रौ":6043,"शकु":6044,"हप्ता":6045,"५७":6046,"माल्":6047,"मापदण्ड":6048,"र्ग":6049,"र्ट":6050,"नेहरू":6051,"नेदर":6052,"पाएपछि":6053,"म्स":6054,"सार्":6055,"साहे":6056,"गर्नमा":6057,"सिङ्गा":6058,"लीले":6059,"संक्षिप्त":6060,"दिया":6061,"मिस":6062,"कुकुर":6063,"किला":6064,"किच्च":6065,"सम्वत":6066,"गरिदिए":6067,"सुवा":6068,"सुल्":6069,"श्चा":6070,"भिड":6071,"चासो":6072,"चालक":6073,"चामल":6074,"देशलाई":6075,"खानेपा":6076,"द्धन":6077,"जनताका":6078,"जनसंख्या":6079,"तरल":6080,"बैतडी":6081,"शिल्प":6082,"राष्ट्रमण्डल":6083,"प्पा":6084,"उपविधा":6085,"अनुप":6086,"अनुहार":6087,"गोप":6088,"सोच":6089,"महाधि":6090,"महाभारतका":6091,"बुध":6092,"बेल्":6093,"ज्व":6094,"वारिक":6095,"जनाले":6096,"दिनलाई":6097,"बोहरा":6098,"पोथ":6099,"ल्याएर":6100,"मुख्यतः":6101,"जातिले":6102,"पीडित":6103,"चुनौती":6104,"सुरुवा":6105,"सेवाहरू":6106,"कार्की":6107,"भीष्म":6108,"रुपैयाँ":6109,"सञ्चालित":6110,"२०६८":6111,"बङ्गलादेशका":6112,"च्याउ":6113,"शरीरलाई":6114,"न्यायाधीशको":6115,"सिमानामा":6116,"बच्चाको":6117,"गाईको":6118,"गर्दथ्यो":6119,"समुद्री":6120,"वयस्क":6121,"द्रोण":6122,"कुशल":6123,"पटना":6124,"विज्ञानको":6125,"जवाफ":6126,"स्विडे":6127,"दृष्टिकोणले":6128,"डब्ल्युडब्ल्यु":6129,"परिसरमा":6130,"जित्ने":6131,"अलावा":6132,"माधव":6133,"मत्स्य":6134,"व्यवस्थापिका":6135,"उत्सव":6136,"सेल्सि":6137,"निजामती":6138,"मंगल":6139,"हुलाक":6140,"किम्बदन्ती":6141,"किंवदन्ती":6142,"सिन्धुपाल्चोक":6143,"प्रावधान":6144,"अहिंसा":6145,"अशोक":6146,"आकृति":6147,"आरोप":6148,"ईं":6149,"कमि":6150,"गइ":6151,"गतिमा":6152,"घट्":6153,"झण्ड":6154,"मञ्च":6155,"रका":6156,"वस्ती":6157,"सस्त्र":6158,"हकमा":6159,"माडी":6160,"लाहो":6161,"राले":6162,"निल":6163,"निस":6164,"निवासी":6165,"प्रवृत्ति":6166,"पाएर":6167,"तित":6168,"थिइन":6169,"साग":6170,"त्था":6171,"क्षकको":6172,"हिने":6173,"लियम":6174,"जाँड":6175,"जाजरको":6176,"भाँ":6177,"दाबी":6178,"नुका":6179,"पुरो":6180,"सिन्":6181,"रहन्छन्":6182,"मुर्ति":6183,"मिर":6184,"मिडिया":6185,"कुम्भ":6186,"किन्छ":6187,"लोगो":6188,"सुन्":6189,"केसी":6190,"सेव":6191,"खानाको":6192,"बिधान":6193,"बिरुवा":6194,"सन्न":6195,"प्राधि":6196,"पिङ":6197,"जुका":6198,"प्रतिष्ठित":6199,"बुध्":6200,"मोक्ष":6201,"स्वरूपमा":6202,"मन्त्रीको":6203,"कैद":6204,"प्रमुखको":6205,"जेठो":6206,"भेग":6207,"विशेषगरी":6208,"लोकतन्त्र":6209,"केन्द्रको":6210,"हुनुहुन्थ्यो":6211,"भीष्":6212,"उपत्यकालाई":6213,"इतिहासको":6214,"निम्त्या":6215,"घटनाको":6216,"वंशज":6217,"१९७३":6218,"१९९१":6219,"१९९९":6220,"उद्गम":6221,"पुगेर":6222,"वस्तुहरू":6223,"काव्यिक":6224,"भवनको":6225,"गौरव":6226,"विश्वविद्यालयहो":6227,"प्रेस":6228,"१९८६":6229,"तिब्बतको":6230,"अस्पतालमा":6231,"शंख":6232,"बस्नेत":6233,"पारिवारिक":6234,"समानता":6235,"उचाईमा":6236,"साँस्कृतिक":6237,"दिवसको":6238,"गणतन्त्रको":6239,"पुगेपछि":6240,"भेटिएको":6241,"आत्मसमर्पण":6242,"भेदभाव":6243,"कम्युनिष्ट":6244,"शरणा":6245,"सामुदायिक":6246,"भविष्यमा":6247,"रूपान्तरण":6248,"आफुलाई":6249,"यथार्थ":6250,"लमजुङ":6251,"सनातन":6252,"वंशावली":6253,"मोतीराम":6254,"संस्कृतमा":6255,"च्याम्पियनसिप":6256,"संख्यक":6257,"रमणीय":6258,"क्रियाकलाप":6259,"चतुर्दशी":6260,"जटिल":6261,"समन्वय":6262,"प्रार्थना":6263,"बेरोजग":6264,"ंच":6265,"अपे":6266,"उप्रे":6267,"घ्र":6268,"जौ":6269,"जटा":6270,"टौ":6271,"ढे":6272,"दस्ता":6273,"नर्":6274,"बरु":6275,"मरी":6276,"यजु":6277,"यत्न":6278,"शार":6279,"्तियार":6280,"७३":6281,"माहा":6282,"मालिक":6283,"मासिक":6284,"न्टा":6285,"न्मुख":6286,"काटि":6287,"कालिक":6288,"लेन":6289,"निजको":6290,"विराज":6291,"विगत":6292,"तिनलाई":6293,"ल्टी":6294,"लिला":6295,"भाषिक":6296,"नुन":6297,"कारक":6298,"कारो":6299,"मिलित":6300,"एकदमै":6301,"उनै":6302,"किने":6303,"रुद्ध":6304,"रुद्रा":6305,"चाप":6306,"वर्तमा":6307,"खास्त":6308,"खालका":6309,"बित्तिकै":6310,"बिजुली":6311,"मुखमा":6312,"मुख्तियार":6313,"प्प":6314,"उपराष्ट्रपति":6315,"जुरा":6316,"परिभाषा":6317,"त्यसकारण":6318,"गुला":6319,"गुलियो":6320,"महानगरपालिका":6321,"गरीएको":6322,"बेलु":6323,"नामकरण":6324,"ग्रस्त":6325,"ग्रीको":6326,"सरकारद्वारा":6327,"अनुसारको":6328,"मूल्या":6329,"स्थापनाको":6330,"घाम":6331,"चुरे":6332,"दर्जन":6333,"पुरातन":6334,"प्रधानमन्त्रीथिए":6335,"सेवाका":6336,"महिलाहरूले":6337,"मृत्युको":6338,"चौडा":6339,"पाँचौ":6340,"शोषण":6341,"विकल्प":6342,"मतदा":6343,"पदाधिकारी":6344,"पञ्जाब":6345,"२०७९":6346,"१९९७":6347,"लकण्ठ":6348,"आमाले":6349,"त्यहाँका":6350,"गौला":6351,"म्यान":6352,"२०६१":6353,"परिवर्त":6354,"स्वरूपको":6355,"रहेछ":6356,"पछ्या":6357,"आयोजन":6358,"निम्नलिखित":6359,"रेलवे":6360,"बाबुको":6361,"कसैको":6362,"कर्णे":6363,"सङ्गठनको":6364,"यूरोप":6365,"कांग्रेसको":6366,"देउवा":6367,"तिमीलाई":6368,"मंसिर":6369,"थालनी":6370,"बागलुङ":6371,"चानक":6372,"सिन्धुली":6373,"विवाहित":6374,"आंशिक":6375,"भुमिका":6376,"कयौँ":6377,"इन्जिनियरिङ":6378,"तौल":6379,"श्याम":6380,"निवारण":6381,"मैथिली":6382,"कहिलेकाहीँ":6383,"छलफल":6384,"म्यानमार":6385,"श्रीमद्":6386,"ँडि":6387,"अमा":6388,"अफि":6389,"अण्डा":6390,"अठार":6391,"अचानक":6392,"आशी":6393,"आह्":6394,"करको":6395,"कपिल":6396,"जम":6397,"जस्ती":6398,"फत्":6399,"बन्दि":6400,"भट्":6401,"रघु":6402,"सजा":6403,"हौ":6404,"मानेर":6405,"र्या":6406,"र्वाद":6407,"राँची":6408,"नेवारी":6409,"नित्य":6410,"निभा":6411,"नानी":6412,"विस्":6413,"विशे":6414,"पाद":6415,"पाहु":6416,"वाम":6417,"तावादी":6418,"थालियो":6419,"सानै":6420,"हातह":6421,"नीका":6422,"याले":6423,"यसबाहेक":6424,"त्यहि":6425,"भाँडा":6426,"दावी":6427,"नुहा":6428,"सिलग":6429,"सिमित":6430,"संबिधान":6431,"मिन्":6432,"लोमा":6433,"सम्मिलित":6434,"टावर":6435,"चिना":6436,"शाक्य":6437,"छिन":6438,"पर्छन्":6439,"२०२१":6440,"दुख":6441,"दैत्य":6442,"मेन":6443,"क्षेत्रिय":6444,"क्षेत्रफलमा":6445,"रेग्":6446,"प्रतिको":6447,"परिस्थिति":6448,"टिङ":6449,"मानन्ध":6450,"अवै":6451,"गतेको":6452,"मोटर":6453,"भाषाहो":6454,"बोल":6455,"बोलि":6456,"एउटाविश्वविद्यालयहो":6457,"टोको":6458,"बढेर":6459,"व्यवसा":6460,"छोड्":6461,"फाउन्":6462,"टेल":6463,"नदीले":6464,"खोलाको":6465,"ज्ञात":6466,"पदबाट":6467,"ब्रम्":6468,"इन्थ्यो":6469,"गाउँपालिकार":6470,"न्यायिक":6471,"सिंजा":6472,"चुनि":6473,"फिन":6474,"फिल्ड":6475,"धीर":6476,"गराएको":6477,"वरदान":6478,"लाग्न":6479,"पत्रको":6480,"कलात्मक":6481,"टिमका":6482,"यसैगरी":6483,"म्याग्":6484,"२०६४":6485,"२०६४मा":6486,"समुदायका":6487,"चर्च":6488,"१९८९":6489,"तिब्बतमा":6490,"२०५१":6491,"अन्त्ये":6492,"न्यायाधि":6493,"नियाको":6494,"सकारात्मक":6495,"बुझ्न":6496,"रथमा":6497,"मुक्तिका":6498,"श्रीकृष्णले":6499,"घेरा":6500,"ध्वस्त":6501,"रजत":6502,"विद्रोही":6503,"पट्टि":6504,"बालबालिकाको":6505,"सम्हालेका":6506,"रामेछा":6507,"दाजुभाइ":6508,"निष्कर्ष":6509,"मनोरञ्जन":6510,"कैलाश":6511,"प्रभुत्व":6512,"लिच्छवि":6513,"खरायो":6514,"सिफारिसमा":6515,"बाल्यकाल":6516,"बगैंचा":6517,"नमोऽ":6518,"बस्न्यात":6519,"पखेटा":6520,"जोखिम":6521,"झन्डै":6522,"जाजरकोट":6523,"हातहतियार":6524,"आदान":6525,"आहारा":6526,"इष्ट":6527,"इएफ":6528,"ईन्":6529,"उज्":6530,"उष्ण":6531,"एल्":6532,"एण्ड":6533,"कब":6534,"कट्":6535,"गल्":6536,"नराम्रो":6537,"पेर":6538,"फ्र":6539,"बखत":6540,"यश":6541,"शनि":6542,"हल्का":6543,"ेन":6544,"५५":6545,"रात्री":6546,"स्नो":6547,"प्रको":6548,"प्रष्ट":6549,"प्रत्या":6550,"योर्क":6551,"नासाथ":6552,"पारे":6553,"क्टो":6554,"ताजा":6555,"बाहुन":6556,"देहरा":6557,"लिप":6558,"लिम्बू":6559,"रिन्छ":6560,"रियल":6561,"रिपब्लिक":6562,"दाह":6563,"नुपर्छ":6564,"कुवा":6565,"कुहि":6566,"लोड":6567,"सम्शेर":6568,"गरिसकेका":6569,"धित":6570,"धामी":6571,"सुझा":6572,"भिटा":6573,"सेनको":6574,"सेन्टि":6575,"वर्ड":6576,"देशले":6577,"२०२८":6578,"व्यञ्जन":6579,"रोक्न":6580,"गर्नेहिन्दू":6581,"पिएको":6582,"मीमा":6583,"उपजिल्लाको":6584,"वेदा":6585,"वेस्ट":6586,"रणबहादुर":6587,"भएतापनि":6588,"ब्बा":6589,"कर्मा":6590,"भाषाहरूको":6591,"ठाकुर":6592,"जनाको":6593,"मन्त्रीले":6594,"अधिवेश":6595,"यिनि":6596,"माणिक":6597,"गाउँको":6598,"सिंहा":6599,"भुक्ता":6600,"तोष्ण":6601,"तोकिएको":6602,"कमाण्डर":6603,"भूमिकामा":6604,"दायक":6605,"झाँ":6606,"विभागमा":6607,"उद्य":6608,"त्यहाँको":6609,"बहुमुखी":6610,"फर्क":6611,"पौष":6612,"पालना":6613,"१९६२":6614,"कार्यालयहरू":6615,"२०५६":6616,"च्याङ":6617,"च्यानल":6618,"कार्यक्रमको":6619,"जात्राको":6620,"महेन्द्रको":6621,"रंगको":6622,"पर्यटकहरूको":6623,"शुरुवात":6624,"प्रविधिको":6625,"प्रशिक्षक":6626,"मिल्दछ":6627,"पोर्ट":6628,"निरन्तरता":6629,"दुर्योधनको":6630,"उपमहानगरपालिका":6631,"फाइनलमा":6632,"पूर्वाधार":6633,"गाह्रो":6634,"चिन्ह":6635,"राक्षस":6636,"औषधीय":6637,"हदसम्म":6638,"कथन":6639,"स्थानान्तरण":6640,"आयरल्यान्ड":6641,"च्युत":6642,"बन्दरगाह":6643,"जडिबुटी":6644,"नवीन":6645,"उज्यालो":6646,"वकालत":6647,"सेल्सियस":6648,"अन्त्येष्टि":6649,"असन्तु":6650,"कहरूको":6651,"कपाल":6652,"खं":6653,"खरी":6654,"गदा":6655,"चेक":6656,"ठकुरी":6657,"तं":6658,"नचा":6659,"फको":6660,"फेर":6661,"बनेपा":6662,"म्र":6663,"मनी":6664,"मर्म":6665,"लन्ड":6666,"वश":6667,"वटै":6668,"शसस्त्र":6669,"षेक":6670,"सत्या":6671,"हड":6672,"माथ":6673,"रातमा":6674,"लेखे":6675,"प्रण":6676,"प्रज्ञा":6677,"प्रस्थान":6678,"प्रसन्न":6679,"पातको":6680,"पालुवा":6681,"वाज":6682,"वाग्":6683,"बाख":6684,"बाग्":6685,"बाढी":6686,"हानमा":6687,"नीतिक":6688,"यसकारण":6689,"जापानी":6690,"जातको":6691,"रियो":6692,"रिसा":6693,"संवाद":6694,"संयन्त्र":6695,"गाली":6696,"सम्पत्":6697,"सुपर":6698,"सुपुत्र":6699,"टान":6700,"चिनी":6701,"केतिक":6702,"युइएफ":6703,"पूँजी":6704,"खासै":6705,"खाद्या":6706,"व्यु":6707,"दीमा":6708,"कृती":6709,"रोचक":6710,"मेह":6711,"बिदा":6712,"बिधा":6713,"उपर":6714,"रेश":6715,"सरदार":6716,"अवकाश":6717,"भागवत":6718,"अर्जु":6719,"ज्वाला":6720,"च्चार":6721,"हरुलाई":6722,"जनाउने":6723,"पहिरन":6724,"परम":6725,"कार्यकालमा":6726,"जोडेर":6727,"विश्वभर":6728,"रामचन्द्र":6729,"वैदेशिक":6730,"शासनमा":6731,"टोलीको":6732,"गाउँका":6733,"भेरी":6734,"स्थानलाई":6735,"चुरा":6736,"स्ट्रा":6737,"महत्त्वका":6738,"बनेर":6739,"फिलिपि":6740,"अवस्थाको":6741,"गीतकार":6742,"बाँदर":6743,"शोभा":6744,"१९७९":6745,"१९९६":6746,"राखियो":6747,"किलोमिटरको":6748,"दुवैको":6749,"स्कट":6750,"ग्रन्थमा":6751,"मिश्रण":6752,"महाकाव्यमा":6753,"रङ्गशालामा":6754,"शान्तिको":6755,"न्युजि":6756,"गलत":6757,"भक्तपुरका":6758,"धनुषा":6759,"अध्यायमा":6760,"अन्नपूर्ण":6761,"विश्वकपको":6762,"कान्छी":6763,"प्राथमिकता":6764,"बनाइएका":6765,"गाँउ":6766,"घनत्व":6767,"श्रद्धालु":6768,"श्रृं":6769,"निस्कने":6770,"करीब":6771,"अभियानमा":6772,"अनौठो":6773,"दीर्घ":6774,"मारुनी":6775,"रसायन":6776,"साझेदारी":6777,"मोबाइल":6778,"झण्डै":6779,"शरणार्थी":6780,"सिलगढी":6781,"फाउन्डे":6782,"नमोऽस्तुते":6783,"अम्":6784,"असम":6785,"असुर":6786,"इमा":6787,"उड":6788,"उच्चार":6789,"गृ":6790,"घना":6791,"चल्":6792,"छठ":6793,"टरमा":6794,"डरा":6795,"तू":6796,"दथे":6797,"नतिजा":6798,"पस्":6799,"पनी":6800,"बटा":6801,"बन्धित":6802,"भ्रा":6803,"भइन्":6804,"मङ्":6805,"रेर":6806,"रसिया":6807,"लुट":6808,"शहरी":6809,"शङ्कर":6810,"ह्य":6811,"हस्ति":6812,"िन्":6813,"ेश्वरी":6814,"६३":6815,"७९":6816,"कोर्":6817,"काँग":6818,"नेका":6819,"निलो":6820,"प्रस":6821,"प्रवा":6822,"नाभि":6823,"पाला":6824,"पाश्चा":6825,"तिनै":6826,"वाहिक":6827,"ताज":6828,"तालु":6829,"बानी":6830,"बाक्लो":6831,"भाई":6832,"भाषी":6833,"दाना":6834,"पुष":6835,"दिय":6836,"राजदरबार":6837,"मिसा":6838,"लोखर्":6839,"रीलाई":6840,"सम्बो":6841,"गिद्ध":6842,"श्च":6843,"समी":6844,"समथर":6845,"सेके":6846,"दुलाल":6847,"जिल्लाहो":6848,"खानले":6849,"जनगण":6850,"कृषक":6851,"रोहमा":6852,"समारोहमा":6853,"पिन":6854,"रेजि":6855,"प्रतिक":6856,"प्रतिवेद":6857,"गुडी":6858,"सहन":6859,"टिने":6860,"बनाउँछ":6861,"ठान":6862,"लेखहरू":6863,"अधिकृत":6864,"कार्यविधि":6865,"कार्यक्रममा":6866,"लुई":6867,"भूषण":6868,"शीत":6869,"समयदेखि":6870,"युद्धका":6871,"आदिका":6872,"ज्ञानको":6873,"पदको":6874,"इन्डि":6875,"सिंचा":6876,"फुटबलमा":6877,"लोकबाजा":6878,"स्ट्रि":6879,"जन्मेको":6880,"कालका":6881,"तर्गत":6882,"कालीगण्डकी":6883,"ठाउँलाई":6884,"जयन्ती":6885,"बस्दै":6886,"यसलेसंविधान":6887,"सङ्घले":6888,"बर्ष":6889,"बर्मा":6890,"वर्गको":6891,"ज्ये":6892,"१९७८":6893,"१९९३":6894,"पुग्दा":6895,"हजारौं":6896,"शब्दहरू":6897,"ऋषिले":6898,"संग्रा":6899,"बन्दै":6900,"पुर्खा":6901,"फर्केर":6902,"समितिमा":6903,"क्लबले":6904,"ठोस":6905,"१९६१":6906,"१९४२":6907,"विष्णुले":6908,"स्वीकृति":6909,"फ्तार":6910,"संसदमा":6911,"अरुणा":6912,"बेलायतका":6913,"बजाइन्छ":6914,"गोत्रहो":6915,"परिषद्को":6916,"टोलीका":6917,"औषधी":6918,"हटाउन":6919,"हटाएर":6920,"तिनीहरूले":6921,"प्रकृतिको":6922,"यूरो":6923,"श्रावण":6924,"समितिले":6925,"रावणको":6926,"पुनर्गठन":6927,"मिल्दो":6928,"कागतीको":6929,"हिउँदमा":6930,"बिरालो":6931,"राधाकृष्ण":6932,"कीर्तिपुर":6933,"बोल्छन्":6934,"................................":6935,"कयौं":6936,"पुतली":6937,"चलिरहेको":6938,"टर्की":6939,"गहना":6940,"पुच्छर":6941,"ओखलढुङ्गा":6942,"अहमद":6943,"माहिला":6944,"धृष्टद्यु":6945,"पुरातात्विक":6946,"नेपोलियन":6947,"गुराँस":6948,"अपेक्षा":6949,"विशेषा":6950,"भिटामिन":6951,"बाख्रा":6952,"खाद्यान्न":6953,"पाश्चात्य":6954,"ंदा":6955,"अद्":6956,"अस्थिर":6957,"अखिल":6958,"आवि":6959,"आराम":6960,"आयाम":6961,"ईशा":6962,"एयर":6963,"औपनि":6964,"कह":6965,"करु":6966,"ङका":6967,"छत्र":6968,"झर्":6969,"नखा":6970,"नसकेको":6971,"यमुना":6972,"रच":6973,"षु":6974,"हत":6975,"ऽहम्":6976,"५८":6977,"६८":6978,"लाका":6979,"नेली":6980,"स्मि":6981,"निग":6982,"नाट":6983,"विच":6984,"पाका":6985,"पारा":6986,"तिनका":6987,"वाक्य":6988,"गरु":6989,"ताली":6990,"त्रै":6991,"बादी":6992,"थाल्":6993,"गर्दैनन्":6994,"देल":6995,"नीहरू":6996,"नीलकण्ठ":6997,"याका":6998,"यातको":6999,"यसँग":7000,"नुभएको":7001,"रहमान":7002,"राजस्थान":7003,"रुचा":7004,"सम्मेल":7005,"सम्वत्":7006,"धागो":7007,"शामिल":7008,"ष्टिक":7009,"नेपालर":7010,"सेल":7011,"जनतालाई":7012,"जननिर्वाचित":7013,"प्राप्":7014,"निर्यात":7015,"राष्ट्रहरू":7016,"प्पो":7017,"वेक्षण":7018,"अनुमो":7019,"गोही":7020,"गोविन्द":7021,"परिमार्":7022,"त्यसबाट":7023,"सोको":7024,"सरेका":7025,"महान्":7026,"महावीर":7027,"बुर":7028,"कर्जा":7029,"हेटौँ":7030,"राजाका":7031,"अधिराजकुमार":7032,"स्थितिको":7033,"रहेकाले":7034,"ल्याई":7035,"ल्याए":7036,"प्रदेशका":7037,"खोटाङ":7038,"मन्दिरलाई":7039,"पद्य":7040,"नकारात्मक":7041,"पानीले":7042,"अभिव्यक्ति":7043,"लोकतान्त्रिक":7044,"मैत्री":7045,"तृतीय":7046,"विषेश":7047,"द्री":7048,"द्रव्य":7049,"अध्यय":7050,"पर्वतको":7051,"ठाउँको":7052,"पृथ":7053,"बस्छन्":7054,"भीषण":7055,"छोराहरु":7056,"पारेका":7057,"मौर्य":7058,"मार्गमा":7059,"जीवनका":7060,"ऋषिकेश":7061,"एसियाको":7062,"बन्दुक":7063,"उपाध्याय":7064,"यिनीहरु":7065,"सूर्यग्रहण":7066,"खेलाडीहरूको":7067,"स्कू":7068,"१९५४":7069,"ग्रामि":7070,"क्लबको":7071,"१९८७":7072,"अंतर्गत":7073,"लक्ष्मीप्रसाद":7074,"१९४५":7075,"१९४८":7076,"बुद्धका":7077,"आयोजक":7078,"प्रयाग":7079,"हातले":7080,"महाकाव्यलाई":7081,"मूर्तिहरू":7082,"उपलब्धि":7083,"बाछिटामा":7084,"चलाए":7085,"इलाहा":7086,"पाण्डवहरू":7087,"मृतकको":7088,"ट्रफी":7089,"अलौ":7090,"पृष्ठभूमि":7091,"पन्जाबको":7092,"ध्वज":7093,"झारखण्ड":7094,"युधिष्ठिरको":7095,"आफैं":7096,"द्रोणा":7097,"साधना":7098,"तात्कालिक":7099,"ओलम्पिकमा":7100,"फूलको":7101,"इन्टरने":7102,"सल्लाहकार":7103,"खराब":7104,"द्वन्द्व":7105,"लघुतम":7106,"शिवाजी":7107,"महोत्स":7108,"फाँट":7109,"बलात्":7110,"पाठ्यक्रम":7111,"ताप्लेजुङ":7112,"आख्यान":7113,"खरिद":7114,"ज्येष्ठ":7115,"अहि":7116,"अविश्वासको":7117,"आवास":7118,"ईन्छ":7119,"छ्या":7120,"ड्या":7121,"नवल":7122,"पक्":7123,"प्यु":7124,"बंग":7125,"मनको":7126,"मथु":7127,"यणी":7128,"़ा":7129,"िका":7130,"१०००":7131,"७८":7132,"प्रयोजन":7133,"वासि":7134,"तालिम":7135,"दामो":7136,"दासको":7137,"सिस्ट":7138,"संस्थान":7139,"तीका":7140,"मिने":7141,"किमी":7142,"रुकुम":7143,"लोजी":7144,"भिया":7145,"सेमी":7146,"खाइ":7147,"रोमा":7148,"डाय":7149,"बिद्रो":7150,"सन्ता":7151,"१९औँ":7152,"पिछ":7153,"पिठ":7154,"प्चा":7155,"ण्डको":7156,"जीवा":7157,"रणो":7158,"रेशम":7159,"डिभिजन":7160,"सहमत":7161,"स्तान":7162,"मोड":7163,"स्वतः":7164,"चारवटा":7165,"हेक्टर":7166,"पाइँदैन":7167,"गीर":7168,"पोशा":7169,"कुनैपनि":7170,"फाल्":7171,"व्याप्त":7172,"भुत":7173,"डेरा":7174,"नियमावली":7175,"सामग्रीको":7176,"देवीले":7177,"धुरी":7178,"न्डो":7179,"जयद्र":7180,"बासस्थान":7181,"स्वाय":7182,"बाँके":7183,"अमेरिकाले":7184,"शोध":7185,"कम्पनीलाई":7186,"प्रभावले":7187,"हजारौँ":7188,"संस्थाले":7189,"मल्ललाई":7190,"प्रेमी":7191,"स्कन्द":7192,"१९५३":7193,"१९५८":7194,"युरोपमा":7195,"बताइएको":7196,"१९८२":7197,"१९८४":7198,"२०५२":7199,"अपभ्र":7200,"अग्ला":7201,"शान्तिपूर्ण":7202,"अर्जुनलाई":7203,"पहाडमा":7204,"गोरखाली":7205,"निकाल्ने":7206,"सुधारका":7207,"पातलो":7208,"पञ्चाङ्ग":7209,"अरबी":7210,"चलाउन":7211,"प्रोत्सा":7212,"२०३२":7213,"२०३६":7214,"पर्यटकहरू":7215,"भक्तपुरको":7216,"दार्चु":7217,"सन्धिको":7218,"अनलाइन":7219,"अवधिलाई":7220,"स्टाइ":7221,"स्टाइन":7222,"लेखापरीक्षण":7223,"जनकपुर":7224,"पुर्याउने":7225,"मुलुकहरूमा":7226,"विराटनगरमा":7227,"खड्का":7228,"हस्तान्तरण":7229,"पूर्वाञ्चल":7230,"दशैं":7231,"बृहस्पति":7232,"कलकत्":7233,"भद्रकाली":7234,"एकिकरण":7235,"सोमबार":7236,"र्वेदीयशाखा":7237,"मान्दछन्":7238,"चिन्तन":7239,"च्छेद":7240,"अंग्रेज":7241,"तत्कालै":7242,"पश्चिमाञ्चल":7243,"इलेक्ट":7244,"अर्घाखाँची":7245,"लखनऊ":7246,"बिस्तारै":7247,"हप्ताको":7248,"पिरामिड":7249,"प्रतिपादन":7250,"मझौला":7251,"साहेब":7252,"महाधिवेश":7253,"यजुर्वेदीयशाखा":7254,"आशीर्वाद":7255,"व्यवसायी":7256,"देहरादु":7257,"द्रोणाचार्य":7258,"दामोदर":7259,"ँगो":7260,"अलिक":7261,"आवासी":7262,"आबद्ध":7263,"ईन":7264,"उखु":7265,"ओटा":7266,"कस्":7267,"कब्":7268,"कस्तु":7269,"कण्ठ":7270,"खरेल":7271,"छः":7272,"छी":7273,"टले":7274,"तेर":7275,"तमान":7276,"थल":7277,"थली":7278,"धौ":7279,"नया":7280,"नली":7281,"नगरेको":7282,"पटु":7283,"फ्रि":7284,"बगा":7285,"बरको":7286,"मपुर":7287,"वले":7288,"सक्त":7289,"६९":7290,"८००":7291,"मास":7292,"मागे":7293,"राहु":7294,"रास्ट्र":7295,"निशा":7296,"नियाँ":7297,"निक्कै":7298,"प्रयो":7299,"प्रशान्त":7300,"विज्ञ":7301,"विस्थापित":7302,"पालको":7303,"पातमा":7304,"थित":7305,"थाल्छ":7306,"जाको":7307,"रिय":7308,"रहस्य":7309,"कुटी":7310,"किरण":7311,"सम्झा":7312,"सुब्बा":7313,"श्वास":7314,"नेपालबाट":7315,"जिल्लाले":7316,"जिल्लाबाट":7317,"व्यङ्ग":7318,"योगको":7319,"मेद":7320,"मेश":7321,"मेसो":7322,"उँने":7323,"उँदैन":7324,"बिम्ब":7325,"सन्या":7326,"देखिन":7327,"गर्नेथारू":7328,"पित्त":7329,"राज्यमन्त्री":7330,"जीवी":7331,"उपप्रधानमन्त्री":7332,"वेल":7333,"रणनीति":7334,"गोदा":7335,"गोठा":7336,"गोप्य":7337,"रेली":7338,"खेलेको":7339,"डिन्छ":7340,"त्यसपछी":7341,"गुना":7342,"टिया":7343,"महाराष्ट्र":7344,"भाग्य":7345,"धारि":7346,"बेग्":7347,"नामहरू":7348,"मोहित":7349,"मध्येका":7350,"वर्षहरूमा":7351,"दिनबाट":7352,"रामकृष्ण":7353,"बढ्यो":7354,"फाल्ने":7355,"ल्याएका":7356,"जन्मे":7357,"विद्यावारि":7358,"जातिहरू":7359,"विशेषज्ञ":7360,"गणित":7361,"वृद्ध":7362,"शेरबहादुर":7363,"घरपालुवा":7364,"तहट":7365,"सङ्घका":7366,"परम्पराको":7367,"गढीको":7368,"वीरगन्ज":7369,"२०७८":7370,"१९७२":7371,"राणाले":7372,"म्बन":7373,"पुग्दछ":7374,"शब्दले":7375,"बन्दछ":7376,"सूर्यलाई":7377,"हत्याको":7378,"समूहको":7379,"बताइन्छ":7380,"प्रवेशद्वार":7381,"१९६६":7382,"कार्यालयको":7383,"नागरिकलाई":7384,"सहाय":7385,"जिल्लाभारतीयराज्यतमिलनाडुको":7386,"जंगली":7387,"शरीरका":7388,"अनेकौँ":7389,"बुझ्":7390,"२०४२":7391,"बाबुराम":7392,"नाचको":7393,"छुट्टा":7394,"जातका":7395,"प्रमाणपत्र":7396,"क्याम्पसमा":7397,"रंगशाला":7398,"बच्चालाई":7399,"बसाइँ":7400,"कांग्रेसका":7401,"कोइरालाले":7402,"हनुमानढोका":7403,"उठाएर":7404,"तराईमा":7405,"निष्का":7406,"सप्तरी":7407,"घाँटी":7408,"आश्विन":7409,"तपाईँको":7410,"निरीक्षण":7411,"गिरिजाप्रसाद":7412,"मगध":7413,"तुरुन्तै":7414,"आरोहण":7415,"थारु":7416,"उप्रेती":7417,"आह्वान":7418,"प्रकोप":7419,"उच्चारण":7420,"प्रतिवेदनका":7421,"आविष्कार":7422,"अरि":7423,"अन्याय":7424,"आन":7425,"आउँदा":7426,"उति":7427,"ओख":7428,"कण":7429,"क्यो":7430,"गज":7431,"गएपछि":7432,"घरा":7433,"चतु":7434,"जलाई":7435,"जरी":7436,"जबर":7437,"ढक":7438,"थेर":7439,"नपाउने":7440,"पसल":7441,"फरा":7442,"बटु":7443,"मदि":7444,"मङ्गो":7445,"रवि":7446,"रहित":7447,"रक्सी":7448,"लडेका":7449,"वतार":7450,"सौं":7451,"हको":7452,"ौर":7453,"६४":7454,"८२":7455,"कोच":7456,"मान्छन्":7457,"लान":7458,"राग":7459,"नेल":7460,"नेहरूले":7461,"निन":7462,"प्रेत":7463,"प्रयुक्त":7464,"नान":7465,"विपक्षी":7466,"पाध्याय":7467,"त्रे":7468,"म्बार":7469,"हाङ":7470,"हाली":7471,"ल्सी":7472,"रिमा":7473,"ष्मा":7474,"दाइ":7475,"पुँजी":7476,"सिरी":7477,"संगठित":7478,"कारखाना":7479,"कारवाही":7480,"गां":7481,"गाड":7482,"एके":7483,"किएका":7484,"रुकु":7485,"सुरा":7486,"सुन्ने":7487,"सुनिश्चित":7488,"चियन":7489,"स्तू":7490,"खाँ":7491,"जनशक्ति":7492,"दीप":7493,"कृष":7494,"वीरे":7495,"रोल्पा":7496,"बिहा":7497,"देखिनै":7498,"राष्ट्रीय":7499,"उपजिल्ला":7500,"वेली":7501,"रणजित":7502,"प्रतिमा":7503,"उत्तिकै":7504,"ग्वे":7505,"महाराजा":7506,"भागेर":7507,"अर्जे":7508,"बेइजि":7509,"स्वयम्":7510,"लयमा":7511,"जनाएको":7512,"बीउ":7513,"लगाइन्छ":7514,"लगाउनु":7515,"व्यवसायिक":7516,"जेठी":7517,"कमला":7518,"निर्वाण":7519,"पार्श्व":7520,"कुरालाई":7521,"व्यवस्थामा":7522,"भित्र्या":7523,"ध्यानमा":7524,"वाद्य":7525,"त्रिशु":7526,"ह्ला":7527,"वाहन":7528,"अवस्थालाई":7529,"चौबि":7530,"चौकी":7531,"सालसम्म":7532,"मतभेद":7533,"ज्यू":7534,"दुर्ग":7535,"भरद्वाज":7536,"गढवाल":7537,"शब्दमा":7538,"बजारको":7539,"भाइहरू":7540,"विश्वविद्यालयका":7541,"गाउँपालिकाको":7542,"अहिलेको":7543,"बङ्गालमा":7544,"खेलाडीहरू":7545,"आइत":7546,"हरिद्वार":7547,"१९५२":7548,"नागरिकको":7549,"सूचीकृत":7550,"गतिशील":7551,"१९६५":7552,"१९६८":7553,"रहेकी":7554,"अतिथि":7555,"भर्ती":7556,"स्वीकृत":7557,"मिश्रमा":7558,"चरणको":7559,"बच्न":7560,"मुलुकमा":7561,"पठाएका":7562,"किनार":7563,"गोत्रका":7564,"चलाएका":7565,"चलाउने":7566,"मर्या":7567,"निकायको":7568,"उचाई":7569,"आकारमा":7570,"माइल":7571,"बसाइँस":7572,"अनन्त":7573,"द्वरा":7574,"कम्तिमा":7575,"ट्रिक":7576,"परेवा":7577,"मुद्रास्":7578,"जैसी":7579,"औंसी":7580,"अस्ट्रि":7581,"मौसममा":7582,"स्टेशन":7583,"मातृका":7584,"आफैले":7585,"संगीतकार":7586,"जगतमा":7587,"पाटनको":7588,"आफुले":7589,"सत्तामा":7590,"आम्दानी":7591,"राजतन्त्रको":7592,"कानूनको":7593,"बूढा":7594,"रहिआएको":7595,"सिनेमा":7596,"मदग्":7597,"जापानमा":7598,"मजदुर":7599,"कारागार":7600,"गिरफ्तार":7601,"काभ्रेपलाञ्चोक":7602,"ठाँउमा":7603,"ब्रिटेन":7604,"सङ्गीतको":7605,"गोल्डकप":7606,"जडीबुटी":7607,"बुध्द":7608,"रेग्मी":7609,"माथवर":7610,"प्रवाहित":7611,"अनुमोदन":7612,"आलो":7613,"ओम":7614,"ओली":7615,"खतर":7616,"गलको":7617,"घेर":7618,"छँदा":7619,"जनी":7620,"डडेल्":7621,"थले":7622,"दं":7623,"नजरु":7624,"पठ":7625,"बरी":7626,"बंगा":7627,"मम":7628,"म्य":7629,"रङ्":7630,"षे":7631,"िया":7632,"५९":7633,"८८":7634,"कोटा":7635,"माग्":7636,"न्सको":7637,"काउन्":7638,"र्ना":7639,"र्नु":7640,"नेपछि":7641,"स्का":7642,"नियो":7643,"निरु":7644,"नागार्":7645,"नाच्ने":7646,"पाठी":7647,"क्ताको":7648,"वाष्":7649,"ताबाट":7650,"थिन्":7651,"बायो":7652,"बाजी":7653,"सापेक्ष":7654,"हाले":7655,"गर्दैन":7656,"देङ":7657,"क्षीको":7658,"न्दी":7659,"ल्हा":7660,"लिमि":7661,"लिपी":7662,"जामा":7663,"दाहिने":7664,"पुलिस":7665,"सिँ":7666,"संगीतमा":7667,"दिइने":7668,"गाजा":7669,"गामी":7670,"गाढा":7671,"मिथि":7672,"मिलाई":7673,"कियो":7674,"सम्पुर्ण":7675,"स्थानका":7676,"सुग":7677,"सुका":7678,"सुदृढ":7679,"शाश्व":7680,"ष्टी":7681,"छिट्":7682,"वर्धन":7683,"देशव्यापी":7684,"पछिल्ला":7685,"जनतामा":7686,"व्यूह":7687,"रोना":7688,"रोटी":7689,"मेघ":7690,"मेलामा":7691,"मेक्सि":7692,"समालोचना":7693,"बैंक":7694,"राष्ट्रप्रमुख":7695,"जुल्दो":7696,"अनुगमन":7697,"खेले":7698,"भारतले":7699,"गुर":7700,"उनीसँग":7701,"भागबाट":7702,"गतेका":7703,"बुर्":7704,"मोर":7705,"हेड":7706,"जनाउँदछ":7707,"जनावरको":7708,"परेर":7709,"वर्षदेखि":7710,"विश्वकै":7711,"विश्वकर्मा":7712,"म्पो":7713,"पूर्वप्रधानमन्त्री":7714,"मार्क्स":7715,"माणु":7716,"मृगौला":7717,"गाउँले":7718,"गर्नुका":7719,"डेनमा":7720,"दर्शी":7721,"व्यवस्थाः":7722,"कृष्णप्रसाद":7723,"सिंहलाई":7724,"महिलाहरूको":7725,"चोरी":7726,"हुनुभन्दा":7727,"अर्थमन्त्री":7728,"तीनवटा":7729,"चलचित्रहरू":7730,"सर्जन":7731,"वृत्":7732,"पोखरेल":7733,"कवितामा":7734,"टुप्पो":7735,"गतेदेखि":7736,"काठमाडौँबाट":7737,"घिमिरे":7738,"राख्दछ":7739,"स्वागत":7740,"शैल":7741,"परम्परामा":7742,"शास्त्रको":7743,"सनल":7744,"लागेर":7745,"परिवारलाई":7746,"टिमबाट":7747,"जीवनशैली":7748,"राणाको":7749,"साइँ":7750,"पाँचथर":7751,"रानीको":7752,"उपासना":7753,"घुम्":7754,"सूर्यबहादुर":7755,"राम्रोसँग":7756,"१९५५":7757,"१९५९":7758,"भइसकेका":7759,"आजसम्म":7760,"गुणस्तर":7761,"२०५३":7762,"२०५४":7763,"जम्मू":7764,"कानुनको":7765,"जगन्":7766,"दर्शनको":7767,"साधारणतया":7768,"प्रहरीको":7769,"भरिएको":7770,"ब्राह्मी":7771,"गोत्रीय":7772,"ब्यब":7773,"अङ्ग्रेजीमा":7774,"त्तीस":7775,"अदालतले":7776,"हटाई":7777,"प्रकृतिका":7778,"भ्यागु":7779,"काँही":7780,"डिसेम्बरमा":7781,"राजमार्गको":7782,"पत्रिकाको":7783,"उठाउने":7784,"भुटानको":7785,"शृङ्खलाको":7786,"प्रशिद्ध":7787,"पंक्षीले":7788,"आफैँ":7789,"समेटिएको":7790,"खुवाउने":7791,"प्रतिस्पर्धामा":7792,"अग्रणी":7793,"सधैँ":7794,"घाँसे":7795,"शून्य":7796,"क्यानडाका":7797,"गान्धीले":7798,"मलामी":7799,"सिफारिस":7800,"कुरुक्षेत्र":7801,"फारसी":7802,"अल्पसंख्यक":7803,"गोलार्":7804,"अंग्रेजी":7805,"जरुरी":7806,"रवीन्द्र":7807,"पङ्क्षी":7808,"मिलिमिटर":7809,"तस्वीर":7810,"पराजय":7811,"छरिएर":7812,"दिल्लीको":7813,"मातहतमा":7814,"सुन्तला":7815,"डब्ल्युडब्ल्युई":7816,"रुद्राक्ष":7817,"कर्णेल":7818,"सुझाव":7819,"सम्बोधन":7820,"बसाइँसराइ":7821,"खतरनाक":7822,"मेक्सिको":7823,"ंडा":7824,"अदु":7825,"अगु":7826,"आलोचना":7827,"इन्द्रा":7828,"उही":7829,"उब्जा":7830,"एक्ल":7831,"कहरूलाई":7832,"कक्षमा":7833,"गद्य":7834,"छर्":7835,"जनै":7836,"जमदग्":7837,"ट्यु":7838,"दफा":7839,"दशम":7840,"धमि":7841,"नक्षत्र":7842,"नक्सा":7843,"पत्य":7844,"पट्ट":7845,"बच":7846,"बसी":7847,"बन्दो":7848,"भरण":7849,"यन्स":7850,"रथा":7851,"वसु":7852,"वचन":7853,"शव्":7854,"शर्त":7855,"सरा":7856,"सरण":7857,"ात्मक":7858,"७६":7859,"८१":7860,"८५":7861,"९२":7862,"कोड":7863,"कोले":7864,"माथे":7865,"मादल":7866,"र्के":7867,"लाङ":7868,"लाउने":7869,"रात्र":7870,"राँगा":7871,"नेतृ":7872,"नेस्को":7873,"स्त्य":7874,"स्कुलमा":7875,"लेक":7876,"निमा":7877,"निकी":7878,"प्रणा":7879,"प्रबल":7880,"प्रवर्त":7881,"प्रमण्डल":7882,"विलय":7883,"विलियम":7884,"क्ला":7885,"क्खा":7886,"क्वय":7887,"वामा":7888,"वासु":7889,"वाहेक":7890,"ताना":7891,"बाजुरा":7892,"सानी":7893,"सात्य":7894,"हाे":7895,"हाल्ने":7896,"गर्थ्यो":7897,"्यान":7898,"ङ्की":7899,"सिरिया":7900,"संयोजन":7901,"संगीतको":7902,"संचालित":7903,"मुज":7904,"मुखि":7905,"एकसाथ":7906,"किय":7907,"किल":7908,"सम्भा":7909,"सुत्र":7910,"सुम्प":7911,"सुदुर":7912,"सुबिधा":7913,"चिर":7914,"भिक्षु":7915,"भिक्टो":7916,"रूपको":7917,"चाै":7918,"भारद्वाज":7919,"दुरी":7920,"खाले":7921,"व्यस्त":7922,"समापन":7923,"समारोह":7924,"उँथे":7925,"शिख":7926,"पिउने":7927,"प्वाल":7928,"जीलाई":7929,"गोकर्ण":7930,"प्रतिरोध":7931,"परित":7932,"गुणा":7933,"सहरु":7934,"टिभी":7935,"पुरका":7936,"बनारसमा":7937,"स्वदेशी":7938,"लेखनको":7939,"दानव":7940,"छाना":7941,"छालाको":7942,"वैद्य":7943,"टोलीमा":7944,"कामका":7945,"छोरो":7946,"हुनसक्छ":7947,"युद्धबाट":7948,"आदिलाई":7949,"नदीका":7950,"जेलमा":7951,"मन्दिरहरूमा":7952,"भेट्न":7953,"लोकमा":7954,"मैना":7955,"सहरलाई":7956,"बहाल":7957,"प्रधानमन्त्रीले":7958,"ष्ठी":7959,"शक्तिमा":7960,"ठाउँहरूमा":7961,"डोर":7962,"क्यालि":7963,"सर्ग":7964,"वृत्त":7965,"पक्षले":7966,"कुमाल":7967,"लाग्दा":7968,"ल्यता":7969,"तिरबाट":7970,"बर्ट":7971,"समाजका":7972,"शिवलाई":7973,"शास्त्री":7974,"बहुदलीय":7975,"जलविद्युत":7976,"थुम":7977,"महिनासम्म":7978,"ज्याङ":7979,"ज्यादा":7980,"कर्मकाण्ड":7981,"बताउनु":7982,"अध्यक्षतामा":7983,"१९८३":7984,"अंगि":7985,"१९६९":7986,"पंक्ति":7987,"२०५९":7988,"मरेको":7989,"निरङ्":7990,"गृहयुद्ध":7991,"गृहस्थ":7992,"रङ्गको":7993,"झैं":7994,"विमानस्थलको":7995,"मन्त्रालयले":7996,"पशुपालन":7997,"समस्याको":7998,"पैदल":7999,"माघे":8000,"बिहारप्रान्तको":8001,"छुवा":8002,"खर्क":8003,"नाशक":8004,"धनुर्":8005,"मन्त्रिपरिषद":8006,"जलाशय":8007,"क्रोध":8008,"गोर्खाली":8009,"यज्ञको":8010,"भुटानी":8011,"निस्केको":8012,"काठमाडौंको":8013,"माटोको":8014,"मातृभाषा":8015,"चाँदीको":8016,"काङ्ग्रेसको":8017,"१९०३":8018,"साधनको":8019,"शरणमा":8020,"नमः":8021,"विनायक":8022,"गुजरात":8023,"पूर्णिमापछि":8024,"सामानहरू":8025,"युधिष्ठिरलाई":8026,"छैठ":8027,"गंज":8028,"मन्त्रिपरिषद्को":8029,"आश्चर्य":8030,"मानेका":8031,"देहाय":8032,"तालिकामा":8033,"स्वभावका":8034,"द्रुत":8035,"धर्मावलम्बीहरूकोगोत्रहो":8036,"सम्पादक":8037,"साम्यवादी":8038,"सपना":8039,"जागरण":8040,"कौशल":8041,"अमिलो":8042,"कारोबार":8043,"अवैध":8044,"रिपब्लिकन":8045,"सेन्टिमिटर":8046,"अर्जुनको":8047,"सेकेन्ड":8048,"औपनिवे":8049,"इलाहाबाद":8050,"इलेक्ट्रो":8051,"कस्तुरी":8052,"अर्जेन्टि":8053,"एक्लै":8054,"क्वयेर":8055,"आया":8056,"इन्दि":8057,"ऊँ":8058,"ओस":8059,"कफ":8060,"कव":8061,"खका":8062,"खस्":8063,"खलक":8064,"गभर्":8065,"चट":8066,"टलाई":8067,"ठ्":8068,"नर्म":8069,"नगर्नु":8070,"नरेश":8071,"फरी":8072,"बसाई":8073,"भन":8074,"भला":8075,"मद्रा":8076,"रत्":8077,"वरमा":8078,"सङ":8079,"८६":8080,"कोर":8081,"मारी":8082,"काहरू":8083,"काट्":8084,"काहारी":8085,"र्था":8086,"स्न":8087,"स्कर":8088,"स्वर्गीय":8089,"निएको":8090,"योनी":8091,"योजक":8092,"नारा":8093,"नाउँ":8094,"नार्थ":8095,"नाफा":8096,"विला":8097,"तिया":8098,"वाले":8099,"वाहि":8100,"हुनको":8101,"हाड":8102,"हाको":8103,"्याभि":8104,"नीतिको":8105,"हिटी":8106,"होम":8107,"भात":8108,"द्वारी":8109,"सिजन":8110,"सिंग":8111,"संखुवासभा":8112,"जियम":8113,"जिटल":8114,"तीर्ण":8115,"राजशाही":8116,"राजगद्दी":8117,"कुन्":8118,"एकता":8119,"एकजना":8120,"एकपटक":8121,"एकदम":8122,"किक":8123,"किम्":8124,"रुपा":8125,"लोपो":8126,"धितो":8127,"धादि":8128,"शाको":8129,"भित":8130,"युनेस्को":8131,"रूपबाट":8132,"सेता":8133,"लागिरी":8134,"नोबेल":8135,"जनविश्वास":8136,"व्यय":8137,"दैवी":8138,"वीर्य":8139,"बिष":8140,"बिया":8141,"तरबार":8142,"बैं":8143,"प्राकृत":8144,"देखिए":8145,"शिका":8146,"मीर":8147,"उपपर्व":8148,"अनुरुप":8149,"खेति":8150,"प्रतिज्ञा":8151,"प्रतिद्वन्द्":8152,"उत्ते":8153,"उत्खन":8154,"डिजिटल":8155,"टिमको":8156,"ग्वा":8157,"सारिएको":8158,"भागहरू":8159,"बुल्":8160,"अर्ब":8161,"बेग":8162,"सङ्ख्य":8163,"चारु":8164,"परमाणु":8165,"लगाइ":8166,"अधिराज्यमा":8167,"जोड्ने":8168,"भूगोल":8169,"महार":8170,"छायाँ":8171,"टोलमा":8172,"यिन":8173,"तेश्रो":8174,"बारम्बार":8175,"टेस्ट":8176,"पूर्वज":8177,"ट्टी":8178,"सम्बद्ध":8179,"श्रीखण्ड":8180,"करणमा":8181,"खोजि":8182,"सैद्धा":8183,"स्तुति":8184,"डेन":8185,"घात":8186,"अभिमान":8187,"सदस्यमा":8188,"खेलका":8189,"समुहमा":8190,"पर्वका":8191,"शनल":8192,"गेश्वरी":8193,"पराशर":8194,"टुँडि":8195,"द्धिक":8196,"विभागले":8197,"विभागीय":8198,"दुर्गम":8199,"उल्लेख्य":8200,"त्तरी":8201,"२०७१":8202,"२०७५":8203,"१९७४":8204,"वस्तुलाई":8205,"धाराको":8206,"जङ्गलमा":8207,"म्याक":8208,"घुम्न":8209,"फोक्":8210,"क्रान्तिका":8211,"खेलाडीले":8212,"हराउँदै":8213,"पौडे":8214,"पौडेल":8215,"पौष्टिक":8216,"अध्यक्षता":8217,"आत्माको":8218,"विजयको":8219,"यात्रामा":8220,"निर्देशित":8221,"बङ्गलादेशमा":8222,"उहाँलाई":8223,"डुवर्":8224,"जगत्":8225,"सन्तो":8226,"विरुद्धमा":8227,"संरक्षणका":8228,"महाकाव्यको":8229,"देवताहरू":8230,"ढोर":8231,"तैनाथ":8232,"भीमसेनले":8233,"सिलसि":8234,"तुलनात्मक":8235,"नवमी":8236,"नाइटेड":8237,"पढ्ने":8238,"समर्थनमा":8239,"बराल":8240,"देउडा":8241,"द्वीपको":8242,"चढाएर":8243,"म्बित":8244,"आँखाको":8245,"राजेन्द्रलाई":8246,"सकिनेछ":8247,"पृष्ठमा":8248,"अफ्रिकामा":8249,"उदाहरणका":8250,"रुखको":8251,"वेदनशील":8252,"समेटेको":8253,"खलताका":8254,"बिताएका":8255,"गुजराती":8256,"मकैको":8257,"दसैँको":8258,"विजया":8259,"छैटौँ":8260,"मुटुको":8261,"सुनकोशी":8262,"कोठामा":8263,"भक्तजनहरूको":8264,"बाराही":8265,"चौधरी":8266,"जमिनमा":8267,"अमृतसर":8268,"आसामको":8269,"सफ्टवे":8270,"बहुप्रसिद्धअभिनेता":8271,"चिकित्सक":8272,"महीना":8273,"नजरबन्द":8274,"पुरोहित":8275,"शनिबार":8276,"भुक्तानी":8277,"खंडको":8278,"स्ट्राइ":8279,"मङ्सिर":8280,"मिल्दोजुल्दो":8281,"स्वायत्त":8282,"थेरवाद":8283,"नागार्जुन":8284,"अक":8285,"अम":8286,"अवि":8287,"अस्थायी":8288,"आगरा":8289,"इति":8290,"इन्ध":8291,"ओसिलो":8292,"कद":8293,"करे":8294,"खनाल":8295,"गड":8296,"चं":8297,"छत्तीस":8298,"टका":8299,"डच":8300,"णीको":8301,"तल्ला":8302,"दन्त":8303,"नरी":8304,"नयन":8305,"बड":8306,"बद्री":8307,"भवानी":8308,"मयु":8309,"मन्ड":8310,"यक्ष":8311,"रक्षे":8312,"सनमा":8313,"सब्":8314,"सवार":8315,"सनका":8316,"हेको":8317,"ह्रा":8318,"हलमा":8319,"हरको":8320,"हैन":8321,"ुवा":8322,"ूत":8323,"ेमा":8324,"कोइला":8325,"मां":8326,"मामि":8327,"काखमा":8328,"र्मि":8329,"राना":8330,"निङ":8331,"प्रसङ्ग":8332,"प्रयत्न":8333,"नाप":8334,"क्लि":8335,"क्वे":8336,"तां":8337,"बाब":8338,"साक्षर":8339,"क्षय":8340,"यात्रु":8341,"होटल":8342,"यसअघि":8343,"जाग":8344,"रिहा":8345,"रियन":8346,"द्दि":8347,"ङ्का":8348,"दाग":8349,"दामा":8350,"नुलाई":8351,"सिए":8352,"संक्रमण":8353,"दिभ्":8354,"जित्यो":8355,"गानो":8356,"तीस":8357,"तीनै":8358,"रहयो":8359,"मुसा":8360,"राजले":8361,"किए":8362,"किमि":8363,"रुस":8364,"केरा":8365,"समझ":8366,"नेपालतथा":8367,"सेफ":8368,"खिक":8369,"२०२४":8370,"खाडी":8371,"रहेकोछ":8372,"जनमत":8373,"व्यञ्जना":8374,"योगमा":8375,"रोल":8376,"समायोजन":8377,"तरवार":8378,"देखिएका":8379,"पियन":8380,"राष्ट्रका":8381,"जीर्ण":8382,"जुट":8383,"अनुसरण":8384,"गोपी":8385,"गोत्री":8386,"परिवेश":8387,"उत्पति":8388,"उत्तीर्ण":8389,"डिओ":8390,"ग्नु":8391,"अवरोध":8392,"गरीन्छ":8393,"बुढी":8394,"च्ची":8395,"परक":8396,"दिनहरूमा":8397,"चीनले":8398,"प्रयोगको":8399,"भूमध्य":8400,"शासकको":8401,"टोल":8402,"बढे":8403,"कामदार":8404,"तेक्वा":8405,"सेनानी":8406,"सेनाबाट":8407,"सूर":8408,"मार्क":8409,"ट्छ":8410,"सकिएको":8411,"सकिएपछि":8412,"खोले":8413,"मूख":8414,"मृग":8415,"ख्वा":8416,"चुना":8417,"व्यक्तिहरूलाई":8418,"ड्दा":8419,"सहरहरूमा":8420,"सदस्यहरु":8421,"भित्रका":8422,"धुलो":8423,"गराइन्छ":8424,"शक्तिलाई":8425,"त्रिवे":8426,"फेदी":8427,"चोटी":8428,"मृत्युपछि":8429,"भूमिको":8430,"योजनाको":8431,"सर्पको":8432,"चौर":8433,"छोराहरू":8434,"परासी":8435,"घरका":8436,"दूत":8437,"कथाको":8438,"मौखिक":8439,"घटनाले":8440,"पञ्जा":8441,"१९९४":8442,"सहयोगको":8443,"संस्थाका":8444,"संस्थानको":8445,"जहाँबाट":8446,"एकीकृत":8447,"घुमा":8448,"दशकको":8449,"भैं":8450,"भैर":8451,"खेलाडीलाई":8452,"नरसंहार":8453,"क्लबबाट":8454,"आक्रमणको":8455,"पौवा":8456,"प्रिया":8457,"देखाएको":8458,"श्रेय":8459,"खोलाहरू":8460,"किनकी":8461,"जिल्लाभारतीयराज्यझार":8462,"अध्यापक":8463,"नियामा":8464,"इन्द्रिय":8465,"उद्योगको":8466,"खेलकुदको":8467,"ढोल":8468,"दौरान":8469,"गोरखापत्र":8470,"तुलना":8471,"धर्मावलम्बीहरूले":8472,"अस्पतालहरू":8473,"रंगशालामा":8474,"श्रीकृष्णलाई":8475,"राजेन्द्रको":8476,"ंकन":8477,"होइनन्":8478,"अफ्रिकी":8479,"गङ्गाको":8480,"बनाईएको":8481,"संस्करणमा":8482,"हिउँद":8483,"यातायातको":8484,"चाँदी":8485,"एमाले":8486,"बाघको":8487,"हिसाब":8488,"धातुको":8489,"सम्प्रदायमा":8490,"बनाइए":8491,"आकाशमा":8492,"कन्काई":8493,"मधुर":8494,"त्यागेर":8495,"हजुरबुवा":8496,"लिच्छवी":8497,"कल्पिक":8498,"नभएसम्म":8499,"जर्ज":8500,"क्षुद्र":8501,"इटाली":8502,"लडाइँमा":8503,"स्वामित्वमा":8504,"बाहुल्यता":8505,"हेर्नुहोस्":8506,"अष्ट्रेलियाली":8507,"संकटकाल":8508,"भृगु":8509,"थाइल्याण्ड":8510,"हरियाणाको":8511,"नगद":8512,"पन्छी":8513,"हाइड्रो":8514,"मुम्बईमा":8515,"यशोदा":8516,"उपभोक्ता":8517,"प्रशंसा":8518,"सिङ्गापुर":8519,"गोपनीय":8520,"कपिलवस्तु":8521,"दाहसंस्कार":8522,"सुपुत्रका":8523,"गोदावरी":8524,"जबरजस्ती":8525,"एकेडे":8526,"दशमलव":8527,"क्यालिफोर्":8528,"निरङ्कुश":8529,"सन्तोष":8530,"तेक्वान्दो":8531,"जिल्लाभारतीयराज्यझारखंडको":8532,",,":8533,"अराज":8534,"अौँ":8535,"अप्रत्यक्ष":8536,"अदृश्य":8537,"आका":8538,"आइन्":8539,"उरी":8540,"एन्टि":8541,"ओं":8542,"कस्तो":8543,"कहीं":8544,"खबाट":8545,"खगोल":8546,"गजे":8547,"गहन":8548,"ठीको":8549,"डटक":8550,"तरी":8551,"तरिया":8552,"दनुवार":8553,"नभएका":8554,"नभएकाले":8555,"नलाग्ने":8556,"पदो":8557,"बन्छ":8558,"बसि":8559,"भरा":8560,"मष्ट":8561,"मञ्":8562,"मतको":8563,"मङ्गला":8564,"रमेश":8565,"वना":8566,"वहा":8567,"शूल":8568,"सस":8569,"हट":8570,"ऽहम":8571,"४००":8572,"७००":8573,"८४":8574,"९६":8575,"कोइ":8576,"कोलका":8577,"न्तिक":8578,"न्डी":8579,"र्दै":8580,"नेताको":8581,"स्टी":8582,"स्टक":8583,"लेश्वर":8584,"रूसी":8585,"निष्ठा":8586,"प्रदू":8587,"प्रवासी":8588,"नाते":8589,"विश्रृं":8590,"पाखा":8591,"तिवारी":8592,"हरूदेखि":8593,"वानमा":8594,"त्रो":8595,"हुदा":8596,"हुन्न":8597,"न्दै":8598,"याहु":8599,"जाड":8600,"जानी":8601,"जागिर":8602,"दाउरा":8603,"नुवाको":8604,"पुटि":8605,"संग्रह":8606,"दिँदै":8607,"जिब्रो":8608,"रहँदै":8609,"मुनी":8610,"मुसो":8611,"राजु":8612,"राज्याभि":8613,"मिद":8614,"सम्मा":8615,"गरिदिएका":8616,"सुत":8617,"सुयोग":8618,"सुर्मा":8619,"सुम्पि":8620,"सुनुवार":8621,"चिसा":8622,"श्वर्":8623,"केतु":8624,"युगी":8625,"सेयर":8626,"चालि":8627,"क्रु":8628,"न्तरमा":8629,"२०२९":8630,"भारतर":8631,"दुम्":8632,"खाएर":8633,"रहेकोले":8634,"ङ्ग्रो":8635,"ण्ट":8636,"मेगा":8637,"समाप्ति":8638,"उँदो":8639,"बियन":8640,"प्राङ्ग":8641,"१९३०":8642,"शिल":8643,"शिर्ष":8644,"राष्ट्रवादी":8645,"मुखे":8646,"उपमन्यु":8647,"वेला":8648,"रेलमा":8649,"प्रतिबद्ध":8650,"परिक":8651,"डियम":8652,"त्यसो":8653,"त्वमा":8654,"गुल":8655,"महादेश":8656,"महाद्वीप":8657,"सीप":8658,"सीय":8659,"सीर":8660,"मानिन्थ्यो":8661,"मोटा":8662,"मोटो":8663,"मोचन":8664,"ठाउमा":8665,"परन्तु":8666,"बीजा":8667,"अधिनमा":8668,"कार्यलाई":8669,"कार्यवाहक":8670,"दिनपछि":8671,"जोगी":8672,"विश्वयुद्धमा":8673,"महत्या":8674,"छाया":8675,"पोटा":8676,"शासकहरू":8677,"देवराज":8678,"ल्याटिन":8679,"सक्दैनन्":8680,"मार्नु":8681,"पेन्":8682,"पेन्द्र":8683,"खोलामा":8684,"जेम्स":8685,"दक्षिणतिर":8686,"भुवन":8687,"खुशी":8688,"कमलको":8689,"नियमन":8690,"घाटु":8691,"अभिलेखमा":8692,"भोजना":8693,"भोटे":8694,"सभालाई":8695,"मकर":8696,"मकतू":8697,"पश्चिमको":8698,"शाहजहाँ":8699,"क्याले":8700,"हुनुभयो":8701,"दृष्य":8702,"चौतारा":8703,"तर्फका":8704,"पक्षबाट":8705,"बर्दिया":8706,"बर्खास्त":8707,"मनाउन":8708,"तत्पश्चात्":8709,"ल्लभ":8710,"पुनरा":8711,"अथर्व":8712,"कांस्य":8713,"मेरठ":8714,"आमालाई":8715,"आमाबाबु":8716,"पुग्छन्":8717,"बन्धु":8718,"संगम":8719,"जानकी":8720,"शताब्दीदेखि":8721,"दुवैलाई":8722,"क्रान्तिलाई":8723,"हत्याकाण्ड":8724,"लेखिन्छ":8725,"प्रायजसो":8726,"समूहलाई":8727,"इरानेली":8728,"बताएका":8729,"१९८८":8730,"विजयपुर":8731,"१९६४":8732,"पंच":8733,"पंक्षीको":8734,"पाईने":8735,"२०५७":8736,"प्रकाशनको":8737,"संसारका":8738,"प्रतियोगिताहरू":8739,"चराचु":8740,"ग्रन्थका":8741,"निरपेक्ष":8742,"फ्लो":8743,"प्रशासनको":8744,"भरिका":8745,"मूर्तिको":8746,"बढाउन":8747,"विद्यार्थीहरूको":8748,"सिद्धार्थ":8749,"श्रेष्ठले":8750,"एकादशीको":8751,"सम्झनामा":8752,"व्यापारको":8753,"रङको":8754,"मृतक":8755,"बन्नु":8756,"मान्छेको":8757,"पुनर्निर्माण":8758,"आचार्यको":8759,"भवनहरू":8760,"चाहिन्छ":8761,"भूतपूर्व":8762,"कब्जामा":8763,"ग्यास":8764,"मिल्छ":8765,"लाभको":8766,"उदाहरणको":8767,"कोरियाली":8768,"तिथिलाई":8769,"आत्मालाई":8770,"उपमहाद्वीपमा":8771,"सम्भवतः":8772,"भण्डारखाल":8773,"परीक्षामा":8774,"प्रतिष्ठान":8775,"नजिकैको":8776,"मोहम्मद":8777,"फर्किए":8778,"कानूनी":8779,"कानूनले":8780,"लिच्छविका":8781,"बृहत":8782,"समग्रमा":8783,"बृद्धि":8784,"हाराहारी":8785,"गगनसिंहको":8786,"जापानको":8787,"पेट्रो":8788,"इजरायल":8789,"पचाउन":8790,"अन्धविश्वास":8791,"बार्सिलो":8792,"द्रुपद":8793,"एक्सचे":8794,"फ्रेन्":8795,"मुजिबुर":8796,"सल्तन":8797,"स्वच्छन्द":8798,"गोरखपुर":8799,"बगेको":8800,"युनिभर्":8801,"ध्रुव":8802,"विवेक":8803,"खानेपानी":8804,"बेरोजगारी":8805,"वर्तमानमा":8806,"अमाव":8807,"कट्टर":8808,"करुणा":8809,"स्कूलमा":8810,"बलात्कार":8811,"मथुरा":8812,"दार्चुला":8813,"आवासीय":8814,"मातृकाप्रसाद":8815,"शाश्वत":8816,"प्रवर्तक":8817,"लोपोन्मुख":8818,"सैद्धान्तिक":8819,"त्रिवेणी":8820,"विश्रृंखलताका":8821,"युगीन":8822,"अपा":8823,"अश्":8824,"असाधारण":8825,"आति":8826,"इना":8827,"उन्न":8828,"उस्तै":8829,"एला":8830,"ऐनको":8831,"कटि":8832,"गना":8833,"गजल":8834,"घन्टा":8835,"चल्ला":8836,"जङ्":8837,"डन":8838,"तलाई":8839,"थ्य":8840,"नहुँदा":8841,"नमुना":8842,"पनौती":8843,"बका":8844,"बडो":8845,"बक्सि":8846,"भद्रा":8847,"मस":8848,"लगि":8849,"लद्दा":8850,"स्रा":8851,"ससाना":8852,"सेरो":8853,"हलको":8854,"हकको":8855,"ौपा":8856,"१२०":8857,"८९":8858,"माण्ड":8859,"्र्य":8860,"कास्य":8861,"र्यो":8862,"रावल":8863,"नेशनल":8864,"लेप्चा":8865,"निगम":8866,"प्रचुर":8867,"प्रमूख":8868,"नास्":8869,"विहार":8870,"विहीन":8871,"पागल":8872,"क्दै":8873,"क्कर":8874,"तिरि":8875,"बां":8876,"बाज":8877,"साप्ता":8878,"साङ्गी":8879,"साबित":8880,"हाकिम":8881,"हाउस":8882,"त्से":8883,"गर्भव":8884,"देवि":8885,"नीत":8886,"लिनको":8887,"यसि":8888,"सिल्":8889,"संवेदनशील":8890,"दिउँ":8891,"जिय":8892,"गाइने":8893,"मुण्डा":8894,"राजन":8895,"मिनी":8896,"सुर्य":8897,"चिठी":8898,"भित्ता":8899,"युथ":8900,"नेपाललगायत":8901,"रूपन्देही":8902,"सेट":8903,"चाँड":8904,"पर्थ्यो":8905,"एकातिर":8906,"२०३०":8907,"खानामा":8908,"जनर":8909,"व्यब":8910,"कृत्य":8911,"रोयल":8912,"मेरी":8913,"समाजिक":8914,"बिक":8915,"प्रादेशिक":8916,"प्राचीनका":8917,"प्वाँ":8918,"न्यौपा":8919,"जीका":8920,"उपजिल्लाका":8921,"अनुकूल":8922,"अनुभूति":8923,"रेख":8924,"रेन्ट":8925,"रेस्टु":8926,"खेलेर":8927,"डिएका":8928,"गरेनन्":8929,"बेसी":8930,"मोहक":8931,"ज्ने":8932,"भाषाबाट":8933,"राजाहरूको":8934,"परमेश्वर":8935,"बीको":8936,"रामपुर":8937,"भनियो":8938,"वैवाहिक":8939,"व्यवस्थाप":8940,"छोटा":8941,"दोषी":8942,"हुँने":8943,"पेटमा":8944,"आदित्य":8945,"नदीलाई":8946,"जेन":8947,"मूलन":8948,"न्यास":8949,"गर्नुको":8950,"भुइँ":8951,"खुम्":8952,"तोप":8953,"डेढ":8954,"कमै":8955,"पीडा":8956,"घाटा":8957,"चुरो":8958,"व्यक्तिका":8959,"ड्को":8960,"महत्त्वको":8961,"घोर":8962,"सदस्यलाई":8963,"उत्तरपूर्वमा":8964,"सञ्जाल":8965,"गराइ":8966,"कार्बो":8967,"तामाको":8968,"विद्यालयको":8969,"आर्जन":8970,"नगरपालिकाहरू":8971,"हुनुपर्दछ":8972,"पत्नीको":8973,"चौला":8974,"तारो":8975,"त्मकता":8976,"जस्तैः":8977,"शिक्षाका":8978,"रुपन्देही":8979,"बाँधि":8980,"समाजवाद":8981,"मनाङ":8982,"उत्पादित":8983,"वीरता":8984,"ग्रीक":8985,"थापालाई":8986,"१९७६":8987,"जीवनलाई":8988,"ब्राहृ":8989,"शमशेरका":8990,"चेन":8991,"प्रकारकोचराको":8992,"फर्का":8993,"यिनीहरूले":8994,"२०६२":8995,"२०६७":8996,"लैं":8997,"१९५७":8998,"नौरथा":8999,"समूहले":9000,"अगाडिको":9001,"नियन्त्रित":9002,"रचनाहरूको":9003,"किराती":9004,"प्रान्तमा":9005,"उमेरका":9006,"गृहमन्त्री":9007,"मिश्रित":9008,"विमानस्थलमा":9009,"घटनालाई":9010,"बढावा":9011,"देख्ने":9012,"पाठे":9013,"यातना":9014,"कविताहरू":9015,"२०३३":9016,"२०३४":9017,"२०३७":9018,"सिक्किममा":9019,"प्रक्रियामा":9020,"शासकहरूले":9021,"वत्स":9022,"गाईं":9023,"बैङ्कले":9024,"मारेर":9025,"मुख्यतयाः":9026,"प्रदायक":9027,"केशव":9028,"ध्वनि":9029,"नदिको":9030,"स्तनपान":9031,"रामायणमा":9032,"घण्टाको":9033,"कोषको":9034,"आवामी":9035,"आयुर्वे":9036,"हिमनदी":9037,"सप्तकोशी":9038,"इन्जिन":9039,"पर्यावरण":9040,"विष्टले":9041,"देवकोटाले":9042,"शीर्षक":9043,"पाटनका":9044,"बारीमा":9045,"अछामको":9046,"अमरसिंह":9047,"लम्बाइ":9048,"चूडा":9049,"महोत्तरी":9050,"परिणामस्वरूप":9051,"कश्मीर":9052,"जनजातिहरू":9053,"आउट":9054,"चढेर":9055,"देहान्त":9056,"गान्धारी":9057,"गन्धर्व":9058,"निरीक्षक":9059,"ठाँउ":9060,"दिल्लीमा":9061,"अश्वत्था":9062,"कञ्चनपुर":9063,"पत्रकारिता":9064,"छापामार":9065,"चण्डी":9066,"विनियोजन":9067,"आसपासका":9068,"कटुस":9069,"हानाहान":9070,"मुरली":9071,"प्राध्यापक":9072,"निकुञ्जको":9073,"नरिवल":9074,"केटाकेटी":9075,"माल्दिभ्":9076,"सुल्तान":9077,"सेवक":9078,"युइएफए":9079,"फिलिपिन्स":9080,"सम्मेलनमा":9081,"हेटौँडा":9082,"ग्रामिण":9083,"महोत्सव":9084,"बंगला":9085,"बिद्रोह":9086,"व्यङ्ग्य":9087,"गर्नेथारूसमुदायले":9088,"मुद्रास्फी":9089,"माथेमा":9090,"मुजफ्":9091,"इन्दिरा":9092,"गभर्नर":9093,"मद्रास":9094,"प्रतिद्वन्द्वी":9095,"महारथी":9096,"नातेदार":9097,"अमावस्या":9098,"साङ्गीतिक":9099,"ंमा":9100,"अयु":9101,"अखण्ड":9102,"आदर":9103,"आएकी":9104,"इचो":9105,"इजला":9106,"ईसाई":9107,"उछन्":9108,"उर्व":9109,"एम्":9110,"एजे":9111,"ऐश्वर्":9112,"कच":9113,"कन्द":9114,"क्यु":9115,"कप्ता":9116,"कपास":9117,"खसा":9118,"खपत":9119,"गडा":9120,"घटा":9121,"घटो":9122,"जता":9123,"जवान":9124,"ठिक":9125,"णे":9126,"तता":9127,"तलको":9128,"दथ्यो":9129,"धक":9130,"धको":9131,"नभइ":9132,"पड":9133,"बबर":9134,"भङ्ग":9135,"भञ्":9136,"भग्":9137,"मन्न":9138,"म्रि":9139,"लण्ड":9140,"ल्यो":9141,"वला":9142,"वलीमा":9143,"शमा":9144,"शही":9145,"सत्र":9146,"सरि":9147,"सपथ":9148,"सरुवा":9149,"हँ":9150,"्न्":9151,"कोखबाट":9152,"न्समा":9153,"न्सी":9154,"काटी":9155,"काट्न":9156,"र्ती":9157,"लाहरू":9158,"लामि":9159,"लागत":9160,"रालाई":9161,"स्ला":9162,"स्के":9163,"स्मार्":9164,"रूस":9165,"प्रवे":9166,"नानन्द":9167,"विता":9168,"पायो":9169,"वाड":9170,"वासको":9171,"वाडी":9172,"वाचन":9173,"म्ला":9174,"बाम":9175,"बासको":9176,"बापत":9177,"साढे":9178,"गर्छिन्":9179,"हिज":9180,"हिरा":9181,"हिजो":9182,"रिजाल":9183,"भाउ":9184,"दानको":9185,"सिलि":9186,"सिँचा":9187,"लीग":9188,"संगठन":9189,"राजेश":9190,"मिर्":9191,"मिठा":9192,"गिर्जा":9193,"सुन्न":9194,"सुशील":9195,"श्वे":9196,"केने":9197,"केन्या":9198,"केश्वर":9199,"भिन्":9200,"युवती":9201,"युनाइटेड":9202,"नेपालमै":9203,"रूपैयाँ":9204,"खिला":9205,"पर्खाल":9206,"क्रस":9207,"न्तरित":9208,"२०२६":9209,"दुख्":9210,"दुरुप":9211,"खाए":9212,"खानको":9213,"खान्छन्":9214,"रोकथा":9215,"भनें":9216,"बिलो":9217,"बिहे":9218,"बिष्णु":9219,"सन्धी":9220,"बैज्ञानिक":9221,"१९२८":9222,"१९३४":9223,"पिठो":9224,"राज्यबाट":9225,"उपराष्ट्रपतिको":9226,"जुमा":9227,"गोलो":9228,"रेट":9229,"डिल्ली":9230,"षाढ":9231,"मानस":9232,"उनीहरूका":9233,"महान्यायाधि":9234,"सीताको":9235,"सीतालाई":9236,"हरूमाथि":9237,"धारमा":9238,"बेहोस":9239,"स्वचालित":9240,"हुनेछन्":9241,"च्चि":9242,"हेम":9243,"ठाउ":9244,"जोगाउन":9245,"जोसेफ":9246,"प्रयोगले":9247,"बोडिया":9248,"छाने":9249,"वैकल्पिक":9250,"समयका":9251,"समयपछि":9252,"छोडि":9253,"छोडे":9254,"देवल":9255,"बारेका":9256,"प्रदेशहरू":9257,"तुल्सी":9258,"जेने":9259,"मूलक":9260,"ब्रत":9261,"सैन":9262,"भुजा":9263,"भुसाल":9264,"ख्तियार":9265,"वासन":9266,"डेब्यु":9267,"चुच्च":9268,"निर्वासित":9269,"विशेषतः":9270,"लोककथा":9271,"ढाक्ने":9272,"मानिसका":9273,"ड्के":9274,"सहरका":9275,"मनकामना":9276,"त्रिपुरे":9277,"सम्बन्धको":9278,"डोगरी":9279,"चोट":9280,"कमान्डर":9281,"जयपुर":9282,"भूमिगत":9283,"चौदण्ड":9284,"छोरालाई":9285,"पराक्रम":9286,"कथानक":9287,"घिउ":9288,"लाग्नु":9289,"लाग्दो":9290,"राख्दछन्":9291,"सङ्घमा":9292,"१०८":9293,"स्याउ":9294,"बाँधेर":9295,"समाजले":9296,"शिवले":9297,"भरका":9298,"सञ्चालक":9299,"जीवनानन्द":9300,"प्रणालीलाई":9301,"क्रियाशील":9302,"धाराका":9303,"भाइरस":9304,"राखिएका":9305,"संविधानले":9306,"संविधानसभा":9307,"नारायणको":9308,"नारायणहिटी":9309,"विभाजनको":9310,"गाउँपालिकामा":9311,"थालेपछि":9312,"पुरुषले":9313,"खेलाडीको":9314,"महिनापछि":9315,"बसन्त":9316,"विचारको":9317,"ग्राहक":9318,"बौद्धिक":9319,"इतिहासका":9320,"स्वरूपका":9321,"आत्महत्या":9322,"देखाउने":9323,"पुस्तकमा":9324,"मनोकामना":9325,"व्रतको":9326,"१९६७":9327,"निर्देशना":9328,"कार्यालयमा":9329,"लाखौं":9330,"उहाँका":9331,"दर्शक":9332,"दर्शनमा":9333,"आँसु":9334,"प्रकाशको":9335,"निरं":9336,"प्रशासकीय":9337,"उद्योगमा":9338,"छोरीलाई":9339,"२०४७":9340,"पितामह":9341,"पठाई":9342,"पठाइएको":9343,"क्षीण":9344,"निकाला":9345,"जनावरहरू":9346,"शाखाहरू":9347,"बजाउन":9348,"एकादशीभनिन्छ":9349,"आरक्ष":9350,"फ्रान्समा":9351,"२०३८":9352,"चाहने":9353,"एसएल":9354,"व्यापारमा":9355,"श्राप":9356,"उन्मूलन":9357,"खानेकुरा":9358,"त्यतिखेर":9359,"सिन्धी":9360,"अधिकारीले":9361,"ट्री":9362,"स्वास्थ्यको":9363,"संसद्":9364,"श्रीकृष्णको":9365,"भोजपुरी":9366,"मुद्राको":9367,"पञ्चमी":9368,"उत्पादनका":9369,"हनुमानलाई":9370,"ग्याँस":9371,"मालपोत":9372,"जिल्लाभारतकोबिहारप्रान्तको":9373,"संस्करणको":9374,"कलेजबाट":9375,"रजौ":9376,"पोर्टल":9377,"बाइबल":9378,"एकीकरणको":9379,"ारोहण":9380,"कान्छो":9381,"रामेश्वर":9382,"विज्ञानमा":9383,"कारिणी":9384,"करार":9385,"अर्थशास्त्रमा":9386,"सन्तुलन":9387,"सिद्धिनरसिंह":9388,"सर्पले":9389,"समुन्द्री":9390,"निकटता":9391,"दरवारमा":9392,"परशुरामले":9393,"अर्थतन्त्रको":9394,"बहस":9395,"बचाउन":9396,"सार्वभौमसत्ता":9397,"चम्किलो":9398,"इन्जिनियर":9399,"दार्जिलिङको":9400,"मान्नु":9401,"गान्धार":9402,"वास्तुकला":9403,"ईसापूर्व":9404,"शङ्खहरु":9405,"ब्राजिल":9406,"वरपरका":9407,"अप्ठ":9408,"नवाब":9409,"छेउछा":9410,"माइक्रोसफ्ट":9411,"एएफसीको":9412,"न्यूनतम":9413,"उद्धार":9414,"पन्जाबी":9415,"अजिमा":9416,"शकुन्त":9417,"मानन्धर":9418,"सम्पत्तिको":9419,"न्युजिल्यान्ड":9420,"हस्तिनापुर":9421,"इन्डियन":9422,"अहिल्या":9423,"जयद्रथ":9424,"डडेल्धुरा":9425,"सुगन्धित":9426,"मामिलामा":9427,"गर्भवती":9428,"चाँडै":9429,"रेस्टुरेन्ट":9430,"ब्राहृमण":9431,"घटोत्":9432,"दुरुपयोग":9433,".,":9434,"आरो":9435,"इड":9436,"इमिरे":9437,"उन्नति":9438,"एंगे":9439,"कठ":9440,"कन्न":9441,"खला":9442,"खरानी":9443,"चको":9444,"चनामा":9445,"चल्न":9446,"जरि":9447,"जलमा":9448,"टहरू":9449,"टया":9450,"ढकाल":9451,"ण्य":9452,"तराइ":9453,"थरी":9454,"दशा":9455,"धव":9456,"धरो":9457,"नगरे":9458,"नसकिने":9459,"पखा":9460,"पङ्ख":9461,"फर्म":9462,"फिक":9463,"मन्थ":9464,"लस":9465,"लपुर":9466,"वलोकन":9467,"शव":9468,"शौ":9469,"शको":9470,"सचेत":9471,"ससुरा":9472,"हलु":9473,"ुली":9474,"ोको":9475,"५०००":9476,"९३":9477,"९९":9478,"कोटि":9479,"कोङ्क":9480,"माग्न":9481,"कानमा":9482,"लाज":9483,"लाखे":9484,"रातको":9485,"राधी":9486,"नेत्र":9487,"नेश्वर":9488,"स्टिक":9489,"प्रता":9490,"प्रस्तर":9491,"प्रह्ला":9492,"नागा":9493,"विस":9494,"विकृति":9495,"विकेट":9496,"विपरित":9497,"पादु":9498,"पार्थ":9499,"पाणि":9500,"तिरको":9501,"तिर्न":9502,"हरूः":9503,"वाराण":9504,"ताँ":9505,"ताला":9506,"तावास":9507,"म्ची":9508,"बास्":9509,"बाकी":9510,"बाजार":9511,"साउने":9512,"त्विक":9513,"क्षत्री":9514,"ल्म":9515,"यात्मक":9516,"रिजा":9517,"रिमाल":9518,"भावी":9519,"भाकल":9520,"ङ्ला":9521,"दाई":9522,"दात्री":9523,"पुछ":9524,"सियन":9525,"संधि":9526,"संज्ञा":9527,"जिर":9528,"जियत":9529,"गाहा":9530,"गान्तो":9531,"राजो":9532,"राजारण":9533,"कुला":9534,"कुकु":9535,"रुण":9536,"लोभ":9537,"धिराज":9538,"गिकरण":9539,"सुल":9540,"चिन्ति":9541,"शालाको":9542,"ेकाले":9543,"समर":9544,"समया":9545,"समष्टि":9546,"पूर":9547,"सेतु":9548,"सेनलाई":9549,"पर्सा":9550,"वर्णा":9551,"क्र्या":9552,"न्ते":9553,"देशहरूले":9554,"जनघनत्व":9555,"कृया":9556,"रोका":9557,"में":9558,"मेली":9559,"उँदछन्":9560,"उँदैनन्":9561,"बिज":9562,"बिसं":9563,"बिग्र":9564,"कीट":9565,"प्राइ":9566,"१९३५":9567,"गर्नेछन्":9568,"पिरी":9569,"मीठो":9570,"राष्ट्रहरूमा":9571,"जीवि":9572,"वेन":9573,"अनुसूची":9574,"रेस्":9575,"श्रवण":9576,"खेतीको":9577,"उत्साह":9578,"डिम्ब":9579,"त्वको":9580,"सहजै":9581,"सोहि":9582,"टिप्प":9583,"सारिक":9584,"अवश्य":9585,"भागे":9586,"गरेन":9587,"गरेपछी":9588,"अर्चना":9589,"बेबिलो":9590,"निकल":9591,"मोही":9592,"मध्यस्थ":9593,"स्वधा":9594,"ज्जा":9595,"हेल":9596,"हेतु":9597,"ठान्द":9598,"राजाहरू":9599,"लेखेर":9600,"बीसी":9601,"लगाइने":9602,"वर्षभरि":9603,"जोर्":9604,"भूषा":9605,"बोधि":9606,"छाड":9607,"वैभव":9608,"शीतला":9609,"बढुवा":9610,"देवताका":9611,"हुनसक्ने":9612,"ल्याउनु":9613,"युद्धभुमि":9614,"टेली":9615,"पेसा":9616,"पेरि":9617,"पेरिस":9618,"आदिबाट":9619,"विद्यापति":9620,"करणका":9621,"खोटा":9622,"पदमुक्त":9623,"ब्रहृ":9624,"न्यानो":9625,"सैनी":9626,"भेडा":9627,"पानीलाई":9628,"खुलेको":9629,"घाउ":9630,"चित्रा":9631,"जन्मको":9632,"ढाकिएको":9633,"मानिसहरूमा":9634,"कुराका":9635,"सदस्यहरूले":9636,"कार्बन":9637,"विद्यालयबाट":9638,"महिलाहरूलाई":9639,"सङ्गति":9640,"चोखो":9641,"क्याना":9642,"बस्नु":9643,"राष्ट्रपतिलाई":9644,"हुनुभएको":9645,"पत्थर":9646,"चौतरिया":9647,"वर्णको":9648,"वर्णमाला":9649,"वृष":9650,"वृन्दा":9651,"पक्षलाई":9652,"पक्षीय":9653,"तहहरू":9654,"राख्दै":9655,"ग्रहहरू":9656,"वर्गले":9657,"उनुपर्छ":9658,"शिवलिङ्ग":9659,"२०७६":9660,"राजधानीको":9661,"ब्रान्ड":9662,"शब्दा":9663,"पुग्नु":9664,"अनिरुद्र":9665,"मल्लका":9666,"पहिलेको":9667,"भैरहेको":9668,"पुत्रको":9669,"क्रान्तिमा":9670,"आइपुगे":9671,"हराउन":9672,"सयौं":9673,"ढुवानी":9674,"फुयाल":9675,"नेताहरू":9676,"नेताहरूले":9677,"लिगका":9678,"रहेन":9679,"बालकृष्ण":9680,"प्रजापति":9681,"१९४४":9682,"कटौ":9683,"अपरे":9684,"बुद्धले":9685,"सन्तति":9686,"सुरक्षाका":9687,"नन्दन":9688,"बाजाहो":9689,"शंका":9690,"तैयार":9691,"लोकप्रियता":9692,"गढीमा":9693,"बेलायतमा":9694,"जर्मनीमा":9695,"मर्ने":9696,"पढे":9697,"अक्साइ":9698,"एफसी":9699,"एफएम":9700,"दिवसीय":9701,"हटाइएको":9702,"एनन्":9703,"युवाहरू":9704,"क्याम्पसको":9705,"पाण्डवहरूको":9706,"टेलिफोन":9707,"सुरूवात":9708,"बराह":9709,"प्यागोडा":9710,"देउसी":9711,"कोइरालालाई":9712,"नेटवर्":9713,"चढाउने":9714,"श्रीलङ्कामा":9715,"पत्रिकामा":9716,"तराईको":9717,"पन्जाबमा":9718,"उपचारको":9719,"चाहिने":9720,"कागजात":9721,"मान्छेले":9722,"कोरियाको":9723,"तिथिमा":9724,"भियतनाम":9725,"काङ्ग्रेसले":9726,"स्वर्गद्वारी":9727,"अगस्त":9728,"विज्ञापन":9729,"लडाकुको":9730,"आश्रित":9731,"भूकम्पले":9732,"प्यू":9733,"कालिकोट":9734,"सार्वभौमिक":9735,"व्यावहार":9736,"स्मृतिमा":9737,"अभावमा":9738,"युधिष्ठिरले":9739,"उत्तरार्":9740,"लंका":9741,"शम्शेरले":9742,"तारिखका":9743,"बृहत्":9744,"नातिकाजी":9745,"कल्कि":9746,"दुःखी":9747,"शरद":9748,"अन्तरिक्ष":9749,"अग्निहो":9750,"गार्ह":9751,"छन्दमा":9752,"गोलाकार":9753,"आयुक्तको":9754,"परमात्मा":9755,"पुच्छ्रे":9756,"कर्नाटकको":9757,"अफगानिस्तान":9758,"त्म्य":9759,"मस्तिष्क":9760,"मृत्युदण्डको":9761,"स्याङ्जा":9762,"भत्केको":9763,"प्रवर्द्धन":9764,"विषालु":9765,"तेह्रथुम":9766,"श्रेणीमा":9767,"रुक्मि":9768,"सुत्के":9769,"ज्वरो":9770,"पोथ्रा":9771,"कुम्भकर्ण":9772,"पाँचौं":9773,"विस्फो":9774,"म्याग्दी":9775,"अधिवेशन":9776,"लोखर्के":9777,"अरुणाचल":9778,"अध्ययनको":9779,"पृथक":9780,"पोशाक":9781,"कब्जियत":9782,"बेग्लै":9783,"मङ्गोलिया":9784,"रुकुमको":9785,"त्रिशुली":9786,"आइतबार":9787,"मर्यादा":9788,"लिमिटेड":9789,"छिट्टै":9790,"जगन्नाथ":9791,"भिक्टोरिया":9792,"प्रदूषण":9793,"बक्सिङ":9794,"साप्ताहिक":9795,"प्वाँख":9796,"अयुब":9797,"मन्न्री":9798,"निर्देशनालय":9799,"चिन्तित":9800,"टिप्पणी":9801,"युद्धभुमिमा":9802,"ंद":9803,"ःयस":9804,"अपरि":9805,"अभिन्न":9806,"असमान":9807,"आमन्त्र":9808,"आसन":9809,"इल":9810,"इकाई":9811,"उर":9812,"उपर्":9813,"उडि":9814,"उग्र":9815,"उसै":9816,"उदेश्य":9817,"उस्मा":9818,"उकास्":9819,"एक्का":9820,"ओस्":9821,"और":9822,"कली":9823,"कच्चा":9824,"खटा":9825,"खम्बा":9826,"गली":9827,"गञ्":9828,"गतिको":9829,"घृ":9830,"च्य":9831,"डफा":9832,"डडेल":9833,"ढ्या":9834,"तटी":9835,"नमू":9836,"बहन":9837,"भरको":9838,"भयान":9839,"म्यु":9840,"मग्न":9841,"यः":9842,"यदी":9843,"यौँ":9844,"रक्":9845,"रसुवा":9846,"लहरा":9847,"लक्षित":9848,"लव्":9849,"लड्न":9850,"लङ्गु":9851,"सनीय":9852,"सशक्त":9853,"हलो":9854,"कोशि":9855,"माड":9856,"्र्":9857,"न्डा":9858,"काल्":9859,"काउने":9860,"कालु":9861,"कात्या":9862,"र्वा":9863,"र्तन":9864,"र्वाण":9865,"राजि":9866,"राती":9867,"स्वे":9868,"स्कृत":9869,"निः":9870,"प्रदु":9871,"प्रसंग":9872,"विक्री":9873,"क्सको":9874,"क्सन":9875,"बाे":9876,"थाह":9877,"साङ":9878,"साल्पा":9879,"हुमा":9880,"हिन":9881,"हिलो":9882,"याली":9883,"होरा":9884,"लिखेल":9885,"जानि":9886,"जाना":9887,"जातीको":9888,"भाष":9889,"भाषण":9890,"दाता":9891,"पुमा":9892,"सिकारी":9893,"संचा":9894,"संगठ":9895,"तीमध्ये":9896,"राजस्थानको":9897,"मिन्ता":9898,"कुर्":9899,"कुसु":9900,"कुरो":9901,"किसा":9902,"स्थायित्व":9903,"गरिदै":9904,"गरिसकेको":9905,"गरिएपछि":9906,"धिकारको":9907,"गिनी":9908,"सुँ":9909,"सुकेको":9910,"सुभद्रा":9911,"चित्":9912,"श्वा":9913,"केसर":9914,"समै":9915,"छिन्न":9916,"ल्लाह":9917,"क्रूर":9918,"देशकै":9919,"तथाअष्ट्रेलिया":9920,"दुसान्":9921,"जिल्लार":9922,"रोप्ने":9923,"समाधि":9924,"समातेर":9925,"बिस":9926,"बिही":9927,"बिश्व":9928,"१९११":9929,"१९२७":9930,"१९३८":9931,"शिक्षकको":9932,"मीक":9933,"राष्ट्रमा":9934,"राष्ट्रहरूको":9935,"राष्ट्रहरूले":9936,"प्टर":9937,"जीवाण":9938,"उपमन्त्री":9939,"उपलव्":9940,"गोड":9941,"रेसा":9942,"रेलको":9943,"खेलि":9944,"प्रतिदिन":9945,"प्रतिबन्धित":9946,"भारतलाई":9947,"भारततथा":9948,"भारतलगायत":9949,"ञ्जय":9950,"मानदेवले":9951,"महायान":9952,"अवधी":9953,"मानिसहरु":9954,"अर्काको":9955,"बेच":9956,"कर्फ":9957,"कर्ताको":9958,"कर्मको":9959,"मोडल":9960,"बनाउँछन्":9961,"बनावट":9962,"मध्ययुगीन":9963,"ज्जित":9964,"नेपालीको":9965,"हेटौ":9966,"लेखेको":9967,"परमे":9968,"वर्षअघि":9969,"जोगि":9970,"धेरैले":9971,"ख्याति":9972,"बोल्न":9973,"अन्यत्र":9974,"हुनत":9975,"बारु":9976,"व्याक्ती":9977,"धर्मलाई":9978,"जसकारण":9979,"पेन":9980,"प्रधानन्यायाधीश":9981,"आदिले":9982,"जेष्ठ":9983,"गाउँहरू":9984,"दक्षिणकाली":9985,"डेमो":9986,"भारतकोउत्तराखण्ड":9987,"चुचुरा":9988,"विशेषताका":9989,"पार्थि":9990,"चित्रकला":9991,"जन्मजात":9992,"ड्स":9993,"ड्नु":9994,"केन्द्रमा":9995,"कुराले":9996,"मनमोहक":9997,"धुलिखेल":9998,"न्डु":9999}