{
  "version": "1.0",
  "truncation": null,
  "padding": null,
  "added_tokens": [
    {
      "id": 0,
      "content": "[PAD]",
      "single_word": false,
      "lstrip": false,
      "rstrip": false,
      "normalized": false,
      "special": true
    },
    {
      "id": 1,
      "content": "[UNK]",
      "single_word": false,
      "lstrip": false,
      "rstrip": false,
      "normalized": false,
      "special": true
    },
    {
      "id": 2,
      "content": "[CLS]",
      "single_word": false,
      "lstrip": false,
      "rstrip": false,
      "normalized": false,
      "special": true
    },
    {
      "id": 3,
      "content": "[MASK]",
      "single_word": false,
      "lstrip": false,
      "rstrip": false,
      "normalized": false,
      "special": true
    },
    {
      "id": 4,
      "content": "[SEP]",
      "single_word": false,
      "lstrip": false,
      "rstrip": false,
      "normalized": false,
      "special": true
    }
  ],
  "normalizer": {
    "type": "BertNormalizer",
    "clean_text": true,
    "handle_chinese_chars": true,
    "strip_accents": null,
    "lowercase": true
  },
  "pre_tokenizer": {
    "type": "BertPreTokenizer"
  },
  "post_processor": {
    "type": "TemplateProcessing",
    "single": [
      {
        "SpecialToken": {
          "id": "[CLS]",
          "type_id": 0
        }
      },
      {
        "Sequence": {
          "id": "A",
          "type_id": 0
        }
      },
      {
        "SpecialToken": {
          "id": "[SEP]",
          "type_id": 0
        }
      }
    ],
    "pair": [
      {
        "SpecialToken": {
          "id": "[CLS]",
          "type_id": 0
        }
      },
      {
        "Sequence": {
          "id": "A",
          "type_id": 0
        }
      },
      {
        "SpecialToken": {
          "id": "[SEP]",
          "type_id": 0
        }
      },
      {
        "Sequence": {
          "id": "B",
          "type_id": 1
        }
      },
      {
        "SpecialToken": {
          "id": "[SEP]",
          "type_id": 1
        }
      }
    ],
    "special_tokens": {
      "[CLS]": {
        "id": "[CLS]",
        "ids": [
          2
        ],
        "tokens": [
          "[CLS]"
        ]
      },
      "[SEP]": {
        "id": "[SEP]",
        "ids": [
          4
        ],
        "tokens": [
          "[SEP]"
        ]
      }
    }
  },
  "decoder": {
    "type": "WordPiece",
    "prefix": "##",
    "cleanup": true
  },
  "model": {
    "type": "WordPiece",
    "unk_token": "[UNK]",
    "continuing_subword_prefix": "##",
    "max_input_chars_per_word": 100,
    "vocab": {
      "[PAD]": 0,
      "[UNK]": 1,
      "[CLS]": 2,
      "[MASK]": 3,
      "[SEP]": 4,
      "!": 5,
      "\"": 6,
      "#": 7,
      "%": 8,
      "&": 9,
      "'": 10,
      "*": 11,
      ",": 12,
      "-": 13,
      ".": 14,
      "/": 15,
      ":": 16,
      ";": 17,
      "?": 18,
      "@": 19,
      "]": 20,
      "_": 21,
      "`": 22,
      "|": 23,
      "¥": 24,
      "«": 25,
      "¬": 26,
      "´": 27,
      "¸": 28,
      "º": 29,
      "Þ": 30,
      "ì": 31,
      "÷": 32,
      "ø": 33,
      "Œ": 34,
      "œ": 35,
      "ֹ": 36,
      "ँ": 37,
      "ं": 38,
      "ः": 39,
      "अ": 40,
      "आ": 41,
      "इ": 42,
      "ई": 43,
      "उ": 44,
      "ऊ": 45,
      "ऋ": 46,
      "ए": 47,
      "ऐ": 48,
      "ऑ": 49,
      "ओ": 50,
      "औ": 51,
      "क": 52,
      "ख": 53,
      "ग": 54,
      "घ": 55,
      "ङ": 56,
      "च": 57,
      "छ": 58,
      "ज": 59,
      "झ": 60,
      "ञ": 61,
      "ट": 62,
      "ठ": 63,
      "ड": 64,
      "ढ": 65,
      "ण": 66,
      "त": 67,
      "थ": 68,
      "द": 69,
      "ध": 70,
      "न": 71,
      "प": 72,
      "फ": 73,
      "ब": 74,
      "भ": 75,
      "म": 76,
      "य": 77,
      "र": 78,
      "ऱ": 79,
      "ल": 80,
      "व": 81,
      "श": 82,
      "ष": 83,
      "स": 84,
      "ह": 85,
      "़": 86,
      "ऽ": 87,
      "ा": 88,
      "ि": 89,
      "ी": 90,
      "ु": 91,
      "ू": 92,
      "ृ": 93,
      "ॅ": 94,
      "े": 95,
      "ै": 96,
      "ॉ": 97,
      "ो": 98,
      "ौ": 99,
      "्": 100,
      "ॐ": 101,
      "ड़": 102,
      "।": 103,
      "‘": 104,
      "’": 105,
      "‚": 106,
      "“": 107,
      "”": 108,
      "†": 109,
      "…": 110,
      "∙": 111,
      "☭": 112,
      "🙏": 113,
      "##ि": 114,
      "##य": 115,
      "##ा": 116,
      "##म": 117,
      "##व": 118,
      "##ल": 119,
      "##ी": 120,
      "##त": 121,
      "##ज": 122,
      "##अ": 123,
      "##न": 124,
      "##ु": 125,
      "##स": 126,
      "##र": 127,
      "##क": 128,
      "##ब": 129,
      "##ष": 130,
      "##्": 131,
      "##ट": 132,
      "##ड": 133,
      "##ह": 134,
      "##ख": 135,
      "##ो": 136,
      "##झ": 137,
      "##े": 138,
      "##प": 139,
      "##ध": 140,
      "##उ": 141,
      "##च": 142,
      "##ठ": 143,
      "##ण": 144,
      "##फ": 145,
      "##ग": 146,
      "##ं": 147,
      "##ँ": 148,
      "##द": 149,
      "##भ": 150,
      "##ङ": 151,
      "##थ": 152,
      "##ई": 153,
      "##ए": 154,
      "##ञ": 155,
      "##ू": 156,
      "##श": 157,
      "##आ": 158,
      "##ै": 159,
      "##घ": 160,
      "##ः": 161,
      "##छ": 162,
      "##ौ": 163,
      "##ढ": 164,
      "##ृ": 165,
      "##इ": 166,
      "##ओ": 167,
      "##÷": 168,
      "##ॅ": 169,
      "##∙": 170,
      "##ॉ": 171,
      "##ऋ": 172,
      "##औ": 173,
      "##¥": 174,
      "##ì": 175,
      "##ऊ": 176,
      "##¬": 177,
      "##ऱ": 178,
      "##ऽ": 179,
      "##़": 180,
      "##¸": 181,
      "##Œ": 182,
      "##´": 183,
      "##ऐ": 184,
      "##Þ": 185,
      "##º": 186,
      "##ड़": 187,
      "##œ": 188,
      "##को": 189,
      "##्र": 190,
      "##र्": 191,
      "##मा": 192,
      "##का": 193,
      "##न्": 194,
      "##्य": 195,
      "##ले": 196,
      "##ने": 197,
      "##ार": 198,
      "##ाल": 199,
      "प्र": 200,
      "##ान": 201,
      "##स्": 202,
      "##ला": 203,
      "##ना": 204,
      "##क्": 205,
      "##एको": 206,
      "##ता": 207,
      "##ति": 208,
      "गर": 209,
      "##त्र": 210,
      "वि": 211,
      "गर्": 212,
      "##ेको": 213,
      "का": 214,
      "##वा": 215,
      "##म्": 216,
      "##नि": 217,
      "##री": 218,
      "नि": 219,
      "ने": 220,
      "##लाई": 221,
      "##ित": 222,
      "##था": 223,
      "##ाग": 224,
      "##रु": 225,
      "##नु": 226,
      "##क्ष": 227,
      "##्या": 228,
      "हु": 229,
      "##िक": 230,
      "##पाल": 231,
      "##यो": 232,
      "रा": 233,
      "स्": 234,
      "##न्त्र": 235,
      "सं": 236,
      "##ेश": 237,
      "सा": 238,
      "दि": 239,
      "##ष्": 240,
      "##न्द": 241,
      "##रा": 242,
      "सम": 243,
      "##ल्": 244,
      "##एका": 245,
      "##ाट": 246,
      "##क्र": 247,
      "##ेका": 248,
      "##रो": 249,
      "##त्": 250,
      "को": 251,
      "##या": 252,
      "नेपाल": 253,
      "##ाउ": 254,
      "छन्": 255,
      "##कार": 256,
      "भएको": 257,
      "##ण्": 258,
      "##हरु": 259,
      "उन": 260,
      "रह": 261,
      "मा": 262,
      "##बाट": 263,
      "लाग": 264,
      "पु": 265,
      "##ष्ट": 266,
      "##हि": 267,
      "पनि": 268,
      "##रि": 269,
      "##र्य": 270,
      "##हा": 271,
      "पा": 272,
      "##दै": 273,
      "भने": 274,
      "##ण्ड": 275,
      "##ङ्": 276,
      "##पा": 277,
      "##धान": 278,
      "हो": 279,
      "##क्रम": 280,
      "##ाम": 281,
      "##द्": 282,
      "##न्त्री": 283,
      "सु": 284,
      "तथा": 285,
      "##देश": 286,
      "##स्त": 287,
      "##दा": 288,
      "##ेर": 289,
      "##िएको": 290,
      "थि": 291,
      "निर्": 292,
      "##ेख": 293,
      "सर": 294,
      "गर्न": 295,
      "के": 296,
      "##धि": 297,
      "जना": 298,
      "##ीय": 299,
      "सम्": 300,
      "गर्ने": 301,
      "गरेको": 302,
      "##ारी": 303,
      "##ध्य": 304,
      "##छि": 305,
      "##ाइ": 306,
      "##ली": 307,
      "त्य": 308,
      "##ालय": 309,
      "##स्थ": 310,
      "बता": 311,
      "कार्य": 312,
      "सरकार": 313,
      "##वि": 314,
      "लागि": 315,
      "##कारी": 316,
      "##टी": 317,
      "##ही": 318,
      "##भि": 319,
      "##स्था": 320,
      "##मन्त्री": 321,
      "##्च": 322,
      "व्य": 323,
      "##र्ष": 324,
      "उप": 325,
      "उनले": 326,
      "एक": 327,
      "कोरो": 328,
      "कोरोना": 329,
      "##न्त": 330,
      "##नेछ": 331,
      "##ाय": 332,
      "##पर्": 333,
      "##भा": 334,
      "##्न": 335,
      "बढ": 336,
      "##बार": 337,
      "##नी": 338,
      "क्": 339,
      "##िका": 340,
      "कु": 341,
      "##ठमा": 342,
      "##लो": 343,
      "सङ्": 344,
      "दु": 345,
      "पार्": 346,
      "काठमा": 347,
      "यस": 348,
      "##ँग": 349,
      "##पछि": 350,
      "यो": 351,
      "रहेको": 352,
      "##रह": 353,
      "##वस्था": 354,
      "सह": 355,
      "प्रति": 356,
      "##ूर्": 357,
      "काम": 358,
      "आफ": 359,
      "##क्त": 360,
      "##रण": 361,
      "##योग": 362,
      "##म्म": 363,
      "##ेखि": 364,
      "##कि": 365,
      "##ेत": 366,
      "##न्छ": 367,
      "अनु": 368,
      "राज": 369,
      "वर्ष": 370,
      "बि": 371,
      "प्रधान": 372,
      "##्यु": 373,
      "स्वा": 374,
      "##एर": 375,
      "##ष्ट्र": 376,
      "##सँग": 377,
      "जन": 378,
      "पार्टी": 379,
      "##ेल": 380,
      "स्थ": 381,
      "बै": 382,
      "##ग्र": 383,
      "बा": 384,
      "##नमा": 385,
      "जि": 386,
      "##की": 387,
      "##ुर": 388,
      "##नुपर्": 389,
      "थियो": 390,
      "##टा": 391,
      "प्रधानमन्त्री": 392,
      "##िस": 393,
      "जान": 394,
      "##िय": 395,
      "हाम": 396,
      "क्ष": 397,
      "हुने": 398,
      "##िम": 399,
      "##द्ध": 400,
      "##्व": 401,
      "गरेका": 402,
      "##न्न": 403,
      "##ुख": 404,
      "##ौं": 405,
      "##ल्ला": 406,
      "अध्य": 407,
      "##ाला": 408,
      "##चार": 409,
      "##ाउँ": 410,
      "##क्रमण": 411,
      "##प्र": 412,
      "##जार": 413,
      "रु": 414,
      "##रू": 415,
      "गरिएको": 416,
      "##प्": 417,
      "##िन": 418,
      "##न्द्र": 419,
      "भएका": 420,
      "##स्थ्य": 421,
      "##सार": 422,
      "##क्षा": 423,
      "##सम्म": 424,
      "##पत": 425,
      "##ठक": 426,
      "से": 427,
      "##गर": 428,
      "नै": 429,
      "परि": 430,
      "प्रदेश": 431,
      "गरी": 432,
      "##सी": 433,
      "##गा": 434,
      "##र्थ": 435,
      "बताए": 436,
      "##न्ध": 437,
      "गरि": 438,
      "##पालिका": 439,
      "जानकारी": 440,
      "अस्": 441,
      "##सा": 442,
      "स्वास्थ्य": 443,
      "कार": 444,
      "##्रो": 445,
      "##उन": 446,
      "बैठक": 447,
      "कम": 448,
      "सि": 449,
      "##ृत": 450,
      "##पमा": 451,
      "##ानी": 452,
      "गत": 453,
      "##न्य": 454,
      "##बै": 455,
      "##ेत्र": 456,
      "स्थान": 457,
      "##ञ्च": 458,
      "त्यस": 459,
      "##ण्डु": 460,
      "##डा": 461,
      "ओली": 462,
      "थिए": 463,
      "काठमाण्डु": 464,
      "रो": 465,
      "राष्ट्र": 466,
      "क्षेत्र": 467,
      "जिल्ला": 468,
      "अस्पत": 469,
      "##ँदै": 470,
      "विश": 471,
      "अस्पताल": 472,
      "##ेट": 473,
      "मन्त्र": 474,
      "सबै": 475,
      "##ती": 476,
      "वा": 477,
      "भए": 478,
      "अध्यक्ष": 479,
      "सो": 480,
      "##वार": 481,
      "जा": 482,
      "##िति": 483,
      "समय": 484,
      "##जा": 485,
      "##हरू": 486,
      "##उने": 487,
      "नेपाली": 488,
      "##हिले": 489,
      "हजार": 490,
      "गर्दै": 491,
      "##क्ति": 492,
      "##भाव": 493,
      "हामी": 494,
      "बना": 495,
      "जो": 496,
      "##्ने": 497,
      "##नको": 498,
      "##र्म": 499,
      "दिए": 500,
      "महा": 501,
      "##क्षण": 502,
      "समा": 503,
      "##तिक": 504,
      "##वस": 505,
      "सरकारले": 506,
      "प्रा": 507,
      "##न्दा": 508,
      "##रहेको": 509,
      "##ेस": 510,
      "भन्": 511,
      "##हरी": 512,
      "लग": 513,
      "##क्रमित": 514,
      "मि": 515,
      "##बन्ध": 516,
      "##ाह": 517,
      "##हु": 518,
      "देश": 519,
      "##धार": 520,
      "ती": 521,
      "##स्ता": 522,
      "गरे": 523,
      "पुग": 524,
      "मु": 525,
      "निर्ण": 526,
      "राख": 527,
      "दिन": 528,
      "##माण": 529,
      "##जना": 530,
      "##नुपर्ने": 531,
      "##वाद": 532,
      "व्यवस्था": 533,
      "निर्णय": 534,
      "##ाख": 535,
      "प्रहरी": 536,
      "##देखि": 537,
      "नेक": 538,
      "लि": 539,
      "आज": 540,
      "##मुख": 541,
      "##ाली": 542,
      "##ालाई": 543,
      "##्रम": 544,
      "नेकपा": 545,
      "##्ञ": 546,
      "पर्": 547,
      "सञ्च": 548,
      "##सद": 549,
      "दुई": 550,
      "विद": 551,
      "##ारत": 552,
      "सकि": 553,
      "##ास": 554,
      "##ाउन": 555,
      "##सम": 556,
      "मह": 557,
      "परी": 558,
      "रहेका": 559,
      "सामा": 560,
      "##फल": 561,
      "अहिले": 562,
      "बु": 563,
      "भारत": 564,
      "पर": 565,
      "##हाँ": 566,
      "पूर्": 567,
      "नेता": 568,
      "##पी": 569,
      "मन्त्रालय": 570,
      "मात्र": 571,
      "तर": 572,
      "##डि": 573,
      "नगर": 574,
      "मृत": 575,
      "##ोज": 576,
      "छै": 577,
      "निय": 578,
      "##न्ट": 579,
      "##िव": 580,
      "सद": 581,
      "कारण": 582,
      "घर": 583,
      "डा": 584,
      "##वास": 585,
      "शु": 586,
      "##र्फ": 587,
      "भन्ने": 588,
      "था": 589,
      "या": 590,
      "गते": 591,
      "कार्यालय": 592,
      "##ख्या": 593,
      "##ोक": 594,
      "##याँ": 595,
      "##ीमा": 596,
      "##ष्ठ": 597,
      "अवस्था": 598,
      "##रस": 599,
      "##र्व": 600,
      "केन्द्र": 601,
      "प्रश": 602,
      "प्रमुख": 603,
      "आइ": 604,
      "केही": 605,
      "अधि": 606,
      "##पुर": 607,
      "##स्य": 608,
      "निर्माण": 609,
      "##सक": 610,
      "साथ": 611,
      "##ेला": 612,
      "##श्य": 613,
      "##ंग": 614,
      "व्या": 615,
      "हुन्": 616,
      "##ाउने": 617,
      "महि": 618,
      "##त्व": 619,
      "स्व": 620,
      "गु": 621,
      "##कै": 622,
      "सक्": 623,
      "हुन": 624,
      "##निक": 625,
      "विष": 626,
      "##कु": 627,
      "##बी": 628,
      "##ौँ": 629,
      "देखि": 630,
      "##घि": 631,
      "##पूर्": 632,
      "मृत्यु": 633,
      "##स्तै": 634,
      "##कास": 635,
      "##हित": 636,
      "उपचार": 637,
      "##मान": 638,
      "##त्य": 639,
      "##नै": 640,
      "प्रव": 641,
      "##भाग": 642,
      "##र्ता": 643,
      "छैन": 644,
      "आव": 645,
      "थप": 646,
      "##जी": 647,
      "##ँदा": 648,
      "##ँच": 649,
      "सञ्चाल": 650,
      "##गत": 651,
      "##श्यक": 652,
      "भइ": 653,
      "पहि": 654,
      "##िया": 655,
      "स्थानीय": 656,
      "कुरा": 657,
      "काठमाड": 658,
      "##चिव": 659,
      "##ज्ञ": 660,
      "गरेर": 661,
      "मन": 662,
      "##ट्": 663,
      "विषय": 664,
      "##रिक": 665,
      "तय": 666,
      "प्रच": 667,
      "सदस्य": 668,
      "गाउँ": 669,
      "##ताको": 670,
      "सुर": 671,
      "##स्तो": 672,
      "##ायत": 673,
      "देख": 674,
      "समेत": 675,
      "ल्या": 676,
      "आफ्न": 677,
      "##धन": 678,
      "अर्": 679,
      "विकास": 680,
      "संक्रमण": 681,
      "##्रा": 682,
      "##न्दै": 683,
      "भू": 684,
      "##रमा": 685,
      "##लि": 686,
      "प्रचण्ड": 687,
      "समिति": 688,
      "अन्त": 689,
      "##सो": 690,
      "##स्या": 691,
      "मन्त्री": 692,
      "##पति": 693,
      "##ेद": 694,
      "उत्": 695,
      "रुपमा": 696,
      "सङ्क्रमण": 697,
      "भाइ": 698,
      "मान": 699,
      "##इएको": 700,
      "##ुवा": 701,
      "पछि": 702,
      "समस्या": 703,
      "##हरुले": 704,
      "उनी": 705,
      "##्यान": 706,
      "##ेव": 707,
      "परीक्षण": 708,
      "##यन": 709,
      "##र्मा": 710,
      "बो": 711,
      "##हरुको": 712,
      "सम्बन्ध": 713,
      "सेवा": 714,
      "बज": 715,
      "##्यो": 716,
      "##म्प": 717,
      "सय": 718,
      "अनुसार": 719,
      "##म्ब": 720,
      "नगरपालिका": 721,
      "आएको": 722,
      "नभ": 723,
      "काठमाडौं": 724,
      "भाइरस": 725,
      "##जन": 726,
      "राष्ट्रिय": 727,
      "##लु": 728,
      "भन्दै": 729,
      "जनाएको": 730,
      "सहयोग": 731,
      "पो": 732,
      "##मि": 733,
      "##लग": 734,
      "##जिक": 735,
      "##सि": 736,
      "शि": 737,
      "##ेक": 738,
      "हुनेछ": 739,
      "##भिड": 740,
      "##वसाय": 741,
      "कोभिड": 742,
      "कुनै": 743,
      "बताएका": 744,
      "##टक": 745,
      "सू": 746,
      "##काल": 747,
      "##ङ्ग": 748,
      "##ुक्त": 749,
      "मे": 750,
      "##ष्टि": 751,
      "##ीको": 752,
      "दल": 753,
      "अस": 754,
      "##भन्दा": 755,
      "शर्मा": 756,
      "छल": 757,
      "स्था": 758,
      "खु": 759,
      "नेपालमा": 760,
      "व्यक्ति": 761,
      "छलफल": 762,
      "माग": 763,
      "##भित्र": 764,
      "अव": 765,
      "##प्त": 766,
      "आवश्यक": 767,
      "##ोर": 768,
      "हाल": 769,
      "कि": 770,
      "लाख": 771,
      "##चना": 772,
      "##वन": 773,
      "##क्ता": 774,
      "श्र": 775,
      "बस": 776,
      "गर्नु": 777,
      "संक्रमित": 778,
      "##ूल": 779,
      "प्रयोग": 780,
      "##भिन्न": 781,
      "##ुन": 782,
      "जारी": 783,
      "##दुर": 784,
      "विश्व": 785,
      "##ामा": 786,
      "##ैले": 787,
      "##सहित": 788,
      "##पन": 789,
      "##धिक": 790,
      "##च्च": 791,
      "##ञ्": 792,
      "आफ्नो": 793,
      "##ल्लो": 794,
      "हि": 795,
      "नाग": 796,
      "##ेन्ट": 797,
      "सचिव": 798,
      "##थि": 799,
      "कार्यक्रम": 800,
      "##पना": 801,
      "तीन": 802,
      "राजनी": 803,
      "##ग्रह": 804,
      "##तम": 805,
      "##हान": 806,
      "##दि": 807,
      "नयाँ": 808,
      "हुन्छ": 809,
      "विभिन्न": 810,
      "##ट्ट": 811,
      "अन्य": 812,
      "##श्च": 813,
      "##करण": 814,
      "##डक": 815,
      "राम": 816,
      "आफू": 817,
      "##ेम": 818,
      "पक्ष": 819,
      "##रहेका": 820,
      "सां": 821,
      "सुरक्षा": 822,
      "गाउँपालिका": 823,
      "पार": 824,
      "##र्ग": 825,
      "##र्च": 826,
      "निर्देश": 827,
      "क्षेत्रमा": 828,
      "##वै": 829,
      "##लन": 830,
      "##ब्": 831,
      "##न्व": 832,
      "पुन": 833,
      "##पूर्ण": 834,
      "नागरिक": 835,
      "बस्": 836,
      "##इन": 837,
      "सडक": 838,
      "##िप": 839,
      "##समेत": 840,
      "##राम": 841,
      "ओलीले": 842,
      "##बीच": 843,
      "##उँ": 844,
      "##हादुर": 845,
      "चा": 846,
      "गर्दा": 847,
      "##दान": 848,
      "##स्थित": 849,
      "##हो": 850,
      "संसद": 851,
      "##बा": 852,
      "क्रम": 853,
      "##मै": 854,
      "पूर्व": 855,
      "चि": 856,
      "साम": 857,
      "##डी": 858,
      "##ग्": 859,
      "##त्त": 860,
      "आयो": 861,
      "हा": 862,
      "दा": 863,
      "##र्या": 864,
      "##हरुलाई": 865,
      "##विधान": 866,
      "बाँ": 867,
      "सञ्चालन": 868,
      "उक्त": 869,
      "गौ": 870,
      "अभि": 871,
      "पुष्टि": 872,
      "##छन्": 873,
      "आग्रह": 874,
      "संविधान": 875,
      "##रोध": 876,
      "उल्": 877,
      "सङ्क्रमित": 878,
      "##तन्त्र": 879,
      "कम्यु": 880,
      "##राज": 881,
      "तह": 882,
      "##सँगै": 883,
      "दिएको": 884,
      "हामीले": 885,
      "कम्युनि": 886,
      "##अनु": 887,
      "##रुद्ध": 888,
      "##सं": 889,
      "##शी": 890,
      "##ञ्ज": 891,
      "##बहादुर": 892,
      "केपी": 893,
      "बाल": 894,
      "##कृ": 895,
      "##णा": 896,
      "भा": 897,
      "बढी": 898,
      "##नुपर्छ": 899,
      "##तृ": 900,
      "सांसद": 901,
      "अब": 902,
      "खा": 903,
      "##िर": 904,
      "पछिल्लो": 905,
      "##एपछि": 906,
      "निर्वा": 907,
      "##ुट": 908,
      "उनको": 909,
      "##टर": 910,
      "##र्क": 911,
      "घट": 912,
      "भएर": 913,
      "##कम": 914,
      "##लेख": 915,
      "प्रभाव": 916,
      "##र्त": 917,
      "##्वास": 918,
      "दिने": 919,
      "आधार": 920,
      "##मारी": 921,
      "##ेरै": 922,
      "कस": 923,
      "खो": 924,
      "पू": 925,
      "सार्व": 926,
      "##सभा": 927,
      "##दी": 928,
      "जी": 929,
      "##णाली": 930,
      "सकिनेछ": 931,
      "##झा": 932,
      "सामाजिक": 933,
      "##त्म": 934,
      "पुगेको": 935,
      "प्रवक्ता": 936,
      "डि": 937,
      "##डान": 938,
      "भेट": 939,
      "##धा": 940,
      "समाज": 941,
      "महिला": 942,
      "##टन": 943,
      "##लुक": 944,
      "जनाको": 945,
      "##मति": 946,
      "ना": 947,
      "मो": 948,
      "नेतृ": 949,
      "नग": 950,
      "अगा": 951,
      "विज्ञ": 952,
      "##स्ताव": 953,
      "कृ": 954,
      "मुलुक": 955,
      "त्यस्तै": 956,
      "##बारे": 957,
      "ची": 958,
      "धेरै": 959,
      "##लगायत": 960,
      "नेपालको": 961,
      "बेला": 962,
      "यु": 963,
      "नियन्त्र": 964,
      "आएका": 965,
      "##अनुसार": 966,
      "##प्रति": 967,
      "##निधि": 968,
      "नेतृत्व": 969,
      "तपा": 970,
      "दो": 971,
      "हुँदै": 972,
      "##अघि": 973,
      "##ाना": 974,
      "थापा": 975,
      "##ंक": 976,
      "वै": 977,
      "##ोली": 978,
      "##र्थिक": 979,
      "व्याप": 980,
      "##्यालय": 981,
      "सरकारको": 982,
      "बैठकमा": 983,
      "पाँच": 984,
      "प्रस्ताव": 985,
      "त्यो": 986,
      "आर्थिक": 987,
      "बिहान": 988,
      "##यी": 989,
      "नियन्त्रण": 990,
      "तत्": 991,
      "प्रेम": 992,
      "##सक्": 993,
      "भइरहेको": 994,
      "##िट": 995,
      "अवस्थामा": 996,
      "विषयमा": 997,
      "पोख": 998,
      "जनता": 999,
      "##ग्रेस": 1000,
      "उल्लेख": 1001,
      "##ेष": 1002,
      "हाम्रो": 1003,
      "भनेर": 1004,
      "सार्वज": 1005,
      "##कर्म": 1006,
      "मुख": 1007,
      "तयारी": 1008,
      "##ारमा": 1009,
      "##ध्ये": 1010,
      "##ठन": 1011,
      "सार्वजनिक": 1012,
      "##ीर": 1013,
      "गौतम": 1014,
      "ध्यान": 1015,
      "अघि": 1016,
      "##सकेको": 1017,
      "##नामा": 1018,
      "बे": 1019,
      "भनि": 1020,
      "निर्वाच": 1021,
      "वडा": 1022,
      "##खिम": 1023,
      "मात्रै": 1024,
      "राजनीतिक": 1025,
      "क्रममा": 1026,
      "##वेद": 1027,
      "खोज": 1028,
      "यात्र": 1029,
      "जोखिम": 1030,
      "नहु": 1031,
      "##नाले": 1032,
      "कां": 1033,
      "मौ": 1034,
      "चार": 1035,
      "##के": 1036,
      "संख्या": 1037,
      "कांग्रेस": 1038,
      "##ेष्ठ": 1039,
      "गर्नुपर्ने": 1040,
      "लेख": 1041,
      "महामारी": 1042,
      "##इन्": 1043,
      "##रको": 1044,
      "##ुल": 1045,
      "##कट": 1046,
      "##दन": 1047,
      "अधिकारी": 1048,
      "पत्र": 1049,
      "अम": 1050,
      "##त्या": 1051,
      "##र्फत": 1052,
      "देखिएको": 1053,
      "##ित्": 1054,
      "##चा": 1055,
      "बन्द": 1056,
      "##िल": 1057,
      "##जग": 1058,
      "व्यवस्थापन": 1059,
      "##शन": 1060,
      "विदेश": 1061,
      "##र्न": 1062,
      "विवाद": 1063,
      "##उँदै": 1064,
      "अप": 1065,
      "सव": 1066,
      "##ूह": 1067,
      "##शत": 1068,
      "##यम": 1069,
      "##रत": 1070,
      "शुरु": 1071,
      "##पनि": 1072,
      "##ड्": 1073,
      "##पन्न": 1074,
      "हे": 1075,
      "##ीले": 1076,
      "##मार": 1077,
      "क्वार": 1078,
      "भएपछि": 1079,
      "##स्तु": 1080,
      "##ासन": 1081,
      "कर्म": 1082,
      "भट्ट": 1083,
      "अगाडि": 1084,
      "एव": 1085,
      "##म्भ": 1086,
      "कम्युनिष्ट": 1087,
      "परिवार": 1088,
      "केन्द्रीय": 1089,
      "##ोधन": 1090,
      "विद्या": 1091,
      "घण्": 1092,
      "ला": 1093,
      "आयोजना": 1094,
      "कान": 1095,
      "दिएका": 1096,
      "सचिवालय": 1097,
      "##द्धि": 1098,
      "ठाउँ": 1099,
      "सामान्य": 1100,
      "##लमा": 1101,
      "##चारी": 1102,
      "मुख्य": 1103,
      "उद": 1104,
      "योग": 1105,
      "कम्प": 1106,
      "गा": 1107,
      "प्रतिशत": 1108,
      "क्वारेन्ट": 1109,
      "ठू": 1110,
      "##भर": 1111,
      "##ारा": 1112,
      "नाम": 1113,
      "##स्ट": 1114,
      "एउ": 1115,
      "##जु": 1116,
      "##लेको": 1117,
      "पठ": 1118,
      "छो": 1119,
      "##आर": 1120,
      "##धी": 1121,
      "##डेल": 1122,
      "##न्ति": 1123,
      "सूचना": 1124,
      "रू": 1125,
      "भएकाले": 1126,
      "अन्तर": 1127,
      "भना": 1128,
      "उच्च": 1129,
      "##ृह": 1130,
      "भि": 1131,
      "##पत्र": 1132,
      "होइन": 1133,
      "उपत्य": 1134,
      "प्राप्त": 1135,
      "##तमा": 1136,
      "संघ": 1137,
      "अस्पतालमा": 1138,
      "श्रेष्ठ": 1139,
      "राष्ट्रपति": 1140,
      "घण्टा": 1141,
      "हुँदा": 1142,
      "फै": 1143,
      "निका": 1144,
      "##गम": 1145,
      "सम्भाव": 1146,
      "पौ": 1147,
      "गो": 1148,
      "##िटी": 1149,
      "##वी": 1150,
      "##्यू": 1151,
      "##विधि": 1152,
      "##साद": 1153,
      "##युक्त": 1154,
      "##ेरि": 1155,
      "नी": 1156,
      "पर्य": 1157,
      "##वादी": 1158,
      "बाट": 1159,
      "उपत्यका": 1160,
      "##गरी": 1161,
      "विभाग": 1162,
      "##पु": 1163,
      "विशेष": 1164,
      "##र्ट": 1165,
      "चाह": 1166,
      "##राई": 1167,
      "जाने": 1168,
      "उडान": 1169,
      "##क्रिया": 1170,
      "##सोले": 1171,
      "कर्मचारी": 1172,
      "##तर्फ": 1173,
      "##ध्या": 1174,
      "##र्ने": 1175,
      "##त्ता": 1176,
      "बढ्": 1177,
      "स्थानमा": 1178,
      "दाह": 1179,
      "##दाय": 1180,
      "परेको": 1181,
      "उहाँ": 1182,
      "##दू": 1183,
      "##दछ": 1184,
      "व्यवसाय": 1185,
      "शा": 1186,
      "##्रोत": 1187,
      "##ृद्धि": 1188,
      "सर्व": 1189,
      "##पक्ष": 1190,
      "संस्था": 1191,
      "सवारी": 1192,
      "प्रतिनिधि": 1193,
      "मन्त्रालयले": 1194,
      "लगानी": 1195,
      "लगा": 1196,
      "##कड": 1197,
      "उपल": 1198,
      "पद": 1199,
      "सम्झ": 1200,
      "##ाको": 1201,
      "समूह": 1202,
      "कम्पनी": 1203,
      "अनि": 1204,
      "पी": 1205,
      "विद्यालय": 1206,
      "वर्षीय": 1207,
      "योजना": 1208,
      "अद": 1209,
      "पर्ने": 1210,
      "##माथि": 1211,
      "माया": 1212,
      "जानेछ": 1213,
      "आरो": 1214,
      "कमिटी": 1215,
      "पहिलो": 1216,
      "##यात": 1217,
      "##वरण": 1218,
      "##सन": 1219,
      "समयमा": 1220,
      "आइसोले": 1221,
      "##वेश": 1222,
      "कार्या": 1223,
      "##षद्": 1224,
      "राज्य": 1225,
      "कर्": 1226,
      "##्छ": 1227,
      "##शु": 1228,
      "अरु": 1229,
      "दाहाल": 1230,
      "##र्ड": 1231,
      "लकड": 1232,
      "एवं": 1233,
      "##श्चिम": 1234,
      "बजे": 1235,
      "अवस": 1236,
      "आउने": 1237,
      "##व्य": 1238,
      "जनामा": 1239,
      "भयो": 1240,
      "##नुभ": 1241,
      "ता": 1242,
      "बैठकले": 1243,
      "स्थायी": 1244,
      "सभा": 1245,
      "पौडेल": 1246,
      "व्यावसाय": 1247,
      "##िभ": 1248,
      "##ीका": 1249,
      "ग्र": 1250,
      "##फा": 1251,
      "##त्ति": 1252,
      "रोक": 1253,
      "सङ्घ": 1254,
      "##दैन": 1255,
      "दश": 1256,
      "##ोष": 1257,
      "अर्थ": 1258,
      "आयोग": 1259,
      "यहाँ": 1260,
      "##से": 1261,
      "लोक": 1262,
      "कार्यान्व": 1263,
      "##ेन्द्र": 1264,
      "दुवै": 1265,
      "जोड": 1266,
      "महिना": 1267,
      "##ारे": 1268,
      "##मिक": 1269,
      "मूल": 1270,
      "##ष्ट्रिय": 1271,
      "निर्देशन": 1272,
      "तत्काल": 1273,
      "ति": 1274,
      "##कुमार": 1275,
      "सुरु": 1276,
      "अदाल": 1277,
      "##मध्ये": 1278,
      "साथै": 1279,
      "संर": 1280,
      "बनाउन": 1281,
      "##त्मक": 1282,
      "व्यापार": 1283,
      "सीमा": 1284,
      "##्वर": 1285,
      "रहेकोछ": 1286,
      "आग": 1287,
      "उत्पा": 1288,
      "कृष": 1289,
      "नं": 1290,
      "##रुष": 1291,
      "नभएको": 1292,
      "अझ": 1293,
      "##ुदाय": 1294,
      "तपाई": 1295,
      "##यर": 1296,
      "गरा": 1297,
      "गृह": 1298,
      "सक्ने": 1299,
      "पुरुष": 1300,
      "एउटा": 1301,
      "##हार": 1302,
      "##शाख": 1303,
      "##प्रसाद": 1304,
      "अध्ययन": 1305,
      "उपलब्": 1306,
      "##सु": 1307,
      "##ग्री": 1308,
      "##ष्ण": 1309,
      "लाम": 1310,
      "##तामा": 1311,
      "पहिरो": 1312,
      "##क्षक": 1313,
      "रूपमा": 1314,
      "न्या": 1315,
      "घटना": 1316,
      "त्र": 1317,
      "##पद": 1318,
      "पुनः": 1319,
      "सम्भावना": 1320,
      "बस्ने": 1321,
      "किन": 1322,
      "##्योग": 1323,
      "बने": 1324,
      "बाहि": 1325,
      "##कर्मी": 1326,
      "##मित": 1327,
      "वटा": 1328,
      "##न्दो": 1329,
      "कति": 1330,
      "महान": 1331,
      "##बु": 1332,
      "हुनु": 1333,
      "अन": 1334,
      "##हरुमा": 1335,
      "छा": 1336,
      "##बन्द": 1337,
      "भनाइ": 1338,
      "छु": 1339,
      "##ैनिक": 1340,
      "##र्ज": 1341,
      "##रोड": 1342,
      "##मती": 1343,
      "##तिमा": 1344,
      "सहमति": 1345,
      "विद्यु": 1346,
      "फर्": 1347,
      "शिक्षा": 1348,
      "ठूलो": 1349,
      "रे": 1350,
      "##सले": 1351,
      "##ामी": 1352,
      "चौ": 1353,
      "बजार": 1354,
      "बुध": 1355,
      "तयार": 1356,
      "स्रोत": 1357,
      "चु": 1358,
      "खर्च": 1359,
      "सहभाग": 1360,
      "भाइरसको": 1361,
      "चीन": 1362,
      "##केको": 1363,
      "दू": 1364,
      "फि": 1365,
      "गरिने": 1366,
      "स्प": 1367,
      "सक्छ": 1368,
      "सोम": 1369,
      "करोड": 1370,
      "भी": 1371,
      "##देव": 1372,
      "जिम्म": 1373,
      "##विरुद्ध": 1374,
      "घण्टामा": 1375,
      "जु": 1376,
      "##खा": 1377,
      "हालसम्म": 1378,
      "यस्तै": 1379,
      "सम्झौ": 1380,
      "##कर्ष": 1381,
      "पाइ": 1382,
      "जनताको": 1383,
      "मन्त्रिप": 1384,
      "##वेदन": 1385,
      "मन्त्रिपरि": 1386,
      "दे": 1387,
      "##पर": 1388,
      "रोजग": 1389,
      "भो": 1390,
      "##यक": 1391,
      "उपा": 1392,
      "गएको": 1393,
      "##ताका": 1394,
      "##ेपछि": 1395,
      "बुझ": 1396,
      "आधारमा": 1397,
      "छौँ": 1398,
      "सम्पन्न": 1399,
      "मैले": 1400,
      "ले": 1401,
      "विद्यार्थ": 1402,
      "##वल": 1403,
      "सकिने": 1404,
      "मन्त्रालयका": 1405,
      "##तरण": 1406,
      "उद्योग": 1407,
      "पढ": 1408,
      "##दल": 1409,
      "नीति": 1410,
      "जे": 1411,
      "##ायण": 1412,
      "मानिस": 1413,
      "##ंश": 1414,
      "परेका": 1415,
      "आन्दो": 1416,
      "सन्": 1417,
      "नहुने": 1418,
      "टोली": 1419,
      "यही": 1420,
      "शुक्र": 1421,
      "उठ": 1422,
      "##ध्यम": 1423,
      "समाधान": 1424,
      "सोमबार": 1425,
      "##हत": 1426,
      "##ध्यक्ष": 1427,
      "##ारायण": 1428,
      "निर": 1429,
      "विश्वास": 1430,
      "##िएका": 1431,
      "##स्क": 1432,
      "सी": 1433,
      "##िङ": 1434,
      "##सम्": 1435,
      "##म्बर": 1436,
      "सफल": 1437,
      "##रेल": 1438,
      "ज्ञ": 1439,
      "आरोप": 1440,
      "##ल्ने": 1441,
      "भन्दा": 1442,
      "यी": 1443,
      "##तबार": 1444,
      "मौसम": 1445,
      "कृषि": 1446,
      "पटक": 1447,
      "जिल्लामा": 1448,
      "व्यक्त": 1449,
      "यसअघि": 1450,
      "लगायत": 1451,
      "##ढी": 1452,
      "रोग": 1453,
      "भारतीय": 1454,
      "##क्रिय": 1455,
      "प्रेममा": 1456,
      "यस्तो": 1457,
      "पुष्": 1458,
      "छौं": 1459,
      "रुप": 1460,
      "##न्धान": 1461,
      "बद": 1462,
      "##कमा": 1463,
      "पूर्ण": 1464,
      "##ानु": 1465,
      "बनाउने": 1466,
      "महत्व": 1467,
      "नद": 1468,
      "##ेड": 1469,
      "##ालिका": 1470,
      "भट्टराई": 1471,
      "सङ्ख्या": 1472,
      "प्रहरीले": 1473,
      "भौ": 1474,
      "पानी": 1475,
      "##काली": 1476,
      "बुधबार": 1477,
      "##समा": 1478,
      "##वासी": 1479,
      "प्रश्न": 1480,
      "बिराम": 1481,
      "अधिकार": 1482,
      "पिस": 1483,
      "विघ": 1484,
      "##ल्प": 1485,
      "अर्को": 1486,
      "भनेका": 1487,
      "लामो": 1488,
      "प्रणाली": 1489,
      "प्रक्रिया": 1490,
      "सुझा": 1491,
      "सरकारी": 1492,
      "जीवन": 1493,
      "लकडाउन": 1494,
      "हुनाले": 1495,
      "आश": 1496,
      "##ालले": 1497,
      "बसेको": 1498,
      "##सक्ने": 1499,
      "स्पष्ट": 1500,
      "सम्म": 1501,
      "परीक्षा": 1502,
      "भई": 1503,
      "##ाले": 1504,
      "आइतबार": 1505,
      "पुष्प": 1506,
      "पोखरेल": 1507,
      "बी": 1508,
      "##ण्डकी": 1509,
      "##ंह": 1510,
      "वितरण": 1511,
      "##ाइएको": 1512,
      "अनुस": 1513,
      "बिही": 1514,
      "कै": 1515,
      "लागेको": 1516,
      "##दर्": 1517,
      "##धानिक": 1518,
      "##लित": 1519,
      "बाँकी": 1520,
      "बैंक": 1521,
      "##कृति": 1522,
      "निकाय": 1523,
      "कायम": 1524,
      "प्रशासन": 1525,
      "गति": 1526,
      "रकम": 1527,
      "सन्द": 1528,
      "न्यू": 1529,
      "पूरा": 1530,
      "एकता": 1531,
      "शनि": 1532,
      "निर्वाचन": 1533,
      "अदालत": 1534,
      "शुक्रबार": 1535,
      "अधिक": 1536,
      "सम्ब": 1537,
      "संक्रमितको": 1538,
      "भण्ड": 1539,
      "बिहीबार": 1540,
      "श्रम": 1541,
      "गरिरहेको": 1542,
      "##मु": 1543,
      "बोला": 1544,
      "बहु": 1545,
      "##लबार": 1546,
      "##तिर": 1547,
      "उपलब्ध": 1548,
      "##मत": 1549,
      "प्रया": 1550,
      "##चाल": 1551,
      "##न्स": 1552,
      "अनुसन्धान": 1553,
      "घोष": 1554,
      "##कलन": 1555,
      "कार्यान्वयन": 1556,
      "सहज": 1557,
      "सेना": 1558,
      "##लको": 1559,
      "कर्णाली": 1560,
      "भ्रम": 1561,
      "##ैँ": 1562,
      "थापाले": 1563,
      "##रान": 1564,
      "प्रत्य": 1565,
      "सुझाव": 1566,
      "##क्षित": 1567,
      "##ारु": 1568,
      "सक्रिय": 1569,
      "बालुवा": 1570,
      "##कोटा": 1571,
      "किस": 1572,
      "##स्थिति": 1573,
      "स्थापना": 1574,
      "##ेवारी": 1575,
      "##रुप": 1576,
      "विरोध": 1577,
      "आगामी": 1578,
      "##योज": 1579,
      "समन्व": 1580,
      "अर्का": 1581,
      "कानू": 1582,
      "युवा": 1583,
      "भित्र": 1584,
      "उत्पादन": 1585,
      "वरि": 1586,
      "सरकारलाई": 1587,
      "भक्त": 1588,
      "पार्टीको": 1589,
      "आउ": 1590,
      "##पानी": 1591,
      "##न्तर": 1592,
      "##कमल": 1593,
      "बढेको": 1594,
      "नेकपाका": 1595,
      "अन्तर्रा": 1596,
      "सम्बन्धित": 1597,
      "विक": 1598,
      "पत्रकार": 1599,
      "##पदण्ड": 1600,
      "##यान": 1601,
      "सात": 1602,
      "##हरूको": 1603,
      "जिम्मेवारी": 1604,
      "सम्झौता": 1605,
      "मुद्": 1606,
      "पुष्पकमल": 1607,
      "लिन": 1608,
      "##तालाई": 1609,
      "याता": 1610,
      "##जि": 1611,
      "बाटो": 1612,
      "साल": 1613,
      "##ीलाई": 1614,
      "मापदण्ड": 1615,
      "पक्र": 1616,
      "प्रवेश": 1617,
      "राम्रो": 1618,
      "##भव": 1619,
      "##ैं": 1620,
      "चाल": 1621,
      "रि": 1622,
      "##काश": 1623,
      "ठाउँमा": 1624,
      "##पटक": 1625,
      "प्रदेशका": 1626,
      "शनिबार": 1627,
      "##सचिव": 1628,
      "रहने": 1629,
      "घोषणा": 1630,
      "##होला": 1631,
      "सत्त": 1632,
      "मानव": 1633,
      "##स्त्र": 1634,
      "अपना": 1635,
      "प्रचण्डले": 1636,
      "पक्षमा": 1637,
      "लिएर": 1638,
      "भौतिक": 1639,
      "समन्वय": 1640,
      "पक्राउ": 1641,
      "##धु": 1642,
      "##लेर": 1643,
      "विस्त": 1644,
      "समुदाय": 1645,
      "##िकित्": 1646,
      "यसै": 1647,
      "दैनिक": 1648,
      "##ङ्क": 1649,
      "बालुवाट": 1650,
      "##मिका": 1651,
      "मन्त्रिपरिषद्": 1652,
      "##ौला": 1653,
      "##नाथ": 1654,
      "##ग्गा": 1655,
      "##बन्धी": 1656,
      "बजेट": 1657,
      "##म्भीर": 1658,
      "दी": 1659,
      "भण्डारी": 1660,
      "चिकित्": 1661,
      "##वर्त": 1662,
      "##टमा": 1663,
      "महाशाख": 1664,
      "गम्भीर": 1665,
      "##बद्ध": 1666,
      "##चित": 1667,
      "आन्त": 1668,
      "एम": 1669,
      "##ोर्ट": 1670,
      "निको": 1671,
      "संश": 1672,
      "##वैधानिक": 1673,
      "अध्या": 1674,
      "जग्गा": 1675,
      "ट्र": 1676,
      "##दानी": 1677,
      "विज्ञप्": 1678,
      "मुद्दा": 1679,
      "यातायात": 1680,
      "गण्डकी": 1681,
      "##तिहा": 1682,
      "विधि": 1683,
      "पुगेका": 1684,
      "भर्": 1685,
      "राहत": 1686,
      "उनका": 1687,
      "गौतमले": 1688,
      "आन्तरिक": 1689,
      "कार्यक्रममा": 1690,
      "धन": 1691,
      "बढ्ने": 1692,
      "भ्र": 1693,
      "नेपालले": 1694,
      "त्यसको": 1695,
      "टे": 1696,
      "मंग": 1697,
      "शक्ति": 1698,
      "भनेको": 1699,
      "##मी": 1700,
      "##ल्क": 1701,
      "फर्कि": 1702,
      "##हल": 1703,
      "राति": 1704,
      "बाहिर": 1705,
      "##ाएको": 1706,
      "##गमन": 1707,
      "##सम्बन्धी": 1708,
      "स्वी": 1709,
      "जल": 1710,
      "फिर्ता": 1711,
      "भद": 1712,
      "##नाव": 1713,
      "सुधार": 1714,
      "##ते": 1715,
      "##सको": 1716,
      "##थाम": 1717,
      "अझै": 1718,
      "##कालीन": 1719,
      "##न्ने": 1720,
      "निजी": 1721,
      "##हरूले": 1722,
      "करि": 1723,
      "##दो": 1724,
      "##राष्ट्र": 1725,
      "आउन": 1726,
      "गण": 1727,
      "क्षति": 1728,
      "प्रतिनिधिसभा": 1729,
      "सहभागी": 1730,
      "सच": 1731,
      "##ाचार": 1732,
      "रोकथाम": 1733,
      "##टो": 1734,
      "अन्तर्राष्ट्रिय": 1735,
      "नारायण": 1736,
      "दुर्": 1737,
      "मेरो": 1738,
      "##पण": 1739,
      "विगत": 1740,
      "##ेरिका": 1741,
      "उद्ध": 1742,
      "निरन्तर": 1743,
      "चला": 1744,
      "यात्रु": 1745,
      "##ेश्वर": 1746,
      "अमेरिका": 1747,
      "उपचारका": 1748,
      "प्रदेशमा": 1749,
      "पेश": 1750,
      "बाग": 1751,
      "गुरु": 1752,
      "मुख्यमन्त्री": 1753,
      "पाल": 1754,
      "साँ": 1755,
      "भाग": 1756,
      "##कर्ता": 1757,
      "सोही": 1758,
      "उद्": 1759,
      "##र्गत": 1760,
      "बारे": 1761,
      "##कको": 1762,
      "सिफ": 1763,
      "दाय": 1764,
      "क्षम": 1765,
      "वाता": 1766,
      "##जो": 1767,
      "##ेकी": 1768,
      "दिनु": 1769,
      "श्रेष्ठले": 1770,
      "गर्दछ": 1771,
      "क्वारेन्टाइ": 1772,
      "आदेश": 1773,
      "प्रदान": 1774,
      "यसको": 1775,
      "भूमिका": 1776,
      "वरिष्ठ": 1777,
      "##पश्चिम": 1778,
      "विघटन": 1779,
      "##संग": 1780,
      "सामग्री": 1781,
      "अभियान": 1782,
      "व्यव": 1783,
      "परिवर्त": 1784,
      "गरेपछि": 1785,
      "नियमित": 1786,
      "##्ना": 1787,
      "प्रतिष्ठ": 1788,
      "प्रयास": 1789,
      "पै": 1790,
      "धा": 1791,
      "##¥या": 1792,
      "गर्छ": 1793,
      "त्यहाँ": 1794,
      "##पुरमा": 1795,
      "अवधि": 1796,
      "गरिस": 1797,
      "जनसं": 1798,
      "##धिकरण": 1799,
      "डो": 1800,
      "##च्छ": 1801,
      "चिनि": 1802,
      "प्रविधि": 1803,
      "##योजक": 1804,
      "##िआर": 1805,
      "वर्षा": 1806,
      "##वाही": 1807,
      "##शील": 1808,
      "वातावरण": 1809,
      "जनसंख्या": 1810,
      "पाउने": 1811,
      "##तिय": 1812,
      "##धारण": 1813,
      "आन्दोलन": 1814,
      "आम्": 1815,
      "सिर्": 1816,
      "खे": 1817,
      "##ाइमा": 1818,
      "##न्ड": 1819,
      "##म्मा": 1820,
      "आफन्त": 1821,
      "प्राधिकरण": 1822,
      "रोजगारी": 1823,
      "##पत्ति": 1824,
      "चे": 1825,
      "रिप": 1826,
      "थाले": 1827,
      "##वाफ": 1828,
      "##विद": 1829,
      "खुला": 1830,
      "भदौ": 1831,
      "खरि": 1832,
      "हर": 1833,
      "##ारुढ": 1834,
      "आम्दानी": 1835,
      "पार्टीका": 1836,
      "न्याय": 1837,
      "सिफार": 1838,
      "लो": 1839,
      "##गो": 1840,
      "सत्तारुढ": 1841,
      "नति": 1842,
      "शव": 1843,
      "##मार्फत": 1844,
      "कसरी": 1845,
      "ललित": 1846,
      "प्रेस": 1847,
      "सिंह": 1848,
      "देउ": 1849,
      "भ्रष्ट": 1850,
      "लक्ष": 1851,
      "##ल्न": 1852,
      "गरिरहेका": 1853,
      "आफ्नै": 1854,
      "जस्तो": 1855,
      "जवाफ": 1856,
      "##सङ्": 1857,
      "कोइ": 1858,
      "##ेटिभ": 1859,
      "देशभर": 1860,
      "सञ्चार": 1861,
      "भूभाग": 1862,
      "बारेमा": 1863,
      "सिर्जना": 1864,
      "##दम": 1865,
      "राख्": 1866,
      "##िने": 1867,
      "##भू": 1868,
      "केसी": 1869,
      "सबैभन्दा": 1870,
      "सभापति": 1871,
      "बीच": 1872,
      "ऐन": 1873,
      "देव": 1874,
      "##ेन": 1875,
      "##ल्या": 1876,
      "प्रधानमन्त्रीले": 1877,
      "दर्ता": 1878,
      "साधन": 1879,
      "चिकित्सक": 1880,
      "क्र": 1881,
      "##र्जन": 1882,
      "नजिक": 1883,
      "मध्य": 1884,
      "संशोधन": 1885,
      "##टै": 1886,
      "विमान": 1887,
      "##वत": 1888,
      "##ङले": 1889,
      "स्थग": 1890,
      "श्री": 1891,
      "##बाही": 1892,
      "पर्यटन": 1893,
      "पिसिआर": 1894,
      "विस्तार": 1895,
      "रिपोर्ट": 1896,
      "नतिजा": 1897,
      "अवि": 1898,
      "तो": 1899,
      "तथ": 1900,
      "मन्द": 1901,
      "भ्रमण": 1902,
      "मना": 1903,
      "##ँड": 1904,
      "##िकल": 1905,
      "विद्युत": 1906,
      "बदली": 1907,
      "जुन": 1908,
      "पशु": 1909,
      "कोइर": 1910,
      "ल्याउन": 1911,
      "मंगलबार": 1912,
      "औष": 1913,
      "भु": 1914,
      "शै": 1915,
      "आत्म": 1916,
      "हट": 1917,
      "##घाट": 1918,
      "अहिलेसम्म": 1919,
      "##मो": 1920,
      "##श्वास": 1921,
      "##र्ई": 1922,
      "टा": 1923,
      "दर": 1924,
      "##स्थल": 1925,
      "हात": 1926,
      "##बर": 1927,
      "##षे": 1928,
      "##काम": 1929,
      "मूल्य": 1930,
      "##सिक": 1931,
      "आफ्ना": 1932,
      "भनिएको": 1933,
      "उद्धार": 1934,
      "भे": 1935,
      "गठन": 1936,
      "##कृत": 1937,
      "##शाला": 1938,
      "पु¥या": 1939,
      "##ज्ञा": 1940,
      "उपत्यकामा": 1941,
      "लु": 1942,
      "सञ्ज": 1943,
      "##गठन": 1944,
      "सम्पूर्ण": 1945,
      "##नेछन्": 1946,
      "काममा": 1947,
      "##स्रो": 1948,
      "राजी": 1949,
      "खरिद": 1950,
      "निषे": 1951,
      "संवैधानिक": 1952,
      "##पय": 1953,
      "##कार्य": 1954,
      "स्वाब": 1955,
      "##दूर": 1956,
      "सम्बोधन": 1957,
      "परिवर्तन": 1958,
      "नम्बर": 1959,
      "##ोट": 1960,
      "##द्धा": 1961,
      "राख्ने": 1962,
      "पर्यटक": 1963,
      "ओलीको": 1964,
      "##बन्दी": 1965,
      "पढाइ": 1966,
      "##धव": 1967,
      "तपाईं": 1968,
      "कतिपय": 1969,
      "सश": 1970,
      "##मोज": 1971,
      "संयोजक": 1972,
      "##न्तु": 1973,
      "युव": 1974,
      "हस्ता": 1975,
      "##धानी": 1976,
      "##मोजिम": 1977,
      "दोस्रो": 1978,
      "##बि": 1979,
      "निवास": 1980,
      "सञ्चालनमा": 1981,
      "##उनु": 1982,
      "##गरपालिका": 1983,
      "जाग": 1984,
      "आजको": 1985,
      "पूर्वा": 1986,
      "भइसकेको": 1987,
      "महत्वपूर्ण": 1988,
      "मलाई": 1989,
      "##लामा": 1990,
      "##रीक्षक": 1991,
      "खन": 1992,
      "अन्त्य": 1993,
      "चित": 1994,
      "##कोट": 1995,
      "##ारो": 1996,
      "सिफारिस": 1997,
      "##्री": 1998,
      "काल": 1999,
      "लै": 2000,
      "खट": 2001,
      "##वेशन": 2002,
      "फर्क": 2003,
      "##निर्": 2004,
      "##र्जा": 2005,
      "टो": 2006,
      "##मार्ग": 2007,
      "नेपालका": 2008,
      "##दार": 2009,
      "घाइ": 2010,
      "##मल": 2011,
      "##वाह": 2012,
      "प्रस्तु": 2013,
      "गराउने": 2014,
      "देशको": 2015,
      "##पक्षी": 2016,
      "अल": 2017,
      "कदम": 2018,
      "##रात्मक": 2019,
      "हुँदैन": 2020,
      "होट": 2021,
      "अवसरमा": 2022,
      "संरक्षण": 2023,
      "फो": 2024,
      "##छा": 2025,
      "कोष": 2026,
      "##न्तरण": 2027,
      "राख्न": 2028,
      "अत्या": 2029,
      "चरण": 2030,
      "ढकाल": 2031,
      "##खु": 2032,
      "##हरूलाई": 2033,
      "नदि": 2034,
      "सोच": 2035,
      "##सनमा": 2036,
      "##णि": 2037,
      "मेड": 2038,
      "निर्देशक": 2039,
      "डे": 2040,
      "नक्": 2041,
      "अभाव": 2042,
      "चै": 2043,
      "सर्": 2044,
      "##हर": 2045,
      "##ित्व": 2046,
      "सर्वो": 2047,
      "आम": 2048,
      "धार": 2049,
      "कोरोनाको": 2050,
      "बढ्न": 2051,
      "विद्यार्थी": 2052,
      "##रुपमा": 2053,
      "##एन": 2054,
      "संयुक्त": 2055,
      "प्रतिवेदन": 2056,
      "##ल्लाह": 2057,
      "समितिको": 2058,
      "सम्बन्धमा": 2059,
      "प्रभावित": 2060,
      "##नुभयो": 2061,
      "भर्ना": 2062,
      "राजीनामा": 2063,
      "##तिव": 2064,
      "भूमि": 2065,
      "बन्दा": 2066,
      "सभ": 2067,
      "##ीया": 2068,
      "##धे": 2069,
      "##्र्": 2070,
      "कारबाही": 2071,
      "अख": 2072,
      "##जस्तो": 2073,
      "उनलाई": 2074,
      "गरेकी": 2075,
      "##पूर्व": 2076,
      "अवसर": 2077,
      "कोइराला": 2078,
      "##थ्यो": 2079,
      "##शा": 2080,
      "भारतले": 2081,
      "प्रभावकारी": 2082,
      "अति": 2083,
      "##कारात्मक": 2084,
      "मिला": 2085,
      "साँझ": 2086,
      "बताउँदै": 2087,
      "नाका": 2088,
      "करिब": 2089,
      "एयर": 2090,
      "कमा": 2091,
      "##ौती": 2092,
      "##याधी": 2093,
      "अनुरोध": 2094,
      "##्वी": 2095,
      "न्यून": 2096,
      "थाल": 2097,
      "साउन": 2098,
      "रोक्": 2099,
      "##लगायतका": 2100,
      "भट्टराईले": 2101,
      "##पि": 2102,
      "त्यही": 2103,
      "डु": 2104,
      "##सिय": 2105,
      "दिँदै": 2106,
      "सकिन्छ": 2107,
      "##श्चित": 2108,
      "आई": 2109,
      "किसान": 2110,
      "ढु": 2111,
      "लिएको": 2112,
      "##ेले": 2113,
      "कार्": 2114,
      "दिनमा": 2115,
      "##देशिक": 2116,
      "##चालन": 2117,
      "हरेक": 2118,
      "भ्रष्टाचार": 2119,
      "गर्नुपर्छ": 2120,
      "साप": 2121,
      "बनेको": 2122,
      "कानून": 2123,
      "##तियार": 2124,
      "##ीकरण": 2125,
      "##र्ण": 2126,
      "कार्यकारी": 2127,
      "राखेर": 2128,
      "सञ्जाल": 2129,
      "पदा": 2130,
      "##एकाले": 2131,
      "सुन": 2132,
      "मनो": 2133,
      "##बल": 2134,
      "##रीय": 2135,
      "अधिकृत": 2136,
      "##यु": 2137,
      "माधव": 2138,
      "अस्पतालका": 2139,
      "संघीय": 2140,
      "##ाउँदै": 2141,
      "##द्य": 2142,
      "दिउँ": 2143,
      "कारवाही": 2144,
      "खाने": 2145,
      "सचेत": 2146,
      "##ाग्": 2147,
      "वर्षको": 2148,
      "स्थिति": 2149,
      "देशका": 2150,
      "##न्छु": 2151,
      "क्या": 2152,
      "##न्टर": 2153,
      "विचार": 2154,
      "पौडेलले": 2155,
      "बह": 2156,
      "बच": 2157,
      "##ामुख": 2158,
      "प्रधानमन्त्रीको": 2159,
      "दृ": 2160,
      "##नेट": 2161,
      "घरमा": 2162,
      "हुनुपर्ने": 2163,
      "सुदूर": 2164,
      "याद": 2165,
      "चिनियाँ": 2166,
      "खतिव": 2167,
      "पहिले": 2168,
      "सल्लाह": 2169,
      "##स्व": 2170,
      "संकट": 2171,
      "समितिले": 2172,
      "मेडिकल": 2173,
      "##सद्": 2174,
      "सुरक्षित": 2175,
      "राजनीति": 2176,
      "अध्यादेश": 2177,
      "घाइते": 2178,
      "##याधीश": 2179,
      "त्यसै": 2180,
      "आइसोलेसनमा": 2181,
      "बाह": 2182,
      "पूर्वाधार": 2183,
      "प्रकाश": 2184,
      "##द्वार": 2185,
      "गि": 2186,
      "फर": 2187,
      "राजदू": 2188,
      "दिउँसो": 2189,
      "मत": 2190,
      "सम्मान": 2191,
      "वर्षीया": 2192,
      "क्षेत्रका": 2193,
      "वार्ता": 2194,
      "नाममा": 2195,
      "की": 2196,
      "त्यसैले": 2197,
      "लिने": 2198,
      "##सकेका": 2199,
      "स्वदेश": 2200,
      "आठ": 2201,
      "ज्यान": 2202,
      "##दिन": 2203,
      "सर्वोच्च": 2204,
      "असार": 2205,
      "दक्ष": 2206,
      "रास": 2207,
      "जस": 2208,
      "गराउन": 2209,
      "लाग्": 2210,
      "अनुगमन": 2211,
      "##सँगको": 2212,
      "दाबी": 2213,
      "आमा": 2214,
      "बेल": 2215,
      "##बाह": 2216,
      "##भो": 2217,
      "##िकी": 2218,
      "रहे": 2219,
      "कार्यालयले": 2220,
      "विज्ञान": 2221,
      "तुल": 2222,
      "सङ्कलन": 2223,
      "स्वतन्त्र": 2224,
      "##चार्ज": 2225,
      "बिक": 2226,
      "संस्": 2227,
      "छैनन्": 2228,
      "प्रस्तुत": 2229,
      "प्या": 2230,
      "प्रमाण": 2231,
      "##सीसी": 2232,
      "बनाएको": 2233,
      "थालेको": 2234,
      "अमेर": 2235,
      "फैल": 2236,
      "##विक": 2237,
      "##ज्": 2238,
      "##केका": 2239,
      "##र्द": 2240,
      "माथि": 2241,
      "क्षेत्रको": 2242,
      "गै": 2243,
      "तर्फ": 2244,
      "##र्भ": 2245,
      "रहनेछ": 2246,
      "काठमाण्डुमा": 2247,
      "उपाध्यक्ष": 2248,
      "प्रयोगशाला": 2249,
      "सुदूरपश्चिम": 2250,
      "पश्चिम": 2251,
      "देशमा": 2252,
      "आवश्यकता": 2253,
      "तोक": 2254,
      "नौ": 2255,
      "##डित": 2256,
      "संसद्": 2257,
      "माध्यम": 2258,
      "प्रतिष्ठान": 2259,
      "##ाई": 2260,
      "##ारि": 2261,
      "विरुद्ध": 2262,
      "प्राथ": 2263,
      "पोज": 2264,
      "##वर": 2265,
      "##दर": 2266,
      "विवरण": 2267,
      "दिइ": 2268,
      "##पर्ने": 2269,
      "##पित": 2270,
      "##ची": 2271,
      "##घट": 2272,
      "##क्स": 2273,
      "पुर्या": 2274,
      "सरकारका": 2275,
      "सङ्क्रमितको": 2276,
      "टु": 2277,
      "महाधि": 2278,
      "प्राथमिक": 2279,
      "##वश्यक": 2280,
      "##रीको": 2281,
      "##न्त्रिक": 2282,
      "अनुमति": 2283,
      "स्वास्थ्यकर्मी": 2284,
      "नव": 2285,
      "सम्पर्": 2286,
      "असोज": 2287,
      "तपार्ई": 2288,
      "एस": 2289,
      "नो": 2290,
      "यति": 2291,
      "##वाली": 2292,
      "##नका": 2293,
      "होम": 2294,
      "स्थगित": 2295,
      "तपार्ईँ": 2296,
      "##स्तरीय": 2297,
      "बताइएको": 2298,
      "थिएन": 2299,
      "शुभ": 2300,
      "ल्याउने": 2301,
      "##कृतिक": 2302,
      "रुपै": 2303,
      "यादव": 2304,
      "खेल": 2305,
      "##हुन्छ": 2306,
      "##उँछन्": 2307,
      "लेखाइमा": 2308,
      "चुन": 2309,
      "##गञ्ज": 2310,
      "बढेर": 2311,
      "##न्या": 2312,
      "##तान्त्रिक": 2313,
      "परराष्ट्र": 2314,
      "एमसीसी": 2315,
      "सत": 2316,
      "##र्स": 2317,
      "##माल": 2318,
      "मान्छ": 2319,
      "##ष्णु": 2320,
      "जनाइएको": 2321,
      "##स्पर्": 2322,
      "नियुक्त": 2323,
      "देखिन्छ": 2324,
      "पोखरेलले": 2325,
      "सशस्त्र": 2326,
      "ईश": 2327,
      "पस": 2328,
      "##्यता": 2329,
      "माओ": 2330,
      "कम्युनिस्ट": 2331,
      "शान्ति": 2332,
      "ज्ञवाली": 2333,
      "बिरामी": 2334,
      "##ाका": 2335,
      "निम्": 2336,
      "समितिका": 2337,
      "क्षमता": 2338,
      "निषेधा": 2339,
      "वीर": 2340,
      "##जर": 2341,
      "##जित": 2342,
      "परिस्थिति": 2343,
      "##कोटाले": 2344,
      "चो": 2345,
      "पोखरा": 2346,
      "संरचना": 2347,
      "मन्दिर": 2348,
      "##लेज": 2349,
      "प्रजा": 2350,
      "त्यसलाई": 2351,
      "नेकपाको": 2352,
      "##ीत": 2353,
      "पार्टीभित्र": 2354,
      "अमेरिकी": 2355,
      "विप": 2356,
      "##ाउनु": 2357,
      "बाढी": 2358,
      "##टाएर": 2359,
      "संसदीय": 2360,
      "बहुमत": 2361,
      "अफ": 2362,
      "निष्": 2363,
      "लागू": 2364,
      "##विधा": 2365,
      "##लग्न": 2366,
      "##धेयक": 2367,
      "रमा": 2368,
      "लड": 2369,
      "कार्यरत": 2370,
      "लाग्ने": 2371,
      "झा": 2372,
      "सूर्": 2373,
      "##हरुका": 2374,
      "प्रतिस्पर्": 2375,
      "बाध्य": 2376,
      "अस्पतालको": 2377,
      "खतिवडा": 2378,
      "अग्र": 2379,
      "रक्षा": 2380,
      "##तर": 2381,
      "प्रदर्": 2382,
      "निकै": 2383,
      "राई": 2384,
      "##सेवा": 2385,
      "अत्यावश्यक": 2386,
      "दिइएको": 2387,
      "##िता": 2388,
      "कू": 2389,
      "कलेज": 2390,
      "फुट": 2391,
      "होला": 2392,
      "बढि": 2393,
      "बालुवाटारमा": 2394,
      "औषधि": 2395,
      "गल": 2396,
      "छुट": 2397,
      "सहा": 2398,
      "हत्या": 2399,
      "##द्या": 2400,
      "जिल्लाका": 2401,
      "मज": 2402,
      "यसले": 2403,
      "गतेदेखि": 2404,
      "देउवा": 2405,
      "सके": 2406,
      "विधेयक": 2407,
      "मान्य": 2408,
      "सूर्य": 2409,
      "##क्का": 2410,
      "संलग्न": 2411,
      "उपभो": 2412,
      "##पक": 2413,
      "वर्षमा": 2414,
      "अस्पतालले": 2415,
      "त्रि": 2416,
      "##हन": 2417,
      "##ेज": 2418,
      "##वाई": 2419,
      "बजेर": 2420,
      "नसकेको": 2421,
      "##द्व": 2422,
      "समाचार": 2423,
      "पुग्ने": 2424,
      "##िण": 2425,
      "समृद्धि": 2426,
      "राखिएको": 2427,
      "छैन्": 2428,
      "कार्यकर्ता": 2429,
      "ल्याएको": 2430,
      "चैत": 2431,
      "धारणा": 2432,
      "रासस": 2433,
      "##चारिक": 2434,
      "##गे": 2435,
      "##एम": 2436,
      "##योजना": 2437,
      "किलो": 2438,
      "भाव": 2439,
      "नियन्त्रणमा": 2440,
      "व्यावसायमा": 2441,
      "भरत": 2442,
      "##र्श": 2443,
      "##वार्ता": 2444,
      "समर्थ": 2445,
      "सुनि": 2446,
      "##बाहेक": 2447,
      "##ङको": 2448,
      "##ृद्ध": 2449,
      "कुल": 2450,
      "त्यसपछि": 2451,
      "थाहा": 2452,
      "बसेका": 2453,
      "चितवन": 2454,
      "चर्च": 2455,
      "यस्ता": 2456,
      "##व्या": 2457,
      "गरिएका": 2458,
      "##द्वारा": 2459,
      "कसै": 2460,
      "गतिविधि": 2461,
      "पालना": 2462,
      "##अन्त": 2463,
      "प्रग": 2464,
      "बढाउन": 2465,
      "##डियो": 2466,
      "कृष्ण": 2467,
      "भनिन्": 2468,
      "वे": 2469,
      "शाख": 2470,
      "##तो": 2471,
      "पुर": 2472,
      "##िसा": 2473,
      "विभागले": 2474,
      "चुनाव": 2475,
      "झण्ड": 2476,
      "##त्तिक": 2477,
      "भारतको": 2478,
      "##ट्टै": 2479,
      "##देवी": 2480,
      "यसलाई": 2481,
      "ग्राह": 2482,
      "वस्तु": 2483,
      "##जोर": 2484,
      "##लाइन": 2485,
      "काठमाडौँ": 2486,
      "राजदूत": 2487,
      "छान": 2488,
      "नपा": 2489,
      "डिस्": 2490,
      "##न्छन्": 2491,
      "राष्ट्रियसभा": 2492,
      "##अन्तर्गत": 2493,
      "आँ": 2494,
      "##जे": 2495,
      "बनाएर": 2496,
      "चुनौती": 2497,
      "##ःख": 2498,
      "चिन्": 2499,
      "##नुभएको": 2500,
      "जम": 2501,
      "सन्त": 2502,
      "##काले": 2503,
      "निधन": 2504,
      "##योजन": 2505,
      "##धिकार": 2506,
      "गर्नुभ": 2507,
      "सङ्घीय": 2508,
      "सन्देश": 2509,
      "आंश": 2510,
      "जनाएका": 2511,
      "विदेशी": 2512,
      "जन्": 2513,
      "पहा": 2514,
      "हित": 2515,
      "महासचिव": 2516,
      "##पूर्ति": 2517,
      "##यनमा": 2518,
      "##चान": 2519,
      "मास्क": 2520,
      "दुःख": 2521,
      "स्थानीयवासी": 2522,
      "अर्ब": 2523,
      "पूजा": 2524,
      "तत्कालीन": 2525,
      "क्वारेन्टाइनमा": 2526,
      "आह": 2527,
      "##वान": 2528,
      "लगायतका": 2529,
      "आंशिक": 2530,
      "नसक्ने": 2531,
      "##ङ्गा": 2532,
      "यसरी": 2533,
      "कामहरु": 2534,
      "शर्माले": 2535,
      "पारित": 2536,
      "जनताले": 2537,
      "बढ्दै": 2538,
      "पीडित": 2539,
      "गृहमन्त्री": 2540,
      "##कर्षण": 2541,
      "ट्रा": 2542,
      "##टे": 2543,
      "##रुवा": 2544,
      "##देश्य": 2545,
      "जोग": 2546,
      "फेरि": 2547,
      "चाहि": 2548,
      "लाभ": 2549,
      "होटल": 2550,
      "गलत": 2551,
      "जरु": 2552,
      "##क्ट": 2553,
      "अधिका": 2554,
      "यात्रा": 2555,
      "अपरा": 2556,
      "विज्ञप्तिमा": 2557,
      "दुर्घट": 2558,
      "आए": 2559,
      "कठ": 2560,
      "##पान": 2561,
      "भीड": 2562,
      "##ङमा": 2563,
      "##न्ज": 2564,
      "प्रतिबद्ध": 2565,
      "हुनेको": 2566,
      "हामीलाई": 2567,
      "लक्ष्य": 2568,
      "##बेला": 2569,
      "विष्णु": 2570,
      "कार्यालयका": 2571,
      "सभामुख": 2572,
      "जनप्रति": 2573,
      "छोरा": 2574,
      "महाशाखाले": 2575,
      "पाण्ड": 2576,
      "बोल्": 2577,
      "योगदान": 2578,
      "##िनमा": 2579,
      "सम्बन्धी": 2580,
      "नेतृत्वमा": 2581,
      "जेठ": 2582,
      "फेला": 2583,
      "##स्ती": 2584,
      "पार्न": 2585,
      "यसमा": 2586,
      "सबैलाई": 2587,
      "तर्फबाट": 2588,
      "पोजेटिभ": 2589,
      "ढा": 2590,
      "##पत्ता": 2591,
      "##लाइ": 2592,
      "राखेको": 2593,
      "प्रशास": 2594,
      "पैसा": 2595,
      "थु": 2596,
      "नब": 2597,
      "प्": 2598,
      "सकारात्मक": 2599,
      "##ेती": 2600,
      "##्वान": 2601,
      "ओलीलाई": 2602,
      "संक्रमणबाट": 2603,
      "अधिकांश": 2604,
      "तामा": 2605,
      "पे": 2606,
      "वाम": 2607,
      "वृद्धि": 2608,
      "##बालिका": 2609,
      "##छु": 2610,
      "पुल": 2611,
      "##ेलि": 2612,
      "आफूलाई": 2613,
      "अन्ति": 2614,
      "पहल": 2615,
      "##तार": 2616,
      "##लाइन्": 2617,
      "प्रतिपक्षी": 2618,
      "जिल्लाको": 2619,
      "रहेकाले": 2620,
      "आफूले": 2621,
      "अख्": 2622,
      "अोली": 2623,
      "खण्ड": 2624,
      "छि": 2625,
      "छन": 2626,
      "प्रकार": 2627,
      "बजारमा": 2628,
      "हाम्रा": 2629,
      "महामारीको": 2630,
      "खड्": 2631,
      "सत्य": 2632,
      "##बाटै": 2633,
      "खोप": 2634,
      "नगर्ने": 2635,
      "लाइ": 2636,
      "दक्षिण": 2637,
      "आह्वान": 2638,
      "अन्तिम": 2639,
      "कक्षा": 2640,
      "##्याङ्क": 2641,
      "ललितपुर": 2642,
      "निषेधाज्ञा": 2643,
      "ब्य": 2644,
      "##षण": 2645,
      "##्रेस": 2646,
      "##प्रधान": 2647,
      "परिषद्": 2648,
      "कार्की": 2649,
      "डिस्चार्ज": 2650,
      "भेला": 2651,
      "भवन": 2652,
      "##िनी": 2653,
      "##र्दा": 2654,
      "नगरपालिकाका": 2655,
      "बालबालिका": 2656,
      "पुरुषको": 2657,
      "##परि": 2658,
      "सुविधा": 2659,
      "त्यस्तो": 2660,
      "वर्षाको": 2661,
      "नेताहरु": 2662,
      "जरुरी": 2663,
      "जस्ता": 2664,
      "##ज्य": 2665,
      "##एस": 2666,
      "##र्ख": 2667,
      "निकट": 2668,
      "##चि": 2669,
      "##ल्का": 2670,
      "उपरीक्षक": 2671,
      "तहमा": 2672,
      "नेतृत्वको": 2673,
      "विदेशमा": 2674,
      "व्यवसायी": 2675,
      "हेर": 2676,
      "##विधिक": 2677,
      "जनप्रतिनिधि": 2678,
      "टि": 2679,
      "बताइन्": 2680,
      "परिचालन": 2681,
      "गुना": 2682,
      "नक्सा": 2683,
      "एका": 2684,
      "बर्ष": 2685,
      "बताउँछन्": 2686,
      "##ायु": 2687,
      "गुण": 2688,
      "गुमा": 2689,
      "असर": 2690,
      "घु": 2691,
      "भनी": 2692,
      "सहित": 2693,
      "अहिलेको": 2694,
      "क्वारेन्टिनमा": 2695,
      "महानगरपालिका": 2696,
      "##पूर्वक": 2697,
      "ग्राहक": 2698,
      "नदी": 2699,
      "बन्न": 2700,
      "बलि": 2701,
      "##ंसा": 2702,
      "##व्यक्ति": 2703,
      "खनाल": 2704,
      "अत्य": 2705,
      "उम": 2706,
      "##तै": 2707,
      "##तको": 2708,
      "बेपत्ता": 2709,
      "टोलीले": 2710,
      "सन्दर्भ": 2711,
      "मान्छे": 2712,
      "##्नु": 2713,
      "##दे": 2714,
      "स्म": 2715,
      "जनालाई": 2716,
      "जागेश्वर": 2717,
      "इज": 2718,
      "इतिहा": 2719,
      "नप": 2720,
      "##म्ला": 2721,
      "त्यसमा": 2722,
      "##ँदैन": 2723,
      "उनीहरु": 2724,
      "दूरी": 2725,
      "##कामना": 2726,
      "एयरलाइन्": 2727,
      "फा": 2728,
      "##ठ्य": 2729,
      "##डिया": 2730,
      "छिम": 2731,
      "भन्न": 2732,
      "सज": 2733,
      "##ोका": 2734,
      "##लाग": 2735,
      "##वार्य": 2736,
      "कार्यदल": 2737,
      "शुल्क": 2738,
      "संविधानको": 2739,
      "लोकतन्त्र": 2740,
      "रुपैयाँ": 2741,
      "##द्वय": 2742,
      "आवा": 2743,
      "बमोजिम": 2744,
      "यसका": 2745,
      "##सम्मको": 2746,
      "अनिवार्य": 2747,
      "माओवादी": 2748,
      "आलो": 2749,
      "खान": 2750,
      "##सर": 2751,
      "##पाट": 2752,
      "प्राविधिक": 2753,
      "आइसोलेसन": 2754,
      "श्रमिक": 2755,
      "भक्तपुर": 2756,
      "कर": 2757,
      "तु": 2758,
      "##ल्य": 2759,
      "साथी": 2760,
      "पहिचान": 2761,
      "##सिर": 2762,
      "क्रिया": 2763,
      "चरणमा": 2764,
      "नआ": 2765,
      "सकेको": 2766,
      "कारणले": 2767,
      "व्यक्तिको": 2768,
      "भाडा": 2769,
      "जुट": 2770,
      "##कल": 2771,
      "##किएको": 2772,
      "मन्त्रालयको": 2773,
      "उनीहरुको": 2774,
      "##हण": 2775,
      "दिनुहोला": 2776,
      "सतर्क": 2777,
      "##नीतिक": 2778,
      "जम्मा": 2779,
      "वन": 2780,
      "##कल्प": 2781,
      "कात्तिक": 2782,
      "स्त": 2783,
      "साता": 2784,
      "भएपनि": 2785,
      "देखिएका": 2786,
      "कम्पनीले": 2787,
      "विद्युत्": 2788,
      "वाग्": 2789,
      "##इने": 2790,
      "सुना": 2791,
      "कांग्रेसले": 2792,
      "कैल": 2793,
      "संस्कृति": 2794,
      "लगाउने": 2795,
      "चौध": 2796,
      "विकल्प": 2797,
      "महाधिवेशन": 2798,
      "गुनासो": 2799,
      "जित": 2800,
      "##तिको": 2801,
      "सुख": 2802,
      "पसल": 2803,
      "भरतपुर": 2804,
      "##क्य": 2805,
      "##त्री": 2806,
      "कोही": 2807,
      "पूर्वानु": 2808,
      "पि": 2809,
      "##यता": 2810,
      "##शक्ति": 2811,
      "विसं": 2812,
      "जानु": 2813,
      "नभए": 2814,
      "पारि": 2815,
      "अनलाइन": 2816,
      "यसैगरी": 2817,
      "##व्यापी": 2818,
      "कैलाली": 2819,
      "##स्वा": 2820,
      "कुन": 2821,
      "##जाने": 2822,
      "झण्डै": 2823,
      "##ल्ल": 2824,
      "आफु": 2825,
      "अर्था": 2826,
      "भण्डारीले": 2827,
      "नम": 2828,
      "वायु": 2829,
      "है": 2830,
      "##लिक": 2831,
      "##षद": 2832,
      "##भ्या": 2833,
      "##क्षिक": 2834,
      "रही": 2835,
      "सहकार्य": 2836,
      "राजधानी": 2837,
      "समावेश": 2838,
      "कालो": 2839,
      "बेलु": 2840,
      "गैर": 2841,
      "##यौं": 2842,
      "गर्नुपर्": 2843,
      "दिवस": 2844,
      "गए": 2845,
      "रेल": 2846,
      "लक्षण": 2847,
      "##ेप": 2848,
      "##रीले": 2849,
      "##धिकारी": 2850,
      "##रूपमा": 2851,
      "सबैको": 2852,
      "बोर्ड": 2853,
      "शिक्षण": 2854,
      "बसेर": 2855,
      "अवधिमा": 2856,
      "शैक्षिक": 2857,
      "अख्तियार": 2858,
      "आपत्ति": 2859,
      "##हरूमा": 2860,
      "उनीहरुले": 2861,
      "सल्लाहकार": 2862,
      "धर्म": 2863,
      "फस्": 2864,
      "हास": 2865,
      "##खो": 2866,
      "##क्क": 2867,
      "काँग": 2868,
      "निगम": 2869,
      "नेपाललाई": 2870,
      "##मिला": 2871,
      "ऊर्जा": 2872,
      "##रिया": 2873,
      "शिक्षक": 2874,
      "जोखिममा": 2875,
      "समर्थन": 2876,
      "ठा": 2877,
      "ते": 2878,
      "रण": 2879,
      "##तले": 2880,
      "##चन्द्र": 2881,
      "##परेको": 2882,
      "चालक": 2883,
      "उद्देश्य": 2884,
      "अविश्वास": 2885,
      "धु": 2886,
      "बल": 2887,
      "##लेका": 2888,
      "##र्मिक": 2889,
      "##सहितको": 2890,
      "कक्ष": 2891,
      "कडा": 2892,
      "पहु": 2893,
      "हल्का": 2894,
      "##पचारिक": 2895,
      "पर्व": 2896,
      "लोकतान्त्रिक": 2897,
      "पूर्वानुमान": 2898,
      "काँग्रेस": 2899,
      "गएका": 2900,
      "##धनको": 2901,
      "##उनुपर्ने": 2902,
      "स्ट": 2903,
      "नेपालीको": 2904,
      "मनग्": 2905,
      "हुनेछन्": 2906,
      "असन्तु": 2907,
      "महिलाको": 2908,
      "मनग्गे": 2909,
      "कट": 2910,
      "##ाउँदा": 2911,
      "भेटवार्ता": 2912,
      "नगरी": 2913,
      "गरिसकेको": 2914,
      "बिक्री": 2915,
      "##ेक्षा": 2916,
      "गर्नका": 2917,
      "##लोक": 2918,
      "भएन": 2919,
      "नगरपालिकाले": 2920,
      "नागरिकको": 2921,
      "बस्न": 2922,
      "आउँ": 2923,
      "ढि": 2924,
      "हप्": 2925,
      "हिसा": 2926,
      "लागेका": 2927,
      "कार्यालयमा": 2928,
      "गाउँपालिकाका": 2929,
      "फरक": 2930,
      "हासिल": 2931,
      "साव": 2932,
      "थिइन्": 2933,
      "जनतालाई": 2934,
      "सडकमा": 2935,
      "समाजवादी": 2936,
      "उहाँले": 2937,
      "फैलिएको": 2938,
      "वाग्मती": 2939,
      "अने": 2940,
      "##फिक": 2941,
      "सरकारसँग": 2942,
      "काराग": 2943,
      "गतेसम्म": 2944,
      "ध्याना": 2945,
      "धार्मिक": 2946,
      "छिमेकी": 2947,
      "एन": 2948,
      "औँ": 2949,
      "ठे": 2950,
      "शेर": 2951,
      "सफा": 2952,
      "##तः": 2953,
      "##सला": 2954,
      "##्दै": 2955,
      "##ानो": 2956,
      "##हुँ": 2957,
      "##बीचको": 2958,
      "पहाडी": 2959,
      "मी": 2960,
      "##दु": 2961,
      "##क्षर": 2962,
      "एकै": 2963,
      "नगर्न": 2964,
      "विभा": 2965,
      "दिएर": 2966,
      "गाडी": 2967,
      "इला": 2968,
      "एमा": 2969,
      "खाल": 2970,
      "##टरमा": 2971,
      "##क्टर": 2972,
      "##ाउनुपर्ने": 2973,
      "अनुभव": 2974,
      "##न्धु": 2975,
      "तहका": 2976,
      "##चार्य": 2977,
      "कानुन": 2978,
      "ढकालले": 2979,
      "खानेपानी": 2980,
      "पहुँच": 2981,
      "आएपछि": 2982,
      "भै": 2983,
      "स्या": 2984,
      "##िले": 2985,
      "##मन": 2986,
      "##्दा": 2987,
      "साझा": 2988,
      "##ोरै": 2989,
      "इन्": 2990,
      "पाट": 2991,
      "वर्ग": 2992,
      "हवाई": 2993,
      "##ंका": 2994,
      "##ताव": 2995,
      "##राष्ट्रिय": 2996,
      "##त्नी": 2997,
      "पाएको": 2998,
      "योसँगै": 2999,
      "नेकपाभित्र": 3000,
      "चाहन्छु": 3001,
      "प्रदर्शन": 3002,
      "ध्यानाकर्षण": 3003,
      "##दय": 3004,
      "पाइने": 3005,
      "प्रत्येक": 3006,
      "गोर": 3007,
      "मै": 3008,
      "गरियो": 3009,
      "केन्द्रित": 3010,
      "पारेको": 3011,
      "न्यायाधीश": 3012,
      "सन्दर्भमा": 3013,
      "वर्त": 3014,
      "शी": 3015,
      "##दृ": 3016,
      "##ढा": 3017,
      "ब्र": 3018,
      "भवि": 3019,
      "कुट": 3020,
      "कमजोर": 3021,
      "भारतबाट": 3022,
      "नागरिकलाई": 3023,
      "थोरै": 3024,
      "##त्कार": 3025,
      "पुरान": 3026,
      "प्रदेशको": 3027,
      "त्यसका": 3028,
      "कसैले": 3029,
      "चीनको": 3030,
      "स्रोतले": 3031,
      "फु": 3032,
      "सँग": 3033,
      "##ट्टा": 3034,
      "आयोगले": 3035,
      "मन्त्रिपरिषद्को": 3036,
      "अग": 3037,
      "##वनमा": 3038,
      "##वन्ध": 3039,
      "विरा": 3040,
      "लाई": 3041,
      "##शुल्क": 3042,
      "##सङ्घ": 3043,
      "##प्रधानमन्त्री": 3044,
      "##र्खेत": 3045,
      "##स्वास्थ्य": 3046,
      "##ेरा": 3047,
      "##पे": 3048,
      "मार्ग": 3049,
      "सुर्खेत": 3050,
      "जाँदा": 3051,
      "महामारीका": 3052,
      "बढ्नेछ": 3053,
      "शाही": 3054,
      "सम्मेल": 3055,
      "वर्तमान": 3056,
      "##तरा": 3057,
      "लागी": 3058,
      "ठूला": 3059,
      "सफलता": 3060,
      "डी": 3061,
      "तेस": 3062,
      "नस": 3063,
      "शाह": 3064,
      "पार्टीमा": 3065,
      "मिलेर": 3066,
      "नियन्त्रणका": 3067,
      "कांग्रेसका": 3068,
      "ताप": 3069,
      "भीम": 3070,
      "विमानस्थल": 3071,
      "तिन": 3072,
      "परिण": 3073,
      "देखा": 3074,
      "रोजगार": 3075,
      "जब": 3076,
      "##ष्य": 3077,
      "विज": 3078,
      "##ल्ट": 3079,
      "सिन्धु": 3080,
      "पर्छ": 3081,
      "दलका": 3082,
      "गराएको": 3083,
      "##विद्यालय": 3084,
      "आलोचना": 3085,
      "नरहेको": 3086,
      "पार्टीले": 3087,
      "हिजो": 3088,
      "गर्दछु": 3089,
      "फे": 3090,
      "##घन": 3091,
      "नभई": 3092,
      "गराएका": 3093,
      "आपूर्ति": 3094,
      "##हाल": 3095,
      "उपकरण": 3096,
      "निर्माणको": 3097,
      "उत्पन्न": 3098,
      "फर्किएका": 3099,
      "##निर्माण": 3100,
      "माध्यमबाट": 3101,
      "तेस्रो": 3102,
      "जस्तै": 3103,
      "बुट": 3104,
      "छलफलमा": 3105,
      "अभिव्यक्ति": 3106,
      "मुलुकको": 3107,
      "मुलुकमा": 3108,
      "भुक्त": 3109,
      "मल": 3110,
      "मिति": 3111,
      "सिका": 3112,
      "##सित": 3113,
      "##्याल": 3114,
      "##नेको": 3115,
      "हुनुपर्छ": 3116,
      "##न्दु": 3117,
      "प्रदेशसभा": 3118,
      "मिनेट": 3119,
      "विभागका": 3120,
      "बालुवाटार": 3121,
      "##बिन": 3122,
      "##दारी": 3123,
      "विश्वविद्यालय": 3124,
      "अर्थतन्त्र": 3125,
      "##धुरा": 3126,
      "प्रजातन्त्र": 3127,
      "झापा": 3128,
      "मान्यता": 3129,
      "फस्टाएर": 3130,
      "साह": 3131,
      "बताएको": 3132,
      "अनुदान": 3133,
      "##प्रमुख": 3134,
      "सङ्क्रमणको": 3135,
      "बेलाय": 3136,
      "अदालतले": 3137,
      "तथ्य": 3138,
      "ज्ञवालीले": 3139,
      "मर्म": 3140,
      "##फो": 3141,
      "##वाट": 3142,
      "संक्रमणको": 3143,
      "अर्थमन्त्री": 3144,
      "विज्ञप्ति": 3145,
      "सत्ता": 3146,
      "##पो": 3147,
      "##स्कार": 3148,
      "राप्र": 3149,
      "रावल": 3150,
      "बढाउने": 3151,
      "##खित": 3152,
      "##प्यता": 3153,
      "मिटर": 3154,
      "दाजु": 3155,
      "अधिकारीले": 3156,
      "खतिवडाले": 3157,
      "भावना": 3158,
      "अर": 3159,
      "औं": 3160,
      "##ूना": 3161,
      "##शासन": 3162,
      "##ृत्ति": 3163,
      "संगठन": 3164,
      "दिनुपर्ने": 3165,
      "##साधारण": 3166,
      "परम्प": 3167,
      "हिसाब": 3168,
      "उचित": 3169,
      "कूल": 3170,
      "जति": 3171,
      "तारि": 3172,
      "##गठ": 3173,
      "त्यति": 3174,
      "उपयोग": 3175,
      "##प्पण": 3176,
      "सामान": 3177,
      "परीक्षणका": 3178,
      "नहुँदा": 3179,
      "अपेक्षा": 3180,
      "रोक्न": 3181,
      "बाहेक": 3182,
      "प्रगति": 3183,
      "ताल": 3184,
      "पत्नी": 3185,
      "यू": 3186,
      "निरन्तरता": 3187,
      "नमूना": 3188,
      "तापक्रम": 3189,
      "अध्यक्षद्वय": 3190,
      "व्यक्तिलाई": 3191,
      "भूभागमा": 3192,
      "जन्म": 3193,
      "कहिले": 3194,
      "हल": 3195,
      "##लव": 3196,
      "##श्व": 3197,
      "##र्चु": 3198,
      "बहस": 3199,
      "झल": 3200,
      "##लब": 3201,
      "##चन": 3202,
      "समेट": 3203,
      "जाँच": 3204,
      "पदाधिकारी": 3205,
      "टेलि": 3206,
      "नाय": 3207,
      "##पनमा": 3208,
      "##भाइ": 3209,
      "प्रबन्ध": 3210,
      "##राख": 3211,
      "##राले": 3212,
      "मार्फत": 3213,
      "सक्दैन": 3214,
      "##लुङ": 3215,
      "##टनगर": 3216,
      "फैलि": 3217,
      "राप्रपा": 3218,
      "बन्": 3219,
      "##मको": 3220,
      "##मुक्त": 3221,
      "निर्माणका": 3222,
      "उत्तर": 3223,
      "##होस्": 3224,
      "आयोजित": 3225,
      "पीसी": 3226,
      "हरि": 3227,
      "पाइएको": 3228,
      "##विध": 3229,
      "राजा": 3230,
      "भएमा": 3231,
      "बाँस्": 3232,
      "##ारेज": 3233,
      "चेताव": 3234,
      "बोल्दै": 3235,
      "चेतावनी": 3236,
      "धन्य": 3237,
      "##वस्तु": 3238,
      "सामि": 3239,
      "पास": 3240,
      "थपिएका": 3241,
      "कुरामा": 3242,
      "स्थापित": 3243,
      "क्वारेन्टिन": 3244,
      "हस्तान्तरण": 3245,
      "सरो": 3246,
      "##सू": 3247,
      "##स्तरमा": 3248,
      "##तीमा": 3249,
      "वैदेशिक": 3250,
      "दशैँ": 3251,
      "उत्पाद": 3252,
      "नदिने": 3253,
      "शुभकामना": 3254,
      "चिन्ता": 3255,
      "पीसीआर": 3256,
      "आर": 3257,
      "आप": 3258,
      "नसक": 3259,
      "म्या": 3260,
      "गर्नेछ": 3261,
      "##िमिर": 3262,
      "पर्या": 3263,
      "##म्बिनी": 3264,
      "युनि": 3265,
      "भनाई": 3266,
      "चाहने": 3267,
      "लगाएको": 3268,
      "##णिज्य": 3269,
      "इजला": 3270,
      "घिमिर": 3271,
      "##लर": 3272,
      "##नीय": 3273,
      "##रीमा": 3274,
      "पुस": 3275,
      "सम्भव": 3276,
      "उपचारको": 3277,
      "सामुदाय": 3278,
      "वडाध्यक्ष": 3279,
      "##पुग": 3280,
      "त्यसैगरी": 3281,
      "निम्ति": 3282,
      "भविष्य": 3283,
      "सामिप्यता": 3284,
      "सामुदायिक": 3285,
      "##वत्": 3286,
      "##काजी": 3287,
      "उपयुक्त": 3288,
      "##किने": 3289,
      "मित्र": 3290,
      "हिँड": 3291,
      "नदिन": 3292,
      "निष्कर्ष": 3293,
      "कहाँ": 3294,
      "ब्या": 3295,
      "रिट": 3296,
      "##्यौ": 3297,
      "कोरोनाबाट": 3298,
      "जनस्वास्थ्य": 3299,
      "गरिन्छ": 3300,
      "देखिएपछि": 3301,
      "##ज्ञान": 3302,
      "परीक्षणको": 3303,
      "समूहले": 3304,
      "व्यवस्थित": 3305,
      "प्रतिबद्धता": 3306,
      "गे": 3307,
      "जसले": 3308,
      "सिम": 3309,
      "##वली": 3310,
      "##थे": 3311,
      "##र्घ": 3312,
      "##त्रा": 3313,
      "सम्वन्ध": 3314,
      "बादल": 3315,
      "सबैले": 3316,
      "प्राप्": 3317,
      "##मिटर": 3318,
      "असह": 3319,
      "##रामर्श": 3320,
      "##सक्दा": 3321,
      "लकडाउ": 3322,
      "आन्दोल": 3323,
      "गणतन्त्र": 3324,
      "पशुपति": 3325,
      "विपद्": 3326,
      "अत्यन्त": 3327,
      "तारिख": 3328,
      "धन्यवाद": 3329,
      "ऐतिहा": 3330,
      "बग": 3331,
      "##षा": 3332,
      "गरौं": 3333,
      "निः": 3334,
      "सुदृ": 3335,
      "जनसङ्": 3336,
      "जनशक्ति": 3337,
      "प्रहरीको": 3338,
      "विश्वव्यापी": 3339,
      "विद्यादेवी": 3340,
      "खबर": 3341,
      "तराई": 3342,
      "##कस्": 3343,
      "##कूल": 3344,
      "##ठा": 3345,
      "##ारम्भ": 3346,
      "साइ": 3347,
      "जनक": 3348,
      "बाबु": 3349,
      "##ञ्चन": 3350,
      "सामना": 3351,
      "ग्रहण": 3352,
      "छाड": 3353,
      "लुम्बिनी": 3354,
      "माधवकुमार": 3355,
      "सतर्कता": 3356,
      "कप": 3357,
      "शे": 3358,
      "सैनिक": 3359,
      "##व्र": 3360,
      "गराइ": 3361,
      "##पाल्च": 3362,
      "##नीति": 3363,
      "अनुमान": 3364,
      "सुरक्षाकर्मी": 3365,
      "एमाले": 3366,
      "भुक्तानी": 3367,
      "अर्य": 3368,
      "जहाँ": 3369,
      "ढंग": 3370,
      "##जस्ता": 3371,
      "##¥यो": 3372,
      "##स्थान": 3373,
      "हिमाल": 3374,
      "सिन्धुपाल्च": 3375,
      "मध्यम": 3376,
      "यथा": 3377,
      "##लम्ब": 3378,
      "##ामन्त्री": 3379,
      "बुझा": 3380,
      "रामबहादुर": 3381,
      "निर्वाचनमा": 3382,
      "काला": 3383,
      "बर्": 3384,
      "बन्ने": 3385,
      "वी": 3386,
      "##घा": 3387,
      "समग्र": 3388,
      "##स्तर": 3389,
      "उनीहरुलाई": 3390,
      "परीक्षणमा": 3391,
      "##र्गौला": 3392,
      "खाद्य": 3393,
      "थालेपछि": 3394,
      "ऐतिहासिक": 3395,
      "औपचारिक": 3396,
      "##ेमा": 3397,
      "एकताको": 3398,
      "जिम्मा": 3399,
      "प्रशस्त": 3400,
      "संघर्ष": 3401,
      "यहाँका": 3402,
      "##भूत": 3403,
      "बन्दाबन्दी": 3404,
      "चर्चा": 3405,
      "सिन्धुपाल्चोक": 3406,
      "खाना": 3407,
      "गठ": 3408,
      "गोक": 3409,
      "तन": 3410,
      "##वटा": 3411,
      "##र्नु": 3412,
      "प्रचार": 3413,
      "सङ्कट": 3414,
      "परियोजना": 3415,
      "कमर": 3416,
      "##तीको": 3417,
      "नगरेको": 3418,
      "हस्ताक्षर": 3419,
      "दुर्घटना": 3420,
      "विराटनगर": 3421,
      "जनसङ्ख्या": 3422,
      "आयात": 3423,
      "कञ्चन": 3424,
      "नर": 3425,
      "पति": 3426,
      "परामर्श": 3427,
      "##गायत": 3428,
      "मिर्गौला": 3429,
      "मुक्त": 3430,
      "अन्तर्गत": 3431,
      "प्रत्यक्ष": 3432,
      "थालेका": 3433,
      "वामदेव": 3434,
      "गी": 3435,
      "चन्द्र": 3436,
      "ज्व": 3437,
      "##बास": 3438,
      "##हाज": 3439,
      "कार्यकाल": 3440,
      "विकासका": 3441,
      "##ेदार": 3442,
      "तहको": 3443,
      "##ट्या": 3444,
      "##उँदा": 3445,
      "##क्ने": 3446,
      "साझ": 3447,
      "##राब": 3448,
      "होस्": 3449,
      "लगाउन": 3450,
      "चाड": 3451,
      "एउटै": 3452,
      "टिप्पण": 3453,
      "क्रा": 3454,
      "छिट": 3455,
      "##रले": 3456,
      "गर्छन्": 3457,
      "संसदमा": 3458,
      "व्यावसायिक": 3459,
      "शेरबहादुर": 3460,
      "इरान": 3461,
      "खतरा": 3462,
      "सप्त": 3463,
      "##्वि": 3464,
      "##मात्र": 3465,
      "पाएका": 3466,
      "आफैं": 3467,
      "उपचाररत": 3468,
      "##त्तै": 3469,
      "##ित्त": 3470,
      "फैसला": 3471,
      "दृष्टि": 3472,
      "खास": 3473,
      "बार": 3474,
      "##वक्ता": 3475,
      "##नालाई": 3476,
      "##कम्प": 3477,
      "संग्र": 3478,
      "मामिला": 3479,
      "##हीन": 3480,
      "##पती": 3481,
      "राखेका": 3482,
      "नेताहरुले": 3483,
      "निर्वाचित": 3484,
      "बीचमा": 3485,
      "स्मरण": 3486,
      "कमरेड": 3487,
      "टी": 3488,
      "सही": 3489,
      "##यल": 3490,
      "##ाही": 3491,
      "##मे": 3492,
      "##कीय": 3493,
      "##द्र्": 3494,
      "त्यस्ता": 3495,
      "मनस": 3496,
      "##जनक": 3497,
      "##दीप": 3498,
      "दशमल": 3499,
      "उपाय": 3500,
      "किसिम": 3501,
      "शाखा": 3502,
      "उमेर": 3503,
      "क्रान्ति": 3504,
      "अभ्या": 3505,
      "##कले": 3506,
      "दियो": 3507,
      "बाढ": 3508,
      "पृ": 3509,
      "बला": 3510,
      "##कला": 3511,
      "##केत": 3512,
      "निकु": 3513,
      "संकलन": 3514,
      "उपस्थित": 3515,
      "लिखित": 3516,
      "मन्त्रालयमा": 3517,
      "स्वय": 3518,
      "खोजी": 3519,
      "लगाएका": 3520,
      "##रुपयोग": 3521,
      "सम्पर्क": 3522,
      "सुनिश्चित": 3523,
      "निःशुल्क": 3524,
      "चिस": 3525,
      "शिव": 3526,
      "##डीमा": 3527,
      "##नेपाल": 3528,
      "कारो": 3529,
      "सङ्क्रमणबाट": 3530,
      "##म्बु": 3531,
      "अवरुद्ध": 3532,
      "डिज": 3533,
      "परिवारका": 3534,
      "ठेक्का": 3535,
      "पर्याप्त": 3536,
      "दशमलव": 3537,
      "आकस्": 3538,
      "इन्टर": 3539,
      "फाइ": 3540,
      "भारी": 3541,
      "मङ्ग": 3542,
      "सार": 3543,
      "##ीकृत": 3544,
      "##सका": 3545,
      "विधान": 3546,
      "दुरुपयोग": 3547,
      "पर्सा": 3548,
      "मनमु": 3549,
      "##सिलो": 3550,
      "नारायणकाजी": 3551,
      "युवराज": 3552,
      "छानबिन": 3553,
      "ऋण": 3554,
      "हरा": 3555,
      "##हरण": 3556,
      "##पथ": 3557,
      "##थी": 3558,
      "##नेर": 3559,
      "##लादेश": 3560,
      "सदर": 3561,
      "भोलि": 3562,
      "सहायक": 3563,
      "झलनाथ": 3564,
      "आएर": 3565,
      "आक्रमण": 3566,
      "कम्": 3567,
      "भोज": 3568,
      "##यन्त्र": 3569,
      "##रीका": 3570,
      "बताउ": 3571,
      "प्रादेशिक": 3572,
      "भारतमा": 3573,
      "केन्द्रमा": 3574,
      "दलको": 3575,
      "दोष": 3576,
      "सेनाको": 3577,
      "भक्तपुरमा": 3578,
      "गणेश": 3579,
      "निकुञ्ज": 3580,
      "आकस्मिक": 3581,
      "आचार्य": 3582,
      "##एकी": 3583,
      "भनेजस्तो": 3584,
      "केहि": 3585,
      "##भाड": 3586,
      "जोशी": 3587,
      "नभएका": 3588,
      "गाउँपालिकामा": 3589,
      "बेलुकी": 3590,
      "कस्तो": 3591,
      "पेट": 3592,
      "भेन्ट": 3593,
      "##खेल": 3594,
      "##ेवार": 3595,
      "##हिनी": 3596,
      "##स्थलमा": 3597,
      "##विद्": 3598,
      "एकल": 3599,
      "नदीमा": 3600,
      "व्यवहार": 3601,
      "तपार्ईँको": 3602,
      "अप्": 3603,
      "मू": 3604,
      "मध्ये": 3605,
      "सानो": 3606,
      "##नो": 3607,
      "राणा": 3608,
      "साउ": 3609,
      "नेपालगञ्ज": 3610,
      "सहकारी": 3611,
      "##िमि": 3612,
      "पुगेर": 3613,
      "मृतक": 3614,
      "वैशाख": 3615,
      "खारेज": 3616,
      "माल": 3617,
      "##ताले": 3618,
      "वाणिज्य": 3619,
      "रहेछ": 3620,
      "बलियो": 3621,
      "मनमुटा": 3622,
      "जग": 3623,
      "##नाका": 3624,
      "##हिरो": 3625,
      "##भिजन": 3626,
      "चीनले": 3627,
      "बन्दाबन्द": 3628,
      "प्ला": 3629,
      "ढंगले": 3630,
      "टीका": 3631,
      "साना": 3632,
      "##्म": 3633,
      "##त्न": 3634,
      "##स्थालाई": 3635,
      "स्वार्थ": 3636,
      "स्थित": 3637,
      "व्यक्तिगत": 3638,
      "पिसी": 3639,
      "स्वीकार": 3640,
      "दायित्व": 3641,
      "सकेन": 3642,
      "संग्रौला": 3643,
      "खस": 3644,
      "चास": 3645,
      "नू": 3646,
      "वो": 3647,
      "##लले": 3648,
      "समृद्ध": 3649,
      "सम्पत्ति": 3650,
      "प्राकृतिक": 3651,
      "तरकारी": 3652,
      "अभिभाव": 3653,
      "सर्वसाधारण": 3654,
      "बागमती": 3655,
      "परा": 3656,
      "वित्त": 3657,
      "पुग्न": 3658,
      "लिएका": 3659,
      "प्रशन्न": 3660,
      "पुनले": 3661,
      "##कृष्ट": 3662,
      "आउनेछ": 3663,
      "देउवाले": 3664,
      "भेन्टिले": 3665,
      "पिसीआर": 3666,
      "री": 3667,
      "##तजा": 3668,
      "##्ले": 3669,
      "##ँडा": 3670,
      "##आई": 3671,
      "##ल्ली": 3672,
      "मिल्": 3673,
      "पटकपटक": 3674,
      "अपनाउन": 3675,
      "कमाउन": 3676,
      "सूर्यो": 3677,
      "शीर्ष": 3678,
      "हिसाबले": 3679,
      "गन्त": 3680,
      "गएर": 3681,
      "सौ": 3682,
      "##ुक्ति": 3683,
      "##आफ": 3684,
      "##रीत": 3685,
      "राजमार्ग": 3686,
      "सिद्धा": 3687,
      "नियुक्ति": 3688,
      "विकासको": 3689,
      "##सक्छ": 3690,
      "अन्तरराष्ट्रिय": 3691,
      "तोकिएको": 3692,
      "सूर्योदय": 3693,
      "जहाज": 3694,
      "फाग": 3695,
      "शासन": 3696,
      "##वधान": 3697,
      "##ङका": 3698,
      "प्रकरण": 3699,
      "काग": 3700,
      "समु": 3701,
      "कोरोनाका": 3702,
      "भूकम्प": 3703,
      "अवरोध": 3704,
      "चाप": 3705,
      "फर्का": 3706,
      "दीर्घ": 3707,
      "पुरानो": 3708,
      "नायब": 3709,
      "सरोकार": 3710,
      "थान": 3711,
      "मं": 3712,
      "##धना": 3713,
      "नेग": 3714,
      "रहन": 3715,
      "पठाएको": 3716,
      "ज्ञा": 3717,
      "दायर": 3718,
      "ईश्वर": 3719,
      "##कल्पिक": 3720,
      "अडान": 3721,
      "जट": 3722,
      "##शनमा": 3723,
      "##ालगायत": 3724,
      "प्रसार": 3725,
      "प्रारम्भ": 3726,
      "##स्तान": 3727,
      "प्रधानमन्त्रीलाई": 3728,
      "समयदेखि": 3729,
      "दावी": 3730,
      "अदालतमा": 3731,
      "गुरुङले": 3732,
      "किलोमिटर": 3733,
      "##वनको": 3734,
      "##ेलिक": 3735,
      "यात्राको": 3736,
      "सापकोटाले": 3737,
      "सम्पर्कमा": 3738,
      "अपराध": 3739,
      "खेती": 3740,
      "ये": 3741,
      "##्वा": 3742,
      "##डो": 3743,
      "##चौ": 3744,
      "सम्पती": 3745,
      "उपम": 3746,
      "पर्दछ": 3747,
      "व्यक्तिले": 3748,
      "पक्षले": 3749,
      "##सुकै": 3750,
      "प्रत्यारो": 3751,
      "##च्छा": 3752,
      "न्यूनतम": 3753,
      "आदि": 3754,
      "दबा": 3755,
      "लामा": 3756,
      "##यौँ": 3757,
      "##स्कृतिक": 3758,
      "दिनको": 3759,
      "समान": 3760,
      "प्रावधान": 3761,
      "##ंगो": 3762,
      "##कुल": 3763,
      "##संघ": 3764,
      "वैकल्पिक": 3765,
      "पठाइएको": 3766,
      "ट्राफिक": 3767,
      "##शि": 3768,
      "प्रवाह": 3769,
      "आफै": 3770,
      "##किएका": 3771,
      "बिदा": 3772,
      "बिद्या": 3773,
      "वैठक": 3774,
      "ज्ञान": 3775,
      "फोन": 3776,
      "बुटवल": 3777,
      "बलात्कार": 3778,
      "चू": 3779,
      "न्यौ": 3780,
      "बृद्धि": 3781,
      "ही": 3782,
      "##वानी": 3783,
      "त्यसले": 3784,
      "नगरपालिकामा": 3785,
      "डिग्री": 3786,
      "भट्टले": 3787,
      "अलपत्र": 3788,
      "गर्नुभएको": 3789,
      "परिणाम": 3790,
      "चिसो": 3791,
      "टू": 3792,
      "बोक": 3793,
      "##वे": 3794,
      "##बाइ": 3795,
      "##भरि": 3796,
      "##काशन": 3797,
      "निश्चित": 3798,
      "स्वास्थ्यकर्म": 3799,
      "उपचारमा": 3800,
      "##ङ्गो": 3801,
      "हुन्छन्": 3802,
      "##ब्द": 3803,
      "गौतमलाई": 3804,
      "मन्त्रिपरिषद": 3805,
      "##विद्यु": 3806,
      "श्रीमती": 3807,
      "हप्ता": 3808,
      "सावधानी": 3809,
      "कारागार": 3810,
      "लकडाउनको": 3811,
      "छिटो": 3812,
      "कतै": 3813,
      "##वाला": 3814,
      "##इरहेको": 3815,
      "##हरुसँग": 3816,
      "विद्युतीय": 3817,
      "उपभोक्ता": 3818,
      "एजे": 3819,
      "चर्": 3820,
      "सै": 3821,
      "##नगर": 3822,
      "राय": 3823,
      "##न्दर": 3824,
      "##द्द": 3825,
      "कार्यमा": 3826,
      "तहले": 3827,
      "युद्ध": 3828,
      "छोड": 3829,
      "विद्यालयमा": 3830,
      "वित्तीय": 3831,
      "जटिल": 3832,
      "धारा": 3833,
      "##्मी": 3834,
      "प्रदीप": 3835,
      "##रोजग": 3836,
      "##किङ": 3837,
      "##ेसन": 3838,
      "नियम": 3839,
      "अधिवेशन": 3840,
      "सुरक्षाका": 3841,
      "गाँ": 3842,
      "लगाएर": 3843,
      "बनेका": 3844,
      "हुनुहुन्छ": 3845,
      "प्रशासनले": 3846,
      "नेगेटिभ": 3847,
      "##जान": 3848,
      "##जरको": 3849,
      "##रै": 3850,
      "विच": 3851,
      "##तिकै": 3852,
      "मिडिया": 3853,
      "पर्वत": 3854,
      "गुट": 3855,
      "निर्वाह": 3856,
      "कार्यान्वयनमा": 3857,
      "न्यौपा": 3858,
      "##बमोजिम": 3859,
      "##फाइ": 3860,
      "##श्र": 3861,
      "##लेक": 3862,
      "##लाको": 3863,
      "संवत्": 3864,
      "##कारण": 3865,
      "पार्टीलाई": 3866,
      "भइरहेका": 3867,
      "खाद्या": 3868,
      "बेलामा": 3869,
      "छोरी": 3870,
      "छोटो": 3871,
      "शाक्य": 3872,
      "टिप्पणी": 3873,
      "मनमुटाव": 3874,
      "##सिस": 3875,
      "##टनको": 3876,
      "##तावास": 3877,
      "दिइन्": 3878,
      "##नीकरण": 3879,
      "मिने": 3880,
      "प्रकाशित": 3881,
      "सूर्या": 3882,
      "कालापानी": 3883,
      "चल": 3884,
      "##ंगा": 3885,
      "##द्र": 3886,
      "माइ": 3887,
      "लाग्छ": 3888,
      "पार्ने": 3889,
      "सेनाले": 3890,
      "##जीकरण": 3891,
      "समूहका": 3892,
      "अरुभन्दा": 3893,
      "प्रकारका": 3894,
      "चासो": 3895,
      "सिद्धान्त": 3896,
      "बीमा": 3897,
      "भत्": 3898,
      "भन्छन्": 3899,
      "यता": 3900,
      "हू": 3901,
      "##तया": 3902,
      "##कुर": 3903,
      "##टरस": 3904,
      "##ोत्त": 3905,
      "विनि": 3906,
      "##क्षामन्त्री": 3907,
      "##रामा": 3908,
      "सुनु": 3909,
      "वार्ष": 3910,
      "हुनसक्ने": 3911,
      "गाउँपालिकाको": 3912,
      "आशा": 3913,
      "लैजाने": 3914,
      "मङ्गलबार": 3915,
      "उजु": 3916,
      "च्या": 3917,
      "पन्त": 3918,
      "पञ्च": 3919,
      "पाउन": 3920,
      "पछा": 3921,
      "##भी": 3922,
      "##थो": 3923,
      "बैठकको": 3924,
      "##समिति": 3925,
      "डुब": 3926,
      "सजाय": 3927,
      "उपमहान": 3928,
      "हक": 3929,
      "##ज्यू": 3930,
      "##धामा": 3931,
      "उपस्थिति": 3932,
      "सिमा": 3933,
      "अगाडी": 3934,
      "हेर्दा": 3935,
      "उच्चस्तरीय": 3936,
      "उहाँको": 3937,
      "त्रिभ": 3938,
      "पुनःनिर्माण": 3939,
      "राख्दै": 3940,
      "आआफ": 3941,
      "कल": 3942,
      "खी": 3943,
      "टिक": 3944,
      "##जनको": 3945,
      "##ठी": 3946,
      "##र्ती": 3947,
      "##म्वा": 3948,
      "निर्धारण": 3949,
      "जनाले": 3950,
      "एकीकृत": 3951,
      "आफैँ": 3952,
      "भएसँगै": 3953,
      "निर्माणमा": 3954,
      "सञ्चालक": 3955,
      "पठाउने": 3956,
      "दाहालले": 3957,
      "ललितपुरमा": 3958,
      "अर्थात्": 3959,
      "तनहुँ": 3960,
      "खाद्यान्न": 3961,
      "हिम": 3962,
      "##िमा": 3963,
      "##ुवन": 3964,
      "##रल": 3965,
      "##रिएको": 3966,
      "सेन्टर": 3967,
      "वास्त": 3968,
      "जोडि": 3969,
      "महासङ्घ": 3970,
      "लिम्प": 3971,
      "विषयलाई": 3972,
      "प्रचण्डको": 3973,
      "सूच": 3974,
      "परिवारलाई": 3975,
      "पठा": 3976,
      "##मुकाम": 3977,
      "जलविद्यु": 3978,
      "विभाजन": 3979,
      "सूर्यास्त": 3980,
      "कन्ट": 3981,
      "गू": 3982,
      "दफा": 3983,
      "नसक्दा": 3984,
      "फेस": 3985,
      "##एमा": 3986,
      "स्थानहरुमा": 3987,
      "तीव्र": 3988,
      "अोलीले": 3989,
      "गन्तव्य": 3990,
      "प्रसारण": 3991,
      "न्यौपाने": 3992,
      "लिम्पिया": 3993,
      "एक्": 3994,
      "जू": 3995,
      "ट्या": 3996,
      "लू": 3997,
      "##ोत्": 3998,
      "##णी": 3999,
      "##शो": 4000,
      "प्रकट": 4001,
      "निज": 4002,
      "संकेत": 4003,
      "स्थल": 4004,
      "##श्चा": 4005,
      "समाजमा": 4006,
      "मोबाइ": 4007,
      "राज्यको": 4008,
      "महानि": 4009,
      "भुस": 4010,
      "सदरमुकाम": 4011,
      "त्रिभुवन": 4012,
      "ट्वी": 4013,
      "द्व": 4014,
      "पराज": 4015,
      "वू": 4016,
      "##डमा": 4017,
      "##फर": 4018,
      "##भक्त": 4019,
      "##राको": 4020,
      "त्यसो": 4021,
      "लिपु": 4022,
      "कमिटीको": 4023,
      "विगतमा": 4024,
      "क्वारेन्टाइन": 4025,
      "कञ्चनपुर": 4026,
      "मनसुन": 4027,
      "प्रत्यारोपण": 4028,
      "खू": 4029,
      "झु": 4030,
      "तरि": 4031,
      "सरुवा": 4032,
      "##लाल": 4033,
      "##टि": 4034,
      "पाकि": 4035,
      "कुमार": 4036,
      "सहजीकरण": 4037,
      "कामको": 4038,
      "लगाइएको": 4039,
      "आजै": 4040,
      "उत्कृष्ट": 4041,
      "कानु": 4042,
      "छुट्टै": 4043,
      "समाधानका": 4044,
      "कानूनी": 4045,
      "कर्त": 4046,
      "तू": 4047,
      "मेल": 4048,
      "सपना": 4049,
      "##मूल": 4050,
      "##गढी": 4051,
      "प्रकाशन": 4052,
      "##ेशन": 4053,
      "##स्थापना": 4054,
      "##साथ": 4055,
      "सिल": 4056,
      "##डिङ": 4057,
      "आवतजा": 4058,
      "कुराका": 4059,
      "##म्बा": 4060,
      "स्वीकृति": 4061,
      "प्रयोगशालामा": 4062,
      "भीडभाड": 4063,
      "रणनीति": 4064,
      "##लोकन": 4065,
      "सिकाइ": 4066,
      "कसिलो": 4067,
      "दर्": 4068,
      "नवल": 4069,
      "##तह": 4070,
      "##भौ": 4071,
      "रहेर": 4072,
      "##हाव": 4073,
      "थिएँ": 4074,
      "बनाइ": 4075,
      "बनाइएको": 4076,
      "सक्छन्": 4077,
      "प्रवृत्ति": 4078,
      "प्रचण्डलाई": 4079,
      "व्यापारी": 4080,
      "एवम्": 4081,
      "खनालले": 4082,
      "पदार्थ": 4083,
      "कूट": 4084,
      "मङ्": 4085,
      "संवाद": 4086,
      "##ाउँछ": 4087,
      "नेपालीलाई": 4088,
      "संविधानले": 4089,
      "गतिलो": 4090,
      "स्वीकृत": 4091,
      "गुरुङ": 4092,
      "उद्घाट": 4093,
      "थालिएको": 4094,
      "सुनस": 4095,
      "ईश्वी": 4096,
      "आवाज": 4097,
      "ज्य": 4098,
      "जनाउँदै": 4099,
      "प्रतिक्रिया": 4100,
      "गतेको": 4101,
      "ल्याइएको": 4102,
      "हिंसा": 4103,
      "समाजवाद": 4104,
      "भिडियो": 4105,
      "बागलुङ": 4106,
      "सापकोटा": 4107,
      "यादवले": 4108,
      "अभ्यास": 4109,
      "दबाब": 4110,
      "फल": 4111,
      "मोर": 4112,
      "##त्ती": 4113,
      "सुशासन": 4114,
      "एकीकरण": 4115,
      "##सम्मका": 4116,
      "प्रवद्र्": 4117,
      "असफल": 4118,
      "कर्मचारीको": 4119,
      "बिरामीको": 4120,
      "ज्वरो": 4121,
      "स्वयं": 4122,
      "मिनेटमा": 4123,
      "तर्क": 4124,
      "भर": 4125,
      "सकिएको": 4126,
      "प्रष्ट": 4127,
      "##क्षेप": 4128,
      "लागिएको": 4129,
      "लाग्न": 4130,
      "भन्नु": 4131,
      "##ड्ड": 4132,
      "जरि": 4133,
      "दैले": 4134,
      "मेस": 4135,
      "##मन्त्र": 4136,
      "##तका": 4137,
      "##खण्ड": 4138,
      "काभ": 4139,
      "पुस्त": 4140,
      "##ण्डल": 4141,
      "वर्षका": 4142,
      "बताएकी": 4143,
      "पर्ख": 4144,
      "##यमित": 4145,
      "गोरखा": 4146,
      "आधिकार": 4147,
      "नवी": 4148,
      "सध": 4149,
      "##हमा": 4150,
      "##ढे": 4151,
      "सम्मा": 4152,
      "##स्थायी": 4153,
      "प्रतिनि": 4154,
      "तथ्याङ्क": 4155,
      "बढिरहेको": 4156,
      "खड्का": 4157,
      "असन्तुष्ट": 4158,
      "दैलेख": 4159,
      "गल्": 4160,
      "नम्ब": 4161,
      "##रव": 4162,
      "##भार": 4163,
      "प्रसाद": 4164,
      "निवेदन": 4165,
      "##्याउने": 4166,
      "##ल्पा": 4167,
      "##ारीमा": 4168,
      "बढाएको": 4169,
      "सङ्गठन": 4170,
      "##रहे": 4171,
      "जापान": 4172,
      "##सिंह": 4173,
      "खुसी": 4174,
      "खुशी": 4175,
      "गाउँपालिकाले": 4176,
      "जिम्मेवार": 4177,
      "न्यूनीकरण": 4178,
      "##एमसी": 4179,
      "##ल्यै": 4180,
      "अरब": 4181,
      "मंसिर": 4182,
      "कन्": 4183,
      "पाउ": 4184,
      "बस्ती": 4185,
      "##साइ": 4186,
      "##स्की": 4187,
      "##ाटा": 4188,
      "सुवेद": 4189,
      "प्रतिबन्ध": 4190,
      "प्रधानन्या": 4191,
      "लगाइ": 4192,
      "नेताले": 4193,
      "##कुमारी": 4194,
      "सांस्कृतिक": 4195,
      "बस्दै": 4196,
      "हेर्न": 4197,
      "##पक्षीय": 4198,
      "जुम्ला": 4199,
      "कसैलाई": 4200,
      "जोगाउन": 4201,
      "विजय": 4202,
      "उन्": 4203,
      "खाली": 4204,
      "बङ्ग": 4205,
      "भोक": 4206,
      "##हे": 4207,
      "बढा": 4208,
      "भएकी": 4209,
      "गाउँमा": 4210,
      "देखाएको": 4211,
      "सहयोगमा": 4212,
      "हिमा": 4213,
      "सामान्यतया": 4214,
      "उपलब्धि": 4215,
      "सहभागिता": 4216,
      "लिम्पियाधुरा": 4217,
      "कुराकानी": 4218,
      "ख्याल": 4219,
      "नारा": 4220,
      "पद्ध": 4221,
      "सल": 4222,
      "प्रकृति": 4223,
      "##्याम": 4224,
      "सरस": 4225,
      "बिग्र": 4226,
      "स्वास्थ्यमा": 4227,
      "क्षेत्रलाई": 4228,
      "आयोजनाको": 4229,
      "##धीन": 4230,
      "वार्षिक": 4231,
      "लिपुलेक": 4232,
      "डिस": 4233,
      "फूल": 4234,
      "बगा": 4235,
      "भत्ता": 4236,
      "##डे": 4237,
      "##ठो": 4238,
      "##भु": 4239,
      "##ानि": 4240,
      "विविध": 4241,
      "पुरा": 4242,
      "कामदार": 4243,
      "बिना": 4244,
      "आजदेखि": 4245,
      "##संस्था": 4246,
      "कैदी": 4247,
      "वीरगञ्ज": 4248,
      "##ठ्यारो": 4249,
      "प्रधानन्यायाधीश": 4250,
      "##रालाई": 4251,
      "यसबाट": 4252,
      "अस्वी": 4253,
      "घटनामा": 4254,
      "##वेदनमा": 4255,
      "संस्थागत": 4256,
      "निर्देशनालय": 4257,
      "सालमा": 4258,
      "अविश्वासको": 4259,
      "आधिकारिक": 4260,
      "अस्थायी": 4261,
      "ढङ्ग": 4262,
      "हेट": 4263,
      "##वद्ध": 4264,
      "##वाना": 4265,
      "काउ": 4266,
      "हुँ": 4267,
      "##्रोल": 4268,
      "दिनभित्र": 4269,
      "मानसिक": 4270,
      "सार्वभौ": 4271,
      "समाजसेवा": 4272,
      "बढ्दो": 4273,
      "##भूति": 4274,
      "फागुन": 4275,
      "उपमहानगरपालिका": 4276,
      "काभ्र": 4277,
      "जेल": 4278,
      "##वाइ": 4279,
      "कामना": 4280,
      "नगरपालिकाको": 4281,
      "कर्मचारीलाई": 4282,
      "बोलाइएको": 4283,
      "##युद्ध": 4284,
      "प्राथमिकता": 4285,
      "त्रिवि": 4286,
      "क्रियाकला": 4287,
      "पाकिस्तान": 4288,
      "आक्र": 4289,
      "उड्ड": 4290,
      "रौ": 4291,
      "##ून्य": 4292,
      "##र्देश": 4293,
      "विष्ट": 4294,
      "##्याउन": 4295,
      "सरकारमा": 4296,
      "##ग्राही": 4297,
      "रुपा": 4298,
      "##रूप": 4299,
      "समयमै": 4300,
      "##दिने": 4301,
      "अनियमित": 4302,
      "बुझ्न": 4303,
      "प्रक्रियामा": 4304,
      "समुदायमा": 4305,
      "उजुरी": 4306,
      "दर्शन": 4307,
      "उच": 4308,
      "चलि": 4309,
      "शून्य": 4310,
      "##जन्य": 4311,
      "##टु": 4312,
      "##शाली": 4313,
      "##्रि": 4314,
      "गर्यो": 4315,
      "##लीमा": 4316,
      "महिनामा": 4317,
      "हुनसक्छ": 4318,
      "चाँड": 4319,
      "भेट्न": 4320,
      "मोटरस": 4321,
      "विघटनको": 4322,
      "बाटोमा": 4323,
      "समृद्धिको": 4324,
      "जमिन": 4325,
      "##ज्ञानिक": 4326,
      "आकर्ष": 4327,
      "उदा": 4328,
      "जडान": 4329,
      "तिव": 4330,
      "श्य": 4331,
      "हल्ला": 4332,
      "##िको": 4333,
      "##कलाई": 4334,
      "कास्की": 4335,
      "कामका": 4336,
      "##ष्ठा": 4337,
      "राम्रा": 4338,
      "बाँके": 4339,
      "मोदी": 4340,
      "सीमित": 4341,
      "केसीले": 4342,
      "परराष्ट्रमन्त्री": 4343,
      "मोटरसाइ": 4344,
      "हस्त": 4345,
      "##लालाई": 4346,
      "काट": 4347,
      "##पालाई": 4348,
      "हुनेमा": 4349,
      "क्षेत्रीय": 4350,
      "पर्न": 4351,
      "प्रचण्डनेपाल": 4352,
      "समितिमा": 4353,
      "सहयोगले": 4354,
      "चार्ट": 4355,
      "##िटल": 4356,
      "आयोगको": 4357,
      "पानीको": 4358,
      "हटाउन": 4359,
      "अर्यालले": 4360,
      "कर्तव्य": 4361,
      "जरिवाना": 4362,
      "ग्या": 4363,
      "##िन्छ": 4364,
      "निरा": 4365,
      "माघ": 4366,
      "सम्पा": 4367,
      "कार्यविधि": 4368,
      "##पर्व": 4369,
      "बैत": 4370,
      "अध्ययनमा": 4371,
      "देशलाई": 4372,
      "घरमै": 4373,
      "##कुम": 4374,
      "भेटमा": 4375,
      "पदमा": 4376,
      "अतिक्रमण": 4377,
      "आँखा": 4378,
      "कठिन": 4379,
      "पाण्डेले": 4380,
      "उद्घाटन": 4381,
      "अवा": 4382,
      "नमि": 4383,
      "बराब": 4384,
      "म्य": 4385,
      "लिम": 4386,
      "##काे": 4387,
      "##नित": 4388,
      "नेम्वा": 4389,
      "सेल्": 4390,
      "कमी": 4391,
      "##समक्ष": 4392,
      "##वासीय": 4393,
      "सक्नेछन्": 4394,
      "उत्सा": 4395,
      "मेगा": 4396,
      "आधारित": 4397,
      "पीडा": 4398,
      "##धुनिक": 4399,
      "प्राधिकरणले": 4400,
      "ढुवानी": 4401,
      "परिस्थितिमा": 4402,
      "पाटन": 4403,
      "परम्परा": 4404,
      "अस्थ": 4405,
      "अरू": 4406,
      "##मणि": 4407,
      "##गढ": 4408,
      "##भे": 4409,
      "##्रै": 4410,
      "##न्थ्यो": 4411,
      "##तिका": 4412,
      "हुम्ला": 4413,
      "भएकोले": 4414,
      "पुर्न": 4415,
      "दुबै": 4416,
      "उपत्यकाका": 4417,
      "संस्थाले": 4418,
      "##वेदनशील": 4419,
      "क्याम्प": 4420,
      "प्रतिस्पर्धी": 4421,
      "श्यया": 4422,
      "रक्षामन्त्री": 4423,
      "##खाना": 4424,
      "##चु": 4425,
      "विप्": 4426,
      "हुदा": 4427,
      "संयन्त्र": 4428,
      "स्वागत": 4429,
      "##िसकेको": 4430,
      "हुन्थ्यो": 4431,
      "सामूह": 4432,
      "आधारभूत": 4433,
      "तयारीमा": 4434,
      "खोजेको": 4435,
      "भानु": 4436,
      "मक": 4437,
      "##यनको": 4438,
      "##घु": 4439,
      "संसार": 4440,
      "सुत्": 4441,
      "दुख": 4442,
      "राजधान": 4443,
      "प्रधानमन्त्रीका": 4444,
      "डाक्टर": 4445,
      "##त्वमा": 4446,
      "भाइरसका": 4447,
      "##उँन": 4448,
      "##िटाइ": 4449,
      "हेर्ने": 4450,
      "सवारीसा": 4451,
      "बजेसम्म": 4452,
      "आयोगमा": 4453,
      "चलाउने": 4454,
      "नसकिने": 4455,
      "मोबाइल": 4456,
      "उड्डयन": 4457,
      "सामूहिक": 4458,
      "अप्र": 4459,
      "स्यान": 4460,
      "##मले": 4461,
      "##टको": 4462,
      "##श्": 4463,
      "##नाको": 4464,
      "अनुमो": 4465,
      "वर्षदेखि": 4466,
      "बैं": 4467,
      "सोध": 4468,
      "सेवामा": 4469,
      "खुलेको": 4470,
      "सुरक्षाको": 4471,
      "##ब्जा": 4472,
      "विदेशबाट": 4473,
      "##गरीय": 4474,
      "महिनाको": 4475,
      "महानगरीय": 4476,
      "सञ्जालमा": 4477,
      "##रोजगार": 4478,
      "चार्टर्ड": 4479,
      "चन्द": 4480,
      "दम": 4481,
      "##नारायण": 4482,
      "##घर": 4483,
      "##छो": 4484,
      "दिई": 4485,
      "##रिको": 4486,
      "##्नो": 4487,
      "##उँछ": 4488,
      "सञ्चालनका": 4489,
      "पठाउन": 4490,
      "##तर्फी": 4491,
      "लगाए": 4492,
      "सिंहदर": 4493,
      "राईले": 4494,
      "खानपान": 4495,
      "फेसबु": 4496,
      "आस": 4497,
      "चट्या": 4498,
      "पालिका": 4499,
      "##वाल": 4500,
      "##वहार": 4501,
      "##गु": 4502,
      "##ंदै": 4503,
      "##्रु": 4504,
      "साढे": 4505,
      "##ामक": 4506,
      "तीमध्ये": 4507,
      "राखी": 4508,
      "कार्यालयको": 4509,
      "विकासमा": 4510,
      "दुर्गा": 4511,
      "खटिएका": 4512,
      "अनेक": 4513,
      "सुदृढ": 4514,
      "कारोबार": 4515,
      "विनियोजन": 4516,
      "विप्लव": 4517,
      "अलि": 4518,
      "इच्छा": 4519,
      "गएपछि": 4520,
      "बन्दै": 4521,
      "रगत": 4522,
      "##इरहेका": 4523,
      "निवासी": 4524,
      "दिनदेखि": 4525,
      "देखिने": 4526,
      "सदस्यहरु": 4527,
      "पु¥याउने": 4528,
      "मिलाउन": 4529,
      "रमाउन": 4530,
      "थुप्र": 4531,
      "चौधरी": 4532,
      "जनकपुर": 4533,
      "खि": 4534,
      "##ृति": 4535,
      "नभएर": 4536,
      "संसदको": 4537,
      "हार्द": 4538,
      "भेटघाट": 4539,
      "##िटेड": 4540,
      "##ारमाध्यम": 4541,
      "बजेदेखि": 4542,
      "बैंकले": 4543,
      "सर्ला": 4544,
      "प्रतिस्पर्धामा": 4545,
      "नपाउने": 4546,
      "आवतजावत": 4547,
      "स्यानिटाइ": 4548,
      "हार्दिक": 4549,
      "काली": 4550,
      "खेत": 4551,
      "रम": 4552,
      "##मला": 4553,
      "##ह्न": 4554,
      "##धित्व": 4555,
      "##स्पद": 4556,
      "बासि": 4557,
      "गरिनेछ": 4558,
      "पारेका": 4559,
      "आयोगका": 4560,
      "जोडिएको": 4561,
      "मूल्याङ्क": 4562,
      "पहिरोले": 4563,
      "मानिसको": 4564,
      "इलाका": 4565,
      "मङ्सिर": 4566,
      "सर्लाही": 4567,
      "तार": 4568,
      "तिर": 4569,
      "##चर": 4570,
      "##फ्": 4571,
      "##गी": 4572,
      "##ँजी": 4573,
      "##ौटी": 4574,
      "साधनको": 4575,
      "##रहने": 4576,
      "##किलो": 4577,
      "##ियन": 4578,
      "पर्नेछ": 4579,
      "महेन्द्र": 4580,
      "गर्नुहोला": 4581,
      "रामचन्द्र": 4582,
      "निर्देशिका": 4583,
      "महाशाखाका": 4584,
      "लिमिटेड": 4585,
      "अनुमोदन": 4586,
      "अनाव": 4587,
      "चल्": 4588,
      "शरी": 4589,
      "##बई": 4590,
      "प्रहार": 4591,
      "विला": 4592,
      "निस्": 4593,
      "संगठ": 4594,
      "##न्दे": 4595,
      "पाठ्य": 4596,
      "उपप्रधानमन्त्री": 4597,
      "##प्ती": 4598,
      "अस्पताललाई": 4599,
      "नागरिकता": 4600,
      "क्रमश": 4601,
      "प्रस्तावमा": 4602,
      "जनतामा": 4603,
      "दशक": 4604,
      "त्रास": 4605,
      "अर्कालाई": 4606,
      "डोटी": 4607,
      "स्वतन्त्रता": 4608,
      "मजदुर": 4609,
      "पुराना": 4610,
      "इतिहास": 4611,
      "बाँस्कोटाले": 4612,
      "पछाडि": 4613,
      "अस्थिर": 4614,
      "चाम": 4615,
      "ठो": 4616,
      "##मेन्ट": 4617,
      "##जत": 4618,
      "त्यसकारण": 4619,
      "भइसकेका": 4620,
      "##भित्रै": 4621,
      "यहाँको": 4622,
      "गरिसकेका": 4623,
      "पाण्डे": 4624,
      "तामाङ": 4625,
      "##पाटी": 4626,
      "चाडपर्व": 4627,
      "अप्ठ्यारो": 4628,
      "कूटनीतिक": 4629,
      "अस्वीकार": 4630,
      "समाजसेवामा": 4631,
      "मकवान": 4632,
      "अनावश्यक": 4633,
      "##वती": 4634,
      "##पदा": 4635,
      "##ौद्ध": 4636,
      "##न्सी": 4637,
      "##पात": 4638,
      "सुन्दर": 4639,
      "सञ्चारमाध्यम": 4640,
      "सङ्क्रमणका": 4641,
      "लेखेका": 4642,
      "पदबाट": 4643,
      "पहिरोमा": 4644,
      "अदालतको": 4645,
      "रिज": 4646,
      "भागमा": 4647,
      "भेरी": 4648,
      "बाबुराम": 4649,
      "प्रतिनिधित्व": 4650,
      "मेगावाट": 4651,
      "थुप्रै": 4652,
      "भग": 4653,
      "##टार": 4654,
      "##पनको": 4655,
      "##ण्डा": 4656,
      "स्थिर": 4657,
      "##प्रेम": 4658,
      "##र्फत्": 4659,
      "खुकु": 4660,
      "किट": 4661,
      "व्यापारमा": 4662,
      "मौलिक": 4663,
      "जोड्ने": 4664,
      "##परित": 4665,
      "आउनु": 4666,
      "सिंहले": 4667,
      "गर्नुपर्नेछ": 4668,
      "युनियन": 4669,
      "आयुक्त": 4670,
      "उत्र": 4671,
      "कड": 4672,
      "कला": 4673,
      "झन्": 4674,
      "नपर्ने": 4675,
      "मध": 4676,
      "लाल": 4677,
      "##कर": 4678,
      "##हत्या": 4679,
      "##दिएको": 4680,
      "##छी": 4681,
      "##ागत": 4682,
      "##रात्र": 4683,
      "##हिल्यै": 4684,
      "पाए": 4685,
      "##ारीले": 4686,
      "##गरमा": 4687,
      "सिट": 4688,
      "सञ्चालित": 4689,
      "पारे": 4690,
      "पारदर्": 4691,
      "##ानुसार": 4692,
      "कोइरालाले": 4693,
      "बच्न": 4694,
      "##ज्मा": 4695,
      "उपभोग": 4696,
      "सन्तोष": 4697,
      "लाइन": 4698,
      "प्लाज्मा": 4699,
      "टिकट": 4700,
      "द्वन्द": 4701,
      "##मन्त्रालय": 4702,
      "हस्तक्षेप": 4703,
      "उसले": 4704,
      "चिया": 4705,
      "यदि": 4706,
      "वटै": 4707,
      "##एक": 4708,
      "##श्वर": 4709,
      "संवेदनशील": 4710,
      "दिदी": 4711,
      "लागेर": 4712,
      "त्याग": 4713,
      "##स्थापित": 4714,
      "##नीले": 4715,
      "मिल्ने": 4716,
      "केन्द्रले": 4717,
      "अधिवक्ता": 4718,
      "नागरिकले": 4719,
      "मुलुकका": 4720,
      "##केज": 4721,
      "उठा": 4722,
      "चलाउन": 4723,
      "खण्डमा": 4724,
      "पेट्रोल": 4725,
      "डुबान": 4726,
      "प्रवद्र्धन": 4727,
      "अलग": 4728,
      "आरा": 4729,
      "बसि": 4730,
      "हकमा": 4731,
      "##सेव": 4732,
      "##शेर": 4733,
      "##आइ": 4734,
      "##घ्र": 4735,
      "##र्दै": 4736,
      "##ाइड": 4737,
      "सहसचिव": 4738,
      "विश्ले": 4739,
      "मिश्र": 4740,
      "नेकपाले": 4741,
      "नियमा": 4742,
      "उल्ल": 4743,
      "बालिका": 4744,
      "दूतावास": 4745,
      "बैंकको": 4746,
      "मानवीय": 4747,
      "पर्यटकीय": 4748,
      "प्याकेज": 4749,
      "एयरलाइन्सले": 4750,
      "सिंहदरबार": 4751,
      "द्वन्द्व": 4752,
      "आय": 4753,
      "आका": 4754,
      "चढ": 4755,
      "मल्ल": 4756,
      "##लिन": 4757,
      "##परा": 4758,
      "##दछन्": 4759,
      "##ौली": 4760,
      "##्यांक": 4761,
      "सरकारबाट": 4762,
      "##पर्छ": 4763,
      "##न्धन": 4764,
      "विद्य": 4765,
      "असं": 4766,
      "विश्वका": 4767,
      "सडकको": 4768,
      "भेटिएको": 4769,
      "##चाप": 4770,
      "तोकेको": 4771,
      "##लम्बन": 4772,
      "खसेको": 4773,
      "बराबरको": 4774,
      "म्याग्": 4775,
      "मदन": 4776,
      "##जारी": 4777,
      "##ड्ने": 4778,
      "##पू": 4779,
      "##धनमा": 4780,
      "##श्रम": 4781,
      "राप्ती": 4782,
      "##यां": 4783,
      "##ाइँ": 4784,
      "##विन्द": 4785,
      "एकजना": 4786,
      "कमजो": 4787,
      "वार्ड": 4788,
      "बनाई": 4789,
      "दिनसम्म": 4790,
      "प्रशंसा": 4791,
      "सेवाग्राही": 4792,
      "पूर्वी": 4793,
      "खोला": 4794,
      "खोज्ने": 4795,
      "महानगर": 4796,
      "प्रणालीको": 4797,
      "अभियानमा": 4798,
      "पुरस्कार": 4799,
      "आन्दोलनमा": 4800,
      "महानिर्देश": 4801,
      "##न्देही": 4802,
      "आराधना": 4803,
      "घट्": 4804,
      "नकारात्मक": 4805,
      "बारा": 4806,
      "मार": 4807,
      "वृद्ध": 4808,
      "षड": 4809,
      "हरु": 4810,
      "##ियो": 4811,
      "##वृद्धि": 4812,
      "##तहत": 4813,
      "##घरमा": 4814,
      "##क्षेत्र": 4815,
      "##पालन": 4816,
      "##ल्म": 4817,
      "##भाई": 4818,
      "##ेलले": 4819,
      "गरेकाले": 4820,
      "##वारिक": 4821,
      "भारतसँग": 4822,
      "पछिल्ला": 4823,
      "समस्याको": 4824,
      "##ंकर": 4825,
      "व्यापक": 4826,
      "जनताका": 4827,
      "उद्य": 4828,
      "गोविन्द": 4829,
      "पाइन्छ": 4830,
      "प्रतिनिधिसभाको": 4831,
      "प्रविधिको": 4832,
      "नजिकै": 4833,
      "हटाउने": 4834,
      "छिट्टै": 4835,
      "हैसिय": 4836,
      "सम्वन्धी": 4837,
      "कपिल": 4838,
      "इन्टरनेट": 4839,
      "अभिभावक": 4840,
      "अक्": 4841,
      "अपा": 4842,
      "धनु": 4843,
      "पत्ता": 4844,
      "##िरि": 4845,
      "##व्": 4846,
      "##लै": 4847,
      "##ुप": 4848,
      "##भेद": 4849,
      "##राव": 4850,
      "गरिन्": 4851,
      "ल्याब": 4852,
      "राजनीतिमा": 4853,
      "संविधानसभा": 4854,
      "दोहो": 4855,
      "सम्भावित": 4856,
      "व्यवसायीले": 4857,
      "घटनाको": 4858,
      "बाहिरि": 4859,
      "रोगको": 4860,
      "लैजान": 4861,
      "गुमाएका": 4862,
      "सुखी": 4863,
      "##खोला": 4864,
      "सम्मेलनमा": 4865,
      "रावलले": 4866,
      "तरिकाले": 4867,
      "बङ्गलादेश": 4868,
      "आधा": 4869,
      "बसो": 4870,
      "बहादुर": 4871,
      "शब्द": 4872,
      "##बहिनी": 4873,
      "##शै": 4874,
      "साब": 4875,
      "जाजरको": 4876,
      "गरेपनि": 4877,
      "निर्णयहरु": 4878,
      "पक्षका": 4879,
      "सामग्र": 4880,
      "रेग्": 4881,
      "##विरुद्धको": 4882,
      "गिरी": 4883,
      "अनुमतिपत्र": 4884,
      "गर्नुभयो": 4885,
      "वास्तविक": 4886,
      "घा": 4887,
      "##वर्ष": 4888,
      "##्नुपर्ने": 4889,
      "##होर": 4890,
      "##गमा": 4891,
      "##भारत": 4892,
      "रहनु": 4893,
      "लाग्यो": 4894,
      "पात्र": 4895,
      "यसबारे": 4896,
      "नैतिक": 4897,
      "##भाविक": 4898,
      "भन्सार": 4899,
      "प्रशि": 4900,
      "ल्याइ": 4901,
      "पुनर्": 4902,
      "खोल्न": 4903,
      "##पुर्ण": 4904,
      "समूहको": 4905,
      "विद्यार्थीको": 4906,
      "मूल्यमा": 4907,
      "तामाङले": 4908,
      "पारिवारिक": 4909,
      "अगुवा": 4910,
      "कम्तीमा": 4911,
      "क्रमशः": 4912,
      "इन्ड": 4913,
      "ड्र": 4914,
      "रक्त": 4915,
      "सघन": 4916,
      "गराउँदै": 4917,
      "विना": 4918,
      "संचालन": 4919,
      "माध्य": 4920,
      "मातहत": 4921,
      "लागु": 4922,
      "जनयुद्ध": 4923,
      "रुकुम": 4924,
      "देशले": 4925,
      "अन्तरि": 4926,
      "खुमल": 4927,
      "अबको": 4928,
      "सङ्घका": 4929,
      "प्राथमिकतामा": 4930,
      "सवारीसाधन": 4931,
      "मकवानपुर": 4932,
      "खुकुलो": 4933,
      "अथ": 4934,
      "अग्": 4935,
      "पठन": 4936,
      "रेख": 4937,
      "##ुक": 4938,
      "##निया": 4939,
      "##क्षम": 4940,
      "गर्नेछन्": 4941,
      "##ायक": 4942,
      "अनुश": 4943,
      "रोप": 4944,
      "बनाएका": 4945,
      "महोत्त": 4946,
      "भारतका": 4947,
      "##हित्य": 4948,
      "अवै": 4949,
      "पक्षको": 4950,
      "संविधानमा": 4951,
      "राष्ट्रपतिले": 4952,
      "आइसोलेशन": 4953,
      "अधिकतम": 4954,
      "आउँदा": 4955,
      "दायरा": 4956,
      "पृथ": 4957,
      "डिजिटल": 4958,
      "नम्बरको": 4959,
      "रौतह": 4960,
      "ठिक": 4961,
      "तिम": 4962,
      "श्रा": 4963,
      "##ईमा": 4964,
      "##कोप": 4965,
      "साहित्य": 4966,
      "##रास्व": 4967,
      "##दायी": 4968,
      "##धारा": 4969,
      "महसु": 4970,
      "सेवाको": 4971,
      "गौतमका": 4972,
      "नदेख": 4973,
      "आम्दानीका": 4974,
      "विपरीत": 4975,
      "कसैको": 4976,
      "सुनाए": 4977,
      "अनेरास्व": 4978,
      "मर्मत": 4979,
      "क्रियाकलाप": 4980,
      "करी": 4981,
      "गाह": 4982,
      "जय": 4983,
      "दर्जन": 4984,
      "लक्षित": 4985,
      "सब": 4986,
      "##िरहेका": 4987,
      "##लका": 4988,
      "##हारमा": 4989,
      "निगर": 4990,
      "निरीक्षक": 4991,
      "##ाग्र": 4992,
      "##विन": 4993,
      "##प्ने": 4994,
      "आइरहेको": 4995,
      "सदस्यले": 4996,
      "ल्याएर": 4997,
      "पोष्ट": 4998,
      "पूर्वप्रधानमन्त्री": 4999,
      "अरुको": 5000,
      "आत्महत्या": 5001,
      "जसरी": 5002,
      "छिन्": 5003,
      "प्रकारको": 5004,
      "साझेद": 5005,
      "गल्ती": 5006,
      "अवार्ड": 5007,
      "निगरानी": 5008,
      "इन": 5009,
      "चक्र": 5010,
      "##िए": 5011,
      "##तु": 5012,
      "##ह्र": 5013,
      "##पोर": 5014,
      "##पिट": 5015,
      "##उनुपर्छ": 5016,
      "##हिने": 5017,
      "##ङ्जा": 5018,
      "##रूद्ध": 5019,
      "सेन्ट": 5020,
      "सिर": 5021,
      "मृतकको": 5022,
      "सुरक्षाकर्म": 5023,
      "ध्यानमा": 5024,
      "आरोपमा": 5025,
      "राज्यले": 5026,
      "रुपन्देही": 5027,
      "अमेरिकाको": 5028,
      "संयोजकत्वमा": 5029,
      "दृढ": 5030,
      "बाध्यता": 5031,
      "सहायता": 5032,
      "वस्तुको": 5033,
      "क्रियाशील": 5034,
      "वायुसेवा": 5035,
      "आउँछ": 5036,
      "##पोख": 5037,
      "##परासी": 5038,
      "उभि": 5039,
      "उम्म": 5040,
      "दै": 5041,
      "बहाव": 5042,
      "रिस": 5043,
      "सकेका": 5044,
      "##न्धि": 5045,
      "##ालमा": 5046,
      "प्रय": 5047,
      "प्रजि": 5048,
      "निस्क": 5049,
      "##क्षी": 5050,
      "पुरि": 5051,
      "##हीँ": 5052,
      "##रहँदा": 5053,
      "##प्टर": 5054,
      "परिच": 5055,
      "काठमाण्डुको": 5056,
      "तीनै": 5057,
      "चाहना": 5058,
      "समूहमा": 5059,
      "##दलीय": 5060,
      "क्षमताको": 5061,
      "देशभरका": 5062,
      "प्रशासनिक": 5063,
      "रेलमार्ग": 5064,
      "नेकपाभित्रको": 5065,
      "सम्मेलन": 5066,
      "सुत्के": 5067,
      "अनेरास्ववि": 5068,
      "प्रजिअ": 5069,
      "नलि": 5070,
      "हार": 5071,
      "##क्सी": 5072,
      "##निय": 5073,
      "दिला": 5074,
      "##साई": 5075,
      "आइपुग": 5076,
      "खोल्ने": 5077,
      "##ेषण": 5078,
      "अपिल": 5079,
      "सचिवालयमा": 5080,
      "मायाप्रेम": 5081,
      "गराए": 5082,
      "मौसमविद्": 5083,
      "दीपक": 5084,
      "ट्रेस": 5085,
      "सिफारिसमा": 5086,
      "हेरेर": 5087,
      "गैरआ": 5088,
      "स्याङ्जा": 5089,
      "गठबन्ध": 5090,
      "संग्रौलाले": 5091,
      "कानुनी": 5092,
      "नवलपरासी": 5093,
      "अंग": 5094,
      "झो": 5095,
      "धरान": 5096,
      "मगर": 5097,
      "शंका": 5098,
      "##िएर": 5099,
      "##बो": 5100,
      "##हका": 5101,
      "##झदारी": 5102,
      "##गाउँ": 5103,
      "##ढु": 5104,
      "##ालु": 5105,
      "प्रेर": 5106,
      "##नायक": 5107,
      "##्याक्ट": 5108,
      "प्रतिवेदनमा": 5109,
      "##ियम": 5110,
      "नेपालीले": 5111,
      "महिलालाई": 5112,
      "अवलोकन": 5113,
      "हालै": 5114,
      "निर्वाचनको": 5115,
      "कांग्रेसको": 5116,
      "परिवारमा": 5117,
      "उपत्यकाको": 5118,
      "उपलव्": 5119,
      "कर्पोर": 5120,
      "नारायणी": 5121,
      "अर्थात": 5122,
      "तालिम": 5123,
      "चर्को": 5124,
      "चेत": 5125,
      "तस": 5126,
      "ताली": 5127,
      "न्यु": 5128,
      "नलाग": 5129,
      "बझा": 5130,
      "##यको": 5131,
      "##सलाई": 5132,
      "##ईलो": 5133,
      "##र्का": 5134,
      "गराइएको": 5135,
      "विव": 5136,
      "समी": 5137,
      "##रिङ": 5138,
      "##ङ्का": 5139,
      "महासंघ": 5140,
      "सञ्चालनको": 5141,
      "सदस्यको": 5142,
      "रूप": 5143,
      "बिरामीलाई": 5144,
      "लक्ष्मी": 5145,
      "तुलसी": 5146,
      "उद्देश्यले": 5147,
      "असन्तुष्टि": 5148,
      "खालको": 5149,
      "सँगै": 5150,
      "निजाम": 5151,
      "कपिलवस्तु": 5152,
      "तसर्थ": 5153,
      "अल्": 5154,
      "गीत": 5155,
      "टिम": 5156,
      "बौद्ध": 5157,
      "यद्य": 5158,
      "हतियार": 5159,
      "##जको": 5160,
      "##नन्": 5161,
      "##दश": 5162,
      "प्रोत्": 5163,
      "##स्थलको": 5164,
      "कार्ययोजना": 5165,
      "##योग्य": 5166,
      "सिँच": 5167,
      "मुस्": 5168,
      "सामाग्री": 5169,
      "सुरेन्द्र": 5170,
      "हातमा": 5171,
      "गौरव": 5172,
      "हुँदैछ": 5173,
      "##ुलिय": 5174,
      "महिनादेखि": 5175,
      "तिहा": 5176,
      "प्रणालीमा": 5177,
      "कैद": 5178,
      "कोषमा": 5179,
      "माथिल्लो": 5180,
      "दुर्घटनामा": 5181,
      "प्रशासकीय": 5182,
      "##चित्र": 5183,
      "चाहनेहरुका": 5184,
      "बाढीले": 5185,
      "ढङ्गले": 5186,
      "कडाइ": 5187,
      "महसुस": 5188,
      "उनि": 5189,
      "तालिका": 5190,
      "पाउँ": 5191,
      "सक": 5192,
      "सेती": 5193,
      "##ीक": 5194,
      "##ोस्": 5195,
      "##हरुबाट": 5196,
      "##पाले": 5197,
      "निर्यात": 5198,
      "##लीको": 5199,
      "कार्यक": 5200,
      "प्रतिपक्ष": 5201,
      "जिल्लाबाट": 5202,
      "बुद्ध": 5203,
      "##ियाको": 5204,
      "सहयोगी": 5205,
      "सचिवालयले": 5206,
      "चाहन्छ": 5207,
      "शास्त्र": 5208,
      "विकसित": 5209,
      "बाग्": 5210,
      "तुलनामा": 5211,
      "निगमले": 5212,
      "हल्कादेखि": 5213,
      "बेलायत": 5214,
      "गोकर्ण": 5215,
      "आआफ्नो": 5216,
      "मेसिन": 5217,
      "मूल्याङ्कन": 5218,
      "विश्लेषण": 5219,
      "माध्यमिक": 5220,
      "गैरआवासीय": 5221,
      "गज": 5222,
      "डलर": 5223,
      "बर्द": 5224,
      "श्वास": 5225,
      "##िरहेको": 5226,
      "##यू": 5227,
      "##अल": 5228,
      "##न्सि": 5229,
      "##ालको": 5230,
      "विस्थापित": 5231,
      "रोकि": 5232,
      "भन्नुभयो": 5233,
      "##नैतिक": 5234,
      "सदस्यमा": 5235,
      "दलित": 5236,
      "##र्तालाई": 5237,
      "विद्यार्थीलाई": 5238,
      "मुद्दामा": 5239,
      "प्राधिकरणको": 5240,
      "संकटको": 5241,
      "इलाम": 5242,
      "दाजुभाइ": 5243,
      "ज्ञापन": 5244,
      "पन्तले": 5245,
      "महानिर्देशक": 5246,
      "अन्तरिम": 5247,
      "गाह्रो": 5248,
      "प्रोत्सा": 5249,
      "खुवा": 5250,
      "##हारी": 5251,
      "##ेसँगै": 5252,
      "##ँफा": 5253,
      "##भने": 5254,
      "##ालो": 5255,
      "कार्यसमिति": 5256,
      "कामलाई": 5257,
      "##किङ्ग": 5258,
      "गरिबी": 5259,
      "राखे": 5260,
      "दिनअघि": 5261,
      "देखियो": 5262,
      "वडामा": 5263,
      "पठाइ": 5264,
      "लगातार": 5265,
      "पहिलोपटक": 5266,
      "बस्नेतले": 5267,
      "समन्वयमा": 5268,
      "प्राधिकरणका": 5269,
      "आपसी": 5270,
      "उदाहरण": 5271,
      "मोटरसाइकल": 5272,
      "आसपा": 5273,
      "रमेश": 5274,
      "नियमावली": 5275,
      "करीब": 5276,
      "ट्रेसिङ": 5277,
      "समीक्षा": 5278,
      "डर": 5279,
      "लडा": 5280,
      "शहरी": 5281,
      "##ंदा": 5282,
      "##र्ति": 5283,
      "##ारण": 5284,
      "##नाइ": 5285,
      "विपक्षी": 5286,
      "##म्पत": 5287,
      "##्याक": 5288,
      "समझदारी": 5289,
      "जनाए": 5290,
      "##विरोध": 5291,
      "उपप्रमुख": 5292,
      "##प्रकाश": 5293,
      "बनाउनु": 5294,
      "दिएपछि": 5295,
      "केन्द्रको": 5296,
      "देखिन": 5297,
      "नाँफा": 5298,
      "मुलुकबाट": 5299,
      "अघिल्लो": 5300,
      "बेच": 5301,
      "##नुभएका": 5302,
      "रोकिएको": 5303,
      "स्रोतको": 5304,
      "आशंका": 5305,
      "केसीको": 5306,
      "गुणस्तरीय": 5307,
      "फाइदा": 5308,
      "प्रकरणमा": 5309,
      "हिमाली": 5310,
      "सार्वभौम": 5311,
      "अनियमितता": 5312,
      "कहिल्यै": 5313,
      "खडा": 5314,
      "सहि": 5315,
      "##्स": 5316,
      "##्लो": 5317,
      "##गन": 5318,
      "कोठ": 5319,
      "पुर्व": 5320,
      "##भिर": 5321,
      "बढेका": 5322,
      "दुर्ग": 5323,
      "रहेकोले": 5324,
      "कमल": 5325,
      "##जात": 5326,
      "परेर": 5327,
      "शुक्": 5328,
      "समस्यामा": 5329,
      "बाँध": 5330,
      "भाषा": 5331,
      "कसले": 5332,
      "वैज्ञानिक": 5333,
      "##पत्रमा": 5334,
      "गराएर": 5335,
      "सङ्ख्यामा": 5336,
      "अध्यापनमा": 5337,
      "लोह": 5338,
      "छनोट": 5339,
      "कार्कीले": 5340,
      "हिमालय": 5341,
      "राणाले": 5342,
      "नवीकरण": 5343,
      "आधुनिक": 5344,
      "इन्द्र": 5345,
      "खरी": 5346,
      "नच": 5347,
      "फरा": 5348,
      "रस": 5349,
      "वृ": 5350,
      "हेलिक": 5351,
      "##वटै": 5352,
      "##डको": 5353,
      "##इँ": 5354,
      "##माया": 5355,
      "प्रकोप": 5356,
      "##रीक्षण": 5357,
      "##याम": 5358,
      "##हिर": 5359,
      "बढाइएको": 5360,
      "दुरिको": 5361,
      "परिक्षण": 5362,
      "##डाँडा": 5363,
      "मन्त्रिम": 5364,
      "##हरूका": 5365,
      "पुग्": 5366,
      "खुल्ला": 5367,
      "डिभिजन": 5368,
      "समाजको": 5369,
      "फैला": 5370,
      "बोलाउन": 5371,
      "##न्सर": 5372,
      "##जिलो": 5373,
      "निषेध": 5374,
      "स्थितिमा": 5375,
      "सन्देशमा": 5376,
      "##एसपी": 5377,
      "##दुई": 5378,
      "भानुभक्त": 5379,
      "बसोबास": 5380,
      "उम्मेद": 5381,
      "अंक": 5382,
      "आत": 5383,
      "धान": 5384,
      "बंग": 5385,
      "सिस": 5386,
      "##सव": 5387,
      "##छाम": 5388,
      "##औं": 5389,
      "केजी": 5390,
      "वर्षे": 5391,
      "##चारु": 5392,
      "##प्रिय": 5393,
      "व्यवस्थापनमा": 5394,
      "गतेबाट": 5395,
      "##जीवी": 5396,
      "सदस्यीय": 5397,
      "##च्चा": 5398,
      "थापाको": 5399,
      "सचिवालयका": 5400,
      "सुरुङ": 5401,
      "जग्गाको": 5402,
      "राख्नु": 5403,
      "तोड": 5404,
      "पुर्याउने": 5405,
      "महाधिवेश": 5406,
      "खड्काले": 5407,
      "भोजन": 5408,
      "सरोकारवाला": 5409,
      "खानपानमा": 5410,
      "पठनपा": 5411,
      "अन्न": 5412,
      "ठु": 5413,
      "मर्या": 5414,
      "राना": 5415,
      "##वधि": 5416,
      "##दको": 5417,
      "##ूढ": 5418,
      "##काउने": 5419,
      "##स्ने": 5420,
      "##क्सन": 5421,
      "दिगो": 5422,
      "होई": 5423,
      "बिजु": 5424,
      "##सामा": 5425,
      "मिले": 5426,
      "प्रहरीका": 5427,
      "नेताहरुलाई": 5428,
      "देखिए": 5429,
      "प्रचण्डबीच": 5430,
      "प्रेमको": 5431,
      "गर्नुपर्नेमा": 5432,
      "आगो": 5433,
      "नदिएको": 5434,
      "अधिकारको": 5435,
      "बोलाएर": 5436,
      "मनाउन": 5437,
      "दरले": 5438,
      "यतिबेला": 5439,
      "कक्षमा": 5440,
      "भेन्टिलेटर": 5441,
      "बोकेर": 5442,
      "परिचय": 5443,
      "सिँचाइ": 5444,
      "घो": 5445,
      "जिक": 5446,
      "झर": 5447,
      "नमा": 5448,
      "शहर": 5449,
      "##वालाई": 5450,
      "##अधिकार": 5451,
      "##ैमा": 5452,
      "निम": 5453,
      "कोरिया": 5454,
      "मापन": 5455,
      "बढुवा": 5456,
      "मिल": 5457,
      "प्रहरीलाई": 5458,
      "पूर्वस": 5459,
      "भन्नेमा": 5460,
      "मौका": 5461,
      "कर्जा": 5462,
      "##बुझ": 5463,
      "सालको": 5464,
      "अपनाएर": 5465,
      "डोरो": 5466,
      "मध्ययम": 5467,
      "जुनसुकै": 5468,
      "मनोन": 5469,
      "बचाउन": 5470,
      "विरुद्धको": 5471,
      "टेलिफो": 5472,
      "गोकुल": 5473,
      "आचार्यले": 5474,
      "पाठ्यक्रम": 5475,
      "चामल": 5476,
      "निजामती": 5477,
      "कँ": 5478,
      "ग¥यो": 5479,
      "नराख": 5480,
      "मधु": 5481,
      "##डीको": 5482,
      "##लेन्स": 5483,
      "##म्लामा": 5484,
      "##निकी": 5485,
      "साधारण": 5486,
      "##स्तरको": 5487,
      "कुरालाई": 5488,
      "दुबई": 5489,
      "सहुलिय": 5490,
      "##िसन": 5491,
      "क्षेत्रबाट": 5492,
      "बनाउँदै": 5493,
      "महारा": 5494,
      "सदन": 5495,
      "केन्द्रका": 5496,
      "आइरहेका": 5497,
      "आइसिय": 5498,
      "सदस्यहरुले": 5499,
      "भाइरसबाट": 5500,
      "##सहितका": 5501,
      "मोड": 5502,
      "विवादमा": 5503,
      "ठाउँबाट": 5504,
      "आइसोलेशनमा": 5505,
      "तिहार": 5506,
      "गृहमन्त्रालय": 5507,
      "घटनास्थल": 5508,
      "सीप": 5509,
      "निकायले": 5510,
      "पश्चिमी": 5511,
      "पार्टीभित्रको": 5512,
      "सन्तान": 5513,
      "आन्दोलनको": 5514,
      "शेर्": 5515,
      "बासिन्दा": 5516,
      "अल्प": 5517,
      "बर": 5518,
      "भर्चु": 5519,
      "##बे": 5520,
      "##हरा": 5521,
      "##गृह": 5522,
      "##गण्डकी": 5523,
      "##ैँच": 5524,
      "##र्नुपर्ने": 5525,
      "##त्रु": 5526,
      "काय": 5527,
      "##म्बार": 5528,
      "##ाउनुपर्छ": 5529,
      "राजेन्द्र": 5530,
      "अध्यक्षतामा": 5531,
      "नेताहरू": 5532,
      "मेघ": 5533,
      "स्थगन": 5534,
      "##शास्त्र": 5535,
      "मतदान": 5536,
      "अत्यन्तै": 5537,
      "दीर्घकालीन": 5538,
      "दिदीबहिनी": 5539,
      "गोली": 5540,
      "चल्ने": 5541,
      "ठेक": 5542,
      "फोर": 5543,
      "भोली": 5544,
      "रथ": 5545,
      "लम": 5546,
      "ह्वा": 5547,
      "##धर": 5548,
      "##च्": 5549,
      "##्रे": 5550,
      "##्रिक": 5551,
      "##तापूर्वक": 5552,
      "##त्ताको": 5553,
      "सुस्ता": 5554,
      "बढाइ": 5555,
      "बढेपछि": 5556,
      "वर्षअघि": 5557,
      "बिष": 5558,
      "परिमा": 5559,
      "अध्यक्षको": 5560,
      "समयले": 5561,
      "जोर": 5562,
      "नेकपामा": 5563,
      "प्रशोधन": 5564,
      "##ेदन": 5565,
      "स्थाय": 5566,
      "पक्षबाट": 5567,
      "सांसदले": 5568,
      "##प्रतिको": 5569,
      "कम्पनीलाई": 5570,
      "चीनबाट": 5571,
      "उपाध्या": 5572,
      "सन्धि": 5573,
      "भौगो": 5574,
      "रिक्त": 5575,
      "न्यायिक": 5576,
      "कार्यदलले": 5577,
      "चौधरीले": 5578,
      "हैन": 5579,
      "किसिमको": 5580,
      "फलफ": 5581,
      "##म्पत्य": 5582,
      "जिकिर": 5583,
      "भर्चुअल": 5584,
      "धोका": 5585,
      "सघ": 5586,
      "सन्तु": 5587,
      "##सीय": 5588,
      "व्यहो": 5589,
      "बाँच": 5590,
      "गरिब": 5591,
      "नभएकाले": 5592,
      "विश्वक": 5593,
      "पक्षलाई": 5594,
      "बाँड": 5595,
      "अभियोग": 5596,
      "##कृष्ण": 5597,
      "जीवनमा": 5598,
      "युरो": 5599,
      "संख्यामा": 5600,
      "##पुग्": 5601,
      "संस्थाको": 5602,
      "राज्यका": 5603,
      "दशैं": 5604,
      "रोकथामका": 5605,
      "गर्छु": 5606,
      "विमानस्थलमा": 5607,
      "दरबार": 5608,
      "रमाईलो": 5609,
      "आवागमन": 5610,
      "ढिलाइ": 5611,
      "शाहीले": 5612,
      "इजलासले": 5613,
      "बुझाएको": 5614,
      "नरेन्द्र": 5615,
      "प्रारम्भिक": 5616,
      "##मूलक": 5617,
      "सम्पादन": 5618,
      "सेल्सिय": 5619,
      "असंवैधानिक": 5620,
      "##श्रमिक": 5621,
      "सिरहा": 5622,
      "विवेक": 5623,
      "कँडेल": 5624,
      "आर्जन": 5625,
      "एम्बु": 5626,
      "चरि": 5627,
      "जसमा": 5628,
      "तल्लो": 5629,
      "शास": 5630,
      "##ान्तरण": 5631,
      "##मेल": 5632,
      "##ुली": 5633,
      "##साम": 5634,
      "##रम": 5635,
      "##टाइ": 5636,
      "##मानी": 5637,
      "विपरित": 5638,
      "पुर्": 5639,
      "##किन": 5640,
      "राजश्व": 5641,
      "वर्षसम्म": 5642,
      "स्थानान्तरण": 5643,
      "##ँदैछ": 5644,
      "समारो": 5645,
      "लिई": 5646,
      "उपचारपछि": 5647,
      "उत्तम": 5648,
      "##बासी": 5649,
      "दाम्पत्य": 5650,
      "डिला": 5651,
      "##जुङ": 5652,
      "योजनामा": 5653,
      "अरुलाई": 5654,
      "बस्नेत": 5655,
      "रोक्ने": 5656,
      "किसानलाई": 5657,
      "गुणस्तर": 5658,
      "तुरु": 5659,
      "दिवसको": 5660,
      "प्राप्तिको": 5661,
      "कमजोरी": 5662,
      "मनोनयन": 5663,
      "एण्ड": 5664,
      "जै": 5665,
      "भ्या": 5666,
      "सक्षम": 5667,
      "##वित": 5668,
      "##जसो": 5669,
      "##कता": 5670,
      "##बजार": 5671,
      "##थान": 5672,
      "##ईको": 5673,
      "##र्दन": 5674,
      "##नेमा": 5675,
      "##िकरण": 5676,
      "संचाल": 5677,
      "सुचारु": 5678,
      "गर्नेलाई": 5679,
      "लिनु": 5680,
      "नगरप्रमुख": 5681,
      "##ोकमा": 5682,
      "मन्त्रीले": 5683,
      "##सिए": 5684,
      "श्रद्धा": 5685,
      "पूर्वमन्त्री": 5686,
      "दार्चु": 5687,
      "मुलुकलाई": 5688,
      "भोग": 5689,
      "धादि": 5690,
      "पु¥याउन": 5691,
      "अलिक": 5692,
      "दिइने": 5693,
      "नवराज": 5694,
      "काँग्रेसका": 5695,
      "बताउनुभयो": 5696,
      "##गरमाथा": 5697,
      "प्रयत्न": 5698,
      "भौगोलिक": 5699,
      "तुरुन्त": 5700,
      "अछाम": 5701,
      "उर्जा": 5702,
      "मूर्": 5703,
      "##जस्तै": 5704,
      "##जुन": 5705,
      "##नजर": 5706,
      "##ँध": 5707,
      "##इन्छ": 5708,
      "##स्प": 5709,
      "राती": 5710,
      "साविक": 5711,
      "कुँ": 5712,
      "अनुभूति": 5713,
      "##प्रश्वास": 5714,
      "सबैमा": 5715,
      "समाप्त": 5716,
      "##कुश": 5717,
      "देख्न": 5718,
      "खुले": 5719,
      "आफूहरु": 5720,
      "उदय": 5721,
      "तपाईँ": 5722,
      "किनारा": 5723,
      "विस्तृत": 5724,
      "धनगढी": 5725,
      "यात्रुको": 5726,
      "रोजगारीका": 5727,
      "जवाफमा": 5728,
      "मध्यनजर": 5729,
      "टोल": 5730,
      "लडाइँ": 5731,
      "आंशिकदेखि": 5732,
      "खालका": 5733,
      "टेलिभिजन": 5734,
      "यद्यपि": 5735,
      "आयु": 5736,
      "तनाव": 5737,
      "नर्स": 5738,
      "बित": 5739,
      "मसा": 5740,
      "मेट": 5741,
      "शीत": 5742,
      "सगरमाथा": 5743,
      "##रेट": 5744,
      "##पश्चा": 5745,
      "##देख": 5746,
      "##दीको": 5747,
      "##ैन": 5748,
      "होल्": 5749,
      "कुकुर": 5750,
      "##टाएको": 5751,
      "##प्ले": 5752,
      "महाकाली": 5753,
      "साथमा": 5754,
      "अवलम्बन": 5755,
      "##अनुरुप": 5756,
      "अपहरण": 5757,
      "कम्पनीको": 5758,
      "पौडेलको": 5759,
      "तिर्न": 5760,
      "लामि": 5761,
      "सम्बन्धि": 5762,
      "देवी": 5763,
      "तपाईंको": 5764,
      "तपाईंले": 5765,
      "मिलाउने": 5766,
      "बढिरहेका": 5767,
      "पारिश्रमिक": 5768,
      "जोशीले": 5769,
      "जोडिएका": 5770,
      "इस्": 5771,
      "केश": 5772,
      "गम्": 5773,
      "तल": 5774,
      "तस्क": 5775,
      "नपुग": 5776,
      "सजिलो": 5777,
      "##िरमा": 5778,
      "##ाधीन": 5779,
      "##वर्ती": 5780,
      "##बजारी": 5781,
      "##गर्जन": 5782,
      "##घाख": 5783,
      "##लार्ई": 5784,
      "विपन्न": 5785,
      "विभेद": 5786,
      "दिनेछ": 5787,
      "##ल्पना": 5788,
      "सुरू": 5789,
      "##टीले": 5790,
      "बिपी": 5791,
      "##प्रा": 5792,
      "परिनेछ": 5793,
      "गरिए": 5794,
      "जात": 5795,
      "परे": 5796,
      "विश्वभर": 5797,
      "बस्नु": 5798,
      "परिवारको": 5799,
      "आयोजनामा": 5800,
      "व्यावसायबाट": 5801,
      "लोकप्रिय": 5802,
      "स्रोतहरु": 5803,
      "नदीको": 5804,
      "पशुपालन": 5805,
      "डेढ": 5806,
      "फैलिन": 5807,
      "##क्कर": 5808,
      "घिमिरे": 5809,
      "यथार्थ": 5810,
      "स्थलगत": 5811,
      "मन्त्रिमण्डल": 5812,
      "फलफूल": 5813,
      "मसान्त": 5814,
      "लामिछा": 5815,
      "आउँदै": 5816,
      "खेला": 5817,
      "जङ्ग": 5818,
      "ठहर": 5819,
      "फौ": 5820,
      "बस्त": 5821,
      "##य्या": 5822,
      "##रे": 5823,
      "##बारी": 5824,
      "प्रती": 5825,
      "##म्स": 5826,
      "माफ": 5827,
      "पुस्ता": 5828,
      "प्रतिवद्ध": 5829,
      "वर्षमान": 5830,
      "##ीमाथि": 5831,
      "सम्बन्धलाई": 5832,
      "सहयोगको": 5833,
      "पारेर": 5834,
      "व्यवस्थापनका": 5835,
      "किनभने": 5836,
      "चालु": 5837,
      "आन्दोलनका": 5838,
      "मनाउने": 5839,
      "कलेजमा": 5840,
      "मजबु": 5841,
      "हितमा": 5842,
      "घुम्": 5843,
      "एनस": 5844,
      "समेटेर": 5845,
      "खासै": 5846,
      "बन्दाबन्दीको": 5847,
      "परास्त": 5848,
      "जलविद्युत": 5849,
      "सुवेदीले": 5850,
      "नमिल्ने": 5851,
      "चट्याङ": 5852,
      "निमित्त": 5853,
      "अश": 5854,
      "आदान": 5855,
      "एश": 5856,
      "कतार": 5857,
      "ग्लो": 5858,
      "नुवा": 5859,
      "मध्या": 5860,
      "शल्य": 5861,
      "##कोण": 5862,
      "##माझ": 5863,
      "##लेस": 5864,
      "गर्भव": 5865,
      "##नियम": 5866,
      "रहन्छ": 5867,
      "थियौं": 5868,
      "दुरी": 5869,
      "यससँगै": 5870,
      "जनमत": 5871,
      "गर्दैछ": 5872,
      "हामीसँग": 5873,
      "भन्यो": 5874,
      "लगाउँदै": 5875,
      "गरेमा": 5876,
      "मुल": 5877,
      "निर्णयको": 5878,
      "सूची": 5879,
      "विश्वमा": 5880,
      "लेखा": 5881,
      "परिवारले": 5882,
      "विभागको": 5883,
      "व्यापारिक": 5884,
      "बोलाएका": 5885,
      "कार्यान्वयनका": 5886,
      "विमानस्थलको": 5887,
      "जानुपर्ने": 5888,
      "घिमिरेले": 5889,
      "शेयर": 5890,
      "दृष्टिकोण": 5891,
      "बगाएको": 5892,
      "रुपान्तरण": 5893,
      "उचाइ": 5894,
      "##शैली": 5895,
      "अथवा": 5896,
      "सुत्केरी": 5897,
      "खरीद": 5898,
      "सहुलियत": 5899,
      "ठेकेदार": 5900,
      "परिमार्जन": 5901,
      "सेल्सियस": 5902,
      "दान": 5903,
      "द्वि": 5904,
      "नष्ट": 5905,
      "##िनु": 5906,
      "##यमा": 5907,
      "##जन्तु": 5908,
      "##हको": 5909,
      "##फिङ": 5910,
      "##नाम": 5911,
      "##ेश्व": 5912,
      "##राइ": 5913,
      "कार्यसू": 5914,
      "यसपटक": 5915,
      "राजतन्त्र": 5916,
      "वर्षपछि": 5917,
      "समयको": 5918,
      "पर्दैन": 5919,
      "बुढ": 5920,
      "पहिला": 5921,
      "ल्याएका": 5922,
      "##लगत्तै": 5923,
      "सङ्क्रमितलाई": 5924,
      "सङ्क्रमितमध्ये": 5925,
      "समाजका": 5926,
      "योगेश": 5927,
      "विशेषज्ञ": 5928,
      "एकताबद्ध": 5929,
      "सेनाका": 5930,
      "विरोधमा": 5931,
      "सर्वा": 5932,
      "ढुक्क": 5933,
      "क्यान्सर": 5934,
      "##स्वरुप": 5935,
      "रुपैया": 5936,
      "कपडा": 5937,
      "बर्दि": 5938,
      "मिल्दैन": 5939,
      "स्वास्थ्यकर्मीको": 5940,
      "पद्धति": 5941,
      "प्रशिक्षण": 5942,
      "आवास": 5943,
      "उड": 5944,
      "औचित": 5945,
      "टन": 5946,
      "बरु": 5947,
      "शर्त": 5948,
      "सवार": 5949,
      "##खन": 5950,
      "##खर": 5951,
      "##पहिरो": 5952,
      "##गल": 5953,
      "##क्कै": 5954,
      "नेत्र": 5955,
      "##यातमा": 5956,
      "##ाउको": 5957,
      "##ङ्ग्र": 5958,
      "##दाता": 5959,
      "##क्तव्य": 5960,
      "अनुप": 5961,
      "विशि": 5962,
      "लगिएको": 5963,
      "##मुखी": 5964,
      "सामानको": 5965,
      "नेताहरुको": 5966,
      "##सकेपछि": 5967,
      "कुराहरु": 5968,
      "अर्जुन": 5969,
      "हिन्द": 5970,
      "चाँ": 5971,
      "##त्तर": 5972,
      "सांसदहरुले": 5973,
      "मोह": 5974,
      "मोहन": 5975,
      "रेडियो": 5976,
      "भोट": 5977,
      "विश्वासको": 5978,
      "##ल्याण": 5979,
      "फर्कने": 5980,
      "फर्केका": 5981,
      "कालोबजारी": 5982,
      "सुनुवाइ": 5983,
      "ज्येष्ठ": 5984,
      "बैंकिङ्ग": 5985,
      "जाजरकोट": 5986,
      "साझेदारी": 5987,
      "पठनपाठन": 5988,
      "विश्वकर्मा": 5989,
      "चरित्र": 5990,
      "खपत": 5991,
      "घेरा": 5992,
      "धर": 5993,
      "मेला": 5994,
      "सस्तो": 5995,
      "ह्या": 5996,
      "##नौं": 5997,
      "##उप": 5998,
      "##चो": 5999,
      "##ँदे": 6000,
      "##ओस्": 6001,
      "##्यन्त्र": 6002,
      "##स्वास": 6003,
      "##लाञ्च": 6004,
      "##वात": 6005,
      "##रिय": 6006,
      "बाजु": 6007,
      "##नुपर्नेछ": 6008,
      "##टामा": 6009,
      "परिषद": 6010,
      "त्यसबाट": 6011,
      "रोल्पा": 6012,
      "##वारण": 6013,
      "मात्रामा": 6014,
      "##डिओ": 6015,
      "कुराको": 6016,
      "शिक्ष": 6017,
      "##कालमा": 6018,
      "मेरा": 6019,
      "चित्र": 6020,
      "दाङ": 6021,
      "महामारीले": 6022,
      "भक्तजन": 6023,
      "चिकित्सा": 6024,
      "विधिपूर्वक": 6025,
      "टेकु": 6026,
      "शक्तिशाली": 6027,
      "प्रविधिमन्त्री": 6028,
      "##ल्याण्ड": 6029,
      "पु¥याएको": 6030,
      "टुंगो": 6031,
      "फेरी": 6032,
      "वैठकमा": 6033,
      "बैतडी": 6034,
      "कायमै": 6035,
      "इट": 6036,
      "उखु": 6037,
      "एन्ट": 6038,
      "कित्": 6039,
      "घाटा": 6040,
      "चयन": 6041,
      "टेक": 6042,
      "पह": 6043,
      "वन्य": 6044,
      "##कन": 6045,
      "##गन्ज": 6046,
      "##न्ता": 6047,
      "##लेन्द्र": 6048,
      "##क्न": 6049,
      "सम्पति": 6050,
      "सम्पदा": 6051,
      "##विहीन": 6052,
      "कुव": 6053,
      "##ुरू": 6054,
      "परिसर": 6055,
      "बनाउनुपर्ने": 6056,
      "दिएकी": 6057,
      "##हुँदै": 6058,
      "दिनका": 6059,
      "अभिलेख": 6060,
      "बेरोजगार": 6061,
      "भनिन्छ": 6062,
      "शुरुआ": 6063,
      "##ध्यापक": 6064,
      "तत्कालिन": 6065,
      "निकायका": 6066,
      "अर्काे": 6067,
      "औषधी": 6068,
      "कठि": 6069,
      "भेलामा": 6070,
      "कारागारमा": 6071,
      "##ेरापी": 6072,
      "ब्याज": 6073,
      "सप्तरी": 6074,
      "पृष्ठ": 6075,
      "डिसे": 6076,
      "चाँडै": 6077,
      "षड्यन्त्र": 6078,
      "तालीम": 6079,
      "उम्मेदवार": 6080,
      "स्थायित्व": 6081,
      "गम्भिर": 6082,
      "औचित्य": 6083,
      "इमा": 6084,
      "टेलिक": 6085,
      "तलब": 6086,
      "धम्": 6087,
      "नफ": 6088,
      "हौं": 6089,
      "##ान्त": 6090,
      "##मध": 6091,
      "##सभ": 6092,
      "##बडी": 6093,
      "##ट्र": 6094,
      "##ँस": 6095,
      "निवारण": 6096,
      "दिनुपर्छ": 6097,
      "यसपाल": 6098,
      "##रहनु": 6099,
      "##र्थी": 6100,
      "मिष्ठा": 6101,
      "##ौँडा": 6102,
      "आवेदन": 6103,
      "##ँचो": 6104,
      "हिउँ": 6105,
      "अन्यत्र": 6106,
      "सडकखण्ड": 6107,
      "##धाई": 6108,
      "नाघ": 6109,
      "बिहानै": 6110,
      "पत्रमा": 6111,
      "सभामा": 6112,
      "सङ्घर्ष": 6113,
      "तत्कालै": 6114,
      "समुदायस्तरमा": 6115,
      "एमसिस": 6116,
      "विगतका": 6117,
      "पुर्याउन": 6118,
      "स्थानीयवासीले": 6119,
      "शाक्यले": 6120,
      "श्ययाको": 6121,
      "पारदर्शी": 6122,
      "अनेरास्ववियू": 6123,
      "लामिछाने": 6124,
      "मजबुत": 6125,
      "मिष्ठान्न": 6126,
      "गयो": 6127,
      "ठीक": 6128,
      "मण्ड": 6129,
      "##यले": 6130,
      "##र्सि": 6131,
      "##मार्ट": 6132,
      "निश": 6133,
      "##्याएर": 6134,
      "नेपालभारत": 6135,
      "जनार्दन": 6136,
      "##ाउँमा": 6137,
      "गरीएको": 6138,
      "मुटु": 6139,
      "बुढा": 6140,
      "समस्याले": 6141,
      "हिँ": 6142,
      "नगरा": 6143,
      "पुरुषमा": 6144,
      "अनौ": 6145,
      "##दर्श": 6146,
      "समुदायको": 6147,
      "आत्मिय": 6148,
      "गिरि": 6149,
      "गिरीले": 6150,
      "संस्कार": 6151,
      "निष्पक्ष": 6152,
      "राष्ट्रियसभामा": 6153,
      "स्तरो": 6154,
      "बोर्डले": 6155,
      "शाहले": 6156,
      "दाजुभाई": 6157,
      "असहज": 6158,
      "साउदी": 6159,
      "फेसबुकमा": 6160,
      "अग्नि": 6161,
      "श्राद्ध": 6162,
      "आइसियु": 6163,
      "ग्लोबल": 6164,
      "जंग": 6165,
      "झनै": 6166,
      "डोज": 6167,
      "तेल": 6168,
      "##ोमा": 6169,
      "##न्नु": 6170,
      "##लेट": 6171,
      "प्रस": 6172,
      "गर्दछन्": 6173,
      "केवल": 6174,
      "एकताका": 6175,
      "क्लब": 6176,
      "##प्प": 6177,
      "अस्पतालबाट": 6178,
      "अध्यक्षबीच": 6179,
      "समायोजन": 6180,
      "नेताको": 6181,
      "##ोरपाट": 6182,
      "अभिवृद्धि": 6183,
      "भाष": 6184,
      "महामारीबाट": 6185,
      "##ित्तिकै": 6186,
      "विद्यालयको": 6187,
      "बाहिरी": 6188,
      "हुनुहु": 6189,
      "चौकी": 6190,
      "##खास्त": 6191,
      "मानवअधिकार": 6192,
      "मनोबल": 6193,
      "लड्न": 6194,
      "एयरलाइन्स": 6195,
      "कुटपिट": 6196,
      "म्याद": 6197,
      "क्रान्तिकारी": 6198,
      "##्मण": 6199,
      "चलिरहेको": 6200,
      "आकर्षित": 6201,
      "पुर्नगठन": 6202,
      "स्यानिटाइजर": 6203,
      "टेलिफोन": 6204,
      "वन्यजन्तु": 6205,
      "कष्ट": 6206,
      "घिस": 6207,
      "ठक्कर": 6208,
      "तिमि": 6209,
      "पेस": 6210,
      "बधाई": 6211,
      "लम्ब": 6212,
      "वक्तव्य": 6213,
      "##स्रोत": 6214,
      "##कका": 6215,
      "##खत": 6216,
      "##गडा": 6217,
      "प्रि": 6218,
      "निरीक्षण": 6219,
      "रहँदा": 6220,
      "##ण्डर": 6221,
      "केभी": 6222,
      "##विराज": 6223,
      "##टीका": 6224,
      "एकपटक": 6225,
      "बिभिन्न": 6226,
      "बिरुवा": 6227,
      "##ेलिया": 6228,
      "##िमी": 6229,
      "गरेकामा": 6230,
      "ओलीसँग": 6231,
      "महत्": 6232,
      "##्योति": 6233,
      "काठमाडौंमा": 6234,
      "पाँचथ": 6235,
      "राष्ट्रपतिको": 6236,
      "कम्पनीका": 6237,
      "##स्कृत": 6238,
      "लकडाउनका": 6239,
      "##दर्शन": 6240,
      "कर्णालीमा": 6241,
      "सत्तार": 6242,
      "##राष्ट्रपति": 6243,
      "अमेरिकाले": 6244,
      "पैदा": 6245,
      "निवासमा": 6246,
      "##निर्वा": 6247,
      "##ज्जत": 6248,
      "##वरले": 6249,
      "प्रतिस्पर्धा": 6250,
      "चाहिने": 6251,
      "उत्पादित": 6252,
      "असन्तुष्टी": 6253,
      "सलह": 6254,
      "सामग्रीको": 6255,
      "रेग्म": 6256,
      "शल्यक्रिया": 6257,
      "विशिष्ट": 6258,
      "स्तरोन्न": 6259,
      "उता": 6260,
      "कब्जा": 6261,
      "खेर": 6262,
      "गई": 6263,
      "छाउ": 6264,
      "नराम": 6265,
      "पिप": 6266,
      "मञ्च": 6267,
      "##रका": 6268,
      "##पल्ट": 6269,
      "##चेत": 6270,
      "##न्यो": 6271,
      "##वास्ता": 6272,
      "राउ": 6273,
      "संग": 6274,
      "##राति": 6275,
      "भएकोमा": 6276,
      "##स्तार": 6277,
      "गर्नै": 6278,
      "##नुपर्दछ": 6279,
      "निर्णायक": 6280,
      "लिइएको": 6281,
      "स्वरुप": 6282,
      "थपिएको": 6283,
      "दलले": 6284,
      "##ञ्जन": 6285,
      "आफूहरुले": 6286,
      "सुरक्षामा": 6287,
      "वैद्य": 6288,
      "उहाँलाई": 6289,
      "महिनासम्म": 6290,
      "आगलाग": 6291,
      "छाप": 6292,
      "रेष्ट": 6293,
      "सक्छौं": 6294,
      "जुध": 6295,
      "जुलाई": 6296,
      "निकायलाई": 6297,
      "यसैबीच": 6298,
      "विधिबाट": 6299,
      "##संगै": 6300,
      "थालनी": 6301,
      "स्वदेशी": 6302,
      "सहितको": 6303,
      "बेलुका": 6304,
      "गरियोस्": 6305,
      "##भाइरस": 6306,
      "छाडेर": 6307,
      "गाँजा": 6308,
      "भुसाल": 6309,
      "सरसफाइ": 6310,
      "हेटौँडा": 6311,
      "ग्यास": 6312,
      "उत्साह": 6313,
      "ठोस": 6314,
      "रेखा": 6315,
      "रौतहट": 6316,
      "सत्तारूढ": 6317,
      "घन": 6318,
      "ढोरपाट": 6319,
      "तै": 6320,
      "दर्श": 6321,
      "नदेखि": 6322,
      "पाउँदा": 6323,
      "बम": 6324,
      "शंकर": 6325,
      "##ात्मक": 6326,
      "##फे": 6327,
      "##शोर": 6328,
      "##र्की": 6329,
      "##ागर": 6330,
      "दिँदा": 6331,
      "कोट": 6332,
      "##छिन्": 6333,
      "सेवन": 6334,
      "ओलीका": 6335,
      "जान्छ": 6336,
      "महाअ": 6337,
      "महशु": 6338,
      "स्वस्थ": 6339,
      "स्वच्छ": 6340,
      "मनसु": 6341,
      "उनीहरू": 6342,
      "उनीहरूले": 6343,
      "शिला": 6344,
      "मेयर": 6345,
      "व्यक्तिमा": 6346,
      "बेहो": 6347,
      "शुरुमा": 6348,
      "हेर्": 6349,
      "निकालेको": 6350,
      "उडानका": 6351,
      "##माथिको": 6352,
      "चौथो": 6353,
      "नीतिगत": 6354,
      "ढुङ्ग": 6355,
      "तपार्ईँकै": 6356,
      "##न्यास": 6357,
      "गोरख": 6358,
      "दोषी": 6359,
      "च्याले": 6360,
      "प्रतिस्पर्धीहरु": 6361,
      "उद्यम": 6362,
      "साबुन": 6363,
      "श्वासप्रश्वास": 6364,
      "बिजुली": 6365,
      "कुवेत": 6366,
      "ग¥": 6367,
      "चहल": 6368,
      "सद्": 6369,
      "##एच": 6370,
      "##नेन्द्र": 6371,
      "##ाराम": 6372,
      "गरौँ": 6373,
      "##योस्": 6374,
      "रातो": 6375,
      "समस्य": 6376,
      "कोहल": 6377,
      "##ण्ठ": 6378,
      "##पार्क": 6379,
      "बाघ": 6380,
      "सेनालाई": 6381,
      "बैठकबाट": 6382,
      "मिहिने": 6383,
      "निर्णयमा": 6384,
      "स्वीका": 6385,
      "##जीवन": 6386,
      "श्रीमा": 6387,
      "राम्रै": 6388,
      "##बाहिर": 6389,
      "हावा": 6390,
      "विवादित": 6391,
      "सचिवालयको": 6392,
      "गराई": 6393,
      "पूर्णरुपमा": 6394,
      "पेशा": 6395,
      "मन्दिरमा": 6396,
      "खटिएको": 6397,
      "##निर्भर": 6398,
      "अलैँच": 6399,
      "किसानले": 6400,
      "सुनार": 6401,
      "##परिवार": 6402,
      "घुस": 6403,
      "वायुको": 6404,
      "मेलम्": 6405,
      "इज्जत": 6406,
      "गतिमा": 6407,
      "गहिरो": 6408,
      "घडीमा": 6409,
      "टिका": 6410,
      "धरा": 6411,
      "नजाने": 6412,
      "##िएपछि": 6413,
      "##्पा": 6414,
      "##भरी": 6415,
      "रहि": 6416,
      "##हाय": 6417,
      "सुवास": 6418,
      "क्वा": 6419,
      "यसो": 6420,
      "स्वास्थ": 6421,
      "बाधा": 6422,
      "##नुपर्यो": 6423,
      "##सीमा": 6424,
      "त्यसरी": 6425,
      "महामन्त्री": 6426,
      "पर्दा": 6427,
      "महरा": 6428,
      "बुवा": 6429,
      "छलफलका": 6430,
      "हिन्दु": 6431,
      "पुनर्ग": 6432,
      "##मैत्री": 6433,
      "खोलामा": 6434,
      "भेटिएका": 6435,
      "बन्दी": 6436,
      "प्रतिशतले": 6437,
      "हुनुको": 6438,
      "शिक्षाको": 6439,
      "बोलाएको": 6440,
      "बोलाउने": 6441,
      "संशो": 6442,
      "थिएनन्": 6443,
      "पोखरामा": 6444,
      "स्मृति": 6445,
      "##ेपलाञ्च": 6446,
      "कटान": 6447,
      "त्यतिबेला": 6448,
      "सम्मानित": 6449,
      "काभ्रेपलाञ्च": 6450,
      "अवैध": 6451,
      "कोठामा": 6452,
      "हेलिकप्टर": 6453,
      "एन्टि": 6454,
      "घिसिङ": 6455,
      "अष्ट्र": 6456,
      "एल": 6457,
      "जला": 6458,
      "ढोका": 6459,
      "दौ": 6460,
      "बनि": 6461,
      "सजग": 6462,
      "हौँ": 6463,
      "##िँदै": 6464,
      "##तक": 6465,
      "##डोर": 6466,
      "##ंच": 6467,
      "##द्रा": 6468,
      "##द्योग": 6469,
      "##तित": 6470,
      "राह": 6471,
      "रहेकी": 6472,
      "कार्यलाई": 6473,
      "कोरोनाभाइरस": 6474,
      "कुर्": 6475,
      "##रहरू": 6476,
      "प्रधानमन्त्रीज्यू": 6477,
      "##प्रदान": 6478,
      "गरिनु": 6479,
      "##ञ्चित": 6480,
      "राष्ट्रको": 6481,
      "लगेर": 6482,
      "##वादको": 6483,
      "व्यवस्थापनको": 6484,
      "दुईवटा": 6485,
      "विषम": 6486,
      "उत्त": 6487,
      "कोभिडको": 6488,
      "नगर्नु": 6489,
      "लेखराज": 6490,
      "आयोजनाका": 6491,
      "संघले": 6492,
      "तातो": 6493,
      "चौर": 6494,
      "प्रश्नको": 6495,
      "बाहिरबाट": 6496,
      "##भूमि": 6497,
      "अविरल": 6498,
      "खटिने": 6499,
      "होटलमा": 6500,
      "##्र्त": 6501,
      "फरार": 6502,
      "गैरस": 6503,
      "बाढीपहिरो": 6504,
      "नपाएको": 6505,
      "जित्न": 6506,
      "ज्याला": 6507,
      "विद्यमान": 6508,
      "मेघगर्जन": 6509,
      "शीतल": 6510,
      "चहलप": 6511,
      "मिहिनेत": 6512,
      "कल्याण": 6513,
      "छे": 6514,
      "पश्चा": 6515,
      "भार": 6516,
      "मद्द": 6517,
      "रानी": 6518,
      "सफाइ": 6519,
      "##मशेर": 6520,
      "##लान": 6521,
      "##जमा": 6522,
      "##नन्द": 6523,
      "##ोल": 6524,
      "##चे": 6525,
      "##दित": 6526,
      "प्राय": 6527,
      "##नियर": 6528,
      "निकास": 6529,
      "दिन्छ": 6530,
      "गर्नेहरुले": 6531,
      "##ाइन": 6532,
      "##विप": 6533,
      "पार्दै": 6534,
      "##प्टे": 6535,
      "भएकामा": 6536,
      "##हरूसँग": 6537,
      "लगाउ": 6538,
      "दिनपछि": 6539,
      "प्रहरीमा": 6540,
      "मानिन्छ": 6541,
      "हालतमा": 6542,
      "तहलाई": 6543,
      "दिनेश": 6544,
      "मोटर": 6545,
      "नगद": 6546,
      "चीनमा": 6547,
      "वैचारिक": 6548,
      "##िलै": 6549,
      "उठेको": 6550,
      "रोजगारीको": 6551,
      "बाह्र": 6552,
      "प्रमाणपत्र": 6553,
      "शान्तिपूर्ण": 6554,
      "अग्रसर": 6555,
      "कृष्णप्रसाद": 6556,
      "अत्यधिक": 6557,
      "भविष्यमा": 6558,
      "किसिमका": 6559,
      "पराजुली": 6560,
      "काउन्सि": 6561,
      "उपभोग्य": 6562,
      "गठबन्धन": 6563,
      "उपलव्धी": 6564,
      "शुक्ल": 6565,
      "गर्भवती": 6566,
      "औद्योग": 6567,
      "गगन": 6568,
      "नोक": 6569,
      "शय्या": 6570,
      "##बिस": 6571,
      "##डर": 6572,
      "##न्मुख": 6573,
      "##नात्मक": 6574,
      "हुन्न": 6575,
      "रामा": 6576,
      "जनादेश": 6577,
      "##विरूद्ध": 6578,
      "कुश": 6579,
      "अनुरुप": 6580,
      "परिस": 6581,
      "गरिदि": 6582,
      "सिंगो": 6583,
      "गुर्ज": 6584,
      "मन्त्रीको": 6585,
      "##भित्रका": 6586,
      "गर्नुको": 6587,
      "पूरै": 6588,
      "##लगायतको": 6589,
      "##िलक": 6590,
      "ताप्ले": 6591,
      "##ामीण": 6592,
      "चालू": 6593,
      "##गोल": 6594,
      "तथ्यांक": 6595,
      "चरणको": 6596,
      "अभावमा": 6597,
      "प्रमाणित": 6598,
      "स्वास्थ्यकर्मीलाई": 6599,
      "##बाहेकका": 6600,
      "छानविन": 6601,
      "समावेशी": 6602,
      "ढिलो": 6603,
      "चलचित्र": 6604,
      "भत्का": 6605,
      "भुसालले": 6606,
      "मोरङ": 6607,
      "रोपनी": 6608,
      "##ढुङ्गा": 6609,
      "एम्बुलेन्स": 6610,
      "अड्": 6611,
      "आबद्ध": 6612,
      "ऋष": 6613,
      "कवि": 6614,
      "चेक": 6615,
      "ज्योति": 6616,
      "ठाउ": 6617,
      "तट": 6618,
      "पछी": 6619,
      "मनमा": 6620,
      "यिन": 6621,
      "लुट": 6622,
      "सता": 6623,
      "##जुट": 6624,
      "##सत": 6625,
      "##सन्त": 6626,
      "##थम": 6627,
      "##र्ब": 6628,
      "##न्थ": 6629,
      "##ालि": 6630,
      "प्रयोजन": 6631,
      "दिश": 6632,
      "##राहा": 6633,
      "##ल्दै": 6634,
      "कोर": 6635,
      "माछा": 6636,
      "पाठ": 6637,
      "भनेपछि": 6638,
      "##टीमा": 6639,
      "##न्ती": 6640,
      "बिल": 6641,
      "काठमाण्डुका": 6642,
      "समयसम्म": 6643,
      "मन्त्रालयलाई": 6644,
      "अन्तर्": 6645,
      "नभएपछि": 6646,
      "कार्यक्रमका": 6647,
      "लेखिएको": 6648,
      "पत्राचार": 6649,
      "अपरि": 6650,
      "राज्यबाट": 6651,
      "ग्रामीण": 6652,
      "सहमतिका": 6653,
      "बजारको": 6654,
      "भित्रिने": 6655,
      "मंगल": 6656,
      "सञ्जालमार्फत": 6657,
      "सचेतक": 6658,
      "बाह्य": 6659,
      "विवरणअनुसार": 6660,
      "लड्ने": 6661,
      "रक्षाका": 6662,
      "जमरा": 6663,
      "सजिलै": 6664,
      "दिवसका": 6665,
      "औँल्या": 6666,
      "बादलले": 6667,
      "जलविद्युत्": 6668,
      "ट्वीटरमा": 6669,
      "नेम्वाङले": 6670,
      "आकां": 6671,
      "अपाङ्ग": 6672,
      "मायाप्रेममा": 6673,
      "बंगलादेश": 6674,
      "नुवाकोट": 6675,
      "मद्दत": 6676,
      "अह": 6677,
      "अपमा": 6678,
      "टाउको": 6679,
      "डिप": 6680,
      "थारु": 6681,
      "बराम": 6682,
      "बृह": 6683,
      "शह": 6684,
      "हज": 6685,
      "##िला": 6686,
      "##वरी": 6687,
      "##अप": 6688,
      "##न्ह": 6689,
      "##न्तिक": 6690,
      "##नेका": 6691,
      "##क्की": 6692,
      "##किल": 6693,
      "##ुरे": 6694,
      "##सम्मत": 6695,
      "निर्णयलाई": 6696,
      "परेपछि": 6697,
      "घरको": 6698,
      "कार्यालयबाट": 6699,
      "अवस्थाका": 6700,
      "केन्द्रिय": 6701,
      "##जीपी": 6702,
      "समितिलाई": 6703,
      "सेवाका": 6704,
      "विज्ञा": 6705,
      "गोपाल": 6706,
      "बढ्नु": 6707,
      "जोडेर": 6708,
      "गृहकार्य": 6709,
      "अनशन": 6710,
      "बुधवार": 6711,
      "त्यहीँ": 6712,
      "जसअनुसार": 6713,
      "कुटनीतिक": 6714,
      "पराजित": 6715,
      "पेट्रोलियम": 6716,
      "खुमलटार": 6717,
      "इमान्द": 6718,
      "चहलपहल": 6719,
      "अडियो": 6720,
      "जसको": 6721,
      "डब्": 6722,
      "नोट": 6723,
      "सिक": 6724,
      "##तय": 6725,
      "##तन": 6726,
      "##जनमा": 6727,
      "##टव": 6728,
      "##डालाई": 6729,
      "##प्य": 6730,
      "##काअनुसार": 6731,
      "विवाह": 6732,
      "काङ्": 6733,
      "रात": 6734,
      "संस्थान": 6735,
      "दिल्ली": 6736,
      "##ल्सि": 6737,
      "##ण्ट": 6738,
      "सुदुर": 6739,
      "सम्हाल": 6740,
      "एकतालाई": 6741,
      "राजविराज": 6742,
      "##िसकेका": 6743,
      "सेप्टे": 6744,
      "स्थानबाट": 6745,
      "##धारित": 6746,
      "बुँदे": 6747,
      "##डिटी": 6748,
      "##पुरका": 6749,
      "गर्नुहु": 6750,
      "प्रयोगमा": 6751,
      "जोड्न": 6752,
      "चुना": 6753,
      "मानिसलाई": 6754,
      "सीसी": 6755,
      "अमेरिकामा": 6756,
      "उद्धारका": 6757,
      "##वाहक": 6758,
      "##एनन्": 6759,
      "अतिरि": 6760,
      "नाकाबाट": 6761,
      "संघीयता": 6762,
      "चोलेन्द्र": 6763,
      "सन्तुल": 6764,
      "ललितपुरको": 6765,
      "कडाई": 6766,
      "चापीय": 6767,
      "##चौकी": 6768,
      "सुनुवाई": 6769,
      "विलासी": 6770,
      "संगठनको": 6771,
      "अस्थिरता": 6772,
      "धनुष": 6773,
      "बौद्धिक": 6774,
      "प्रोत्साहन": 6775,
      "आदानप्रदान": 6776,
      "कार्यसूची": 6777,
      "डिसेम्बर": 6778,
      "##विपरीत": 6779,
      "काङ्ग्रेस": 6780,
      "खल": 6781,
      "खप्त": 6782,
      "चलेको": 6783,
      "बहान": 6784,
      "भवनमा": 6785,
      "हौ": 6786,
      "##शहो": 6787,
      "##ताब": 6788,
      "स्मार्ट": 6789,
      "दिनुभयो": 6790,
      "##रोग": 6791,
      "पुँजी": 6792,
      "पाएपछि": 6793,
      "##भियोग": 6794,
      "उपराष्ट्रपति": 6795,
      "एकजुट": 6796,
      "##भाष": 6797,
      "सङ्गठ": 6798,
      "##प्रेषण": 6799,
      "सेट": 6800,
      "सिनेमा": 6801,
      "हजारभन्दा": 6802,
      "गर्दैन": 6803,
      "##भावना": 6804,
      "गरेसँगै": 6805,
      "लिइ": 6806,
      "##समध्ये": 6807,
      "गुप्त": 6808,
      "संक्रमणका": 6809,
      "##लिखेल": 6810,
      "प्रचण्डसँग": 6811,
      "खुट्टा": 6812,
      "##भित्रको": 6813,
      "अवतरण": 6814,
      "##ब्बा": 6815,
      "सांसदको": 6816,
      "डिशहो": 6817,
      "नापी": 6818,
      "खोज्न": 6819,
      "राज्यमन्त्री": 6820,
      "सङ्घले": 6821,
      "बीउ": 6822,
      "श्रमजीवी": 6823,
      "##ङ्कर": 6824,
      "गर्दछौं": 6825,
      "खेलेको": 6826,
      "टाढा": 6827,
      "दरबन्दी": 6828,
      "##विक्रम": 6829,
      "निम्त्या": 6830,
      "नपाइने": 6831,
      "चाहिँ": 6832,
      "अपराह्न": 6833,
      "परिषद्को": 6834,
      "लोकतन्त्रको": 6835,
      "आफुलाई": 6836,
      "इन्जि": 6837,
      "मैदान": 6838,
      "##घात": 6839,
      "गठित": 6840,
      "##नोद": 6841,
      "कागजात": 6842,
      "ज्ञानेन्द्र": 6843,
      "रायमाझ": 6844,
      "##हेरी": 6845,
      "आक्रो": 6846,
      "राजधानीमा": 6847,
      "बरामद": 6848,
      "कहीँ": 6849,
      "ज्या": 6850,
      "जसमध्ये": 6851,
      "तारा": 6852,
      "दण्ड": 6853,
      "नामा": 6854,
      "बहि": 6855,
      "बहिनी": 6856,
      "भरि": 6857,
      "रत्न": 6858,
      "शेख": 6859,
      "##मका": 6860,
      "##वह": 6861,
      "##कली": 6862,
      "प्रर्द": 6863,
      "##स्न": 6864,
      "##स्सा": 6865,
      "##लाभ": 6866,
      "विहान": 6867,
      "नियोग": 6868,
      "##ितो": 6869,
      "गर्नसक्ने": 6870,
      "अनुकूल": 6871,
      "राजस्व": 6872,
      "बिस्तार": 6873,
      "##्वस्त": 6874,
      "परिचाल": 6875,
      "सोसाइ": 6876,
      "##धारणा": 6877,
      "पुग्यो": 6878,
      "##नुपर्नेमा": 6879,
      "##ोकल": 6880,
      "सक्नु": 6881,
      "##भाग्य": 6882,
      "##लिङ": 6883,
      "हात्ती": 6884,
      "गौरी": 6885,
      "खोटा": 6886,
      "दोङ": 6887,
      "##िटिभ": 6888,
      "चाहेको": 6889,
      "सहमतिमा": 6890,
      "बैंकका": 6891,
      "पाल्पा": 6892,
      "देवीको": 6893,
      "भ्रमणको": 6894,
      "आमाको": 6895,
      "ललितपुरका": 6896,
      "गएराति": 6897,
      "बाँस्कोटा": 6898,
      "आरडिटी": 6899,
      "इरानको": 6900,
      "सैद्धा": 6901,
      "सूचीमा": 6902,
      "सम्मानमा": 6903,
      "रिजालले": 6904,
      "पृथ्वी": 6905,
      "श्रद्धाञ्ज": 6906,
      "धरौटी": 6907,
      "तातोपानी": 6908,
      "अतिरिक्त": 6909,
      "अङ्ग": 6910,
      "गइरहेको": 6911,
      "चोट": 6912,
      "चित्त": 6913,
      "तर्": 6914,
      "पन्छ": 6915,
      "भया": 6916,
      "शौ": 6917,
      "##क्यु": 6918,
      "##ब्र": 6919,
      "##श्याम": 6920,
      "##ल्ड": 6921,
      "पाई": 6922,
      "##क्रममा": 6923,
      "प्रतिफल": 6924,
      "अस्ति": 6925,
      "बैठकका": 6926,
      "कमला": 6927,
      "विशाल": 6928,
      "जाँदै": 6929,
      "व्यास": 6930,
      "##जीको": 6931,
      "कुनैपनि": 6932,
      "अवधारणा": 6933,
      "##ड्नु": 6934,
      "महिनापछि": 6935,
      "मानिसले": 6936,
      "विरोधी": 6937,
      "युवाले": 6938,
      "अपनाउनु": 6939,
      "एसिया": 6940,
      "निषेधाज्ञ": 6941,
      "चोरी": 6942,
      "ट्रान्स": 6943,
      "सत्याग्र": 6944,
      "इतिहासमा": 6945,
      "निगमको": 6946,
      "पुरानै": 6947,
      "बिद्यामा": 6948,
      "न्यौपानेले": 6949,
      "मधेश": 6950,
      "अक्टो": 6951,
      "शास्त्रीय": 6952,
      "ठुलो": 6953,
      "होईन": 6954,
      "मधुमे": 6955,
      "हिन्दू": 6956,
      "आकाश": 6957,
      "उसको": 6958,
      "खै": 6959,
      "नहोस्": 6960,
      "बडा": 6961,
      "बाली": 6962,
      "व्र": 6963,
      "##मरी": 6964,
      "##कू": 6965,
      "##पार": 6966,
      "##फु": 6967,
      "##गङ्गा": 6968,
      "##भग": 6969,
      "##नेता": 6970,
      "प्रोट": 6971,
      "विपक्ष": 6972,
      "काण्ड": 6973,
      "स्वि": 6974,
      "##ल्नु": 6975,
      "##क्रामक": 6976,
      "नेपालबाट": 6977,
      "पाठक": 6978,
      "कार्यशैली": 6979,
      "कोरोनाले": 6980,
      "सहमत": 6981,
      "##किए": 6982,
      "राजाले": 6983,
      "वर्षभित्र": 6984,
      "बिता": 6985,
      "जनचेत": 6986,
      "##ेलु": 6987,
      "##ालामा": 6988,
      "##ञ्चार": 6989,
      "जात्रा": 6990,
      "महेश": 6991,
      "थापालाई": 6992,
      "##र्वेद": 6993,
      "आइपुग्": 6994,
      "निर्माणाधीन": 6995,
      "##हितको": 6996,
      "##जीले": 6997,
      "गाउँका": 6998,
      "मेची": 6999,
      "बस्नुपर्ने": 7000,
      "##बीचमा": 7001,
      "चिन्ति": 7002,
      "हाँ": 7003,
      "बाँकेका": 7004,
      "प्रभावले": 7005,
      "श्रेष्ठको": 7006,
      "विद्यालयले": 7007,
      "सङ्घसंस्था": 7008,
      "##मित्व": 7009,
      "उद्योगमा": 7010,
      "निकायमा": 7011,
      "महाशाखाको": 7012,
      "ट्रम्प": 7013,
      "ट्र्याक": 7014,
      "गर्छौं": 7015,
      "त्यहाँबाट": 7016,
      "वर्षाका": 7017,
      "आत्मनिर्भर": 7018,
      "कोषको": 7019,
      "टुङ्गो": 7020,
      "एसपी": 7021,
      "चितवनका": 7022,
      "छोराछो": 7023,
      "कार्यदलको": 7024,
      "अख्तियारले": 7025,
      "ब्रि": 7026,
      "निष्कर्षमा": 7027,
      "असहमति": 7028,
      "चन्द्राग": 7029,
      "##मात्रै": 7030,
      "मन्त्रिपरिषदको": 7031,
      "छोडेर": 7032,
      "##ुपयोग": 7033,
      "मातहतका": 7034,
      "नदेखिएको": 7035,
      "बझाङ": 7036,
      "कार्यकर्तालाई": 7037,
      "आयुर्वेद": 7038,
      "जातीय": 7039,
      "कठिनाइ": 7040,
      "महत्त्व": 7041,
      "औद्योगिक": 7042,
      "सैद्धान्तिक": 7043,
      "चिन्तित": 7044,
      "उज": 7045,
      "गाली": 7046,
      "गैँ": 7047,
      "जर्म": 7048,
      "जवान": 7049,
      "थेरापी": 7050,
      "नजा": 7051,
      "नसकेका": 7052,
      "नबुझ": 7053,
      "रुख": 7054,
      "हाइ": 7055,
      "##लिएको": 7056,
      "##लिम": 7057,
      "##ुरा": 7058,
      "##सिम": 7059,
      "##दफा": 7060,
      "##थ्य": 7061,
      "##शिल": 7062,
      "##न्डा": 7063,
      "##न्सन": 7064,
      "##्यवहार": 7065,
      "##ालालाई": 7066,
      "काठ": 7067,
      "संस्थालाई": 7068,
      "##विनायक": 7069,
      "##स्थापन": 7070,
      "प्रतिकूल": 7071,
      "राजनैतिक": 7072,
      "स्वामित्व": 7073,
      "लगभग": 7074,
      "मिच": 7075,
      "पुगे": 7076,
      "राखि": 7077,
      "केन्द्रीत": 7078,
      "स्वतः": 7079,
      "विकासमन्त्री": 7080,
      "राष्ट्रियता": 7081,
      "श्रे": 7082,
      "विश्वप्रकाश": 7083,
      "पुनराव": 7084,
      "घटेको": 7085,
      "खोज्दा": 7086,
      "संस्थाका": 7087,
      "लगानीबाट": 7088,
      "घटनाक्रम": 7089,
      "मन्त्रालयकाअनुसार": 7090,
      "चलाएको": 7091,
      "त्यहाँका": 7092,
      "लोड": 7093,
      "सञ्चारकर्मी": 7094,
      "बीचको": 7095,
      "भ्रमणमा": 7096,
      "फोटो": 7097,
      "भ्रष्टाचारको": 7098,
      "पोजिटिभ": 7099,
      "त्रिपा": 7100,
      "चाहिन्छ": 7101,
      "धुलिखेल": 7102,
      "ढिला": 7103,
      "नसकिएको": 7104,
      "नसकेपछि": 7105,
      "हिमपात": 7106,
      "सुनसरी": 7107,
      "रक्तचाप": 7108,
      "##पोखरी": 7109,
      "हाराह": 7110,
      "रसुवा": 7111,
      "मर्यादा": 7112,
      "जैविक": 7113,
      "घनश्याम": 7114,
      "शिलान्यास": 7115,
      "रामारो": 7116,
      "परिसरमा": 7117,
      "चुनावी": 7118,
      "अन्ध": 7119,
      "अन्यो": 7120,
      "किमी": 7121,
      "चलन": 7122,
      "चल्न": 7123,
      "झड": 7124,
      "बानी": 7125,
      "मदि": 7126,
      "वढ": 7127,
      "सङ": 7128,
      "सत्ताको": 7129,
      "हनु": 7130,
      "##िश": 7131,
      "##वारी": 7132,
      "##सत्ता": 7133,
      "##्ष्ट्रिय": 7134,
      "##टारमा": 7135,
      "##ंघन": 7136,
      "##र्ना": 7137,
      "गर्यौं": 7138,
      "निमो": 7139,
      "स्टा": 7140,
      "माझ": 7141,
      "##ण्डी": 7142,
      "##ङ्ख": 7143,
      "उपदफा": 7144,
      "एकतर्फी": 7145,
      "बिदेश": 7146,
      "##ग्रस्त": 7147,
      "##ौंडा": 7148,
      "##जारा": 7149,
      "##सम्ममा": 7150,
      "##गाड": 7151,
      "बैठकलाई": 7152,
      "भएकै": 7153,
      "अध्यक्षले": 7154,
      "सदुपयोग": 7155,
      "पहिराले": 7156,
      "स्थानीयले": 7157,
      "देखाउन": 7158,
      "गर्नुका": 7159,
      "विश्वको": 7160,
      "कार्यक्रमको": 7161,
      "सामु": 7162,
      "महिलाले": 7163,
      "##सक्नु": 7164,
      "योग्य": 7165,
      "गोप्य": 7166,
      "कर्मचारीले": 7167,
      "दूध": 7168,
      "सम्झौतामा": 7169,
      "धनगढ": 7170,
      "डोल्पा": 7171,
      "फर्किएको": 7172,
      "नाकामा": 7173,
      "आईसी": 7174,
      "संकटमा": 7175,
      "##र्भिक": 7176,
      "प्रतिष्ठानमा": 7177,
      "टुंग": 7178,
      "ब्यक्ति": 7179,
      "जुटेका": 7180,
      "कैलालीको": 7181,
      "परिणत": 7182,
      "उत्पादनमा": 7183,
      "सधैँ": 7184,
      "##डेल्": 7185,
      "कैदीबन्द": 7186,
      "क्याम्पस": 7187,
      "मिश्रले": 7188,
      "बर्दिया": 7189,
      "महाराजग": 7190,
      "आगलागी": 7191,
      "ढोरपाटन": 7192,
      "सद्भाव": 7193,
      "गुर्जो": 7194,
      "अपमान": 7195,
      "टाइ": 7196,
      "दस": 7197,
      "दास": 7198,
      "पद्": 7199,
      "बल्": 7200,
      "मिस": 7201,
      "शता": 7202,
      "सना": 7203,
      "हटाएर": 7204,
      "##ाङ्ग": 7205,
      "##जानु": 7206,
      "##हानी": 7207,
      "##उनेछ": 7208,
      "##ङक": 7209,
      "##शेष": 7210,
      "##श्रोत": 7211,
      "##्यौं": 7212,
      "प्रथम": 7213,
      "विन": 7214,
      "विनोद": 7215,
      "नेटव": 7216,
      "संचार": 7217,
      "दिपा": 7218,
      "रहँदै": 7219,
      "सुपरि": 7220,
      "सहमती": 7221,
      "जनआ": 7222,
      "##प्रदेश": 7223,
      "##न्द्रनाथ": 7224,
      "राखिएका": 7225,
      "निर्णयअनुसार": 7226,
      "आजसम्म": 7227,
      "सकिन्न": 7228,
      "घरबाट": 7229,
      "##पुरको": 7230,
      "प्रचलन": 7231,
      "माननीय": 7232,
      "उनीहरूको": 7233,
      "चाहा": 7234,
      "##बाजी": 7235,
      "##संस्कार": 7236,
      "उल्लेख्य": 7237,
      "आयोजनाले": 7238,
      "व्यवसायीलाई": 7239,
      "सर्वदलीय": 7240,
      "विद्यालयका": 7241,
      "पर्नेमा": 7242,
      "अरुण": 7243,
      "कार्यान्वयनको": 7244,
      "बनेर": 7245,
      "##कर्षमा": 7246,
      "शनिवार": 7247,
      "वरिपरि": 7248,
      "अन्तर्रा्ष्ट्रिय": 7249,
      "महाशाखा": 7250,
      "प्रतिष्ठा": 7251,
      "चिनियां": 7252,
      "फर्कन": 7253,
      "कार्तिक": 7254,
      "संसद्मा": 7255,
      "नोभे": 7256,
      "वीरेन्द्र": 7257,
      "रणनीतिक": 7258,
      "अगष्ट": 7259,
      "##पेक्ष": 7260,
      "अर्याल": 7261,
      "इन्टरने": 7262,
      "एकलौटी": 7263,
      "ट्वीट": 7264,
      "उन्मुख": 7265,
      "आकर्षक": 7266,
      "नेम्वाङ": 7267,
      "बसिरहेका": 7268,
      "फराकिलो": 7269,
      "##च्छि": 7270,
      "##सीयू": 7271,
      "होल्डिङ": 7272,
      "इस्ला": 7273,
      "काभ्रेपलाञ्चोक": 7274,
      "आक्रोश": 7275,
      "##डेल्धुरा": 7276,
      "अं": 7277,
      "कौ": 7278,
      "चरम": 7279,
      "डडेल्धुरा": 7280,
      "नचा": 7281,
      "ली": 7282,
      "शुरू": 7283,
      "##लिया": 7284,
      "##सै": 7285,
      "##रकारी": 7286,
      "##ोप": 7287,
      "##पख": 7288,
      "##परी": 7289,
      "##दिक": 7290,
      "##दत्त": 7291,
      "##त्मा": 7292,
      "कोठा": 7293,
      "##ङ्की": 7294,
      "##ायर": 7295,
      "गरेकाे": 7296,
      "स्वास्थ्यमन्त्री": 7297,
      "जाहेरी": 7298,
      "पुग्छ": 7299,
      "बुद्धि": 7300,
      "भन्नेबारे": 7301,
      "अवस्थाबारे": 7302,
      "साथिको": 7303,
      "गुल्म": 7304,
      "बोल्ने": 7305,
      "भाई": 7306,
      "गौतमको": 7307,
      "##केन्द्र": 7308,
      "नामक": 7309,
      "##दायक": 7310,
      "संस्थामा": 7311,
      "जानेछन्": 7312,
      "सीमामा": 7313,
      "उठाउन": 7314,
      "उठाउने": 7315,
      "रिहा": 7316,
      "भाग्य": 7317,
      "##च्छुक": 7318,
      "देवेन्द्र": 7319,
      "युवालाई": 7320,
      "कोइरालाको": 7321,
      "किसानको": 7322,
      "विरुद्धमा": 7323,
      "ब्यब": 7324,
      "एकातिर": 7325,
      "भाडामा": 7326,
      "कटौती": 7327,
      "भैरहेको": 7328,
      "भेन्टिलेटरमा": 7329,
      "एजेन्सी": 7330,
      "चाँडो": 7331,
      "उठाएका": 7332,
      "दुर्गम": 7333,
      "लोहनीले": 7334,
      "मिलेनियम": 7335,
      "सन्तुलन": 7336,
      "केशव": 7337,
      "सेप्टेम्बर": 7338,
      "निमोनिया": 7339,
      "उन्न": 7340,
      "धेर": 7341,
      "फ्र": 7342,
      "ब्रा": 7343,
      "भन्छ": 7344,
      "भंग": 7345,
      "हेल": 7346,
      "##राग": 7347,
      "##ँट": 7348,
      "##ौल": 7349,
      "नेवि": 7350,
      "नेतालाई": 7351,
      "उनकी": 7352,
      "बिहि": 7353,
      "सेन": 7354,
      "लगेको": 7355,
      "महतो": 7356,
      "नगरे": 7357,
      "नियमन": 7358,
      "सदस्यहरुको": 7359,
      "ल्याई": 7360,
      "##जनालाई": 7361,
      "अवस्थालाई": 7362,
      "हालको": 7363,
      "##ग्लिन": 7364,
      "##लगायतले": 7365,
      "बेवास्ता": 7366,
      "कांग्रेसकी": 7367,
      "##चाई": 7368,
      "##ड्दै": 7369,
      "अन्र्त": 7370,
      "मानिसबाट": 7371,
      "आश्वास": 7372,
      "बजेटमा": 7373,
      "दीप": 7374,
      "फर्किने": 7375,
      "करिडोर": 7376,
      "प्रतिष्ठामा": 7377,
      "आत्मसा": 7378,
      "सभ्य": 7379,
      "लाग्दा": 7380,
      "संसद्को": 7381,
      "फुटाउन": 7382,
      "जन्मि": 7383,
      "स्थानीयवासीको": 7384,
      "बालबालिकाको": 7385,
      "कालोपत्र": 7386,
      "मैत्री": 7387,
      "शीघ्र": 7388,
      "अर्थतन्त्रमा": 7389,
      "बाहेकका": 7390,
      "इजलासमा": 7391,
      "सारिएको": 7392,
      "सैन्य": 7393,
      "माइती": 7394,
      "महासङ्घका": 7395,
      "पठाएका": 7396,
      "पुस्तक": 7397,
      "विष्टले": 7398,
      "बाँकेमा": 7399,
      "खिन्न": 7400,
      "##फ्ट": 7401,
      "उल्लङ्": 7402,
      "अनुशन्धान": 7403,
      "शेर्पा": 7404,
      "सीसीएमसी": 7405,
      "आनन्द": 7406,
      "ग्य": 7407,
      "तब": 7408,
      "धनी": 7409,
      "नखु": 7410,
      "ब्": 7411,
      "यहि": 7412,
      "हृ": 7413,
      "##जनी": 7414,
      "##ठान": 7415,
      "##एल": 7416,
      "##ताप": 7417,
      "गराउनु": 7418,
      "##िकेट": 7419,
      "दिशा": 7420,
      "समक्ष": 7421,
      "##ल्दा": 7422,
      "रहनेछन्": 7423,
      "मान्ने": 7424,
      "बैशाख": 7425,
      "बास": 7426,
      "देशबीच": 7427,
      "लिँदै": 7428,
      "लिनुपर्ने": 7429,
      "लिटर": 7430,
      "विद्रो": 7431,
      "घरेलु": 7432,
      "##ग्रहण": 7433,
      "मुलुकभर": 7434,
      "उल्लेखनीय": 7435,
      "अधिकारीको": 7436,
      "लापर": 7437,
      "सूचनामा": 7438,
      "विभागमा": 7439,
      "कर्मचारीमा": 7440,
      "##सनीय": 7441,
      "बुझाउन": 7442,
      "सम्बद्ध": 7443,
      "सशक्त": 7444,
      "नवनि": 7445,
      "जनाएकाे": 7446,
      "जितेर": 7447,
      "तिनको": 7448,
      "देखाएर": 7449,
      "बन्यो": 7450,
      "बर्खास्त": 7451,
      "सिमाना": 7452,
      "कन्ट्याक्ट": 7453,
      "ट्याक्सी": 7454,
      "सल्यान": 7455,
      "ज्ञापनपत्र": 7456,
      "कँडेलले": 7457,
      "बाजुरा": 7458,
      "प्रतिस्पर्धीहरुलार्ई": 7459,
      "गैरसरकारी": 7460,
      "विज्ञापन": 7461,
      "गैँडा": 7462,
      "आश्वासन": 7463,
      "ट्वि": 7464,
      "ठप्प": 7465,
      "भेल": 7466,
      "यती": 7467,
      "रेक": 7468,
      "रद्द": 7469,
      "सत्र": 7470,
      "##मेत": 7471,
      "##वमा": 7472,
      "##्ट": 7473,
      "##पिङ": 7474,
      "##धै": 7475,
      "##चालय": 7476,
      "##दक": 7477,
      "##ाल्ने": 7478,
      "मावि": 7479,
      "##रिटी": 7480,
      "थियौँ": 7481,
      "व्यस्त": 7482,
      "बढेसँगै": 7483,
      "प्रतिरोध": 7484,
      "##िनो": 7485,
      "##िनीय": 7486,
      "##गाई": 7487,
      "गरिमा": 7488,
      "सोको": 7489,
      "सकिँदैन": 7490,
      "गुठी": 7491,
      "##कुरा": 7492,
      "देखिएकाले": 7493,
      "थपे": 7494,
      "##ट्टी": 7495,
      "देखेर": 7496,
      "बजेका": 7497,
      "नभइ": 7498,
      "असु": 7499,
      "किशोर": 7500,
      "##ञ्जी": 7501,
      "हिरा": 7502,
      "पारिएको": 7503,
      "संसदबाट": 7504,
      "भाषण": 7505,
      "घटस्थापना": 7506,
      "युग": 7507,
      "##केपछि": 7508,
      "गाई": 7509,
      "फैलन": 7510,
      "विशेषगरी": 7511,
      "पुनःस्थापना": 7512,
      "रेड": 7513,
      "सीता": 7514,
      "रुपले": 7515,
      "आश्रम": 7516,
      "यात्रुलाई": 7517,
      "रोजगारीमा": 7518,
      "जवाफदे": 7519,
      "भूभागका": 7520,
      "पर्यटकको": 7521,
      "सचेतना": 7522,
      "लाग्नेछ": 7523,
      "##मालले": 7524,
      "ठाकुर": 7525,
      "साहले": 7526,
      "परम्पर": 7527,
      "तिवारीले": 7528,
      "दूतावासले": 7529,
      "म्याग्दी": 7530,
      "महोत्तरी": 7531,
      "धम्की": 7532,
      "चौरज": 7533,
      "भयावह": 7534,
      "जनचेतना": 7535,
      "इन्धन": 7536,
      "गाउ": 7537,
      "च्यान": 7538,
      "डरा": 7539,
      "धै": 7540,
      "फ्रा": 7541,
      "बड": 7542,
      "भरमा": 7543,
      "शोक": 7544,
      "सवै": 7545,
      "सर्ने": 7546,
      "##िएमसी": 7547,
      "##यिक": 7548,
      "##ाध्यक्ष": 7549,
      "##लभ": 7550,
      "##जल": 7551,
      "##ब्य": 7552,
      "##खेर": 7553,
      "##धनी": 7554,
      "##चरण": 7555,
      "##फेर": 7556,
      "##र्नेछ": 7557,
      "##्याङ": 7558,
      "स्तर": 7559,
      "संकल्प": 7560,
      "##ल्स": 7561,
      "##क्रा": 7562,
      "नेपालसँग": 7563,
      "##हिता": 7564,
      "##पाती": 7565,
      "##विश्वास": 7566,
      "एकदुई": 7567,
      "अनुशासन": 7568,
      "स्वाभि": 7569,
      "##र्थक": 7570,
      "##ञ्चा": 7571,
      "रोकिएका": 7572,
      "व्यवस्थाको": 7573,
      "बुबा": 7574,
      "घरपरिवार": 7575,
      "आइएम": 7576,
      "बोलि": 7577,
      "सहयोगका": 7578,
      "##ङ्गे": 7579,
      "असल": 7580,
      "किरण": 7581,
      "##ञ्जा": 7582,
      "रामेश्वर": 7583,
      "चिर": 7584,
      "पूँजी": 7585,
      "जीवनको": 7586,
      "महिलामा": 7587,
      "वैधानिक": 7588,
      "##वेदना": 7589,
      "लेखाइ": 7590,
      "उहाँहरु": 7591,
      "मायाको": 7592,
      "तिनी": 7593,
      "पहिरोको": 7594,
      "##बुद्ध": 7595,
      "छात्र": 7596,
      "अदालतका": 7597,
      "जग्गामा": 7598,
      "शक्तिको": 7599,
      "जलवा": 7600,
      "जलश्रोत": 7601,
      "करिव": 7602,
      "खेल्ने": 7603,
      "नक्कली": 7604,
      "अखिल": 7605,
      "नबना": 7606,
      "नभएसम्म": 7607,
      "स्याउ": 7608,
      "तिनै": 7609,
      "##पोत": 7610,
      "असहयोग": 7611,
      "बन्दाबन्दीका": 7612,
      "सिलसि": 7613,
      "शरीरमा": 7614,
      "सिटौला": 7615,
      "उल्लंघन": 7616,
      "सेन्टरमा": 7617,
      "दैनिकी": 7618,
      "नलाग्ने": 7619,
      "अनौपचारिक": 7620,
      "मनसुनी": 7621,
      "पुनर्गठन": 7622,
      "दिशामा": 7623,
      "शौचालय": 7624,
      "व्रत": 7625,
      "जनआन्दो": 7626,
      "असा": 7627,
      "फस": 7628,
      "म्यान": 7629,
      "मच्छि": 7630,
      "वसन्त": 7631,
      "हद": 7632,
      "##मय": 7633,
      "##ख्य": 7634,
      "##ेजी": 7635,
      "##गामी": 7636,
      "##छौं": 7637,
      "##ओपी": 7638,
      "##काउ": 7639,
      "##लाग्": 7640,
      "सार्ने": 7641,
      "कोशी": 7642,
      "केदार": 7643,
      "गरेकोमा": 7644,
      "सरकारविरुद्ध": 7645,
      "एकअ": 7646,
      "##नीमा": 7647,
      "##रहवा": 7648,
      "प्रतियोग": 7649,
      "जानकार": 7650,
      "सेक्यु": 7651,
      "रोज": 7652,
      "मुद्धा": 7653,
      "घरघरमा": 7654,
      "कार्यालयलाई": 7655,
      "गुल्": 7656,
      "हुनै": 7657,
      "विषयको": 7658,
      "बोल": 7659,
      "कार्यक्रमलाई": 7660,
      "अन्यथा": 7661,
      "आफूतिर": 7662,
      "बालक": 7663,
      "नगरि": 7664,
      "मुलुकले": 7665,
      "वैदिक": 7666,
      "महामारीमा": 7667,
      "गाडीमा": 7668,
      "भिड": 7669,
      "##सेन": 7670,
      "तपाईको": 7671,
      "सहमतिको": 7672,
      "चीनसँग": 7673,
      "दूर": 7674,
      "महत्वका": 7675,
      "वितरणमा": 7676,
      "युवाको": 7677,
      "विधिको": 7678,
      "बागलु": 7679,
      "पैदल": 7680,
      "नवरात्र": 7681,
      "नियुक्ती": 7682,
      "प्रजातान्त्रिक": 7683,
      "प्रदर्श": 7684,
      "मजदूर": 7685,
      "मास्कको": 7686,
      "महानगरपालिकाले": 7687,
      "फर्काउन": 7688,
      "एजेण्डा": 7689,
      "प्रदीपकुमार": 7690,
      "हेटौंडा": 7691,
      "आतंक": 7692,
      "महाधिवेशनको": 7693,
      "युरोप": 7694,
      "दार्चुला": 7695,
      "खेलाडी": 7696,
      "प्रतिवद्धता": 7697,
      "पहलमा": 7698,
      "तिमिल्सि": 7699,
      "खप्तड": 7700,
      "सुपरिटे": 7701,
      "धेरैले": 7702,
      "मच्छिन्द्रनाथ": 7703,
      "आपूर्": 7704,
      "ओम्": 7705,
      "कल्पना": 7706,
      "ग्रा": 7707,
      "छवि": 7708,
      "दाम": 7709,
      "नु": 7710,
      "पवि": 7711,
      "बाम": 7712,
      "बस्तु": 7713,
      "भवनको": 7714,
      "मकै": 7715,
      "मलेस": 7716,
      "श्याम": 7717,
      "सन": 7718,
      "सृ": 7719,
      "सदा": 7720,
      "हङक": 7721,
      "##तालिका": 7722,
      "##ुग": 7723,
      "##चीमा": 7724,
      "##न्समा": 7725,
      "प्रम": 7726,
      "प्रो": 7727,
      "विस्": 7728,
      "गर्नाले": 7729,
      "स्कूल": 7730,
      "##राय": 7731,
      "गर्नसमेत": 7732,
      "राजन": 7733,
      "##िनको": 7734,
      "##भावी": 7735,
      "पुगेपछि": 7736,
      "महँग": 7737,
      "नेताहरूले": 7738,
      "मन्त्रालयबाट": 7739,
      "आइसकेको": 7740,
      "##स्यौ": 7741,
      "##बीले": 7742,
      "देखिँदैन": 7743,
      "सदस्यता": 7744,
      "देखाउने": 7745,
      "अन्तराष्ट्रिय": 7746,
      "मन्त्रीलाई": 7747,
      "##ेदी": 7748,
      "पूर्वमा": 7749,
      "भाद्र": 7750,
      "नगर्दा": 7751,
      "युए": 7752,
      "नहुनु": 7753,
      "विवादका": 7754,
      "##गमनमा": 7755,
      "जुलु": 7756,
      "पढ्न": 7757,
      "भईरहेको": 7758,
      "अदालतबाट": 7759,
      "##मुना": 7760,
      "प्रयासमा": 7761,
      "समुदायका": 7762,
      "विगतको": 7763,
      "राख्नुपर्ने": 7764,
      "मध्यपुर": 7765,
      "सोचे": 7766,
      "अखण्ड": 7767,
      "लाग्नु": 7768,
      "सूर्यविनायक": 7769,
      "प्रगती": 7770,
      "भक्तपुरका": 7771,
      "सौराहा": 7772,
      "समानता": 7773,
      "आफैतिर": 7774,
      "पञ्चाङ्ग": 7775,
      "मेगावाटको": 7776,
      "प्रेरित": 7777,
      "तिहाइ": 7778,
      "धादिङ": 7779,
      "फौज": 7780,
      "एनसेल": 7781,
      "##सभामुख": 7782,
      "स्तरोन्नति": 7783,
      "च्यालेन्ज": 7784,
      "संशोधनको": 7785,
      "अक्टोबर": 7786,
      "चन्द्रागिरि": 7787,
      "सेक्युरिटी": 7788,
      "इञ्ज": 7789,
      "एप्": 7790,
      "खराब": 7791,
      "घाट": 7792,
      "जमी": 7793,
      "फाउ": 7794,
      "ललि": 7795,
      "वु": 7796,
      "वाल": 7797,
      "सबल": 7798,
      "##ममा": 7799,
      "##मीका": 7800,
      "##चोक": 7801,
      "प्रक्रिय": 7802,
      "विवा": 7803,
      "स्कुल": 7804,
      "साय": 7805,
      "##त्सा": 7806,
      "लागेपछि": 7807,
      "##ङ्क्षा": 7808,
      "##पाइ": 7809,
      "##पातिक": 7810,
      "बढाउनुपर्ने": 7811,
      "स्वाधीन": 7812,
      "बाक्": 7813,
      "गरिरह": 7814,
      "सिस्ट": 7815,
      "##ंगे": 7816,
      "##कुद": 7817,
      "उत्तिकै": 7818,
      "मानन्ध": 7819,
      "##सिफिक": 7820,
      "शिशु": 7821,
      "खुलेर": 7822,
      "किरा": 7823,
      "डिल्ली": 7824,
      "हेल्": 7825,
      "##आरएन": 7826,
      "हुँदाहुँदै": 7827,
      "लगाई": 7828,
      "अनिल": 7829,
      "अनसन": 7830,
      "छुट्टा": 7831,
      "मौसमविद": 7832,
      "सम्ममा": 7833,
      "भण्डारीको": 7834,
      "भण्डारीलाई": 7835,
      "खेल्न": 7836,
      "सञ्चारमन्त्री": 7837,
      "राख्दा": 7838,
      "शैलीमा": 7839,
      "भेडा": 7840,
      "खरिदमा": 7841,
      "टोखा": 7842,
      "खेलकुद": 7843,
      "बहुमतको": 7844,
      "खतिवडाको": 7845,
      "कृष्णबहादुर": 7846,
      "चिन्ह": 7847,
      "आएकी": 7848,
      "आफुले": 7849,
      "बेलायतमा": 7850,
      "समेटिएको": 7851,
      "साझेदार": 7852,
      "उमेरमा": 7853,
      "##आईजी": 7854,
      "पर्खाल": 7855,
      "बढाएर": 7856,
      "निर्देशनालयका": 7857,
      "मधेस": 7858,
      "अन्नपूर्ण": 7859,
      "महाअभियोग": 7860,
      "प्रयोजनका": 7861,
      "मदिरा": 7862,
      "आईसीटी": 7863,
      "आदर्श": 7864,
      "इण्ड": 7865,
      "ऐनको": 7866,
      "कथा": 7867,
      "खसी": 7868,
      "जगत": 7869,
      "तिलक": 7870,
      "नयां": 7871,
      "पथ": 7872,
      "फर्म": 7873,
      "बरा": 7874,
      "मृ": 7875,
      "मस्यौ": 7876,
      "हेलि": 7877,
      "##महा": 7878,
      "##डुल": 7879,
      "##पको": 7880,
      "##पबहादुर": 7881,
      "##प¥यो": 7882,
      "##उमा": 7883,
      "##ठे": 7884,
      "##नेश्वर": 7885,
      "प्रत्या": 7886,
      "प्रभु": 7887,
      "##क्ताको": 7888,
      "##त्रिम": 7889,
      "##्याव": 7890,
      "समर्": 7891,
      "##यात्रा": 7892,
      "रह्यो": 7893,
      "मामि": 7894,
      "माडी": 7895,
      "सुव": 7896,
      "निर्धारित": 7897,
      "सरल": 7898,
      "कार्यको": 7899,
      "उपप्रधान": 7900,
      "उपसभामुख": 7901,
      "दुइ": 7902,
      "जनजीवन": 7903,
      "##नमार्फत": 7904,
      "गरिँदै": 7905,
      "गरिदिन": 7906,
      "##ञ्चल": 7907,
      "जाति": 7908,
      "##हरूबाट": 7909,
      "बनाउ": 7910,
      "प्रचलित": 7911,
      "उत्कर्षमा": 7912,
      "##कालिन": 7913,
      "व्यक्तिहरु": 7914,
      "लाखौं": 7915,
      "##ञ्छ": 7916,
      "पूर्वतय": 7917,
      "समाजले": 7918,
      "कृत्रिम": 7919,
      "प्रस्तावको": 7920,
      "बिहानको": 7921,
      "भनिए": 7922,
      "अधिकारीलाई": 7923,
      "मुख्यसचिव": 7924,
      "दाहसंस्कार": 7925,
      "##सेन्स": 7926,
      "सुरुवात": 7927,
      "सहभागि": 7928,
      "जुम्लामा": 7929,
      "##परेका": 7930,
      "बुझाइ": 7931,
      "बदर": 7932,
      "पूर्णरूपमा": 7933,
      "भट्टराईको": 7934,
      "प्रश्नमा": 7935,
      "##मुक्ति": 7936,
      "सहजै": 7937,
      "##योजित": 7938,
      "सातै": 7939,
      "बजेटको": 7940,
      "भूमिमा": 7941,
      "ढुङ्गा": 7942,
      "दृश्य": 7943,
      "राष्ट्रियसभाको": 7944,
      "ब्यवस्था": 7945,
      "स्तरमा": 7946,
      "एनआरएन": 7947,
      "हिँड्ने": 7948,
      "प्राप्तीको": 7949,
      "दृष्टिले": 7950,
      "बारम्बार": 7951,
      "पर्वतीय": 7952,
      "गोकर्णेश्वर": 7953,
      "सिसिएमसी": 7954,
      "मेट्रिक": 7955,
      "द्विपक्षीय": 7956,
      "##ेश्वरी": 7957,
      "राहदानी": 7958,
      "गुप्तचर": 7959,
      "एकअर्का": 7960,
      "एक्स": 7961,
      "एशो": 7962,
      "चोक": 7963,
      "छठ": 7964,
      "टिप": 7965,
      "ननि": 7966,
      "बस्य": 7967,
      "शमशेर": 7968,
      "##वृत्ति": 7969,
      "##जय": 7970,
      "##हरि": 7971,
      "##खामा": 7972,
      "##धम": 7973,
      "##ठू": 7974,
      "प्रस्ट": 7975,
      "##नापति": 7976,
      "काफ": 7977,
      "सार्की": 7978,
      "##कारको": 7979,
      "##हिन": 7980,
      "##ण्डमा": 7981,
      "सुन्त": 7982,
      "निर्मित": 7983,
      "##पछिको": 7984,
      "राजकुमार": 7985,
      "बिरोध": 7986,
      "स्वास्थ्यलाभ": 7987,
      "कमिसन": 7988,
      "सोले": 7989,
      "देशबाट": 7990,
      "मुक्ति": 7991,
      "नेकपालाई": 7992,
      "भारतलाई": 7993,
      "परिक": 7994,
      "व्यावहार": 7995,
      "मनोर": 7996,
      "सदस्यलाई": 7997,
      "पोल": 7998,
      "बेनी": 7999,
      "वडाका": 8000,
      "खोजिएको": 8001,
      "सवालमा": 8002,
      "आरोहण": 8003,
      "कर्ण": 8004,
      "ग्रुप": 8005,
      "किनार": 8006,
      "बनेपा": 8007,
      "शिक्षामा": 8008,
      "भोग्": 8009,
      "उद्योगी": 8010,
      "##वासीलाई": 8011,
      "निकायको": 8012,
      "##जिम्म": 8013,
      "ट्रेड": 8014,
      "टेक्": 8015,
      "टेस्ट": 8016,
      "शक्तिपी": 8017,
      "जलस्रोत": 8018,
      "नारायणप्रसाद": 8019,
      "नारायणगढ": 8020,
      "उद्दार": 8021,
      "परिवर्तनको": 8022,
      "चितवनको": 8023,
      "##खुवास": 8024,
      "कमाउँन": 8025,
      "वीरगन्ज": 8026,
      "समृद्धिका": 8027,
      "शाखाका": 8028,
      "चुनावमा": 8029,
      "बालबालिकालाई": 8030,
      "हेरफेर": 8031,
      "एकाइ": 8032,
      "नआउने": 8033,
      "भैरहवा": 8034,
      "सुर्खेतमा": 8035,
      "सिमकोट": 8036,
      "विराटनगरमा": 8037,
      "##म्बाहा": 8038,
      "जुम्लाको": 8039,
      "निर्देशनालयले": 8040,
      "विलाशी": 8041,
      "डुबानमा": 8042,
      "प्रेरणा": 8043,
      "अभियोगमा": 8044,
      "समारोहमा": 8045,
      "##देखी": 8046,
      "कित्ताका": 8047,
      "महशुस": 8048,
      "प्रायः": 8049,
      "सन्तुलित": 8050,
      "प्रर्दशन": 8051,
      "नोभेम्बर": 8052,
      "हृदय": 8053,
      "धैर्य": 8054,
      "मस्यौदा": 8055,
      "हेलिको": 8056,
      "अच": 8057,
      "क्यान": 8058,
      "धमा": 8059,
      "नरो": 8060,
      "फिट": 8061,
      "माट": 8062,
      "रअ": 8063,
      "रघु": 8064,
      "सान": 8065,
      "सर्त": 8066,
      "सट्टा": 8067,
      "##स्र्": 8068,
      "##चाह": 8069,
      "##गान": 8070,
      "##्यार": 8071,
      "##म्फा": 8072,
      "##नुपातिक": 8073,
      "##्याएको": 8074,
      "##राजा": 8075,
      "माै": 8076,
      "मान्न": 8077,
      "मासु": 8078,
      "##पास": 8079,
      "सुशील": 8080,
      "सुमध": 8081,
      "निर्म": 8082,
      "##ारीका": 8083,
      "कुमारी": 8084,
      "बिर्स": 8085,
      "जनजा": 8086,
      "##ुरेन्ट": 8087,
      "सेनि": 8088,
      "परिरहेको": 8089,
      "सिङ्गो": 8090,
      "सिडिओ": 8091,
      "सोह्र": 8092,
      "मिलन": 8093,
      "देशभ": 8094,
      "महर्जन": 8095,
      "घरधु": 8096,
      "अवस्थाको": 8097,
      "गुणा": 8098,
      "मनोज": 8099,
      "विषयवस्तु": 8100,
      "सुरक्ष": 8101,
      "सङ्क्रमणमुक्त": 8102,
      "गर्नुपरेको": 8103,
      "विश्वस्त": 8104,
      "बस्दा": 8105,
      "खाता": 8106,
      "जीप": 8107,
      "नेतृत्वलाई": 8108,
      "बेड": 8109,
      "खोज्दै": 8110,
      "नहुन": 8111,
      "मौन": 8112,
      "##शनल": 8113,
      "##म्भव": 8114,
      "##स्ट्र": 8115,
      "होइनन्": 8116,
      "गोठ": 8117,
      "उडानको": 8118,
      "लोकेन्द्र": 8119,
      "त्रुट": 8120,
      "विद्यार्थीले": 8121,
      "परीक्षामा": 8122,
      "व्यवस्थालाई": 8123,
      "युवती": 8124,
      "जसका": 8125,
      "प्याज": 8126,
      "खेलकू": 8127,
      "एमसीसीको": 8128,
      "झण्डा": 8129,
      "लाइसेन्स": 8130,
      "श्रमिकको": 8131,
      "तुम्बाहा": 8132,
      "साइत": 8133,
      "मोदीले": 8134,
      "शरीर": 8135,
      "स्थिरता": 8136,
      "##पूजा": 8137,
      "चाहन्छौं": 8138,
      "अलिकति": 8139,
      "मूर्ति": 8140,
      "माफी": 8141,
      "मोहम्म": 8142,
      "मेलम्ची": 8143,
      "हजुर": 8144,
      "हनुमान": 8145,
      "नेटवर्क": 8146,
      "परम्परागत": 8147,
      "गुल्मी": 8148,
      "ललिता": 8149,
      "##खुवासभा": 8150,
      "सुमधुर": 8151,
      "आल": 8152,
      "उसलाई": 8153,
      "गेट": 8154,
      "घाम": 8155,
      "छौ": 8156,
      "जुवा": 8157,
      "बन": 8158,
      "बन्धन": 8159,
      "वाइड": 8160,
      "##मण्ड": 8161,
      "##लक": 8162,
      "##अध्यक्ष": 8163,
      "##केश": 8164,
      "##्नुपर्छ": 8165,
      "##टिङ": 8166,
      "##ंले": 8167,
      "##्र्यो": 8168,
      "प्रसू": 8169,
      "##त्रिक": 8170,
      "विदा": 8171,
      "कासिम": 8172,
      "##रोसा": 8173,
      "उनमा": 8174,
      "लागतमा": 8175,
      "##हार्य": 8176,
      "##ङ्क्ति": 8177,
      "गर्नेगरी": 8178,
      "उपेन्द्र": 8179,
      "बिच": 8180,
      "क्षेत्रले": 8181,
      "अध्यक्षमा": 8182,
      "नेपालीहरु": 8183,
      "हजारको": 8184,
      "बनाउनुपर्छ": 8185,
      "लगत्तै": 8186,
      "महराले": 8187,
      "गुम": 8188,
      "कुराले": 8189,
      "सदस्यसमेत": 8190,
      "शिकार": 8191,
      "शिष्ट": 8192,
      "किस्ता": 8193,
      "प्रयोगकर्ता": 8194,
      "##दिए": 8195,
      "हाे": 8196,
      "धेरैजसो": 8197,
      "नेतृत्वले": 8198,
      "जोखिमका": 8199,
      "हेरि": 8200,
      "निकाल्न": 8201,
      "चाहे": 8202,
      "व्यवसायमा": 8203,
      "सर्वे": 8204,
      "पदको": 8205,
      "समूहलाई": 8206,
      "सभाको": 8207,
      "##ोषण": 8208,
      "अध्ययनका": 8209,
      "पहिरोका": 8210,
      "किनारमा": 8211,
      "छुट्ट": 8212,
      "खर्चमा": 8213,
      "जुर्नेछ": 8214,
      "##ढीगण्डकी": 8215,
      "सक्रियता": 8216,
      "रहनेहरुको": 8217,
      "सुधारका": 8218,
      "दायरामा": 8219,
      "सिफारिश": 8220,
      "पशुप": 8221,
      "शैली": 8222,
      "कालि": 8223,
      "लैजानु": 8224,
      "खतिवडालाई": 8225,
      "वार्तामा": 8226,
      "प्रदर्शनमा": 8227,
      "सकेसम्म": 8228,
      "चर्चामा": 8229,
      "नपाएर": 8230,
      "परिषद्का": 8231,
      "महानगरपालिकाका": 8232,
      "सहकार्यमा": 8233,
      "तराईका": 8234,
      "सिन्धुपाल्चोकको": 8235,
      "खासगरी": 8236,
      "भोलिपल्ट": 8237,
      "फर्काउने": 8238,
      "लामाले": 8239,
      "उचाइमा": 8240,
      "बाँडफा": 8241,
      "एमसिसी": 8242,
      "रेग्मीले": 8243,
      "जुध्न": 8244,
      "##एचओ": 8245,
      "अन्तर्वार्ता": 8246,
      "ब्रिफिङ": 8247,
      "रामारोशन": 8248,
      "उल्लङ्घन": 8249,
      "रेकर्ड": 8250,
      "चौरजहारी": 8251,
      "जलवायु": 8252,
      "माैसम": 8253,
      "गच्छ": 8254,
      "डम्बर": 8255,
      "डाटा": 8256,
      "दवा": 8257,
      "द्रु": 8258,
      "नज": 8259,
      "नह": 8260,
      "श्रोत": 8261,
      "##िलो": 8262,
      "##वण": 8263,
      "##अगा": 8264,
      "##पोर्ट": 8265,
      "##ूँ": 8266,
      "##शास": 8267,
      "##काई": 8268,
      "##न्थे": 8269,
      "विराम": 8270,
      "कार्ड": 8271,
      "##नियाँ": 8272,
      "निष्ठा": 8273,
      "##हिँ": 8274,
      "निर्मला": 8275,
      "सरहका": 8276,
      "गर्नको": 8277,
      "##टीको": 8278,
      "कोरोनामुक्त": 8279,
      "##न्छी": 8280,
      "सेवालाई": 8281,
      "##सीले": 8282,
      "क्षेत्रफल": 8283,
      "समानुपातिक": 8284,
      "गरेँ": 8285,
      "दिनभर": 8286,
      "व्यवस्थापक": 8287,
      "लिए": 8288,
      "बुकिङ": 8289,
      "व्याख्या": 8290,
      "छैनौं": 8291,
      "समस्याहरु": 8292,
      "सयौँ": 8293,
      "व्यक्तिहरुको": 8294,
      "लाखको": 8295,
      "तीनवटा": 8296,
      "पूर्वपश्चिम": 8297,
      "चिनी": 8298,
      "अभिय": 8299,
      "आएकाले": 8300,
      "लेखेको": 8301,
      "विवादको": 8302,
      "गाठो": 8303,
      "विशेषता": 8304,
      "महिनाभित्र": 8305,
      "मूल्यांक": 8306,
      "भण्डारण": 8307,
      "##न्डर": 8308,
      "भुमिका": 8309,
      "हुनुपर्नेमा": 8310,
      "अनुगमनका": 8311,
      "एसएसपी": 8312,
      "अग्रप": 8313,
      "##त्तिकै": 8314,
      "जोगिन": 8315,
      "##छुट्टै": 8316,
      "एयरलाइन्सको": 8317,
      "सँगसँगै": 8318,
      "पशुपतिनाथ": 8319,
      "आफैंले": 8320,
      "समुह": 8321,
      "सधैं": 8322,
      "प्रकृतिको": 8323,
      "वार्डमा": 8324,
      "दोहोरो": 8325,
      "अपरिहार्य": 8326,
      "शेखर": 8327,
      "बामदेव": 8328,
      "मौसमविदले": 8329,
      "मामिलामा": 8330,
      "काफ्ले": 8331,
      "धमाधम": 8332,
      "खेलकूद": 8333,
      "ओम": 8334,
      "कथ": 8335,
      "कने": 8336,
      "कन्स": 8337,
      "गएकाले": 8338,
      "गहुँ": 8339,
      "जथा": 8340,
      "झगडा": 8341,
      "डल्": 8342,
      "डाय": 8343,
      "थप्ने": 8344,
      "पाउनु": 8345,
      "पाउनुपर्ने": 8346,
      "पालामा": 8347,
      "मारमा": 8348,
      "याम": 8349,
      "रङ्ग": 8350,
      "रवी": 8351,
      "शपथ": 8352,
      "सस": 8353,
      "##ताल": 8354,
      "##तेको": 8355,
      "##पट": 8356,
      "##धाम": 8357,
      "##ठाउँमा": 8358,
      "##ंकी": 8359,
      "##एसँगै": 8360,
      "प्रकृ": 8361,
      "##स्दा": 8362,
      "विन्दु": 8363,
      "##रुङ": 8364,
      "##क्षमा": 8365,
      "##क्ष्मी": 8366,
      "लागत": 8367,
      "सुनको": 8368,
      "सुविध": 8369,
      "सम्हा": 8370,
      "कार्यपालिका": 8371,
      "बढीमा": 8372,
      "सहसं": 8373,
      "प्रतिव्यक्ति": 8374,
      "##िसम्म": 8375,
      "त्यसबेला": 8376,
      "##ेटर": 8377,
      "भन्नुभएको": 8378,
      "देशव्यापी": 8379,
      "तरपनि": 8380,
      "##सके": 8381,
      "स्वरोजगार": 8382,
      "स्वभाविक": 8383,
      "अर्घाख": 8384,
      "बोह": 8385,
      "बोल्न": 8386,
      "काठमाडौंको": 8387,
      "दललाई": 8388,
      "बसपार्क": 8389,
      "##बापत": 8390,
      "##बाबु": 8391,
      "खाँचो": 8392,
      "मोर्च": 8393,
      "खोज्नु": 8394,
      "##जुमा": 8395,
      "उडानमा": 8396,
      "लगानीमा": 8397,
      "अनिश्चित": 8398,
      "कमिटीका": 8399,
      "बजेतिर": 8400,
      "तिथि": 8401,
      "चीनका": 8402,
      "शुक्रवार": 8403,
      "##सम्पा": 8404,
      "पूर्णिमा": 8405,
      "आश्वि": 8406,
      "सम्मको": 8407,
      "बहुआ": 8408,
      "मापदण्डको": 8409,
      "सुधारको": 8410,
      "त्यहाँको": 8411,
      "विस्तारै": 8412,
      "मिलाइएको": 8413,
      "कारवाहीको": 8414,
      "विज्ञप्तिमार्फत": 8415,
      "ढाँच": 8416,
      "छनौ": 8417,
      "मान्छेलाई": 8418,
      "सुनाउँदै": 8419,
      "मित्रताको": 8420,
      "रिटमा": 8421,
      "गराइरहेका": 8422,
      "कार्यकालमा": 8423,
      "सुनिश्चितता": 8424,
      "दोषीलाई": 8425,
      "सकेनन्": 8426,
      "##ालगायतका": 8427,
      "बोकेको": 8428,
      "मेलमिला": 8429,
      "कैदीबन्दी": 8430,
      "काभ्रे": 8431,
      "काट्ने": 8432,
      "मल्लले": 8433,
      "बाग्मती": 8434,
      "एशिया": 8435,
      "अग्निप्रसाद": 8436,
      "पिपि": 8437,
      "ग¥यौँ": 8438,
      "स्वीकार्य": 8439,
      "नोकरि": 8440,
      "आकांक्षा": 8441,
      "महाराजगञ्ज": 8442,
      "आइएमई": 8443,
      "सिलसिलामा": 8444,
      "हेल्थ": 8445,
      "सुन्तला": 8446,
      "जथाभावी": 8447,
      "अर्घाखा": 8448,
      "आश्विन": 8449,
      "आभार": 8450,
      "इमि": 8451,
      "एसो": 8452,
      "झाले": 8453,
      "भय": 8454,
      "वर": 8455,
      "##केर": 8456,
      "##बेर": 8457,
      "##खे": 8458,
      "##ेच्च": 8459,
      "##ेयक": 8460,
      "##ठ्": 8461,
      "##गण": 8462,
      "##ैया": 8463,
      "##ऊँ": 8464,
      "##कोटमा": 8465,
      "##र्टर": 8466,
      "प्रस्थान": 8467,
      "गराउ": 8468,
      "गरोस्": 8469,
      "##ागाई": 8470,
      "साधनमा": 8471,
      "##न्दरी": 8472,
      "समवेदना": 8473,
      "नेपालकै": 8474,
      "नेपालमै": 8475,
      "माहो": 8476,
      "लागे": 8477,
      "##देशीय": 8478,
      "केटा": 8479,
      "कार्यतालिका": 8480,
      "क्लि": 8481,
      "सहप्र": 8482,
      "कामपा": 8483,
      "अनुचित": 8484,
      "बिरुद्ध": 8485,
      "जनरल": 8486,
      "##ेलमा": 8487,
      "##टाई": 8488,
      "हुनेगरी": 8489,
      "रुचि": 8490,
      "##प्ता": 8491,
      "बैठकपछि": 8492,
      "क्षेत्रसँग": 8493,
      "अध्यक्षलाई": 8494,
      "लगाउनु": 8495,
      "देशबीचको": 8496,
      "असहाय": 8497,
      "खुल्न": 8498,
      "किताब": 8499,
      "##करणको": 8500,
      "चिडिया": 8501,
      "सामेल": 8502,
      "प्रस्तावित": 8503,
      "नियन्त्रणको": 8504,
      "यात्रामा": 8505,
      "योग्यता": 8506,
      "संघका": 8507,
      "गोष्ठ": 8508,
      "बढ्नुपर्ने": 8509,
      "उहाँहरुले": 8510,
      "व्यवसायीको": 8511,
      "##पक्षका": 8512,
      "कमिटीमा": 8513,
      "##व्यवस्था": 8514,
      "पौडेललाई": 8515,
      "अनन्त": 8516,
      "चीनलाई": 8517,
      "बुझिएको": 8518,
      "बुझ्ने": 8519,
      "मानिसहरु": 8520,
      "समाधानको": 8521,
      "रोगबाट": 8522,
      "युवाहरु": 8523,
      "ट्रे": 8524,
      "व्यवहारमा": 8525,
      "अविस्वास": 8526,
      "लैजा": 8527,
      "##पिड": 8528,
      "जसलाई": 8529,
      "लाग्दैन": 8530,
      "वेब": 8531,
      "काठमाडौँमा": 8532,
      "पीडितलाई": 8533,
      "ग्राहकले": 8534,
      "जुटाउन": 8535,
      "जानुपर्छ": 8536,
      "सर्वसाधारणको": 8537,
      "सुवेदी": 8538,
      "सरसफा": 8539,
      "फेसबुक": 8540,
      "##सेवी": 8541,
      "विद्येयक": 8542,
      "अक्सि": 8543,
      "खुमलटारमा": 8544,
      "सबभन्दा": 8545,
      "इनफ": 8546,
      "सुरक्षाकर्मीले": 8547,
      "गृहमन्त्रालयले": 8548,
      "बढिरहेकाले": 8549,
      "बर्दिवास": 8550,
      "शुरुआत": 8551,
      "नाघेको": 8552,
      "भाषामा": 8553,
      "नराम्रो": 8554,
      "श्वासप्रश्वासमा": 8555,
      "झडप": 8556,
      "छुट्टाछुट्टै": 8557,
      "##ठूला": 8558,
      "सेनिटाइ": 8559,
      "मोहम्मद": 8560,
      "प्रसूति": 8561,
      "अराज": 8562,
      "आस्था": 8563,
      "आराम": 8564,
      "इजा": 8565,
      "गइ": 8566,
      "जमा": 8567,
      "ठग": 8568,
      "तद": 8569,
      "द्": 8570,
      "दस्ताव": 8571,
      "बित्": 8572,
      "बच्चा": 8573,
      "मणि": 8574,
      "यकिन": 8575,
      "हेम": 8576,
      "##मुल": 8577,
      "##रक्षा": 8578,
      "##रानी": 8579,
      "##ड्न": 8580,
      "##ोला": 8581,
      "##णु": 8582,
      "##गरि": 8583,
      "##भएको": 8584,
      "##ौति": 8585,
      "##मानमा": 8586,
      "##माधव": 8587,
      "##काएर": 8588,
      "प्रण": 8589,
      "निरु": 8590,
      "सार्क": 8591,
      "दिदै": 8592,
      "रहेन": 8593,
      "##ामै": 8594,
      "सुधा": 8595,
      "दुव्र": 8596,
      "राजपा": 8597,
      "पार्टीबाट": 8598,
      "बाब": 8599,
      "##प्रसार": 8600,
      "स्थानिय": 8601,
      "राष्ट्रका": 8602,
      "नेपालीमा": 8603,
      "गरेन": 8604,
      "पर्यो": 8605,
      "गुज": 8606,
      "छैनौँ": 8607,
      "आवमा": 8608,
      "ल्याउनु": 8609,
      "सम्बन्धको": 8610,
      "##ङ्गिक": 8611,
      "किन्न": 8612,
      "विश्वकै": 8613,
      "##पनीय": 8614,
      "हिस्सा": 8615,
      "गौरा": 8616,
      "तहबाट": 8617,
      "जीव": 8618,
      "भेटेर": 8619,
      "नाम्": 8620,
      "चारै": 8621,
      "भिन्न": 8622,
      "गोदा": 8623,
      "बढ्छ": 8624,
      "उहाँका": 8625,
      "उहाँहरुको": 8626,
      "शान्त": 8627,
      "बनेपछि": 8628,
      "अनलाइ": 8629,
      "उठाएको": 8630,
      "प्रणालीलाई": 8631,
      "लकडाउनले": 8632,
      "परीक्षाको": 8633,
      "रकमको": 8634,
      "अपनाउनुपर्ने": 8635,
      "मन्त्रिपरिषद्मा": 8636,
      "फर्किसकेका": 8637,
      "क्षतिपूर्ति": 8638,
      "अभियानलाई": 8639,
      "आन्दोलनलाई": 8640,
      "कोइरालालाई": 8641,
      "युवकको": 8642,
      "नदिई": 8643,
      "मनोनित": 8644,
      "प्रतिष्ठानका": 8645,
      "सतह": 8646,
      "पसलमा": 8647,
      "माओवाद": 8648,
      "करार": 8649,
      "जुट्न": 8650,
      "मीन": 8651,
      "##राखेको": 8652,
      "म्याने": 8653,
      "सुदृड": 8654,
      "बुझाएका": 8655,
      "आफैँले": 8656,
      "पाउनेछन्": 8657,
      "विविधता": 8658,
      "निराश": 8659,
      "तिरेर": 8660,
      "लिमिटेडले": 8661,
      "सन्तोषजनक": 8662,
      "##सेवक": 8663,
      "लडाई": 8664,
      "वृत्त": 8665,
      "##डाँडामा": 8666,
      "##पश्चात्": 8667,
      "सर्वाेच्च": 8668,
      "प्रिन्ट": 8669,
      "समस्यालाई": 8670,
      "कोहलपुर": 8671,
      "शहरमा": 8672,
      "बहानामा": 8673,
      "परिचालित": 8674,
      "बिहिबार": 8675,
      "##ञ्चार्ज": 8676,
      "जनआन्दोलन": 8677,
      "ओम्नी": 8678,
      "मलेसिया": 8679,
      "सायद": 8680,
      "कित्ताकाट": 8681,
      "शिष्टाचार": 8682,
      "सहसंयोजक": 8683,
      "सहप्रवक्ता": 8684,
      "दस्तावेज": 8685,
      "अना": 8686,
      "आत्ति": 8687,
      "आकर्षण": 8688,
      "इरा": 8689,
      "कालिका": 8690,
      "खत्र": 8691,
      "घर्ती": 8692,
      "नमुना": 8693,
      "फू": 8694,
      "बत्ती": 8695,
      "भरोसा": 8696,
      "वान": 8697,
      "शो": 8698,
      "शशा": 8699,
      "शत्रु": 8700,
      "सपथ": 8701,
      "##सेक": 8702,
      "##खरै": 8703,
      "##झो": 8704,
      "##दिम": 8705,
      "##भल": 8706,
      "##आब्जा": 8707,
      "##ढोका": 8708,
      "##काइ": 8709,
      "##ाल्न": 8710,
      "हुम्लामा": 8711,
      "##योर्क": 8712,
      "राइ": 8713,
      "सार्थक": 8714,
      "##रात": 8715,
      "##ेकाले": 8716,
      "उनकै": 8717,
      "मावली": 8718,
      "सुब्बा": 8719,
      "उपधारा": 8720,
      "एक÷": 8721,
      "##ायनिक": 8722,
      "##लोजी": 8723,
      "राजसंस्था": 8724,
      "बिश्वास": 8725,
      "स्वाभाविक": 8726,
      "सेयर": 8727,
      "परिवेश": 8728,
      "सिधै": 8729,
      "हजारौं": 8730,
      "पुग्दा": 8731,
      "प्रमुखलाई": 8732,
      "##ंगै": 8733,
      "देखेको": 8734,
      "अन्ततः": 8735,
      "भाइरसले": 8736,
      "व्यक्तिका": 8737,
      "अवस्थित": 8738,
      "गर्नुस्": 8739,
      "##दिनु": 8740,
      "सांसदहरु": 8741,
      "तयारीका": 8742,
      "सवाल": 8743,
      "##जुद": 8744,
      "कृषक": 8745,
      "बुझाउने": 8746,
      "महत्वपुर्ण": 8747,
      "अर्काको": 8748,
      "राहतको": 8749,
      "धनकु": 8750,
      "परिवर्तनका": 8751,
      "कतिपयले": 8752,
      "चितवनमा": 8753,
      "##कोटालाई": 8754,
      "टोपबहादुर": 8755,
      "जसपा": 8756,
      "दिइरहेका": 8757,
      "नोक्स": 8758,
      "शुभे": 8759,
      "फुटाउने": 8760,
      "कार्यकर्ताको": 8761,
      "गरिएकामा": 8762,
      "##जेता": 8763,
      "प्रशासनको": 8764,
      "ग्राहकलाई": 8765,
      "स्तम्भ": 8766,
      "गर्नुपर्दछ": 8767,
      "बोर्डको": 8768,
      "विभाजित": 8769,
      "कुटु": 8770,
      "सत्तामा": 8771,
      "कम्तिमा": 8772,
      "चलखेल": 8773,
      "नवीन": 8774,
      "आक्रान्त": 8775,
      "उत्साहित": 8776,
      "कलाकार": 8777,
      "धनुषा": 8778,
      "ल्याइएका": 8779,
      "अल्झ": 8780,
      "##विरोधी": 8781,
      "बिषय": 8782,
      "##प्राप्त": 8783,
      "सूचीकृत": 8784,
      "बिहानैदेखि": 8785,
      "##निर्वाचित": 8786,
      "हौसला": 8787,
      "इन्जिनिय": 8788,
      "मधुमेह": 8789,
      "इस्लामिक": 8790,
      "बाक्लो": 8791,
      "##स्र्था": 8792,
      "कनेक्ट": 8793,
      "अयो": 8794,
      "आगमन": 8795,
      "उज्य": 8796,
      "ओख": 8797,
      "औसत": 8798,
      "तत्व": 8799,
      "धौला": 8800,
      "नल": 8801,
      "नसक्नु": 8802,
      "प¥यो": 8803,
      "बयान": 8804,
      "भेद": 8805,
      "लम्स": 8806,
      "वञ्चित": 8807,
      "शही": 8808,
      "हर्ष": 8809,
      "##यार": 8810,
      "##्ग": 8811,
      "##डका": 8812,
      "##हेल": 8813,
      "##ोकी": 8814,
      "##दमै": 8815,
      "##आमा": 8816,
      "##काउन": 8817,
      "##नेस": 8818,
      "प्रदायक": 8819,
      "##लाले": 8820,
      "##त्रो": 8821,
      "##निङ": 8822,
      "निश्च": 8823,
      "##ष्पर्": 8824,
      "समया": 8825,
      "कोपि": 8826,
      "सुमन": 8827,
      "##धिन": 8828,
      "सम्प्रेषण": 8829,
      "बताइन्छ": 8830,
      "##विन्दु": 8831,
      "##विज्ञान": 8832,
      "उपसभा": 8833,
      "पार्वती": 8834,
      "कामकार": 8835,
      "##किला": 8836,
      "##द्धारा": 8837,
      "##डामा": 8838,
      "देशभित्र": 8839,
      "मुहान": 8840,
      "नेताबीच": 8841,
      "थाती": 8842,
      "साथीको": 8843,
      "प्रवृति": 8844,
      "समस्याका": 8845,
      "बजेको": 8846,
      "पोल्": 8847,
      "शिखर": 8848,
      "अभियुक्त": 8849,
      "##राज्य": 8850,
      "प्रेमका": 8851,
      "भनिएका": 8852,
      "ठाउँको": 8853,
      "अन्तरविरोध": 8854,
      "श्रेष्ठलाई": 8855,
      "##तर्फको": 8856,
      "##तर्फबाट": 8857,
      "चौतर्फी": 8858,
      "चुस्त": 8859,
      "पाइनेछ": 8860,
      "बुझेको": 8861,
      "लेन": 8862,
      "मानिसमा": 8863,
      "प्रणालीबाट": 8864,
      "आशि": 8865,
      "आश्र": 8866,
      "पोखरेलको": 8867,
      "भ्रममा": 8868,
      "समुदायलाई": 8869,
      "रातिदेखि": 8870,
      "बाहिरका": 8871,
      "सच्या": 8872,
      "पैत्रिक": 8873,
      "लक्ष्मण": 8874,
      "##मोहन": 8875,
      "फोहर": 8876,
      "कोषका": 8877,
      "रासायनिक": 8878,
      "प्रतिष्ठानले": 8879,
      "नबढ": 8880,
      "नआएको": 8881,
      "गैरजिम्म": 8882,
      "आपत्तिजनक": 8883,
      "ब्रह": 8884,
      "तिनलाई": 8885,
      "जबरा": 8886,
      "उत्पादक": 8887,
      "जनकराज": 8888,
      "मालपोत": 8889,
      "हिमपा": 8890,
      "महानिरीक्षक": 8891,
      "उन्मुक्ति": 8892,
      "तिव्र": 8893,
      "हुम्लाको": 8894,
      "दमौली": 8895,
      "सिंहदरबारमा": 8896,
      "नलिने": 8897,
      "कर्पोरेशन": 8898,
      "मुस्लिम": 8899,
      "बढेकाले": 8900,
      "##पश्चात": 8901,
      "शिक्षालय": 8902,
      "तर्जुमा": 8903,
      "दिपायल": 8904,
      "स्वास्थ्यलाभको": 8905,
      "अर्घाखाँच": 8906,
      "इमिरेट": 8907,
      "कोपिला": 8908,
      "अक्ष": 8909,
      "अटो": 8910,
      "अन्या": 8911,
      "आचरण": 8912,
      "इन्ट": 8913,
      "कहर": 8914,
      "छर": 8915,
      "डेड": 8916,
      "थलो": 8917,
      "नाट": 8918,
      "पला": 8919,
      "पम्फा": 8920,
      "फला": 8921,
      "बू": 8922,
      "बडि": 8923,
      "बल्ल": 8924,
      "माला": 8925,
      "रजि": 8926,
      "ल्": 8927,
      "##बेल": 8928,
      "##षध": 8929,
      "##ेग": 8930,
      "##ेक्ष": 8931,
      "##गाना": 8932,
      "##भरा": 8933,
      "##भण्ड": 8934,
      "##औषध": 8935,
      "##कान": 8936,
      "##कान्त": 8937,
      "प्रदू": 8938,
      "प्रसाई": 8939,
      "##क्व": 8940,
      "विध": 8941,
      "##निका": 8942,
      "निकाल": 8943,
      "रावत": 8944,
      "दिनुभएको": 8945,
      "##राइन": 8946,
      "समक": 8947,
      "मासिक": 8948,
      "##हां": 8949,
      "भनेकी": 8950,
      "##दास्पद": 8951,
      "कार्यक्षेत्र": 8952,
      "##विज्ञ": 8953,
      "उपहार": 8954,
      "बढाउँदै": 8955,
      "कुखु": 8956,
      "प्रतिवाद": 8957,
      "प्रतिष्पर्": 8958,
      "बास्": 8959,
      "##ियाली": 8960,
      "त्यसअघि": 8961,
      "काठमाण्डुबाट": 8962,
      "राष्ट्रवादी": 8963,
      "मिना": 8964,
      "मुद्रा": 8965,
      "राखिने": 8966,
      "पर्सन": 8967,
      "सकिएपछि": 8968,
      "बुँदा": 8969,
      "नगरौं": 8970,
      "सदनमा": 8971,
      "घरका": 8972,
      "डाँडा": 8973,
      "भूगोल": 8974,
      "प्रचण्डका": 8975,
      "प्रचण्डमाधव": 8976,
      "मानिने": 8977,
      "बोग": 8978,
      "असुर": 8979,
      "खुल्ने": 8980,
      "हालका": 8981,
      "विश्वसनीय": 8982,
      "कार्यक्रमहरु": 8983,
      "आफूहरुको": 8984,
      "पारस्प": 8985,
      "नागरिकका": 8986,
      "कसुर": 8987,
      "अमर": 8988,
      "लगानीको": 8989,
      "कम्पनीसँग": 8990,
      "तत्कालका": 8991,
      "घटनास्थलमा": 8992,
      "फिल्म": 8993,
      "भित्रको": 8994,
      "पत्रकारिता": 8995,
      "जिम्मेवारीमा": 8996,
      "गर्छौँ": 8997,
      "केसीलाई": 8998,
      "चिकित्सकको": 8999,
      "मध्यवर्ती": 9000,
      "लैङ्गिक": 9001,
      "कोषाध्यक्ष": 9002,
      "बहराइन": 9003,
      "सम्माननीय": 9004,
      "कीर्ति": 9005,
      "आमालाई": 9006,
      "रहेछन्": 9007,
      "पुर्याएको": 9008,
      "तपार्ईँले": 9009,
      "परिस्थितिको": 9010,
      "कलेजका": 9011,
      "होलान्": 9012,
      "नेताहरुबीच": 9013,
      "खाल्": 9014,
      "बुटव": 9015,
      "हिँडडुल": 9016,
      "टीकापुर": 9017,
      "पराक्रम": 9018,
      "राजमार्गको": 9019,
      "कञ्चनपुरको": 9020,
      "तरिका": 9021,
      "न्यूनीकरणका": 9022,
      "राजधानीको": 9023,
      "##गुरु": 9024,
      "आसपासका": 9025,
      "महाधिवेशनमा": 9026,
      "लमजुङ": 9027,
      "मसान्तसम्म": 9028,
      "अनुपस्थित": 9029,
      "पृष्ठभूमि": 9030,
      "टेलिकम": 9031,
      "कष्टकर": 9032,
      "अलैँची": 9033,
      "लगाउदै": 9034,
      "बडादश": 9035,
      "सृजना": 9036,
      "प्रक्रियालाई": 9037,
      "एशोसिए": 9038,
      "त्रुटि": 9039,
      "सर्वेक्षण": 9040,
      "मूल्यांकन": 9041,
      "इजाजत": 9042,
      "अयोध्या": 9043,
      "धौलाग": 9044,
      "उपसभापति": 9045,
      "पारस्परिक": 9046,
      "अब्": 9047,
      "टिभ": 9048,
      "नल्या": 9049,
      "पन्": 9050,
      "पारी": 9051,
      "पक्कै": 9052,
      "फाराम": 9053,
      "मस": 9054,
      "लडि": 9055,
      "शारी": 9056,
      "सफ": 9057,
      "##जेन्ट": 9058,
      "##कलमा": 9059,
      "##बित्तिकै": 9060,
      "##्दि": 9061,
      "##खान": 9062,
      "##झै": 9063,
      "##ंख": 9064,
      "##ँु": 9065,
      "##ँक्र": 9066,
      "##दमा": 9067,
      "##दीमा": 9068,
      "##कोशी": 9069,
      "##्ररी": 9070,
      "##लेपछि": 9071,
      "##लेश्वर": 9072,
      "गर्व": 9073,
      "##म्शेर": 9074,
      "##निर": 9075,
      "##रीलाई": 9076,
      "हुदैन": 9077,
      "स्क": 9078,
      "##ल्पमा": 9079,
      "##रोस्": 9080,
      "मार्ने": 9081,
      "##ष्टिक": 9082,
      "पावर": 9083,
      "##ण्डको": 9084,
      "सुजित": 9085,
      "गर्नेतर्फ": 9086,
      "कार्यवाहक": 9087,
      "एकतामा": 9088,
      "एकदमै": 9089,
      "सङ्क्रामक": 9090,
      "##म्मे": 9091,
      "अनुहार": 9092,
      "बिओपी": 9093,
      "जिज्ञा": 9094,
      "गरिएकोमा": 9095,
      "गरिनुपर्ने": 9096,
      "जाडो": 9097,
      "नेपालीहरुको": 9098,
      "महाप्र": 9099,
      "महादेव": 9100,
      "मुआब्जा": 9101,
      "दुईतिहा": 9102,
      "अहिलेका": 9103,
      "आइजीपी": 9104,
      "##सक्यो": 9105,
      "सक्दो": 9106,
      "विषा": 9107,
      "उपचारकै": 9108,
      "अर्पण": 9109,
      "उत्तरा": 9110,
      "बोलेर": 9111,
      "##सिना": 9112,
      "खुलेका": 9113,
      "संक्रमितलाई": 9114,
      "खोकी": 9115,
      "नगरिएको": 9116,
      "प्रस्तावलाई": 9117,
      "खोजेका": 9118,
      "जोखिमलाई": 9119,
      "कम्प्यु": 9120,
      "राष्ट्रपतिबाट": 9121,
      "निकाल्ने": 9122,
      "ताजा": 9123,
      "सभाका": 9124,
      "सङ्घको": 9125,
      "आयोगलाई": 9126,
      "तिर्नुपर्ने": 9127,
      "तपाईहरु": 9128,
      "अध्ययनले": 9129,
      "##र्जित": 9130,
      "पाइप": 9131,
      "##परे": 9132,
      "उठेका": 9133,
      "रोगी": 9134,
      "पोखरेललाई": 9135,
      "यातायातका": 9136,
      "भर्खरै": 9137,
      "प्रतिनिधिसभामा": 9138,
      "धान्न": 9139,
      "नजिकको": 9140,
      "टाढ": 9141,
      "चैतमा": 9142,
      "मिलाएर": 9143,
      "सत्यत": 9144,
      "साथीहरुले": 9145,
      "कैलालीका": 9146,
      "पर्वको": 9147,
      "भेटवार्तामा": 9148,
      "सुर्खेतका": 9149,
      "विजया": 9150,
      "झापाको": 9151,
      "संगठनले": 9152,
      "फैलिने": 9153,
      "बन्नु": 9154,
      "दशैँको": 9155,
      "##घाती": 9156,
      "प्रचारप्रसार": 9157,
      "पर्साका": 9158,
      "गणेशमान": 9159,
      "सर्वसाधारणले": 9160,
      "गाँउ": 9161,
      "##भुत": 9162,
      "सार्वभौमिक": 9163,
      "बाहिरिने": 9164,
      "न्युन": 9165,
      "गौरवको": 9166,
      "संचालनमा": 9167,
      "##घाखोकी": 9168,
      "नेत्रविक्रम": 9169,
      "भोटेको": 9170,
      "निशान": 9171,
      "दसैं": 9172,
      "लीला": 9173,
      "लापरवाही": 9174,
      "नवनियुक्त": 9175,
      "भेलालाई": 9176,
      "##िनीयर": 9177,
      "मध्यपुरथ": 9178,
      "जमीन": 9179,
      "डल्फ": 9180,
      "दुव्र्यवहार": 9181,
      "उज्यालो": 9182,
      "अलोक": 9183,
      "उका": 9184,
      "एन्": 9185,
      "खग": 9186,
      "गं": 9187,
      "ठगी": 9188,
      "पच": 9189,
      "पछ": 9190,
      "पेरि": 9191,
      "पाउँछ": 9192,
      "भान": 9193,
      "यः": 9194,
      "लक्की": 9195,
      "शरण": 9196,
      "हाउ": 9197,
      "##अघ": 9198,
      "##कहाँ": 9199,
      "##णमा": 9200,
      "##ौता": 9201,
[...]
