[PAD]
[UNK]
[CLS]
[MASK]
[SEP]
!
"
#
%
&
'
*
,
-
.
/
:
;
?
@
]
_
`
|
¥
«
¬
´
¸
º
Þ
ì
÷
ø
Œ
œ
ֹ
ँ
ं
ः
अ
आ
इ
ई
उ
ऊ
ऋ
ए
ऐ
ऑ
ओ
औ
क
ख
ग
घ
ङ
च
छ
ज
झ
ञ
ट
ठ
ड
ढ
ण
त
थ
द
ध
न
प
फ
ब
भ
म
य
र
ऱ
ल
व
श
ष
स
ह
़
ऽ
ा
ि
ी
ु
ू
ृ
ॅ
े
ै
ॉ
ो
ौ
्
ॐ
ड़
।
‘
’
‚
“
”
†
…
∙
☭
🙏
##ि
##य
##ा
##म
##व
##ल
##ी
##त
##ज
##अ
##न
##ु
##स
##र
##क
##ब
##ष
##्
##ट
##ड
##ह
##ख
##ो
##झ
##े
##प
##ध
##उ
##च
##ठ
##ण
##फ
##ग
##ं
##ँ
##द
##भ
##ङ
##थ
##ई
##ए
##ञ
##ू
##श
##आ
##ै
##घ
##ः
##छ
##ौ
##ढ
##ृ
##इ
##ओ
##÷
##ॅ
##∙
##ॉ
##ऋ
##औ
##¥
##ì
##ऊ
##¬
##ऱ
##ऽ
##़
##¸
##Œ
##´
##ऐ
##Þ
##º
##ड़
##œ
##को
##्र
##र्
##मा
##का
##न्
##्य
##ले
##ने
##ार
##ाल
प्र
##ान
##स्
##ला
##ना
##क्
##एको
##ता
##ति
गर
##त्र
वि
गर्
##ेको
का
##वा
##म्
##नि
##री
नि
ने
##लाई
##ित
##था
##ाग
##रु
##नु
##क्ष
##्या
हु
##िक
##पाल
##यो
रा
स्
##न्त्र
सं
##ेश
सा
दि
##ष्
##न्द
##रा
सम
##ल्
##एका
##ाट
##क्र
##ेका
##रो
##त्
को
##या
नेपाल
##ाउ
छन्
##कार
भएको
##ण्
##हरु
उन
रह
मा
##बाट
लाग
पु
##ष्ट
##हि
पनि
##रि
##र्य
##हा
पा
##दै
भने
##ण्ड
##ङ्
##पा
##धान
हो
##क्रम
##ाम
##द्
##न्त्री
सु
तथा
##देश
##स्त
##दा
##ेर
##िएको
थि
निर्
##ेख
सर
गर्न
के
##धि
जना
##ीय
सम्
गर्ने
गरेको
##ारी
##ध्य
##छि
##ाइ
##ली
त्य
##ालय
##स्थ
बता
कार्य
सरकार
##वि
लागि
##कारी
##टी
##ही
##भि
##स्था
##मन्त्री
##्च
व्य
##र्ष
उप
उनले
एक
कोरो
कोरोना
##न्त
##नेछ
##ाय
##पर्
##भा
##्न
बढ
##बार
##नी
क्
##िका
कु
##ठमा
##लो
सङ्
दु
पार्
काठमा
यस
##ँग
##पछि
यो
रहेको
##रह
##वस्था
सह
प्रति
##ूर्
काम
आफ
##क्त
##रण
##योग
##म्म
##ेखि
##कि
##ेत
##न्छ
अनु
राज
वर्ष
बि
प्रधान
##्यु
स्वा
##एर
##ष्ट्र
##सँग
जन
पार्टी
##ेल
स्थ
बै
##ग्र
बा
##नमा
जि
##की
##ुर
##नुपर्
थियो
##टा
प्रधानमन्त्री
##िस
जान
##िय
हाम
क्ष
हुने
##िम
##द्ध
##्व
गरेका
##न्न
##ुख
##ौं
##ल्ला
अध्य
##ाला
##चार
##ाउँ
##क्रमण
##प्र
##जार
रु
##रू
गरिएको
##प्
##िन
##न्द्र
भएका
##स्थ्य
##सार
##क्षा
##सम्म
##पत
##ठक
से
##गर
नै
परि
प्रदेश
गरी
##सी
##गा
##र्थ
बताए
##न्ध
गरि
##पालिका
जानकारी
अस्
##सा
स्वास्थ्य
कार
##्रो
##उन
बैठक
कम
सि
##ृत
##पमा
##ानी
गत
##न्य
##बै
##ेत्र
स्थान
##ञ्च
त्यस
##ण्डु
##डा
ओली
थिए
काठमाण्डु
रो
राष्ट्र
क्षेत्र
जिल्ला
अस्पत
##ँदै
विश
अस्पताल
##ेट
मन्त्र
सबै
##ती
वा
भए
अध्यक्ष
सो
##वार
जा
##िति
समय
##जा
##हरू
##उने
नेपाली
##हिले
हजार
गर्दै
##क्ति
##भाव
हामी
बना
जो
##्ने
##नको
##र्म
दिए
महा
##क्षण
समा
##तिक
##वस
सरकारले
प्रा
##न्दा
##रहेको
##ेस
भन्
##हरी
लग
##क्रमित
मि
##बन्ध
##ाह
##हु
देश
##धार
ती
##स्ता
गरे
पुग
मु
निर्ण
राख
दिन
##माण
##जना
##नुपर्ने
##वाद
व्यवस्था
निर्णय
##ाख
प्रहरी
##देखि
नेक
लि
आज
##मुख
##ाली
##ालाई
##्रम
नेकपा
##्ञ
पर्
सञ्च
##सद
दुई
विद
##ारत
सकि
##ास
##ाउन
##सम
मह
परी
रहेका
सामा
##फल
अहिले
बु
भारत
पर
##हाँ
पूर्
नेता
##पी
मन्त्रालय
मात्र
तर
##डि
नगर
मृत
##ोज
छै
निय
##न्ट
##िव
सद
कारण
घर
डा
##वास
शु
##र्फ
भन्ने
था
या
गते
कार्यालय
##ख्या
##ोक
##याँ
##ीमा
##ष्ठ
अवस्था
##रस
##र्व
केन्द्र
प्रश
प्रमुख
आइ
केही
अधि
##पुर
##स्य
निर्माण
##सक
साथ
##ेला
##श्य
##ंग
व्या
हुन्
##ाउने
महि
##त्व
स्व
गु
##कै
सक्
हुन
##निक
विष
##कु
##बी
##ौँ
देखि
##घि
##पूर्
मृत्यु
##स्तै
##कास
##हित
उपचार
##मान
##त्य
##नै
प्रव
##भाग
##र्ता
छैन
आव
थप
##जी
##ँदा
##ँच
सञ्चाल
##गत
##श्यक
भइ
पहि
##िया
स्थानीय
कुरा
काठमाड
##चिव
##ज्ञ
गरेर
मन
##ट्
विषय
##रिक
तय
प्रच
सदस्य
गाउँ
##ताको
सुर
##स्तो
##ायत
देख
समेत
ल्या
आफ्न
##धन
अर्
विकास
संक्रमण
##्रा
##न्दै
भू
##रमा
##लि
प्रचण्ड
समिति
अन्त
##सो
##स्या
मन्त्री
##पति
##ेद
उत्
रुपमा
सङ्क्रमण
भाइ
मान
##इएको
##ुवा
पछि
समस्या
##हरुले
उनी
##्यान
##ेव
परीक्षण
##यन
##र्मा
बो
##हरुको
सम्बन्ध
सेवा
बज
##्यो
##म्प
सय
अनुसार
##म्ब
नगरपालिका
आएको
नभ
काठमाडौं
भाइरस
##जन
राष्ट्रिय
##लु
भन्दै
जनाएको
सहयोग
पो
##मि
##लग
##जिक
##सि
शि
##ेक
हुनेछ
##भिड
##वसाय
कोभिड
कुनै
बताएका
##टक
सू
##काल
##ङ्ग
##ुक्त
मे
##ष्टि
##ीको
दल
अस
##भन्दा
शर्मा
छल
स्था
खु
नेपालमा
व्यक्ति
छलफल
माग
##भित्र
अव
##प्त
आवश्यक
##ोर
हाल
कि
लाख
##चना
##वन
##क्ता
श्र
बस
गर्नु
संक्रमित
##ूल
प्रयोग
##भिन्न
##ुन
जारी
##दुर
विश्व
##ामा
##ैले
##सहित
##पन
##धिक
##च्च
##ञ्
आफ्नो
##ल्लो
हि
नाग
##ेन्ट
सचिव
##थि
कार्यक्रम
##पना
तीन
राजनी
##ग्रह
##तम
##हान
##दि
नयाँ
हुन्छ
विभिन्न
##ट्ट
अन्य
##श्च
##करण
##डक
राम
आफू
##ेम
पक्ष
##रहेका
सां
सुरक्षा
गाउँपालिका
पार
##र्ग
##र्च
निर्देश
क्षेत्रमा
##वै
##लन
##ब्
##न्व
पुन
##पूर्ण
नागरिक
बस्
##इन
सडक
##िप
##समेत
##राम
ओलीले
##बीच
##उँ
##हादुर
चा
गर्दा
##दान
##स्थित
##हो
संसद
##बा
क्रम
##मै
पूर्व
चि
साम
##डी
##ग्
##त्त
आयो
हा
दा
##र्या
##हरुलाई
##विधान
बाँ
सञ्चालन
उक्त
गौ
अभि
पुष्टि
##छन्
आग्रह
संविधान
##रोध
उल्
सङ्क्रमित
##तन्त्र
कम्यु
##राज
तह
##सँगै
दिएको
हामीले
कम्युनि
##अनु
##रुद्ध
##सं
##शी
##ञ्ज
##बहादुर
केपी
बाल
##कृ
##णा
भा
बढी
##नुपर्छ
##तृ
सांसद
अब
खा
##िर
पछिल्लो
##एपछि
निर्वा
##ुट
उनको
##टर
##र्क
घट
भएर
##कम
##लेख
प्रभाव
##र्त
##्वास
दिने
आधार
##मारी
##ेरै
कस
खो
पू
सार्व
##सभा
##दी
जी
##णाली
सकिनेछ
##झा
सामाजिक
##त्म
पुगेको
प्रवक्ता
डि
##डान
भेट
##धा
समाज
महिला
##टन
##लुक
जनाको
##मति
ना
मो
नेतृ
नग
अगा
विज्ञ
##स्ताव
कृ
मुलुक
त्यस्तै
##बारे
ची
धेरै
##लगायत
नेपालको
बेला
यु
नियन्त्र
आएका
##अनुसार
##प्रति
##निधि
नेतृत्व
तपा
दो
हुँदै
##अघि
##ाना
थापा
##ंक
वै
##ोली
##र्थिक
व्याप
##्यालय
सरकारको
बैठकमा
पाँच
प्रस्ताव
त्यो
आर्थिक
बिहान
##यी
नियन्त्रण
तत्
प्रेम
##सक्
भइरहेको
##िट
अवस्थामा
विषयमा
पोख
जनता
##ग्रेस
उल्लेख
##ेष
हाम्रो
भनेर
सार्वज
##कर्म
मुख
तयारी
##ारमा
##ध्ये
##ठन
सार्वजनिक
##ीर
गौतम
ध्यान
अघि
##सकेको
##नामा
बे
भनि
निर्वाच
वडा
##खिम
मात्रै
राजनीतिक
क्रममा
##वेद
खोज
यात्र
जोखिम
नहु
##नाले
कां
मौ
चार
##के
संख्या
कांग्रेस
##ेष्ठ
गर्नुपर्ने
लेख
महामारी
##इन्
##रको
##ुल
##कट
##दन
अधिकारी
पत्र
अम
##त्या
##र्फत
देखिएको
##ित्
##चा
बन्द
##िल
##जग
व्यवस्थापन
##शन
विदेश
##र्न
विवाद
##उँदै
अप
सव
##ूह
##शत
##यम
##रत
शुरु
##पनि
##ड्
##पन्न
हे
##ीले
##मार
क्वार
भएपछि
##स्तु
##ासन
कर्म
भट्ट
अगाडि
एव
##म्भ
कम्युनिष्ट
परिवार
केन्द्रीय
##ोधन
विद्या
घण्
ला
आयोजना
कान
दिएका
सचिवालय
##द्धि
ठाउँ
सामान्य
##लमा
##चारी
मुख्य
उद
योग
कम्प
गा
प्रतिशत
क्वारेन्ट
ठू
##भर
##ारा
नाम
##स्ट
एउ
##जु
##लेको
पठ
छो
##आर
##धी
##डेल
##न्ति
सूचना
रू
भएकाले
अन्तर
भना
उच्च
##ृह
भि
##पत्र
होइन
उपत्य
प्राप्त
##तमा
संघ
अस्पतालमा
श्रेष्ठ
राष्ट्रपति
घण्टा
हुँदा
फै
निका
##गम
सम्भाव
पौ
गो
##िटी
##वी
##्यू
##विधि
##साद
##युक्त
##ेरि
नी
पर्य
##वादी
बाट
उपत्यका
##गरी
विभाग
##पु
विशेष
##र्ट
चाह
##राई
जाने
उडान
##क्रिया
##सोले
कर्मचारी
##तर्फ
##ध्या
##र्ने
##त्ता
बढ्
स्थानमा
दाह
##दाय
परेको
उहाँ
##दू
##दछ
व्यवसाय
शा
##्रोत
##ृद्धि
सर्व
##पक्ष
संस्था
सवारी
प्रतिनिधि
मन्त्रालयले
लगानी
लगा
##कड
उपल
पद
सम्झ
##ाको
समूह
कम्पनी
अनि
पी
विद्यालय
वर्षीय
योजना
अद
पर्ने
##माथि
माया
जानेछ
आरो
कमिटी
पहिलो
##यात
##वरण
##सन
समयमा
आइसोले
##वेश
कार्या
##षद्
राज्य
कर्
##्छ
##शु
अरु
दाहाल
##र्ड
लकड
एवं
##श्चिम
बजे
अवस
आउने
##व्य
जनामा
भयो
##नुभ
ता
बैठकले
स्थायी
सभा
पौडेल
व्यावसाय
##िभ
##ीका
ग्र
##फा
##त्ति
रोक
सङ्घ
##दैन
दश
##ोष
अर्थ
आयोग
यहाँ
##से
लोक
कार्यान्व
##ेन्द्र
दुवै
जोड
महिना
##ारे
##मिक
मूल
##ष्ट्रिय
निर्देशन
तत्काल
ति
##कुमार
सुरु
अदाल
##मध्ये
साथै
संर
बनाउन
##त्मक
व्यापार
सीमा
##्वर
रहेकोछ
आग
उत्पा
कृष
नं
##रुष
नभएको
अझ
##ुदाय
तपाई
##यर
गरा
गृह
सक्ने
पुरुष
एउटा
##हार
##शाख
##प्रसाद
अध्ययन
उपलब्
##सु
##ग्री
##ष्ण
लाम
##तामा
पहिरो
##क्षक
रूपमा
न्या
घटना
त्र
##पद
पुनः
सम्भावना
बस्ने
किन
##्योग
बने
बाहि
##कर्मी
##मित
वटा
##न्दो
कति
महान
##बु
हुनु
अन
##हरुमा
छा
##बन्द
भनाइ
छु
##ैनिक
##र्ज
##रोड
##मती
##तिमा
सहमति
विद्यु
फर्
शिक्षा
ठूलो
रे
##सले
##ामी
चौ
बजार
बुध
तयार
स्रोत
चु
खर्च
सहभाग
भाइरसको
चीन
##केको
दू
फि
गरिने
स्प
सक्छ
सोम
करोड
भी
##देव
जिम्म
##विरुद्ध
घण्टामा
जु
##खा
हालसम्म
यस्तै
सम्झौ
##कर्ष
पाइ
जनताको
मन्त्रिप
##वेदन
मन्त्रिपरि
दे
##पर
रोजग
भो
##यक
उपा
गएको
##ताका
##ेपछि
बुझ
आधारमा
छौँ
सम्पन्न
मैले
ले
विद्यार्थ
##वल
सकिने
मन्त्रालयका
##तरण
उद्योग
पढ
##दल
नीति
जे
##ायण
मानिस
##ंश
परेका
आन्दो
सन्
नहुने
टोली
यही
शुक्र
उठ
##ध्यम
समाधान
सोमबार
##हत
##ध्यक्ष
##ारायण
निर
विश्वास
##िएका
##स्क
सी
##िङ
##सम्
##म्बर
सफल
##रेल
ज्ञ
आरोप
##ल्ने
भन्दा
यी
##तबार
मौसम
कृषि
पटक
जिल्लामा
व्यक्त
यसअघि
लगायत
##ढी
रोग
भारतीय
##क्रिय
प्रेममा
यस्तो
पुष्
छौं
रुप
##न्धान
बद
##कमा
पूर्ण
##ानु
बनाउने
महत्व
नद
##ेड
##ालिका
भट्टराई
सङ्ख्या
प्रहरीले
भौ
पानी
##काली
बुधबार
##समा
##वासी
प्रश्न
बिराम
अधिकार
पिस
विघ
##ल्प
अर्को
भनेका
लामो
प्रणाली
प्रक्रिया
सुझा
सरकारी
जीवन
लकडाउन
हुनाले
आश
##ालले
बसेको
##सक्ने
स्पष्ट
सम्म
परीक्षा
भई
##ाले
आइतबार
पुष्प
पोखरेल
बी
##ण्डकी
##ंह
वितरण
##ाइएको
अनुस
बिही
कै
लागेको
##दर्
##धानिक
##लित
बाँकी
बैंक
##कृति
निकाय
कायम
प्रशासन
गति
रकम
सन्द
न्यू
पूरा
एकता
शनि
निर्वाचन
अदालत
शुक्रबार
अधिक
सम्ब
संक्रमितको
भण्ड
बिहीबार
श्रम
गरिरहेको
##मु
बोला
बहु
##लबार
##तिर
उपलब्ध
##मत
प्रया
##चाल
##न्स
अनुसन्धान
घोष
##कलन
कार्यान्वयन
सहज
सेना
##लको
कर्णाली
भ्रम
##ैँ
थापाले
##रान
प्रत्य
सुझाव
##क्षित
##ारु
सक्रिय
बालुवा
##कोटा
किस
##स्थिति
स्थापना
##ेवारी
##रुप
विरोध
आगामी
##योज
समन्व
अर्का
कानू
युवा
भित्र
उत्पादन
वरि
सरकारलाई
भक्त
पार्टीको
आउ
##पानी
##न्तर
##कमल
बढेको
नेकपाका
अन्तर्रा
सम्बन्धित
विक
पत्रकार
##पदण्ड
##यान
सात
##हरूको
जिम्मेवारी
सम्झौता
मुद्
पुष्पकमल
लिन
##तालाई
याता
##जि
बाटो
साल
##ीलाई
मापदण्ड
पक्र
प्रवेश
राम्रो
##भव
##ैं
चाल
रि
##काश
ठाउँमा
##पटक
प्रदेशका
शनिबार
##सचिव
रहने
घोषणा
##होला
सत्त
मानव
##स्त्र
अपना
प्रचण्डले
पक्षमा
लिएर
भौतिक
समन्वय
पक्राउ
##धु
##लेर
विस्त
समुदाय
##िकित्
यसै
दैनिक
##ङ्क
बालुवाट
##मिका
मन्त्रिपरिषद्
##ौला
##नाथ
##ग्गा
##बन्धी
बजेट
##म्भीर
दी
भण्डारी
चिकित्
##वर्त
##टमा
महाशाख
गम्भीर
##बद्ध
##चित
आन्त
एम
##ोर्ट
निको
संश
##वैधानिक
अध्या
जग्गा
ट्र
##दानी
विज्ञप्
मुद्दा
यातायात
गण्डकी
##तिहा
विधि
पुगेका
भर्
राहत
उनका
गौतमले
आन्तरिक
कार्यक्रममा
धन
बढ्ने
भ्र
नेपालले
त्यसको
टे
मंग
शक्ति
भनेको
##मी
##ल्क
फर्कि
##हल
राति
बाहिर
##ाएको
##गमन
##सम्बन्धी
स्वी
जल
फिर्ता
भद
##नाव
सुधार
##ते
##सको
##थाम
अझै
##कालीन
##न्ने
निजी
##हरूले
करि
##दो
##राष्ट्र
आउन
गण
क्षति
प्रतिनिधिसभा
सहभागी
सच
##ाचार
रोकथाम
##टो
अन्तर्राष्ट्रिय
नारायण
दुर्
मेरो
##पण
विगत
##ेरिका
उद्ध
निरन्तर
चला
यात्रु
##ेश्वर
अमेरिका
उपचारका
प्रदेशमा
पेश
बाग
गुरु
मुख्यमन्त्री
पाल
साँ
भाग
##कर्ता
सोही
उद्
##र्गत
बारे
##कको
सिफ
दाय
क्षम
वाता
##जो
##ेकी
दिनु
श्रेष्ठले
गर्दछ
क्वारेन्टाइ
आदेश
प्रदान
यसको
भूमिका
वरिष्ठ
##पश्चिम
विघटन
##संग
सामग्री
अभियान
व्यव
परिवर्त
गरेपछि
नियमित
##्ना
प्रतिष्ठ
प्रयास
पै
धा
##¥या
गर्छ
त्यहाँ
##पुरमा
अवधि
गरिस
जनसं
##धिकरण
डो
##च्छ
चिनि
प्रविधि
##योजक
##िआर
वर्षा
##वाही
##शील
वातावरण
जनसंख्या
पाउने
##तिय
##धारण
आन्दोलन
आम्
सिर्
खे
##ाइमा
##न्ड
##म्मा
आफन्त
प्राधिकरण
रोजगारी
##पत्ति
चे
रिप
थाले
##वाफ
##विद
खुला
भदौ
खरि
हर
##ारुढ
आम्दानी
पार्टीका
न्याय
सिफार
लो
##गो
सत्तारुढ
नति
शव
##मार्फत
कसरी
ललित
प्रेस
सिंह
देउ
भ्रष्ट
लक्ष
##ल्न
गरिरहेका
आफ्नै
जस्तो
जवाफ
##सङ्
कोइ
##ेटिभ
देशभर
सञ्चार
भूभाग
बारेमा
सिर्जना
##दम
राख्
##िने
##भू
केसी
सबैभन्दा
सभापति
बीच
ऐन
देव
##ेन
##ल्या
प्रधानमन्त्रीले
दर्ता
साधन
चिकित्सक
क्र
##र्जन
नजिक
मध्य
संशोधन
##टै
विमान
##वत
##ङले
स्थग
श्री
##बाही
पर्यटन
पिसिआर
विस्तार
रिपोर्ट
नतिजा
अवि
तो
तथ
मन्द
भ्रमण
मना
##ँड
##िकल
विद्युत
बदली
जुन
पशु
कोइर
ल्याउन
मंगलबार
औष
भु
शै
आत्म
हट
##घाट
अहिलेसम्म
##मो
##श्वास
##र्ई
टा
दर
##स्थल
हात
##बर
##षे
##काम
मूल्य
##सिक
आफ्ना
भनिएको
उद्धार
भे
गठन
##कृत
##शाला
पु¥या
##ज्ञा
उपत्यकामा
लु
सञ्ज
##गठन
सम्पूर्ण
##नेछन्
काममा
##स्रो
राजी
खरिद
निषे
संवैधानिक
##पय
##कार्य
स्वाब
##दूर
सम्बोधन
परिवर्तन
नम्बर
##ोट
##द्धा
राख्ने
पर्यटक
ओलीको
##बन्दी
पढाइ
##धव
तपाईं
कतिपय
सश
##मोज
संयोजक
##न्तु
युव
हस्ता
##धानी
##मोजिम
दोस्रो
##बि
निवास
सञ्चालनमा
##उनु
##गरपालिका
जाग
आजको
पूर्वा
भइसकेको
महत्वपूर्ण
मलाई
##लामा
##रीक्षक
खन
अन्त्य
चित
##कोट
##ारो
सिफारिस
##्री
काल
लै
खट
##वेशन
फर्क
##निर्
##र्जा
टो
##मार्ग
नेपालका
##दार
घाइ
##मल
##वाह
प्रस्तु
गराउने
देशको
##पक्षी
अल
कदम
##रात्मक
हुँदैन
होट
अवसरमा
संरक्षण
फो
##छा
कोष
##न्तरण
राख्न
अत्या
चरण
ढकाल
##खु
##हरूलाई
नदि
सोच
##सनमा
##णि
मेड
निर्देशक
डे
नक्
अभाव
चै
सर्
##हर
##ित्व
सर्वो
आम
धार
कोरोनाको
बढ्न
विद्यार्थी
##रुपमा
##एन
संयुक्त
प्रतिवेदन
##ल्लाह
समितिको
सम्बन्धमा
प्रभावित
##नुभयो
भर्ना
राजीनामा
##तिव
भूमि
बन्दा
सभ
##ीया
##धे
##्र्
कारबाही
अख
##जस्तो
उनलाई
गरेकी
##पूर्व
अवसर
कोइराला
##थ्यो
##शा
भारतले
प्रभावकारी
अति
##कारात्मक
मिला
साँझ
बताउँदै
नाका
करिब
एयर
कमा
##ौती
##याधी
अनुरोध
##्वी
न्यून
थाल
साउन
रोक्
##लगायतका
भट्टराईले
##पि
त्यही
डु
##सिय
दिँदै
सकिन्छ
##श्चित
आई
किसान
ढु
लिएको
##ेले
कार्
दिनमा
##देशिक
##चालन
हरेक
भ्रष्टाचार
गर्नुपर्छ
साप
बनेको
कानून
##तियार
##ीकरण
##र्ण
कार्यकारी
राखेर
सञ्जाल
पदा
##एकाले
सुन
मनो
##बल
##रीय
अधिकृत
##यु
माधव
अस्पतालका
संघीय
##ाउँदै
##द्य
दिउँ
कारवाही
खाने
सचेत
##ाग्
वर्षको
स्थिति
देशका
##न्छु
क्या
##न्टर
विचार
पौडेलले
बह
बच
##ामुख
प्रधानमन्त्रीको
दृ
##नेट
घरमा
हुनुपर्ने
सुदूर
याद
चिनियाँ
खतिव
पहिले
सल्लाह
##स्व
संकट
समितिले
मेडिकल
##सद्
सुरक्षित
राजनीति
अध्यादेश
घाइते
##याधीश
त्यसै
आइसोलेसनमा
बाह
पूर्वाधार
प्रकाश
##द्वार
गि
फर
राजदू
दिउँसो
मत
सम्मान
वर्षीया
क्षेत्रका
वार्ता
नाममा
की
त्यसैले
लिने
##सकेका
स्वदेश
आठ
ज्यान
##दिन
सर्वोच्च
असार
दक्ष
रास
जस
गराउन
लाग्
अनुगमन
##सँगको
दाबी
आमा
बेल
##बाह
##भो
##िकी
रहे
कार्यालयले
विज्ञान
तुल
सङ्कलन
स्वतन्त्र
##चार्ज
बिक
संस्
छैनन्
प्रस्तुत
प्या
प्रमाण
##सीसी
बनाएको
थालेको
अमेर
फैल
##विक
##ज्
##केका
##र्द
माथि
क्षेत्रको
गै
तर्फ
##र्भ
रहनेछ
काठमाण्डुमा
उपाध्यक्ष
प्रयोगशाला
सुदूरपश्चिम
पश्चिम
देशमा
आवश्यकता
तोक
नौ
##डित
संसद्
माध्यम
प्रतिष्ठान
##ाई
##ारि
विरुद्ध
प्राथ
पोज
##वर
##दर
विवरण
दिइ
##पर्ने
##पित
##ची
##घट
##क्स
पुर्या
सरकारका
सङ्क्रमितको
टु
महाधि
प्राथमिक
##वश्यक
##रीको
##न्त्रिक
अनुमति
स्वास्थ्यकर्मी
नव
सम्पर्
असोज
तपार्ई
एस
नो
यति
##वाली
##नका
होम
स्थगित
तपार्ईँ
##स्तरीय
बताइएको
थिएन
शुभ
ल्याउने
##कृतिक
रुपै
यादव
खेल
##हुन्छ
##उँछन्
लेखाइमा
चुन
##गञ्ज
बढेर
##न्या
##तान्त्रिक
परराष्ट्र
एमसीसी
सत
##र्स
##माल
मान्छ
##ष्णु
जनाइएको
##स्पर्
नियुक्त
देखिन्छ
पोखरेलले
सशस्त्र
ईश
पस
##्यता
माओ
कम्युनिस्ट
शान्ति
ज्ञवाली
बिरामी
##ाका
निम्
समितिका
क्षमता
निषेधा
वीर
##जर
##जित
परिस्थिति
##कोटाले
चो
पोखरा
संरचना
मन्दिर
##लेज
प्रजा
त्यसलाई
नेकपाको
##ीत
पार्टीभित्र
अमेरिकी
विप
##ाउनु
बाढी
##टाएर
संसदीय
बहुमत
अफ
निष्
लागू
##विधा
##लग्न
##धेयक
रमा
लड
कार्यरत
लाग्ने
झा
सूर्
##हरुका
प्रतिस्पर्
बाध्य
अस्पतालको
खतिवडा
अग्र
रक्षा
##तर
प्रदर्
निकै
राई
##सेवा
अत्यावश्यक
दिइएको
##िता
कू
कलेज
फुट
होला
बढि
बालुवाटारमा
औषधि
गल
छुट
सहा
हत्या
##द्या
जिल्लाका
मज
यसले
गतेदेखि
देउवा
सके
विधेयक
मान्य
सूर्य
##क्का
संलग्न
उपभो
##पक
वर्षमा
अस्पतालले
त्रि
##हन
##ेज
##वाई
बजेर
नसकेको
##द्व
समाचार
पुग्ने
##िण
समृद्धि
राखिएको
छैन्
कार्यकर्ता
ल्याएको
चैत
धारणा
रासस
##चारिक
##गे
##एम
##योजना
किलो
भाव
नियन्त्रणमा
व्यावसायमा
भरत
##र्श
##वार्ता
समर्थ
सुनि
##बाहेक
##ङको
##ृद्ध
कुल
त्यसपछि
थाहा
बसेका
चितवन
चर्च
यस्ता
##व्या
गरिएका
##द्वारा
कसै
गतिविधि
पालना
##अन्त
प्रग
बढाउन
##डियो
कृष्ण
भनिन्
वे
शाख
##तो
पुर
##िसा
विभागले
चुनाव
झण्ड
##त्तिक
भारतको
##ट्टै
##देवी
यसलाई
ग्राह
वस्तु
##जोर
##लाइन
काठमाडौँ
राजदूत
छान
नपा
डिस्
##न्छन्
राष्ट्रियसभा
##अन्तर्गत
आँ
##जे
बनाएर
चुनौती
##ःख
चिन्
##नुभएको
जम
सन्त
##काले
निधन
##योजन
##धिकार
गर्नुभ
सङ्घीय
सन्देश
आंश
जनाएका
विदेशी
जन्
पहा
हित
महासचिव
##पूर्ति
##यनमा
##चान
मास्क
दुःख
स्थानीयवासी
अर्ब
पूजा
तत्कालीन
क्वारेन्टाइनमा
आह
##वान
लगायतका
आंशिक
नसक्ने
##ङ्गा
यसरी
कामहरु
शर्माले
पारित
जनताले
बढ्दै
पीडित
गृहमन्त्री
##कर्षण
ट्रा
##टे
##रुवा
##देश्य
जोग
फेरि
चाहि
लाभ
होटल
गलत
जरु
##क्ट
अधिका
यात्रा
अपरा
विज्ञप्तिमा
दुर्घट
आए
कठ
##पान
भीड
##ङमा
##न्ज
प्रतिबद्ध
हुनेको
हामीलाई
लक्ष्य
##बेला
विष्णु
कार्यालयका
सभामुख
जनप्रति
छोरा
महाशाखाले
पाण्ड
बोल्
योगदान
##िनमा
सम्बन्धी
नेतृत्वमा
जेठ
फेला
##स्ती
पार्न
यसमा
सबैलाई
तर्फबाट
पोजेटिभ
ढा
##पत्ता
##लाइ
राखेको
प्रशास
पैसा
थु
नब
प्
सकारात्मक
##ेती
##्वान
ओलीलाई
संक्रमणबाट
अधिकांश
तामा
पे
वाम
वृद्धि
##बालिका
##छु
पुल
##ेलि
आफूलाई
अन्ति
पहल
##तार
##लाइन्
प्रतिपक्षी
जिल्लाको
रहेकाले
आफूले
अख्
अोली
खण्ड
छि
छन
प्रकार
बजारमा
हाम्रा
महामारीको
खड्
सत्य
##बाटै
खोप
नगर्ने
लाइ
दक्षिण
आह्वान
अन्तिम
कक्षा
##्याङ्क
ललितपुर
निषेधाज्ञा
ब्य
##षण
##्रेस
##प्रधान
परिषद्
कार्की
डिस्चार्ज
भेला
भवन
##िनी
##र्दा
नगरपालिकाका
बालबालिका
पुरुषको
##परि
सुविधा
त्यस्तो
वर्षाको
नेताहरु
जरुरी
जस्ता
##ज्य
##एस
##र्ख
निकट
##चि
##ल्का
उपरीक्षक
तहमा
नेतृत्वको
विदेशमा
व्यवसायी
हेर
##विधिक
जनप्रतिनिधि
टि
बताइन्
परिचालन
गुना
नक्सा
एका
बर्ष
बताउँछन्
##ायु
गुण
गुमा
असर
घु
भनी
सहित
अहिलेको
क्वारेन्टिनमा
महानगरपालिका
##पूर्वक
ग्राहक
नदी
बन्न
बलि
##ंसा
##व्यक्ति
खनाल
अत्य
उम
##तै
##तको
बेपत्ता
टोलीले
सन्दर्भ
मान्छे
##्नु
##दे
स्म
जनालाई
जागेश्वर
इज
इतिहा
नप
##म्ला
त्यसमा
##ँदैन
उनीहरु
दूरी
##कामना
एयरलाइन्
फा
##ठ्य
##डिया
छिम
भन्न
सज
##ोका
##लाग
##वार्य
कार्यदल
शुल्क
संविधानको
लोकतन्त्र
रुपैयाँ
##द्वय
आवा
बमोजिम
यसका
##सम्मको
अनिवार्य
माओवादी
आलो
खान
##सर
##पाट
प्राविधिक
आइसोलेसन
श्रमिक
भक्तपुर
कर
तु
##ल्य
साथी
पहिचान
##सिर
क्रिया
चरणमा
नआ
सकेको
कारणले
व्यक्तिको
भाडा
जुट
##कल
##किएको
मन्त्रालयको
उनीहरुको
##हण
दिनुहोला
सतर्क
##नीतिक
जम्मा
वन
##कल्प
कात्तिक
स्त
साता
भएपनि
देखिएका
कम्पनीले
विद्युत्
वाग्
##इने
सुना
कांग्रेसले
कैल
संस्कृति
लगाउने
चौध
विकल्प
महाधिवेशन
गुनासो
जित
##तिको
सुख
पसल
भरतपुर
##क्य
##त्री
कोही
पूर्वानु
पि
##यता
##शक्ति
विसं
जानु
नभए
पारि
अनलाइन
यसैगरी
##व्यापी
कैलाली
##स्वा
कुन
##जाने
झण्डै
##ल्ल
आफु
अर्था
भण्डारीले
नम
वायु
है
##लिक
##षद
##भ्या
##क्षिक
रही
सहकार्य
राजधानी
समावेश
कालो
बेलु
गैर
##यौं
गर्नुपर्
दिवस
गए
रेल
लक्षण
##ेप
##रीले
##धिकारी
##रूपमा
सबैको
बोर्ड
शिक्षण
बसेर
अवधिमा
शैक्षिक
अख्तियार
आपत्ति
##हरूमा
उनीहरुले
सल्लाहकार
धर्म
फस्
हास
##खो
##क्क
काँग
निगम
नेपाललाई
##मिला
ऊर्जा
##रिया
शिक्षक
जोखिममा
समर्थन
ठा
ते
रण
##तले
##चन्द्र
##परेको
चालक
उद्देश्य
अविश्वास
धु
बल
##लेका
##र्मिक
##सहितको
कक्ष
कडा
पहु
हल्का
##पचारिक
पर्व
लोकतान्त्रिक
पूर्वानुमान
काँग्रेस
गएका
##धनको
##उनुपर्ने
स्ट
नेपालीको
मनग्
हुनेछन्
असन्तु
महिलाको
मनग्गे
कट
##ाउँदा
भेटवार्ता
नगरी
गरिसकेको
बिक्री
##ेक्षा
गर्नका
##लोक
भएन
नगरपालिकाले
नागरिकको
बस्न
आउँ
ढि
हप्
हिसा
लागेका
कार्यालयमा
गाउँपालिकाका
फरक
हासिल
साव
थिइन्
जनतालाई
सडकमा
समाजवादी
उहाँले
फैलिएको
वाग्मती
अने
##फिक
सरकारसँग
काराग
गतेसम्म
ध्याना
धार्मिक
छिमेकी
एन
औँ
ठे
शेर
सफा
##तः
##सला
##्दै
##ानो
##हुँ
##बीचको
पहाडी
मी
##दु
##क्षर
एकै
नगर्न
विभा
दिएर
गाडी
इला
एमा
खाल
##टरमा
##क्टर
##ाउनुपर्ने
अनुभव
##न्धु
तहका
##चार्य
कानुन
ढकालले
खानेपानी
पहुँच
आएपछि
भै
स्या
##िले
##मन
##्दा
साझा
##ोरै
इन्
पाट
वर्ग
हवाई
##ंका
##ताव
##राष्ट्रिय
##त्नी
पाएको
योसँगै
नेकपाभित्र
चाहन्छु
प्रदर्शन
ध्यानाकर्षण
##दय
पाइने
प्रत्येक
गोर
मै
गरियो
केन्द्रित
पारेको
न्यायाधीश
सन्दर्भमा
वर्त
शी
##दृ
##ढा
ब्र
भवि
कुट
कमजोर
भारतबाट
नागरिकलाई
थोरै
##त्कार
पुरान
प्रदेशको
त्यसका
कसैले
चीनको
स्रोतले
फु
सँग
##ट्टा
आयोगले
मन्त्रिपरिषद्को
अग
##वनमा
##वन्ध
विरा
लाई
##शुल्क
##सङ्घ
##प्रधानमन्त्री
##र्खेत
##स्वास्थ्य
##ेरा
##पे
मार्ग
सुर्खेत
जाँदा
महामारीका
बढ्नेछ
शाही
सम्मेल
वर्तमान
##तरा
लागी
ठूला
सफलता
डी
तेस
नस
शाह
पार्टीमा
मिलेर
नियन्त्रणका
कांग्रेसका
ताप
भीम
विमानस्थल
तिन
परिण
देखा
रोजगार
जब
##ष्य
विज
##ल्ट
सिन्धु
पर्छ
दलका
गराएको
##विद्यालय
आलोचना
नरहेको
पार्टीले
हिजो
गर्दछु
फे
##घन
नभई
गराएका
आपूर्ति
##हाल
उपकरण
निर्माणको
उत्पन्न
फर्किएका
##निर्माण
माध्यमबाट
तेस्रो
जस्तै
बुट
छलफलमा
अभिव्यक्ति
मुलुकको
मुलुकमा
भुक्त
मल
मिति
सिका
##सित
##्याल
##नेको
हुनुपर्छ
##न्दु
प्रदेशसभा
मिनेट
विभागका
बालुवाटार
##बिन
##दारी
विश्वविद्यालय
अर्थतन्त्र
##धुरा
प्रजातन्त्र
झापा
मान्यता
फस्टाएर
साह
बताएको
अनुदान
##प्रमुख
सङ्क्रमणको
बेलाय
अदालतले
तथ्य
ज्ञवालीले
मर्म
##फो
##वाट
संक्रमणको
अर्थमन्त्री
विज्ञप्ति
सत्ता
##पो
##स्कार
राप्र
रावल
बढाउने
##खित
##प्यता
मिटर
दाजु
अधिकारीले
खतिवडाले
भावना
अर
औं
##ूना
##शासन
##ृत्ति
संगठन
दिनुपर्ने
##साधारण
परम्प
हिसाब
उचित
कूल
जति
तारि
##गठ
त्यति
उपयोग
##प्पण
सामान
परीक्षणका
नहुँदा
अपेक्षा
रोक्न
बाहेक
प्रगति
ताल
पत्नी
यू
निरन्तरता
नमूना
तापक्रम
अध्यक्षद्वय
व्यक्तिलाई
भूभागमा
जन्म
कहिले
हल
##लव
##श्व
##र्चु
बहस
झल
##लब
##चन
समेट
जाँच
पदाधिकारी
टेलि
नाय
##पनमा
##भाइ
प्रबन्ध
##राख
##राले
मार्फत
सक्दैन
##लुङ
##टनगर
फैलि
राप्रपा
बन्
##मको
##मुक्त
निर्माणका
उत्तर
##होस्
आयोजित
पीसी
हरि
पाइएको
##विध
राजा
भएमा
बाँस्
##ारेज
चेताव
बोल्दै
चेतावनी
धन्य
##वस्तु
सामि
पास
थपिएका
कुरामा
स्थापित
क्वारेन्टिन
हस्तान्तरण
सरो
##सू
##स्तरमा
##तीमा
वैदेशिक
दशैँ
उत्पाद
नदिने
शुभकामना
चिन्ता
पीसीआर
आर
आप
नसक
म्या
गर्नेछ
##िमिर
पर्या
##म्बिनी
युनि
भनाई
चाहने
लगाएको
##णिज्य
इजला
घिमिर
##लर
##नीय
##रीमा
पुस
सम्भव
उपचारको
सामुदाय
वडाध्यक्ष
##पुग
त्यसैगरी
निम्ति
भविष्य
सामिप्यता
सामुदायिक
##वत्
##काजी
उपयुक्त
##किने
मित्र
हिँड
नदिन
निष्कर्ष
कहाँ
ब्या
रिट
##्यौ
कोरोनाबाट
जनस्वास्थ्य
गरिन्छ
देखिएपछि
##ज्ञान
परीक्षणको
समूहले
व्यवस्थित
प्रतिबद्धता
गे
जसले
सिम
##वली
##थे
##र्घ
##त्रा
सम्वन्ध
बादल
सबैले
प्राप्
##मिटर
असह
##रामर्श
##सक्दा
लकडाउ
आन्दोल
गणतन्त्र
पशुपति
विपद्
अत्यन्त
तारिख
धन्यवाद
ऐतिहा
बग
##षा
गरौं
निः
सुदृ
जनसङ्
जनशक्ति
प्रहरीको
विश्वव्यापी
विद्यादेवी
खबर
तराई
##कस्
##कूल
##ठा
##ारम्भ
साइ
जनक
बाबु
##ञ्चन
सामना
ग्रहण
छाड
लुम्बिनी
माधवकुमार
सतर्कता
कप
शे
सैनिक
##व्र
गराइ
##पाल्च
##नीति
अनुमान
सुरक्षाकर्मी
एमाले
भुक्तानी
अर्य
जहाँ
ढंग
##जस्ता
##¥यो
##स्थान
हिमाल
सिन्धुपाल्च
मध्यम
यथा
##लम्ब
##ामन्त्री
बुझा
रामबहादुर
निर्वाचनमा
काला
बर्
बन्ने
वी
##घा
समग्र
##स्तर
उनीहरुलाई
परीक्षणमा
##र्गौला
खाद्य
थालेपछि
ऐतिहासिक
औपचारिक
##ेमा
एकताको
जिम्मा
प्रशस्त
संघर्ष
यहाँका
##भूत
बन्दाबन्दी
चर्चा
सिन्धुपाल्चोक
खाना
गठ
गोक
तन
##वटा
##र्नु
प्रचार
सङ्कट
परियोजना
कमर
##तीको
नगरेको
हस्ताक्षर
दुर्घटना
विराटनगर
जनसङ्ख्या
आयात
कञ्चन
नर
पति
परामर्श
##गायत
मिर्गौला
मुक्त
अन्तर्गत
प्रत्यक्ष
थालेका
वामदेव
गी
चन्द्र
ज्व
##बास
##हाज
कार्यकाल
विकासका
##ेदार
तहको
##ट्या
##उँदा
##क्ने
साझ
##राब
होस्
लगाउन
चाड
एउटै
टिप्पण
क्रा
छिट
##रले
गर्छन्
संसदमा
व्यावसायिक
शेरबहादुर
इरान
खतरा
सप्त
##्वि
##मात्र
पाएका
आफैं
उपचाररत
##त्तै
##ित्त
फैसला
दृष्टि
खास
बार
##वक्ता
##नालाई
##कम्प
संग्र
मामिला
##हीन
##पती
राखेका
नेताहरुले
निर्वाचित
बीचमा
स्मरण
कमरेड
टी
सही
##यल
##ाही
##मे
##कीय
##द्र्
त्यस्ता
मनस
##जनक
##दीप
दशमल
उपाय
किसिम
शाखा
उमेर
क्रान्ति
अभ्या
##कले
दियो
बाढ
पृ
बला
##कला
##केत
निकु
संकलन
उपस्थित
लिखित
मन्त्रालयमा
स्वय
खोजी
लगाएका
##रुपयोग
सम्पर्क
सुनिश्चित
निःशुल्क
चिस
शिव
##डीमा
##नेपाल
कारो
सङ्क्रमणबाट
##म्बु
अवरुद्ध
डिज
परिवारका
ठेक्का
पर्याप्त
दशमलव
आकस्
इन्टर
फाइ
भारी
मङ्ग
सार
##ीकृत
##सका
विधान
दुरुपयोग
पर्सा
मनमु
##सिलो
नारायणकाजी
युवराज
छानबिन
ऋण
हरा
##हरण
##पथ
##थी
##नेर
##लादेश
सदर
भोलि
सहायक
झलनाथ
आएर
आक्रमण
कम्
भोज
##यन्त्र
##रीका
बताउ
प्रादेशिक
भारतमा
केन्द्रमा
दलको
दोष
सेनाको
भक्तपुरमा
गणेश
निकुञ्ज
आकस्मिक
आचार्य
##एकी
भनेजस्तो
केहि
##भाड
जोशी
नभएका
गाउँपालिकामा
बेलुकी
कस्तो
पेट
भेन्ट
##खेल
##ेवार
##हिनी
##स्थलमा
##विद्
एकल
नदीमा
व्यवहार
तपार्ईँको
अप्
मू
मध्ये
सानो
##नो
राणा
साउ
नेपालगञ्ज
सहकारी
##िमि
पुगेर
मृतक
वैशाख
खारेज
माल
##ताले
वाणिज्य
रहेछ
बलियो
मनमुटा
जग
##नाका
##हिरो
##भिजन
चीनले
बन्दाबन्द
प्ला
ढंगले
टीका
साना
##्म
##त्न
##स्थालाई
स्वार्थ
स्थित
व्यक्तिगत
पिसी
स्वीकार
दायित्व
सकेन
संग्रौला
खस
चास
नू
वो
##लले
समृद्ध
सम्पत्ति
प्राकृतिक
तरकारी
अभिभाव
सर्वसाधारण
बागमती
परा
वित्त
पुग्न
लिएका
प्रशन्न
पुनले
##कृष्ट
आउनेछ
देउवाले
भेन्टिले
पिसीआर
री
##तजा
##्ले
##ँडा
##आई
##ल्ली
मिल्
पटकपटक
अपनाउन
कमाउन
सूर्यो
शीर्ष
हिसाबले
गन्त
गएर
सौ
##ुक्ति
##आफ
##रीत
राजमार्ग
सिद्धा
नियुक्ति
विकासको
##सक्छ
अन्तरराष्ट्रिय
तोकिएको
सूर्योदय
जहाज
फाग
शासन
##वधान
##ङका
प्रकरण
काग
समु
कोरोनाका
भूकम्प
अवरोध
चाप
फर्का
दीर्घ
पुरानो
नायब
सरोकार
थान
मं
##धना
नेग
रहन
पठाएको
ज्ञा
दायर
ईश्वर
##कल्पिक
अडान
जट
##शनमा
##ालगायत
प्रसार
प्रारम्भ
##स्तान
प्रधानमन्त्रीलाई
समयदेखि
दावी
अदालतमा
गुरुङले
किलोमिटर
##वनको
##ेलिक
यात्राको
सापकोटाले
सम्पर्कमा
अपराध
खेती
ये
##्वा
##डो
##चौ
सम्पती
उपम
पर्दछ
व्यक्तिले
पक्षले
##सुकै
प्रत्यारो
##च्छा
न्यूनतम
आदि
दबा
लामा
##यौँ
##स्कृतिक
दिनको
समान
प्रावधान
##ंगो
##कुल
##संघ
वैकल्पिक
पठाइएको
ट्राफिक
##शि
प्रवाह
आफै
##किएका
बिदा
बिद्या
वैठक
ज्ञान
फोन
बुटवल
बलात्कार
चू
न्यौ
बृद्धि
ही
##वानी
त्यसले
नगरपालिकामा
डिग्री
भट्टले
अलपत्र
गर्नुभएको
परिणाम
चिसो
टू
बोक
##वे
##बाइ
##भरि
##काशन
निश्चित
स्वास्थ्यकर्म
उपचारमा
##ङ्गो
हुन्छन्
##ब्द
गौतमलाई
मन्त्रिपरिषद
##विद्यु
श्रीमती
हप्ता
सावधानी
कारागार
लकडाउनको
छिटो
कतै
##वाला
##इरहेको
##हरुसँग
विद्युतीय
उपभोक्ता
एजे
चर्
सै
##नगर
राय
##न्दर
##द्द
कार्यमा
तहले
युद्ध
छोड
विद्यालयमा
वित्तीय
जटिल
धारा
##्मी
प्रदीप
##रोजग
##किङ
##ेसन
नियम
अधिवेशन
सुरक्षाका
गाँ
लगाएर
बनेका
हुनुहुन्छ
प्रशासनले
नेगेटिभ
##जान
##जरको
##रै
विच
##तिकै
मिडिया
पर्वत
गुट
निर्वाह
कार्यान्वयनमा
न्यौपा
##बमोजिम
##फाइ
##श्र
##लेक
##लाको
संवत्
##कारण
पार्टीलाई
भइरहेका
खाद्या
बेलामा
छोरी
छोटो
शाक्य
टिप्पणी
मनमुटाव
##सिस
##टनको
##तावास
दिइन्
##नीकरण
मिने
प्रकाशित
सूर्या
कालापानी
चल
##ंगा
##द्र
माइ
लाग्छ
पार्ने
सेनाले
##जीकरण
समूहका
अरुभन्दा
प्रकारका
चासो
सिद्धान्त
बीमा
भत्
भन्छन्
यता
हू
##तया
##कुर
##टरस
##ोत्त
विनि
##क्षामन्त्री
##रामा
सुनु
वार्ष
हुनसक्ने
गाउँपालिकाको
आशा
लैजाने
मङ्गलबार
उजु
च्या
पन्त
पञ्च
पाउन
पछा
##भी
##थो
बैठकको
##समिति
डुब
सजाय
उपमहान
हक
##ज्यू
##धामा
उपस्थिति
सिमा
अगाडी
हेर्दा
उच्चस्तरीय
उहाँको
त्रिभ
पुनःनिर्माण
राख्दै
आआफ
कल
खी
टिक
##जनको
##ठी
##र्ती
##म्वा
निर्धारण
जनाले
एकीकृत
आफैँ
भएसँगै
निर्माणमा
सञ्चालक
पठाउने
दाहालले
ललितपुरमा
अर्थात्
तनहुँ
खाद्यान्न
हिम
##िमा
##ुवन
##रल
##रिएको
सेन्टर
वास्त
जोडि
महासङ्घ
लिम्प
विषयलाई
प्रचण्डको
सूच
परिवारलाई
पठा
##मुकाम
जलविद्यु
विभाजन
सूर्यास्त
कन्ट
गू
दफा
नसक्दा
फेस
##एमा
स्थानहरुमा
तीव्र
अोलीले
गन्तव्य
प्रसारण
न्यौपाने
लिम्पिया
एक्
जू
ट्या
लू
##ोत्
##णी
##शो
प्रकट
निज
संकेत
स्थल
##श्चा
समाजमा
मोबाइ
राज्यको
महानि
भुस
सदरमुकाम
त्रिभुवन
ट्वी
द्व
पराज
वू
##डमा
##फर
##भक्त
##राको
त्यसो
लिपु
कमिटीको
विगतमा
क्वारेन्टाइन
कञ्चनपुर
मनसुन
प्रत्यारोपण
खू
झु
तरि
सरुवा
##लाल
##टि
पाकि
कुमार
सहजीकरण
कामको
लगाइएको
आजै
उत्कृष्ट
कानु
छुट्टै
समाधानका
कानूनी
कर्त
तू
मेल
सपना
##मूल
##गढी
प्रकाशन
##ेशन
##स्थापना
##साथ
सिल
##डिङ
आवतजा
कुराका
##म्बा
स्वीकृति
प्रयोगशालामा
भीडभाड
रणनीति
##लोकन
सिकाइ
कसिलो
दर्
नवल
##तह
##भौ
रहेर
##हाव
थिएँ
बनाइ
बनाइएको
सक्छन्
प्रवृत्ति
प्रचण्डलाई
व्यापारी
एवम्
खनालले
पदार्थ
कूट
मङ्
संवाद
##ाउँछ
नेपालीलाई
संविधानले
गतिलो
स्वीकृत
गुरुङ
उद्घाट
थालिएको
सुनस
ईश्वी
आवाज
ज्य
जनाउँदै
प्रतिक्रिया
गतेको
ल्याइएको
हिंसा
समाजवाद
भिडियो
बागलुङ
सापकोटा
यादवले
अभ्यास
दबाब
फल
मोर
##त्ती
सुशासन
एकीकरण
##सम्मका
प्रवद्र्
असफल
कर्मचारीको
बिरामीको
ज्वरो
स्वयं
मिनेटमा
तर्क
भर
सकिएको
प्रष्ट
##क्षेप
लागिएको
लाग्न
भन्नु
##ड्ड
जरि
दैले
मेस
##मन्त्र
##तका
##खण्ड
काभ
पुस्त
##ण्डल
वर्षका
बताएकी
पर्ख
##यमित
गोरखा
आधिकार
नवी
सध
##हमा
##ढे
सम्मा
##स्थायी
प्रतिनि
तथ्याङ्क
बढिरहेको
खड्का
असन्तुष्ट
दैलेख
गल्
नम्ब
##रव
##भार
प्रसाद
निवेदन
##्याउने
##ल्पा
##ारीमा
बढाएको
सङ्गठन
##रहे
जापान
##सिंह
खुसी
खुशी
गाउँपालिकाले
जिम्मेवार
न्यूनीकरण
##एमसी
##ल्यै
अरब
मंसिर
कन्
पाउ
बस्ती
##साइ
##स्की
##ाटा
सुवेद
प्रतिबन्ध
प्रधानन्या
लगाइ
नेताले
##कुमारी
सांस्कृतिक
बस्दै
हेर्न
##पक्षीय
जुम्ला
कसैलाई
जोगाउन
विजय
उन्
खाली
बङ्ग
भोक
##हे
बढा
भएकी
गाउँमा
देखाएको
सहयोगमा
हिमा
सामान्यतया
उपलब्धि
सहभागिता
लिम्पियाधुरा
कुराकानी
ख्याल
नारा
पद्ध
सल
प्रकृति
##्याम
सरस
बिग्र
स्वास्थ्यमा
क्षेत्रलाई
आयोजनाको
##धीन
वार्षिक
लिपुलेक
डिस
फूल
बगा
भत्ता
##डे
##ठो
##भु
##ानि
विविध
पुरा
कामदार
बिना
आजदेखि
##संस्था
कैदी
वीरगञ्ज
##ठ्यारो
प्रधानन्यायाधीश
##रालाई
यसबाट
अस्वी
घटनामा
##वेदनमा
संस्थागत
निर्देशनालय
सालमा
अविश्वासको
आधिकारिक
अस्थायी
ढङ्ग
हेट
##वद्ध
##वाना
काउ
हुँ
##्रोल
दिनभित्र
मानसिक
सार्वभौ
समाजसेवा
बढ्दो
##भूति
फागुन
उपमहानगरपालिका
काभ्र
जेल
##वाइ
कामना
नगरपालिकाको
कर्मचारीलाई
बोलाइएको
##युद्ध
प्राथमिकता
त्रिवि
क्रियाकला
पाकिस्तान
आक्र
उड्ड
रौ
##ून्य
##र्देश
विष्ट
##्याउन
सरकारमा
##ग्राही
रुपा
##रूप
समयमै
##दिने
अनियमित
बुझ्न
प्रक्रियामा
समुदायमा
उजुरी
दर्शन
उच
चलि
शून्य
##जन्य
##टु
##शाली
##्रि
गर्यो
##लीमा
महिनामा
हुनसक्छ
चाँड
भेट्न
मोटरस
विघटनको
बाटोमा
समृद्धिको
जमिन
##ज्ञानिक
आकर्ष
उदा
जडान
तिव
श्य
हल्ला
##िको
##कलाई
कास्की
कामका
##ष्ठा
राम्रा
बाँके
मोदी
सीमित
केसीले
परराष्ट्रमन्त्री
मोटरसाइ
हस्त
##लालाई
काट
##पालाई
हुनेमा
क्षेत्रीय
पर्न
प्रचण्डनेपाल
समितिमा
सहयोगले
चार्ट
##िटल
आयोगको
पानीको
हटाउन
अर्यालले
कर्तव्य
जरिवाना
ग्या
##िन्छ
निरा
माघ
सम्पा
कार्यविधि
##पर्व
बैत
अध्ययनमा
देशलाई
घरमै
##कुम
भेटमा
पदमा
अतिक्रमण
आँखा
कठिन
पाण्डेले
उद्घाटन
अवा
नमि
बराब
म्य
लिम
##काे
##नित
नेम्वा
सेल्
कमी
##समक्ष
##वासीय
सक्नेछन्
उत्सा
मेगा
आधारित
पीडा
##धुनिक
प्राधिकरणले
ढुवानी
परिस्थितिमा
पाटन
परम्परा
अस्थ
अरू
##मणि
##गढ
##भे
##्रै
##न्थ्यो
##तिका
हुम्ला
भएकोले
पुर्न
दुबै
उपत्यकाका
संस्थाले
##वेदनशील
क्याम्प
प्रतिस्पर्धी
श्यया
रक्षामन्त्री
##खाना
##चु
विप्
हुदा
संयन्त्र
स्वागत
##िसकेको
हुन्थ्यो
सामूह
आधारभूत
तयारीमा
खोजेको
भानु
मक
##यनको
##घु
संसार
सुत्
दुख
राजधान
प्रधानमन्त्रीका
डाक्टर
##त्वमा
भाइरसका
##उँन
##िटाइ
हेर्ने
सवारीसा
बजेसम्म
आयोगमा
चलाउने
नसकिने
मोबाइल
उड्डयन
सामूहिक
अप्र
स्यान
##मले
##टको
##श्
##नाको
अनुमो
वर्षदेखि
बैं
सोध
सेवामा
खुलेको
सुरक्षाको
##ब्जा
विदेशबाट
##गरीय
महिनाको
महानगरीय
सञ्जालमा
##रोजगार
चार्टर्ड
चन्द
दम
##नारायण
##घर
##छो
दिई
##रिको
##्नो
##उँछ
सञ्चालनका
पठाउन
##तर्फी
लगाए
सिंहदर
राईले
खानपान
फेसबु
आस
चट्या
पालिका
##वाल
##वहार
##गु
##ंदै
##्रु
साढे
##ामक
तीमध्ये
राखी
कार्यालयको
विकासमा
दुर्गा
खटिएका
अनेक
सुदृढ
कारोबार
विनियोजन
विप्लव
अलि
इच्छा
गएपछि
बन्दै
रगत
##इरहेका
निवासी
दिनदेखि
देखिने
सदस्यहरु
पु¥याउने
मिलाउन
रमाउन
थुप्र
चौधरी
जनकपुर
खि
##ृति
नभएर
संसदको
हार्द
भेटघाट
##िटेड
##ारमाध्यम
बजेदेखि
बैंकले
सर्ला
प्रतिस्पर्धामा
नपाउने
आवतजावत
स्यानिटाइ
हार्दिक
काली
खेत
रम
##मला
##ह्न
##धित्व
##स्पद
बासि
गरिनेछ
पारेका
आयोगका
जोडिएको
मूल्याङ्क
पहिरोले
मानिसको
इलाका
मङ्सिर
सर्लाही
तार
तिर
##चर
##फ्
##गी
##ँजी
##ौटी
साधनको
##रहने
##किलो
##ियन
पर्नेछ
महेन्द्र
गर्नुहोला
रामचन्द्र
निर्देशिका
महाशाखाका
लिमिटेड
अनुमोदन
अनाव
चल्
शरी
##बई
प्रहार
विला
निस्
संगठ
##न्दे
पाठ्य
उपप्रधानमन्त्री
##प्ती
अस्पताललाई
नागरिकता
क्रमश
प्रस्तावमा
जनतामा
दशक
त्रास
अर्कालाई
डोटी
स्वतन्त्रता
मजदुर
पुराना
इतिहास
बाँस्कोटाले
पछाडि
अस्थिर
चाम
ठो
##मेन्ट
##जत
त्यसकारण
भइसकेका
##भित्रै
यहाँको
गरिसकेका
पाण्डे
तामाङ
##पाटी
चाडपर्व
अप्ठ्यारो
कूटनीतिक
अस्वीकार
समाजसेवामा
मकवान
अनावश्यक
##वती
##पदा
##ौद्ध
##न्सी
##पात
सुन्दर
सञ्चारमाध्यम
सङ्क्रमणका
लेखेका
पदबाट
पहिरोमा
अदालतको
रिज
भागमा
भेरी
बाबुराम
प्रतिनिधित्व
मेगावाट
थुप्रै
भग
##टार
##पनको
##ण्डा
स्थिर
##प्रेम
##र्फत्
खुकु
किट
व्यापारमा
मौलिक
जोड्ने
##परित
आउनु
सिंहले
गर्नुपर्नेछ
युनियन
आयुक्त
उत्र
कड
कला
झन्
नपर्ने
मध
लाल
##कर
##हत्या
##दिएको
##छी
##ागत
##रात्र
##हिल्यै
पाए
##ारीले
##गरमा
सिट
सञ्चालित
पारे
पारदर्
##ानुसार
कोइरालाले
बच्न
##ज्मा
उपभोग
सन्तोष
लाइन
प्लाज्मा
टिकट
द्वन्द
##मन्त्रालय
हस्तक्षेप
उसले
चिया
यदि
वटै
##एक
##श्वर
संवेदनशील
दिदी
लागेर
त्याग
##स्थापित
##नीले
मिल्ने
केन्द्रले
अधिवक्ता
नागरिकले
मुलुकका
##केज
उठा
चलाउन
खण्डमा
पेट्रोल
डुबान
प्रवद्र्धन
अलग
आरा
बसि
हकमा
##सेव
##शेर
##आइ
##घ्र
##र्दै
##ाइड
सहसचिव
विश्ले
मिश्र
नेकपाले
नियमा
उल्ल
बालिका
दूतावास
बैंकको
मानवीय
पर्यटकीय
प्याकेज
एयरलाइन्सले
सिंहदरबार
द्वन्द्व
आय
आका
चढ
मल्ल
##लिन
##परा
##दछन्
##ौली
##्यांक
सरकारबाट
##पर्छ
##न्धन
विद्य
असं
विश्वका
सडकको
भेटिएको
##चाप
तोकेको
##लम्बन
खसेको
बराबरको
म्याग्
मदन
##जारी
##ड्ने
##पू
##धनमा
##श्रम
राप्ती
##यां
##ाइँ
##विन्द
एकजना
कमजो
वार्ड
बनाई
दिनसम्म
प्रशंसा
सेवाग्राही
पूर्वी
खोला
खोज्ने
महानगर
प्रणालीको
अभियानमा
पुरस्कार
आन्दोलनमा
महानिर्देश
##न्देही
आराधना
घट्
नकारात्मक
बारा
मार
वृद्ध
षड
हरु
##ियो
##वृद्धि
##तहत
##घरमा
##क्षेत्र
##पालन
##ल्म
##भाई
##ेलले
गरेकाले
##वारिक
भारतसँग
पछिल्ला
समस्याको
##ंकर
व्यापक
जनताका
उद्य
गोविन्द
पाइन्छ
प्रतिनिधिसभाको
प्रविधिको
नजिकै
हटाउने
छिट्टै
हैसिय
सम्वन्धी
कपिल
इन्टरनेट
अभिभावक
अक्
अपा
धनु
पत्ता
##िरि
##व्
##लै
##ुप
##भेद
##राव
गरिन्
ल्याब
राजनीतिमा
संविधानसभा
दोहो
सम्भावित
व्यवसायीले
घटनाको
बाहिरि
रोगको
लैजान
गुमाएका
सुखी
##खोला
सम्मेलनमा
रावलले
तरिकाले
बङ्गलादेश
आधा
बसो
बहादुर
शब्द
##बहिनी
##शै
साब
जाजरको
गरेपनि
निर्णयहरु
पक्षका
सामग्र
रेग्
##विरुद्धको
गिरी
अनुमतिपत्र
गर्नुभयो
वास्तविक
घा
##वर्ष
##्नुपर्ने
##होर
##गमा
##भारत
रहनु
लाग्यो
पात्र
यसबारे
नैतिक
##भाविक
भन्सार
प्रशि
ल्याइ
पुनर्
खोल्न
##पुर्ण
समूहको
विद्यार्थीको
मूल्यमा
तामाङले
पारिवारिक
अगुवा
कम्तीमा
क्रमशः
इन्ड
ड्र
रक्त
सघन
गराउँदै
विना
संचालन
माध्य
मातहत
लागु
जनयुद्ध
रुकुम
देशले
अन्तरि
खुमल
अबको
सङ्घका
प्राथमिकतामा
सवारीसाधन
मकवानपुर
खुकुलो
अथ
अग्
पठन
रेख
##ुक
##निया
##क्षम
गर्नेछन्
##ायक
अनुश
रोप
बनाएका
महोत्त
भारतका
##हित्य
अवै
पक्षको
संविधानमा
राष्ट्रपतिले
आइसोलेशन
अधिकतम
आउँदा
दायरा
पृथ
डिजिटल
नम्बरको
रौतह
ठिक
तिम
श्रा
##ईमा
##कोप
साहित्य
##रास्व
##दायी
##धारा
महसु
सेवाको
गौतमका
नदेख
आम्दानीका
विपरीत
कसैको
सुनाए
अनेरास्व
मर्मत
क्रियाकलाप
करी
गाह
जय
दर्जन
लक्षित
सब
##िरहेका
##लका
##हारमा
निगर
निरीक्षक
##ाग्र
##विन
##प्ने
आइरहेको
सदस्यले
ल्याएर
पोष्ट
पूर्वप्रधानमन्त्री
अरुको
आत्महत्या
जसरी
छिन्
प्रकारको
साझेद
गल्ती
अवार्ड
निगरानी
इन
चक्र
##िए
##तु
##ह्र
##पोर
##पिट
##उनुपर्छ
##हिने
##ङ्जा
##रूद्ध
सेन्ट
सिर
मृतकको
सुरक्षाकर्म
ध्यानमा
आरोपमा
राज्यले
रुपन्देही
अमेरिकाको
संयोजकत्वमा
दृढ
बाध्यता
सहायता
वस्तुको
क्रियाशील
वायुसेवा
आउँछ
##पोख
##परासी
उभि
उम्म
दै
बहाव
रिस
सकेका
##न्धि
##ालमा
प्रय
प्रजि
निस्क
##क्षी
पुरि
##हीँ
##रहँदा
##प्टर
परिच
काठमाण्डुको
तीनै
चाहना
समूहमा
##दलीय
क्षमताको
देशभरका
प्रशासनिक
रेलमार्ग
नेकपाभित्रको
सम्मेलन
सुत्के
अनेरास्ववि
प्रजिअ
नलि
हार
##क्सी
##निय
दिला
##साई
आइपुग
खोल्ने
##ेषण
अपिल
सचिवालयमा
मायाप्रेम
गराए
मौसमविद्
दीपक
ट्रेस
सिफारिसमा
हेरेर
गैरआ
स्याङ्जा
गठबन्ध
संग्रौलाले
कानुनी
नवलपरासी
अंग
झो
धरान
मगर
शंका
##िएर
##बो
##हका
##झदारी
##गाउँ
##ढु
##ालु
प्रेर
##नायक
##्याक्ट
प्रतिवेदनमा
##ियम
नेपालीले
महिलालाई
अवलोकन
हालै
निर्वाचनको
कांग्रेसको
परिवारमा
उपत्यकाको
उपलव्
कर्पोर
नारायणी
अर्थात
तालिम
चर्को
चेत
तस
ताली
न्यु
नलाग
बझा
##यको
##सलाई
##ईलो
##र्का
गराइएको
विव
समी
##रिङ
##ङ्का
महासंघ
सञ्चालनको
सदस्यको
रूप
बिरामीलाई
लक्ष्मी
तुलसी
उद्देश्यले
असन्तुष्टि
खालको
सँगै
निजाम
कपिलवस्तु
तसर्थ
अल्
गीत
टिम
बौद्ध
यद्य
हतियार
##जको
##नन्
##दश
प्रोत्
##स्थलको
कार्ययोजना
##योग्य
सिँच
मुस्
सामाग्री
सुरेन्द्र
हातमा
गौरव
हुँदैछ
##ुलिय
महिनादेखि
तिहा
प्रणालीमा
कैद
कोषमा
माथिल्लो
दुर्घटनामा
प्रशासकीय
##चित्र
चाहनेहरुका
बाढीले
ढङ्गले
कडाइ
महसुस
उनि
तालिका
पाउँ
सक
सेती
##ीक
##ोस्
##हरुबाट
##पाले
निर्यात
##लीको
कार्यक
प्रतिपक्ष
जिल्लाबाट
बुद्ध
##ियाको
सहयोगी
सचिवालयले
चाहन्छ
शास्त्र
विकसित
बाग्
तुलनामा
निगमले
हल्कादेखि
बेलायत
गोकर्ण
आआफ्नो
मेसिन
मूल्याङ्कन
विश्लेषण
माध्यमिक
गैरआवासीय
गज
डलर
बर्द
श्वास
##िरहेको
##यू
##अल
##न्सि
##ालको
विस्थापित
रोकि
भन्नुभयो
##नैतिक
सदस्यमा
दलित
##र्तालाई
विद्यार्थीलाई
मुद्दामा
प्राधिकरणको
संकटको
इलाम
दाजुभाइ
ज्ञापन
पन्तले
महानिर्देशक
अन्तरिम
गाह्रो
प्रोत्सा
खुवा
##हारी
##ेसँगै
##ँफा
##भने
##ालो
कार्यसमिति
कामलाई
##किङ्ग
गरिबी
राखे
दिनअघि
देखियो
वडामा
पठाइ
लगातार
पहिलोपटक
बस्नेतले
समन्वयमा
प्राधिकरणका
आपसी
उदाहरण
मोटरसाइकल
आसपा
रमेश
नियमावली
करीब
ट्रेसिङ
समीक्षा
डर
लडा
शहरी
##ंदा
##र्ति
##ारण
##नाइ
विपक्षी
##म्पत
##्याक
समझदारी
जनाए
##विरोध
उपप्रमुख
##प्रकाश
बनाउनु
दिएपछि
केन्द्रको
देखिन
नाँफा
मुलुकबाट
अघिल्लो
बेच
##नुभएका
रोकिएको
स्रोतको
आशंका
केसीको
गुणस्तरीय
फाइदा
प्रकरणमा
हिमाली
सार्वभौम
अनियमितता
कहिल्यै
खडा
सहि
##्स
##्लो
##गन
कोठ
पुर्व
##भिर
बढेका
दुर्ग
रहेकोले
कमल
##जात
परेर
शुक्
समस्यामा
बाँध
भाषा
कसले
वैज्ञानिक
##पत्रमा
गराएर
सङ्ख्यामा
अध्यापनमा
लोह
छनोट
कार्कीले
हिमालय
राणाले
नवीकरण
आधुनिक
इन्द्र
खरी
नच
फरा
रस
वृ
हेलिक
##वटै
##डको
##इँ
##माया
प्रकोप
##रीक्षण
##याम
##हिर
बढाइएको
दुरिको
परिक्षण
##डाँडा
मन्त्रिम
##हरूका
पुग्
खुल्ला
डिभिजन
समाजको
फैला
बोलाउन
##न्सर
##जिलो
निषेध
स्थितिमा
सन्देशमा
##एसपी
##दुई
भानुभक्त
बसोबास
उम्मेद
अंक
आत
धान
बंग
सिस
##सव
##छाम
##औं
केजी
वर्षे
##चारु
##प्रिय
व्यवस्थापनमा
गतेबाट
##जीवी
सदस्यीय
##च्चा
थापाको
सचिवालयका
सुरुङ
जग्गाको
राख्नु
तोड
पुर्याउने
महाधिवेश
खड्काले
भोजन
सरोकारवाला
खानपानमा
पठनपा
अन्न
ठु
मर्या
राना
##वधि
##दको
##ूढ
##काउने
##स्ने
##क्सन
दिगो
होई
बिजु
##सामा
मिले
प्रहरीका
नेताहरुलाई
देखिए
प्रचण्डबीच
प्रेमको
गर्नुपर्नेमा
आगो
नदिएको
अधिकारको
बोलाएर
मनाउन
दरले
यतिबेला
कक्षमा
भेन्टिलेटर
बोकेर
परिचय
सिँचाइ
घो
जिक
झर
नमा
शहर
##वालाई
##अधिकार
##ैमा
निम
कोरिया
मापन
बढुवा
मिल
प्रहरीलाई
पूर्वस
भन्नेमा
मौका
कर्जा
##बुझ
सालको
अपनाएर
डोरो
मध्ययम
जुनसुकै
मनोन
बचाउन
विरुद्धको
टेलिफो
गोकुल
आचार्यले
पाठ्यक्रम
चामल
निजामती
कँ
ग¥यो
नराख
मधु
##डीको
##लेन्स
##म्लामा
##निकी
साधारण
##स्तरको
कुरालाई
दुबई
सहुलिय
##िसन
क्षेत्रबाट
बनाउँदै
महारा
सदन
केन्द्रका
आइरहेका
आइसिय
सदस्यहरुले
भाइरसबाट
##सहितका
मोड
विवादमा
ठाउँबाट
आइसोलेशनमा
तिहार
गृहमन्त्रालय
घटनास्थल
सीप
निकायले
पश्चिमी
पार्टीभित्रको
सन्तान
आन्दोलनको
शेर्
बासिन्दा
अल्प
बर
भर्चु
##बे
##हरा
##गृह
##गण्डकी
##ैँच
##र्नुपर्ने
##त्रु
काय
##म्बार
##ाउनुपर्छ
राजेन्द्र
अध्यक्षतामा
नेताहरू
मेघ
स्थगन
##शास्त्र
मतदान
अत्यन्तै
दीर्घकालीन
दिदीबहिनी
गोली
चल्ने
ठेक
फोर
भोली
रथ
लम
ह्वा
##धर
##च्
##्रे
##्रिक
##तापूर्वक
##त्ताको
सुस्ता
बढाइ
बढेपछि
वर्षअघि
बिष
परिमा
अध्यक्षको
समयले
जोर
नेकपामा
प्रशोधन
##ेदन
स्थाय
पक्षबाट
सांसदले
##प्रतिको
कम्पनीलाई
चीनबाट
उपाध्या
सन्धि
भौगो
रिक्त
न्यायिक
कार्यदलले
चौधरीले
हैन
किसिमको
फलफ
##म्पत्य
जिकिर
भर्चुअल
धोका
सघ
सन्तु
##सीय
व्यहो
बाँच
गरिब
नभएकाले
विश्वक
पक्षलाई
बाँड
अभियोग
##कृष्ण
जीवनमा
युरो
संख्यामा
##पुग्
संस्थाको
राज्यका
दशैं
रोकथामका
गर्छु
विमानस्थलमा
दरबार
रमाईलो
आवागमन
ढिलाइ
शाहीले
इजलासले
बुझाएको
नरेन्द्र
प्रारम्भिक
##मूलक
सम्पादन
सेल्सिय
असंवैधानिक
##श्रमिक
सिरहा
विवेक
कँडेल
आर्जन
एम्बु
चरि
जसमा
तल्लो
शास
##ान्तरण
##मेल
##ुली
##साम
##रम
##टाइ
##मानी
विपरित
पुर्
##किन
राजश्व
वर्षसम्म
स्थानान्तरण
##ँदैछ
समारो
लिई
उपचारपछि
उत्तम
##बासी
दाम्पत्य
डिला
##जुङ
योजनामा
अरुलाई
बस्नेत
रोक्ने
किसानलाई
गुणस्तर
तुरु
दिवसको
प्राप्तिको
कमजोरी
मनोनयन
एण्ड
जै
भ्या
सक्षम
##वित
##जसो
##कता
##बजार
##थान
##ईको
##र्दन
##नेमा
##िकरण
संचाल
सुचारु
गर्नेलाई
लिनु
नगरप्रमुख
##ोकमा
मन्त्रीले
##सिए
श्रद्धा
पूर्वमन्त्री
दार्चु
मुलुकलाई
भोग
धादि
पु¥याउन
अलिक
दिइने
नवराज
काँग्रेसका
बताउनुभयो
##गरमाथा
प्रयत्न
भौगोलिक
तुरुन्त
अछाम
उर्जा
मूर्
##जस्तै
##जुन
##नजर
##ँध
##इन्छ
##स्प
राती
साविक
कुँ
अनुभूति
##प्रश्वास
सबैमा
समाप्त
##कुश
देख्न
खुले
आफूहरु
उदय
तपाईँ
किनारा
विस्तृत
धनगढी
यात्रुको
रोजगारीका
जवाफमा
मध्यनजर
टोल
लडाइँ
आंशिकदेखि
खालका
टेलिभिजन
यद्यपि
आयु
तनाव
नर्स
बित
मसा
मेट
शीत
सगरमाथा
##रेट
##पश्चा
##देख
##दीको
##ैन
होल्
कुकुर
##टाएको
##प्ले
महाकाली
साथमा
अवलम्बन
##अनुरुप
अपहरण
कम्पनीको
पौडेलको
तिर्न
लामि
सम्बन्धि
देवी
तपाईंको
तपाईंले
मिलाउने
बढिरहेका
पारिश्रमिक
जोशीले
जोडिएका
इस्
केश
गम्
तल
तस्क
नपुग
सजिलो
##िरमा
##ाधीन
##वर्ती
##बजारी
##गर्जन
##घाख
##लार्ई
विपन्न
विभेद
दिनेछ
##ल्पना
सुरू
##टीले
बिपी
##प्रा
परिनेछ
गरिए
जात
परे
विश्वभर
बस्नु
परिवारको
आयोजनामा
व्यावसायबाट
लोकप्रिय
स्रोतहरु
नदीको
पशुपालन
डेढ
फैलिन
##क्कर
घिमिरे
यथार्थ
स्थलगत
मन्त्रिमण्डल
फलफूल
मसान्त
लामिछा
आउँदै
खेला
जङ्ग
ठहर
फौ
बस्त
##य्या
##रे
##बारी
प्रती
##म्स
माफ
पुस्ता
प्रतिवद्ध
वर्षमान
##ीमाथि
सम्बन्धलाई
सहयोगको
पारेर
व्यवस्थापनका
किनभने
चालु
आन्दोलनका
मनाउने
कलेजमा
मजबु
हितमा
घुम्
एनस
समेटेर
खासै
बन्दाबन्दीको
परास्त
जलविद्युत
सुवेदीले
नमिल्ने
चट्याङ
निमित्त
अश
आदान
एश
कतार
ग्लो
नुवा
मध्या
शल्य
##कोण
##माझ
##लेस
गर्भव
##नियम
रहन्छ
थियौं
दुरी
यससँगै
जनमत
गर्दैछ
हामीसँग
भन्यो
लगाउँदै
गरेमा
मुल
निर्णयको
सूची
विश्वमा
लेखा
परिवारले
विभागको
व्यापारिक
बोलाएका
कार्यान्वयनका
विमानस्थलको
जानुपर्ने
घिमिरेले
शेयर
दृष्टिकोण
बगाएको
रुपान्तरण
उचाइ
##शैली
अथवा
सुत्केरी
खरीद
सहुलियत
ठेकेदार
परिमार्जन
सेल्सियस
दान
द्वि
नष्ट
##िनु
##यमा
##जन्तु
##हको
##फिङ
##नाम
##ेश्व
##राइ
कार्यसू
यसपटक
राजतन्त्र
वर्षपछि
समयको
पर्दैन
बुढ
पहिला
ल्याएका
##लगत्तै
सङ्क्रमितलाई
सङ्क्रमितमध्ये
समाजका
योगेश
विशेषज्ञ
एकताबद्ध
सेनाका
विरोधमा
सर्वा
ढुक्क
क्यान्सर
##स्वरुप
रुपैया
कपडा
बर्दि
मिल्दैन
स्वास्थ्यकर्मीको
पद्धति
प्रशिक्षण
आवास
उड
औचित
टन
बरु
शर्त
सवार
##खन
##खर
##पहिरो
##गल
##क्कै
नेत्र
##यातमा
##ाउको
##ङ्ग्र
##दाता
##क्तव्य
अनुप
विशि
लगिएको
##मुखी
सामानको
नेताहरुको
##सकेपछि
कुराहरु
अर्जुन
हिन्द
चाँ
##त्तर
सांसदहरुले
मोह
मोहन
रेडियो
भोट
विश्वासको
##ल्याण
फर्कने
फर्केका
कालोबजारी
सुनुवाइ
ज्येष्ठ
बैंकिङ्ग
जाजरकोट
साझेदारी
पठनपाठन
विश्वकर्मा
चरित्र
खपत
घेरा
धर
मेला
सस्तो
ह्या
##नौं
##उप
##चो
##ँदे
##ओस्
##्यन्त्र
##स्वास
##लाञ्च
##वात
##रिय
बाजु
##नुपर्नेछ
##टामा
परिषद
त्यसबाट
रोल्पा
##वारण
मात्रामा
##डिओ
कुराको
शिक्ष
##कालमा
मेरा
चित्र
दाङ
महामारीले
भक्तजन
चिकित्सा
विधिपूर्वक
टेकु
शक्तिशाली
प्रविधिमन्त्री
##ल्याण्ड
पु¥याएको
टुंगो
फेरी
वैठकमा
बैतडी
कायमै
इट
उखु
एन्ट
कित्
घाटा
चयन
टेक
पह
वन्य
##कन
##गन्ज
##न्ता
##लेन्द्र
##क्न
सम्पति
सम्पदा
##विहीन
कुव
##ुरू
परिसर
बनाउनुपर्ने
दिएकी
##हुँदै
दिनका
अभिलेख
बेरोजगार
भनिन्छ
शुरुआ
##ध्यापक
तत्कालिन
निकायका
अर्काे
औषधी
कठि
भेलामा
कारागारमा
##ेरापी
ब्याज
सप्तरी
पृष्ठ
डिसे
चाँडै
षड्यन्त्र
तालीम
उम्मेदवार
स्थायित्व
गम्भिर
औचित्य
इमा
टेलिक
तलब
धम्
नफ
हौं
##ान्त
##मध
##सभ
##बडी
##ट्र
##ँस
निवारण
दिनुपर्छ
यसपाल
##रहनु
##र्थी
मिष्ठा
##ौँडा
आवेदन
##ँचो
हिउँ
अन्यत्र
सडकखण्ड
##धाई
नाघ
बिहानै
पत्रमा
सभामा
सङ्घर्ष
तत्कालै
समुदायस्तरमा
एमसिस
विगतका
पुर्याउन
स्थानीयवासीले
शाक्यले
श्ययाको
पारदर्शी
अनेरास्ववियू
लामिछाने
मजबुत
मिष्ठान्न
गयो
ठीक
मण्ड
##यले
##र्सि
##मार्ट
निश
##्याएर
नेपालभारत
जनार्दन
##ाउँमा
गरीएको
मुटु
बुढा
समस्याले
हिँ
नगरा
पुरुषमा
अनौ
##दर्श
समुदायको
आत्मिय
गिरि
गिरीले
संस्कार
निष्पक्ष
राष्ट्रियसभामा
स्तरो
बोर्डले
शाहले
दाजुभाई
असहज
साउदी
फेसबुकमा
अग्नि
श्राद्ध
आइसियु
ग्लोबल
जंग
झनै
डोज
तेल
##ोमा
##न्नु
##लेट
प्रस
गर्दछन्
केवल
एकताका
क्लब
##प्प
अस्पतालबाट
अध्यक्षबीच
समायोजन
नेताको
##ोरपाट
अभिवृद्धि
भाष
महामारीबाट
##ित्तिकै
विद्यालयको
बाहिरी
हुनुहु
चौकी
##खास्त
मानवअधिकार
मनोबल
लड्न
एयरलाइन्स
कुटपिट
म्याद
क्रान्तिकारी
##्मण
चलिरहेको
आकर्षित
पुर्नगठन
स्यानिटाइजर
टेलिफोन
वन्यजन्तु
कष्ट
घिस
ठक्कर
तिमि
पेस
बधाई
लम्ब
वक्तव्य
##स्रोत
##कका
##खत
##गडा
प्रि
निरीक्षण
रहँदा
##ण्डर
केभी
##विराज
##टीका
एकपटक
बिभिन्न
बिरुवा
##ेलिया
##िमी
गरेकामा
ओलीसँग
महत्
##्योति
काठमाडौंमा
पाँचथ
राष्ट्रपतिको
कम्पनीका
##स्कृत
लकडाउनका
##दर्शन
कर्णालीमा
सत्तार
##राष्ट्रपति
अमेरिकाले
पैदा
निवासमा
##निर्वा
##ज्जत
##वरले
प्रतिस्पर्धा
चाहिने
उत्पादित
असन्तुष्टी
सलह
सामग्रीको
रेग्म
शल्यक्रिया
विशिष्ट
स्तरोन्न
उता
कब्जा
खेर
गई
छाउ
नराम
पिप
मञ्च
##रका
##पल्ट
##चेत
##न्यो
##वास्ता
राउ
संग
##राति
भएकोमा
##स्तार
गर्नै
##नुपर्दछ
निर्णायक
लिइएको
स्वरुप
थपिएको
दलले
##ञ्जन
आफूहरुले
सुरक्षामा
वैद्य
उहाँलाई
महिनासम्म
आगलाग
छाप
रेष्ट
सक्छौं
जुध
जुलाई
निकायलाई
यसैबीच
विधिबाट
##संगै
थालनी
स्वदेशी
सहितको
बेलुका
गरियोस्
##भाइरस
छाडेर
गाँजा
भुसाल
सरसफाइ
हेटौँडा
ग्यास
उत्साह
ठोस
रेखा
रौतहट
सत्तारूढ
घन
ढोरपाट
तै
दर्श
नदेखि
पाउँदा
बम
शंकर
##ात्मक
##फे
##शोर
##र्की
##ागर
दिँदा
कोट
##छिन्
सेवन
ओलीका
जान्छ
महाअ
महशु
स्वस्थ
स्वच्छ
मनसु
उनीहरू
उनीहरूले
शिला
मेयर
व्यक्तिमा
बेहो
शुरुमा
हेर्
निकालेको
उडानका
##माथिको
चौथो
नीतिगत
ढुङ्ग
तपार्ईँकै
##न्यास
गोरख
दोषी
च्याले
प्रतिस्पर्धीहरु
उद्यम
साबुन
श्वासप्रश्वास
बिजुली
कुवेत
ग¥
चहल
सद्
##एच
##नेन्द्र
##ाराम
गरौँ
##योस्
रातो
समस्य
कोहल
##ण्ठ
##पार्क
बाघ
सेनालाई
बैठकबाट
मिहिने
निर्णयमा
स्वीका
##जीवन
श्रीमा
राम्रै
##बाहिर
हावा
विवादित
सचिवालयको
गराई
पूर्णरुपमा
पेशा
मन्दिरमा
खटिएको
##निर्भर
अलैँच
किसानले
सुनार
##परिवार
घुस
वायुको
मेलम्
इज्जत
गतिमा
गहिरो
घडीमा
टिका
धरा
नजाने
##िएपछि
##्पा
##भरी
रहि
##हाय
सुवास
क्वा
यसो
स्वास्थ
बाधा
##नुपर्यो
##सीमा
त्यसरी
महामन्त्री
पर्दा
महरा
बुवा
छलफलका
हिन्दु
पुनर्ग
##मैत्री
खोलामा
भेटिएका
बन्दी
प्रतिशतले
हुनुको
शिक्षाको
बोलाएको
बोलाउने
संशो
थिएनन्
पोखरामा
स्मृति
##ेपलाञ्च
कटान
त्यतिबेला
सम्मानित
काभ्रेपलाञ्च
अवैध
कोठामा
हेलिकप्टर
एन्टि
घिसिङ
अष्ट्र
एल
जला
ढोका
दौ
बनि
सजग
हौँ
##िँदै
##तक
##डोर
##ंच
##द्रा
##द्योग
##तित
राह
रहेकी
कार्यलाई
कोरोनाभाइरस
कुर्
##रहरू
प्रधानमन्त्रीज्यू
##प्रदान
गरिनु
##ञ्चित
राष्ट्रको
लगेर
##वादको
व्यवस्थापनको
दुईवटा
विषम
उत्त
कोभिडको
नगर्नु
लेखराज
आयोजनाका
संघले
तातो
चौर
प्रश्नको
बाहिरबाट
##भूमि
अविरल
खटिने
होटलमा
##्र्त
फरार
गैरस
बाढीपहिरो
नपाएको
जित्न
ज्याला
विद्यमान
मेघगर्जन
शीतल
चहलप
मिहिनेत
कल्याण
छे
पश्चा
भार
मद्द
रानी
सफाइ
##मशेर
##लान
##जमा
##नन्द
##ोल
##चे
##दित
प्राय
##नियर
निकास
दिन्छ
गर्नेहरुले
##ाइन
##विप
पार्दै
##प्टे
भएकामा
##हरूसँग
लगाउ
दिनपछि
प्रहरीमा
मानिन्छ
हालतमा
तहलाई
दिनेश
मोटर
नगद
चीनमा
वैचारिक
##िलै
उठेको
रोजगारीको
बाह्र
प्रमाणपत्र
शान्तिपूर्ण
अग्रसर
कृष्णप्रसाद
अत्यधिक
भविष्यमा
किसिमका
पराजुली
काउन्सि
उपभोग्य
गठबन्धन
उपलव्धी
शुक्ल
गर्भवती
औद्योग
गगन
नोक
शय्या
##बिस
##डर
##न्मुख
##नात्मक
हुन्न
रामा
जनादेश
##विरूद्ध
कुश
अनुरुप
परिस
गरिदि
सिंगो
गुर्ज
मन्त्रीको
##भित्रका
गर्नुको
पूरै
##लगायतको
##िलक
ताप्ले
##ामीण
चालू
##गोल
तथ्यांक
चरणको
अभावमा
प्रमाणित
स्वास्थ्यकर्मीलाई
##बाहेकका
छानविन
समावेशी
ढिलो
चलचित्र
भत्का
भुसालले
मोरङ
रोपनी
##ढुङ्गा
एम्बुलेन्स
अड्
आबद्ध
ऋष
कवि
चेक
ज्योति
ठाउ
तट
पछी
मनमा
यिन
लुट
सता
##जुट
##सत
##सन्त
##थम
##र्ब
##न्थ
##ालि
प्रयोजन
दिश
##राहा
##ल्दै
कोर
माछा
पाठ
भनेपछि
##टीमा
##न्ती
बिल
काठमाण्डुका
समयसम्म
मन्त्रालयलाई
अन्तर्
नभएपछि
कार्यक्रमका
लेखिएको
पत्राचार
अपरि
राज्यबाट
ग्रामीण
सहमतिका
बजारको
भित्रिने
मंगल
सञ्जालमार्फत
सचेतक
बाह्य
विवरणअनुसार
लड्ने
रक्षाका
जमरा
सजिलै
दिवसका
औँल्या
बादलले
जलविद्युत्
ट्वीटरमा
नेम्वाङले
आकां
अपाङ्ग
मायाप्रेममा
बंगलादेश
नुवाकोट
मद्दत
अह
अपमा
टाउको
डिप
थारु
बराम
बृह
शह
हज
##िला
##वरी
##अप
##न्ह
##न्तिक
##नेका
##क्की
##किल
##ुरे
##सम्मत
निर्णयलाई
परेपछि
घरको
कार्यालयबाट
अवस्थाका
केन्द्रिय
##जीपी
समितिलाई
सेवाका
विज्ञा
गोपाल
बढ्नु
जोडेर
गृहकार्य
अनशन
बुधवार
त्यहीँ
जसअनुसार
कुटनीतिक
पराजित
पेट्रोलियम
खुमलटार
इमान्द
चहलपहल
अडियो
जसको
डब्
नोट
सिक
##तय
##तन
##जनमा
##टव
##डालाई
##प्य
##काअनुसार
विवाह
काङ्
रात
संस्थान
दिल्ली
##ल्सि
##ण्ट
सुदुर
सम्हाल
एकतालाई
राजविराज
##िसकेका
सेप्टे
स्थानबाट
##धारित
बुँदे
##डिटी
##पुरका
गर्नुहु
प्रयोगमा
जोड्न
चुना
मानिसलाई
सीसी
अमेरिकामा
उद्धारका
##वाहक
##एनन्
अतिरि
नाकाबाट
संघीयता
चोलेन्द्र
सन्तुल
ललितपुरको
कडाई
चापीय
##चौकी
सुनुवाई
विलासी
संगठनको
अस्थिरता
धनुष
बौद्धिक
प्रोत्साहन
आदानप्रदान
कार्यसूची
डिसेम्बर
##विपरीत
काङ्ग्रेस
खल
खप्त
चलेको
बहान
भवनमा
हौ
##शहो
##ताब
स्मार्ट
दिनुभयो
##रोग
पुँजी
पाएपछि
##भियोग
उपराष्ट्रपति
एकजुट
##भाष
सङ्गठ
##प्रेषण
सेट
सिनेमा
हजारभन्दा
गर्दैन
##भावना
गरेसँगै
लिइ
##समध्ये
गुप्त
संक्रमणका
##लिखेल
प्रचण्डसँग
खुट्टा
##भित्रको
अवतरण
##ब्बा
सांसदको
डिशहो
नापी
खोज्न
राज्यमन्त्री
सङ्घले
बीउ
श्रमजीवी
##ङ्कर
गर्दछौं
खेलेको
टाढा
दरबन्दी
##विक्रम
निम्त्या
नपाइने
चाहिँ
अपराह्न
परिषद्को
लोकतन्त्रको
आफुलाई
इन्जि
मैदान
##घात
गठित
##नोद
कागजात
ज्ञानेन्द्र
रायमाझ
##हेरी
आक्रो
राजधानीमा
बरामद
कहीँ
ज्या
जसमध्ये
तारा
दण्ड
नामा
बहि
बहिनी
भरि
रत्न
शेख
##मका
##वह
##कली
प्रर्द
##स्न
##स्सा
##लाभ
विहान
नियोग
##ितो
गर्नसक्ने
अनुकूल
राजस्व
बिस्तार
##्वस्त
परिचाल
सोसाइ
##धारणा
पुग्यो
##नुपर्नेमा
##ोकल
सक्नु
##भाग्य
##लिङ
हात्ती
गौरी
खोटा
दोङ
##िटिभ
चाहेको
सहमतिमा
बैंकका
पाल्पा
देवीको
भ्रमणको
आमाको
ललितपुरका
गएराति
बाँस्कोटा
आरडिटी
इरानको
सैद्धा
सूचीमा
सम्मानमा
रिजालले
पृथ्वी
श्रद्धाञ्ज
धरौटी
तातोपानी
अतिरिक्त
अङ्ग
गइरहेको
चोट
चित्त
तर्
पन्छ
भया
शौ
##क्यु
##ब्र
##श्याम
##ल्ड
पाई
##क्रममा
प्रतिफल
अस्ति
बैठकका
कमला
विशाल
जाँदै
व्यास
##जीको
कुनैपनि
अवधारणा
##ड्नु
महिनापछि
मानिसले
विरोधी
युवाले
अपनाउनु
एसिया
निषेधाज्ञ
चोरी
ट्रान्स
सत्याग्र
इतिहासमा
निगमको
पुरानै
बिद्यामा
न्यौपानेले
मधेश
अक्टो
शास्त्रीय
ठुलो
होईन
मधुमे
हिन्दू
आकाश
उसको
खै
नहोस्
बडा
बाली
व्र
##मरी
##कू
##पार
##फु
##गङ्गा
##भग
##नेता
प्रोट
विपक्ष
काण्ड
स्वि
##ल्नु
##क्रामक
नेपालबाट
पाठक
कार्यशैली
कोरोनाले
सहमत
##किए
राजाले
वर्षभित्र
बिता
जनचेत
##ेलु
##ालामा
##ञ्चार
जात्रा
महेश
थापालाई
##र्वेद
आइपुग्
निर्माणाधीन
##हितको
##जीले
गाउँका
मेची
बस्नुपर्ने
##बीचमा
चिन्ति
हाँ
बाँकेका
प्रभावले
श्रेष्ठको
विद्यालयले
सङ्घसंस्था
##मित्व
उद्योगमा
निकायमा
महाशाखाको
ट्रम्प
ट्र्याक
गर्छौं
त्यहाँबाट
वर्षाका
आत्मनिर्भर
कोषको
टुङ्गो
एसपी
चितवनका
छोराछो
कार्यदलको
अख्तियारले
ब्रि
निष्कर्षमा
असहमति
चन्द्राग
##मात्रै
मन्त्रिपरिषदको
छोडेर
##ुपयोग
मातहतका
नदेखिएको
बझाङ
कार्यकर्तालाई
आयुर्वेद
जातीय
कठिनाइ
महत्त्व
औद्योगिक
सैद्धान्तिक
चिन्तित
उज
गाली
गैँ
जर्म
जवान
थेरापी
नजा
नसकेका
नबुझ
रुख
हाइ
##लिएको
##लिम
##ुरा
##सिम
##दफा
##थ्य
##शिल
##न्डा
##न्सन
##्यवहार
##ालालाई
काठ
संस्थालाई
##विनायक
##स्थापन
प्रतिकूल
राजनैतिक
स्वामित्व
लगभग
मिच
पुगे
राखि
केन्द्रीत
स्वतः
विकासमन्त्री
राष्ट्रियता
श्रे
विश्वप्रकाश
पुनराव
घटेको
खोज्दा
संस्थाका
लगानीबाट
घटनाक्रम
मन्त्रालयकाअनुसार
चलाएको
त्यहाँका
लोड
सञ्चारकर्मी
बीचको
भ्रमणमा
फोटो
भ्रष्टाचारको
पोजिटिभ
त्रिपा
चाहिन्छ
धुलिखेल
ढिला
नसकिएको
नसकेपछि
हिमपात
सुनसरी
रक्तचाप
##पोखरी
हाराह
रसुवा
मर्यादा
जैविक
घनश्याम
शिलान्यास
रामारो
परिसरमा
चुनावी
अन्ध
अन्यो
किमी
चलन
चल्न
झड
बानी
मदि
वढ
सङ
सत्ताको
हनु
##िश
##वारी
##सत्ता
##्ष्ट्रिय
##टारमा
##ंघन
##र्ना
गर्यौं
निमो
स्टा
माझ
##ण्डी
##ङ्ख
उपदफा
एकतर्फी
बिदेश
##ग्रस्त
##ौंडा
##जारा
##सम्ममा
##गाड
बैठकलाई
भएकै
अध्यक्षले
सदुपयोग
पहिराले
स्थानीयले
देखाउन
गर्नुका
विश्वको
कार्यक्रमको
सामु
महिलाले
##सक्नु
योग्य
गोप्य
कर्मचारीले
दूध
सम्झौतामा
धनगढ
डोल्पा
फर्किएको
नाकामा
आईसी
संकटमा
##र्भिक
प्रतिष्ठानमा
टुंग
ब्यक्ति
जुटेका
कैलालीको
परिणत
उत्पादनमा
सधैँ
##डेल्
कैदीबन्द
क्याम्पस
मिश्रले
बर्दिया
महाराजग
आगलागी
ढोरपाटन
सद्भाव
गुर्जो
अपमान
टाइ
दस
दास
पद्
बल्
मिस
शता
सना
हटाएर
##ाङ्ग
##जानु
##हानी
##उनेछ
##ङक
##शेष
##श्रोत
##्यौं
प्रथम
विन
विनोद
नेटव
संचार
दिपा
रहँदै
सुपरि
सहमती
जनआ
##प्रदेश
##न्द्रनाथ
राखिएका
निर्णयअनुसार
आजसम्म
सकिन्न
घरबाट
##पुरको
प्रचलन
माननीय
उनीहरूको
चाहा
##बाजी
##संस्कार
उल्लेख्य
आयोजनाले
व्यवसायीलाई
सर्वदलीय
विद्यालयका
पर्नेमा
अरुण
कार्यान्वयनको
बनेर
##कर्षमा
शनिवार
वरिपरि
अन्तर्रा्ष्ट्रिय
महाशाखा
प्रतिष्ठा
चिनियां
फर्कन
कार्तिक
संसद्मा
नोभे
वीरेन्द्र
रणनीतिक
अगष्ट
##पेक्ष
अर्याल
इन्टरने
एकलौटी
ट्वीट
उन्मुख
आकर्षक
नेम्वाङ
बसिरहेका
फराकिलो
##च्छि
##सीयू
होल्डिङ
इस्ला
काभ्रेपलाञ्चोक
आक्रोश
##डेल्धुरा
अं
कौ
चरम
डडेल्धुरा
नचा
ली
शुरू
##लिया
##सै
##रकारी
##ोप
##पख
##परी
##दिक
##दत्त
##त्मा
कोठा
##ङ्की
##ायर
गरेकाे
स्वास्थ्यमन्त्री
जाहेरी
पुग्छ
बुद्धि
भन्नेबारे
अवस्थाबारे
साथिको
गुल्म
बोल्ने
भाई
गौतमको
##केन्द्र
नामक
##दायक
संस्थामा
जानेछन्
सीमामा
उठाउन
उठाउने
रिहा
भाग्य
##च्छुक
देवेन्द्र
युवालाई
कोइरालाको
किसानको
विरुद्धमा
ब्यब
एकातिर
भाडामा
कटौती
भैरहेको
भेन्टिलेटरमा
एजेन्सी
चाँडो
उठाएका
दुर्गम
लोहनीले
मिलेनियम
सन्तुलन
केशव
सेप्टेम्बर
निमोनिया
उन्न
धेर
फ्र
ब्रा
भन्छ
भंग
हेल
##राग
##ँट
##ौल
नेवि
नेतालाई
उनकी
बिहि
सेन
लगेको
महतो
नगरे
नियमन
सदस्यहरुको
ल्याई
##जनालाई
अवस्थालाई
हालको
##ग्लिन
##लगायतले
बेवास्ता
कांग्रेसकी
##चाई
##ड्दै
अन्र्त
मानिसबाट
आश्वास
बजेटमा
दीप
फर्किने
करिडोर
प्रतिष्ठामा
आत्मसा
सभ्य
लाग्दा
संसद्को
फुटाउन
जन्मि
स्थानीयवासीको
बालबालिकाको
कालोपत्र
मैत्री
शीघ्र
अर्थतन्त्रमा
बाहेकका
इजलासमा
सारिएको
सैन्य
माइती
महासङ्घका
पठाएका
पुस्तक
विष्टले
बाँकेमा
खिन्न
##फ्ट
उल्लङ्
अनुशन्धान
शेर्पा
सीसीएमसी
आनन्द
ग्य
तब
धनी
नखु
ब्
यहि
हृ
##जनी
##ठान
##एल
##ताप
गराउनु
##िकेट
दिशा
समक्ष
##ल्दा
रहनेछन्
मान्ने
बैशाख
बास
देशबीच
लिँदै
लिनुपर्ने
लिटर
विद्रो
घरेलु
##ग्रहण
मुलुकभर
उल्लेखनीय
अधिकारीको
लापर
सूचनामा
विभागमा
कर्मचारीमा
##सनीय
बुझाउन
सम्बद्ध
सशक्त
नवनि
जनाएकाे
जितेर
तिनको
देखाएर
बन्यो
बर्खास्त
सिमाना
कन्ट्याक्ट
ट्याक्सी
सल्यान
ज्ञापनपत्र
कँडेलले
बाजुरा
प्रतिस्पर्धीहरुलार्ई
गैरसरकारी
विज्ञापन
गैँडा
आश्वासन
ट्वि
ठप्प
भेल
यती
रेक
रद्द
सत्र
##मेत
##वमा
##्ट
##पिङ
##धै
##चालय
##दक
##ाल्ने
मावि
##रिटी
थियौँ
व्यस्त
बढेसँगै
प्रतिरोध
##िनो
##िनीय
##गाई
गरिमा
सोको
सकिँदैन
गुठी
##कुरा
देखिएकाले
थपे
##ट्टी
देखेर
बजेका
नभइ
असु
किशोर
##ञ्जी
हिरा
पारिएको
संसदबाट
भाषण
घटस्थापना
युग
##केपछि
गाई
फैलन
विशेषगरी
पुनःस्थापना
रेड
सीता
रुपले
आश्रम
यात्रुलाई
रोजगारीमा
जवाफदे
भूभागका
पर्यटकको
सचेतना
लाग्नेछ
##मालले
ठाकुर
साहले
परम्पर
तिवारीले
दूतावासले
म्याग्दी
महोत्तरी
धम्की
चौरज
भयावह
जनचेतना
इन्धन
गाउ
च्यान
डरा
धै
फ्रा
बड
भरमा
शोक
सवै
सर्ने
##िएमसी
##यिक
##ाध्यक्ष
##लभ
##जल
##ब्य
##खेर
##धनी
##चरण
##फेर
##र्नेछ
##्याङ
स्तर
संकल्प
##ल्स
##क्रा
नेपालसँग
##हिता
##पाती
##विश्वास
एकदुई
अनुशासन
स्वाभि
##र्थक
##ञ्चा
रोकिएका
व्यवस्थाको
बुबा
घरपरिवार
आइएम
बोलि
सहयोगका
##ङ्गे
असल
किरण
##ञ्जा
रामेश्वर
चिर
पूँजी
जीवनको
महिलामा
वैधानिक
##वेदना
लेखाइ
उहाँहरु
मायाको
तिनी
पहिरोको
##बुद्ध
छात्र
अदालतका
जग्गामा
शक्तिको
जलवा
जलश्रोत
करिव
खेल्ने
नक्कली
अखिल
नबना
नभएसम्म
स्याउ
तिनै
##पोत
असहयोग
बन्दाबन्दीका
सिलसि
शरीरमा
सिटौला
उल्लंघन
सेन्टरमा
दैनिकी
नलाग्ने
अनौपचारिक
मनसुनी
पुनर्गठन
दिशामा
शौचालय
व्रत
जनआन्दो
असा
फस
म्यान
मच्छि
वसन्त
हद
##मय
##ख्य
##ेजी
##गामी
##छौं
##ओपी
##काउ
##लाग्
सार्ने
कोशी
केदार
गरेकोमा
सरकारविरुद्ध
एकअ
##नीमा
##रहवा
प्रतियोग
जानकार
सेक्यु
रोज
मुद्धा
घरघरमा
कार्यालयलाई
गुल्
हुनै
विषयको
बोल
कार्यक्रमलाई
अन्यथा
आफूतिर
बालक
नगरि
मुलुकले
वैदिक
महामारीमा
गाडीमा
भिड
##सेन
तपाईको
सहमतिको
चीनसँग
दूर
महत्वका
वितरणमा
युवाको
विधिको
बागलु
पैदल
नवरात्र
नियुक्ती
प्रजातान्त्रिक
प्रदर्श
मजदूर
मास्कको
महानगरपालिकाले
फर्काउन
एजेण्डा
प्रदीपकुमार
हेटौंडा
आतंक
महाधिवेशनको
युरोप
दार्चुला
खेलाडी
प्रतिवद्धता
पहलमा
तिमिल्सि
खप्तड
सुपरिटे
धेरैले
मच्छिन्द्रनाथ
आपूर्
ओम्
कल्पना
ग्रा
छवि
दाम
नु
पवि
बाम
बस्तु
भवनको
मकै
मलेस
श्याम
सन
सृ
सदा
हङक
##तालिका
##ुग
##चीमा
##न्समा
प्रम
प्रो
विस्
गर्नाले
स्कूल
##राय
गर्नसमेत
राजन
##िनको
##भावी
पुगेपछि
महँग
नेताहरूले
मन्त्रालयबाट
आइसकेको
##स्यौ
##बीले
देखिँदैन
सदस्यता
देखाउने
अन्तराष्ट्रिय
मन्त्रीलाई
##ेदी
पूर्वमा
भाद्र
नगर्दा
युए
नहुनु
विवादका
##गमनमा
जुलु
पढ्न
भईरहेको
अदालतबाट
##मुना
प्रयासमा
समुदायका
विगतको
राख्नुपर्ने
मध्यपुर
सोचे
अखण्ड
लाग्नु
सूर्यविनायक
प्रगती
भक्तपुरका
सौराहा
समानता
आफैतिर
पञ्चाङ्ग
मेगावाटको
प्रेरित
तिहाइ
धादिङ
फौज
एनसेल
##सभामुख
स्तरोन्नति
च्यालेन्ज
संशोधनको
अक्टोबर
चन्द्रागिरि
सेक्युरिटी
इञ्ज
एप्
खराब
घाट
जमी
फाउ
ललि
वु
वाल
सबल
##ममा
##मीका
##चोक
प्रक्रिय
विवा
स्कुल
साय
##त्सा
लागेपछि
##ङ्क्षा
##पाइ
##पातिक
बढाउनुपर्ने
स्वाधीन
बाक्
गरिरह
सिस्ट
##ंगे
##कुद
उत्तिकै
मानन्ध
##सिफिक
शिशु
खुलेर
किरा
डिल्ली
हेल्
##आरएन
हुँदाहुँदै
लगाई
अनिल
अनसन
छुट्टा
मौसमविद
सम्ममा
भण्डारीको
भण्डारीलाई
खेल्न
सञ्चारमन्त्री
राख्दा
शैलीमा
भेडा
खरिदमा
टोखा
खेलकुद
बहुमतको
खतिवडाको
कृष्णबहादुर
चिन्ह
आएकी
आफुले
बेलायतमा
समेटिएको
साझेदार
उमेरमा
##आईजी
पर्खाल
बढाएर
निर्देशनालयका
मधेस
अन्नपूर्ण
महाअभियोग
प्रयोजनका
मदिरा
आईसीटी
आदर्श
इण्ड
ऐनको
कथा
खसी
जगत
तिलक
नयां
पथ
फर्म
बरा
मृ
मस्यौ
हेलि
##महा
##डुल
##पको
##पबहादुर
##प¥यो
##उमा
##ठे
##नेश्वर
प्रत्या
प्रभु
##क्ताको
##त्रिम
##्याव
समर्
##यात्रा
रह्यो
मामि
माडी
सुव
निर्धारित
सरल
कार्यको
उपप्रधान
उपसभामुख
दुइ
जनजीवन
##नमार्फत
गरिँदै
गरिदिन
##ञ्चल
जाति
##हरूबाट
बनाउ
प्रचलित
उत्कर्षमा
##कालिन
व्यक्तिहरु
लाखौं
##ञ्छ
पूर्वतय
समाजले
कृत्रिम
प्रस्तावको
बिहानको
भनिए
अधिकारीलाई
मुख्यसचिव
दाहसंस्कार
##सेन्स
सुरुवात
सहभागि
जुम्लामा
##परेका
बुझाइ
बदर
पूर्णरूपमा
भट्टराईको
प्रश्नमा
##मुक्ति
सहजै
##योजित
सातै
बजेटको
भूमिमा
ढुङ्गा
दृश्य
राष्ट्रियसभाको
ब्यवस्था
स्तरमा
एनआरएन
हिँड्ने
प्राप्तीको
दृष्टिले
बारम्बार
पर्वतीय
गोकर्णेश्वर
सिसिएमसी
मेट्रिक
द्विपक्षीय
##ेश्वरी
राहदानी
गुप्तचर
एकअर्का
एक्स
एशो
चोक
छठ
टिप
ननि
बस्य
शमशेर
##वृत्ति
##जय
##हरि
##खामा
##धम
##ठू
प्रस्ट
##नापति
काफ
सार्की
##कारको
##हिन
##ण्डमा
सुन्त
निर्मित
##पछिको
राजकुमार
बिरोध
स्वास्थ्यलाभ
कमिसन
सोले
देशबाट
मुक्ति
नेकपालाई
भारतलाई
परिक
व्यावहार
मनोर
सदस्यलाई
पोल
बेनी
वडाका
खोजिएको
सवालमा
आरोहण
कर्ण
ग्रुप
किनार
बनेपा
शिक्षामा
भोग्
उद्योगी
##वासीलाई
निकायको
##जिम्म
ट्रेड
टेक्
टेस्ट
शक्तिपी
जलस्रोत
नारायणप्रसाद
नारायणगढ
उद्दार
परिवर्तनको
चितवनको
##खुवास
कमाउँन
वीरगन्ज
समृद्धिका
शाखाका
चुनावमा
बालबालिकालाई
हेरफेर
एकाइ
नआउने
भैरहवा
सुर्खेतमा
सिमकोट
विराटनगरमा
##म्बाहा
जुम्लाको
निर्देशनालयले
विलाशी
डुबानमा
प्रेरणा
अभियोगमा
समारोहमा
##देखी
कित्ताका
महशुस
प्रायः
सन्तुलित
प्रर्दशन
नोभेम्बर
हृदय
धैर्य
मस्यौदा
हेलिको
अच
क्यान
धमा
नरो
फिट
माट
रअ
रघु
सान
सर्त
सट्टा
##स्र्
##चाह
##गान
##्यार
##म्फा
##नुपातिक
##्याएको
##राजा
माै
मान्न
मासु
##पास
सुशील
सुमध
निर्म
##ारीका
कुमारी
बिर्स
जनजा
##ुरेन्ट
सेनि
परिरहेको
सिङ्गो
सिडिओ
सोह्र
मिलन
देशभ
महर्जन
घरधु
अवस्थाको
गुणा
मनोज
विषयवस्तु
सुरक्ष
सङ्क्रमणमुक्त
गर्नुपरेको
विश्वस्त
बस्दा
खाता
जीप
नेतृत्वलाई
बेड
खोज्दै
नहुन
मौन
##शनल
##म्भव
##स्ट्र
होइनन्
गोठ
उडानको
लोकेन्द्र
त्रुट
विद्यार्थीले
परीक्षामा
व्यवस्थालाई
युवती
जसका
प्याज
खेलकू
एमसीसीको
झण्डा
लाइसेन्स
श्रमिकको
तुम्बाहा
साइत
मोदीले
शरीर
स्थिरता
##पूजा
चाहन्छौं
अलिकति
मूर्ति
माफी
मोहम्म
मेलम्ची
हजुर
हनुमान
नेटवर्क
परम्परागत
गुल्मी
ललिता
##खुवासभा
सुमधुर
आल
उसलाई
गेट
घाम
छौ
जुवा
बन
बन्धन
वाइड
##मण्ड
##लक
##अध्यक्ष
##केश
##्नुपर्छ
##टिङ
##ंले
##्र्यो
प्रसू
##त्रिक
विदा
कासिम
##रोसा
उनमा
लागतमा
##हार्य
##ङ्क्ति
गर्नेगरी
उपेन्द्र
बिच
क्षेत्रले
अध्यक्षमा
नेपालीहरु
हजारको
बनाउनुपर्छ
लगत्तै
महराले
गुम
कुराले
सदस्यसमेत
शिकार
शिष्ट
किस्ता
प्रयोगकर्ता
##दिए
हाे
धेरैजसो
नेतृत्वले
जोखिमका
हेरि
निकाल्न
चाहे
व्यवसायमा
सर्वे
पदको
समूहलाई
सभाको
##ोषण
अध्ययनका
पहिरोका
किनारमा
छुट्ट
खर्चमा
जुर्नेछ
##ढीगण्डकी
सक्रियता
रहनेहरुको
सुधारका
दायरामा
सिफारिश
पशुप
शैली
कालि
लैजानु
खतिवडालाई
वार्तामा
प्रदर्शनमा
सकेसम्म
चर्चामा
नपाएर
परिषद्का
महानगरपालिकाका
सहकार्यमा
तराईका
सिन्धुपाल्चोकको
खासगरी
भोलिपल्ट
फर्काउने
लामाले
उचाइमा
बाँडफा
एमसिसी
रेग्मीले
जुध्न
##एचओ
अन्तर्वार्ता
ब्रिफिङ
रामारोशन
उल्लङ्घन
रेकर्ड
चौरजहारी
जलवायु
माैसम
गच्छ
डम्बर
डाटा
दवा
द्रु
नज
नह
श्रोत
##िलो
##वण
##अगा
##पोर्ट
##ूँ
##शास
##काई
##न्थे
विराम
कार्ड
##नियाँ
निष्ठा
##हिँ
निर्मला
सरहका
गर्नको
##टीको
कोरोनामुक्त
##न्छी
सेवालाई
##सीले
क्षेत्रफल
समानुपातिक
गरेँ
दिनभर
व्यवस्थापक
लिए
बुकिङ
व्याख्या
छैनौं
समस्याहरु
सयौँ
व्यक्तिहरुको
लाखको
तीनवटा
पूर्वपश्चिम
चिनी
अभिय
आएकाले
लेखेको
विवादको
गाठो
विशेषता
महिनाभित्र
मूल्यांक
भण्डारण
##न्डर
भुमिका
हुनुपर्नेमा
अनुगमनका
एसएसपी
अग्रप
##त्तिकै
जोगिन
##छुट्टै
एयरलाइन्सको
सँगसँगै
पशुपतिनाथ
आफैंले
समुह
सधैं
प्रकृतिको
वार्डमा
दोहोरो
अपरिहार्य
शेखर
बामदेव
मौसमविदले
मामिलामा
काफ्ले
धमाधम
खेलकूद
ओम
कथ
कने
कन्स
गएकाले
गहुँ
जथा
झगडा
डल्
डाय
थप्ने
पाउनु
पाउनुपर्ने
पालामा
मारमा
याम
रङ्ग
रवी
शपथ
सस
##ताल
##तेको
##पट
##धाम
##ठाउँमा
##ंकी
##एसँगै
प्रकृ
##स्दा
विन्दु
##रुङ
##क्षमा
##क्ष्मी
लागत
सुनको
सुविध
सम्हा
कार्यपालिका
बढीमा
सहसं
प्रतिव्यक्ति
##िसम्म
त्यसबेला
##ेटर
भन्नुभएको
देशव्यापी
तरपनि
##सके
स्वरोजगार
स्वभाविक
अर्घाख
बोह
बोल्न
काठमाडौंको
दललाई
बसपार्क
##बापत
##बाबु
खाँचो
मोर्च
खोज्नु
##जुमा
उडानमा
लगानीमा
अनिश्चित
कमिटीका
बजेतिर
तिथि
चीनका
शुक्रवार
##सम्पा
पूर्णिमा
आश्वि
सम्मको
बहुआ
मापदण्डको
सुधारको
त्यहाँको
विस्तारै
मिलाइएको
कारवाहीको
विज्ञप्तिमार्फत
ढाँच
छनौ
मान्छेलाई
सुनाउँदै
मित्रताको
रिटमा
गराइरहेका
कार्यकालमा
सुनिश्चितता
दोषीलाई
सकेनन्
##ालगायतका
बोकेको
मेलमिला
कैदीबन्दी
काभ्रे
काट्ने
मल्लले
बाग्मती
एशिया
अग्निप्रसाद
पिपि
ग¥यौँ
स्वीकार्य
नोकरि
आकांक्षा
महाराजगञ्ज
आइएमई
सिलसिलामा
हेल्थ
सुन्तला
जथाभावी
अर्घाखा
आश्विन
आभार
इमि
एसो
झाले
भय
वर
##केर
##बेर
##खे
##ेच्च
##ेयक
##ठ्
##गण
##ैया
##ऊँ
##कोटमा
##र्टर
प्रस्थान
गराउ
गरोस्
##ागाई
साधनमा
##न्दरी
समवेदना
नेपालकै
नेपालमै
माहो
लागे
##देशीय
केटा
कार्यतालिका
क्लि
सहप्र
कामपा
अनुचित
बिरुद्ध
जनरल
##ेलमा
##टाई
हुनेगरी
रुचि
##प्ता
बैठकपछि
क्षेत्रसँग
अध्यक्षलाई
लगाउनु
देशबीचको
असहाय
खुल्न
किताब
##करणको
चिडिया
सामेल
प्रस्तावित
नियन्त्रणको
यात्रामा
योग्यता
संघका
गोष्ठ
बढ्नुपर्ने
उहाँहरुले
व्यवसायीको
##पक्षका
कमिटीमा
##व्यवस्था
पौडेललाई
अनन्त
चीनलाई
बुझिएको
बुझ्ने
मानिसहरु
समाधानको
रोगबाट
युवाहरु
ट्रे
व्यवहारमा
अविस्वास
लैजा
##पिड
जसलाई
लाग्दैन
वेब
काठमाडौँमा
पीडितलाई
ग्राहकले
जुटाउन
जानुपर्छ
सर्वसाधारणको
सुवेदी
सरसफा
फेसबुक
##सेवी
विद्येयक
अक्सि
खुमलटारमा
सबभन्दा
इनफ
सुरक्षाकर्मीले
गृहमन्त्रालयले
बढिरहेकाले
बर्दिवास
शुरुआत
नाघेको
भाषामा
नराम्रो
श्वासप्रश्वासमा
झडप
छुट्टाछुट्टै
##ठूला
सेनिटाइ
मोहम्मद
प्रसूति
अराज
आस्था
आराम
इजा
गइ
जमा
ठग
तद
द्
दस्ताव
बित्
बच्चा
मणि
यकिन
हेम
##मुल
##रक्षा
##रानी
##ड्न
##ोला
##णु
##गरि
##भएको
##ौति
##मानमा
##माधव
##काएर
प्रण
निरु
सार्क
दिदै
रहेन
##ामै
सुधा
दुव्र
राजपा
पार्टीबाट
बाब
##प्रसार
स्थानिय
राष्ट्रका
नेपालीमा
गरेन
पर्यो
गुज
छैनौँ
आवमा
ल्याउनु
सम्बन्धको
##ङ्गिक
किन्न
विश्वकै
##पनीय
हिस्सा
गौरा
तहबाट
जीव
भेटेर
नाम्
चारै
भिन्न
गोदा
बढ्छ
उहाँका
उहाँहरुको
शान्त
बनेपछि
अनलाइ
उठाएको
प्रणालीलाई
लकडाउनले
परीक्षाको
रकमको
अपनाउनुपर्ने
मन्त्रिपरिषद्मा
फर्किसकेका
क्षतिपूर्ति
अभियानलाई
आन्दोलनलाई
कोइरालालाई
युवकको
नदिई
मनोनित
प्रतिष्ठानका
सतह
पसलमा
माओवाद
करार
जुट्न
मीन
##राखेको
म्याने
सुदृड
बुझाएका
आफैँले
पाउनेछन्
विविधता
निराश
तिरेर
लिमिटेडले
सन्तोषजनक
##सेवक
लडाई
वृत्त
##डाँडामा
##पश्चात्
सर्वाेच्च
प्रिन्ट
समस्यालाई
कोहलपुर
शहरमा
बहानामा
परिचालित
बिहिबार
##ञ्चार्ज
जनआन्दोलन
ओम्नी
मलेसिया
सायद
कित्ताकाट
शिष्टाचार
सहसंयोजक
सहप्रवक्ता
दस्तावेज
अना
आत्ति
आकर्षण
इरा
कालिका
खत्र
घर्ती
नमुना
फू
बत्ती
भरोसा
वान
शो
शशा
शत्रु
सपथ
##सेक
##खरै
##झो
##दिम
##भल
##आब्जा
##ढोका
##काइ
##ाल्न
हुम्लामा
##योर्क
राइ
सार्थक
##रात
##ेकाले
उनकै
मावली
सुब्बा
उपधारा
एक÷
##ायनिक
##लोजी
राजसंस्था
बिश्वास
स्वाभाविक
सेयर
परिवेश
सिधै
हजारौं
पुग्दा
प्रमुखलाई
##ंगै
देखेको
अन्ततः
भाइरसले
व्यक्तिका
अवस्थित
गर्नुस्
##दिनु
सांसदहरु
तयारीका
सवाल
##जुद
कृषक
बुझाउने
महत्वपुर्ण
अर्काको
राहतको
धनकु
परिवर्तनका
कतिपयले
चितवनमा
##कोटालाई
टोपबहादुर
जसपा
दिइरहेका
नोक्स
शुभे
फुटाउने
कार्यकर्ताको
गरिएकामा
##जेता
प्रशासनको
ग्राहकलाई
स्तम्भ
गर्नुपर्दछ
बोर्डको
विभाजित
कुटु
सत्तामा
कम्तिमा
चलखेल
नवीन
आक्रान्त
उत्साहित
कलाकार
धनुषा
ल्याइएका
अल्झ
##विरोधी
बिषय
##प्राप्त
सूचीकृत
बिहानैदेखि
##निर्वाचित
हौसला
इन्जिनिय
मधुमेह
इस्लामिक
बाक्लो
##स्र्था
कनेक्ट
अयो
आगमन
उज्य
ओख
औसत
तत्व
धौला
नल
नसक्नु
प¥यो
बयान
भेद
लम्स
वञ्चित
शही
हर्ष
##यार
##्ग
##डका
##हेल
##ोकी
##दमै
##आमा
##काउन
##नेस
प्रदायक
##लाले
##त्रो
##निङ
निश्च
##ष्पर्
समया
कोपि
सुमन
##धिन
सम्प्रेषण
बताइन्छ
##विन्दु
##विज्ञान
उपसभा
पार्वती
कामकार
##किला
##द्धारा
##डामा
देशभित्र
मुहान
नेताबीच
थाती
साथीको
प्रवृति
समस्याका
बजेको
पोल्
शिखर
अभियुक्त
##राज्य
प्रेमका
भनिएका
ठाउँको
अन्तरविरोध
श्रेष्ठलाई
##तर्फको
##तर्फबाट
चौतर्फी
चुस्त
पाइनेछ
बुझेको
लेन
मानिसमा
प्रणालीबाट
आशि
आश्र
पोखरेलको
भ्रममा
समुदायलाई
रातिदेखि
बाहिरका
सच्या
पैत्रिक
लक्ष्मण
##मोहन
फोहर
कोषका
रासायनिक
प्रतिष्ठानले
नबढ
नआएको
गैरजिम्म
आपत्तिजनक
ब्रह
तिनलाई
जबरा
उत्पादक
जनकराज
मालपोत
हिमपा
महानिरीक्षक
उन्मुक्ति
तिव्र
हुम्लाको
दमौली
सिंहदरबारमा
नलिने
कर्पोरेशन
मुस्लिम
बढेकाले
##पश्चात
शिक्षालय
तर्जुमा
दिपायल
स्वास्थ्यलाभको
अर्घाखाँच
इमिरेट
कोपिला
अक्ष
अटो
अन्या
आचरण
इन्ट
कहर
छर
डेड
थलो
नाट
पला
पम्फा
फला
बू
बडि
बल्ल
माला
रजि
ल्
##बेल
##षध
##ेग
##ेक्ष
##गाना
##भरा
##भण्ड
##औषध
##कान
##कान्त
प्रदू
प्रसाई
##क्व
विध
##निका
निकाल
रावत
दिनुभएको
##राइन
समक
मासिक
##हां
भनेकी
##दास्पद
कार्यक्षेत्र
##विज्ञ
उपहार
बढाउँदै
कुखु
प्रतिवाद
प्रतिष्पर्
बास्
##ियाली
त्यसअघि
काठमाण्डुबाट
राष्ट्रवादी
मिना
मुद्रा
राखिने
पर्सन
सकिएपछि
बुँदा
नगरौं
सदनमा
घरका
डाँडा
भूगोल
प्रचण्डका
प्रचण्डमाधव
मानिने
बोग
असुर
खुल्ने
हालका
विश्वसनीय
कार्यक्रमहरु
आफूहरुको
पारस्प
नागरिकका
कसुर
अमर
लगानीको
कम्पनीसँग
तत्कालका
घटनास्थलमा
फिल्म
भित्रको
पत्रकारिता
जिम्मेवारीमा
गर्छौँ
केसीलाई
चिकित्सकको
मध्यवर्ती
लैङ्गिक
कोषाध्यक्ष
बहराइन
सम्माननीय
कीर्ति
आमालाई
रहेछन्
पुर्याएको
तपार्ईँले
परिस्थितिको
कलेजका
होलान्
नेताहरुबीच
खाल्
बुटव
हिँडडुल
टीकापुर
पराक्रम
राजमार्गको
कञ्चनपुरको
तरिका
न्यूनीकरणका
राजधानीको
##गुरु
आसपासका
महाधिवेशनमा
लमजुङ
मसान्तसम्म
अनुपस्थित
पृष्ठभूमि
टेलिकम
कष्टकर
अलैँची
लगाउदै
बडादश
सृजना
प्रक्रियालाई
एशोसिए
त्रुटि
सर्वेक्षण
मूल्यांकन
इजाजत
अयोध्या
धौलाग
उपसभापति
पारस्परिक
अब्
टिभ
नल्या
पन्
पारी
पक्कै
फाराम
मस
लडि
शारी
सफ
##जेन्ट
##कलमा
##बित्तिकै
##्दि
##खान
##झै
##ंख
##ँु
##ँक्र
##दमा
##दीमा
##कोशी
##्ररी
##लेपछि
##लेश्वर
गर्व
##म्शेर
##निर
##रीलाई
हुदैन
स्क
##ल्पमा
##रोस्
मार्ने
##ष्टिक
पावर
##ण्डको
सुजित
गर्नेतर्फ
कार्यवाहक
एकतामा
एकदमै
सङ्क्रामक
##म्मे
अनुहार
बिओपी
जिज्ञा
गरिएकोमा
गरिनुपर्ने
जाडो
नेपालीहरुको
महाप्र
महादेव
मुआब्जा
दुईतिहा
अहिलेका
आइजीपी
##सक्यो
सक्दो
विषा
उपचारकै
अर्पण
उत्तरा
बोलेर
##सिना
खुलेका
संक्रमितलाई
खोकी
नगरिएको
प्रस्तावलाई
खोजेका
जोखिमलाई
कम्प्यु
राष्ट्रपतिबाट
निकाल्ने
ताजा
सभाका
सङ्घको
आयोगलाई
तिर्नुपर्ने
तपाईहरु
अध्ययनले
##र्जित
पाइप
##परे
उठेका
रोगी
पोखरेललाई
यातायातका
भर्खरै
प्रतिनिधिसभामा
धान्न
नजिकको
टाढ
चैतमा
मिलाएर
सत्यत
साथीहरुले
कैलालीका
पर्वको
भेटवार्तामा
सुर्खेतका
विजया
झापाको
संगठनले
फैलिने
बन्नु
दशैँको
##घाती
प्रचारप्रसार
पर्साका
गणेशमान
सर्वसाधारणले
गाँउ
##भुत
सार्वभौमिक
बाहिरिने
न्युन
गौरवको
संचालनमा
##घाखोकी
नेत्रविक्रम
भोटेको
निशान
दसैं
लीला
लापरवाही
नवनियुक्त
भेलालाई
##िनीयर
मध्यपुरथ
जमीन
डल्फ
दुव्र्यवहार
उज्यालो
अलोक
उका
एन्
खग
गं
ठगी
पच
पछ
पेरि
पाउँछ
भान
यः
लक्की
शरण
हाउ
##अघ
##कहाँ
##णमा
##ौता
##औँ
##र्प
प्रसंग
विपत्ति
काँध
साक्षा
रहनुभएका
मार्फत्
लागिरहेको
उपर
##ायज
##नीको
##लोमा
दुध
दुनियाँ
##रहित
वर्षभन्दा
बिशेष
##ग्राम
##प्टरमा
प्रदेशबाट
##सीको
सिकार
अध्यक्षसमेत
बनाए
तीर्थ
मुल्य
निर्णयले
निर्णयबाट
केन्द्रबाट
प्रशारण
##ंगी
व्यातित
ल्याउनुपर्ने
प्रचण्डसहित
मानि
##सिद्ध
व्यक्तित्व
पक्षीय
##रहेकाले
##ब्ब
सडकबाट
##अनुरूप
भावी
खाका
खाजा
प्रभावका
##प्रतिशत
वैराग
##िलर
##ड्स
प्रतिशतको
छोड्
##सुन्दर
घटनाका
हुनुका
जुगल
मानिससँग
आशङ्का
##स्थितिमा
रिचार्ज
समुदायले
मन्त्रिपरिषद्ले
फर्किन
सोहीअनुसार
विघटनविरुद्ध
खुलासा
देवकोटाले
श्रील
भ्रमणका
तपाईंलाई
प्रकाशचन्द्र
निम्न
अफ्र
##अन्तर्गतको
लाभको
थुनामा
नक्सामा
बलिदान
पर्वेज
सावित
विभाजनको
फेर्न
##हाल्छ
अरे
हिँड्न
लकडाउनमा
खबरदारी
नेपालगञ्जमा
कागज
वास्तवमा
सूचका
समाजवादको
भरपर्
सधै
बस्दैछ
उत्रिएका
आकाङ्क्षा
हैसियतले
घाँ
पुरिएका
उपाध्याय
उपाध्यायले
सगरमाथाको
बस्तीमा
डोजर
अष्ट्रेलिया
विपक्षमा
आइपुग्दा
महत्त्वपूर्ण
अन्योल
नचाहा
हेलम्बु
च्यानल
पूर्वतयारी
रवीन्द्र
छनौट
क्लिनिक
ओखल
सत्यतथ्य
अष्ट
अली
इञ्चार्ज
ऐक्य
कदर
खरेल
घन्
छुवा
डेल
डोर
ताना
तस्व
दाल
भाट
मझ
मरि
मण्डल
लघु
वेला
शत
##वट
##वृ
##वरको
##जिङ
##सतमा
##्नेछ
##्छन्
##देन
##घोष
##ालका
##लाय
##नासाथ
##त्रै
विकृति
##म्ने
स्ना
##न्दर्भिक
##राका
मार्
मातृ
मानेर
सुबि
##स्तम्भ
निर्मा
कार्यभार
कार्यसम्पा
##लोड
राजु
राजाको
रुघाखोकी
परियार
गरिदिएको
सिद्ध
त्यसतर्फ
हजारौँ
महान्
देशकै
गरेकै
##समुदाय
##रसि
##रसहित
##मानव
कुराहरू
भूउप
दलाल
गर्नुहुन्छ
आफूसँग
निर्देशनमा
पुनस्र्था
पूर्वराजा
##राजमणि
सांसदलाई
##ानाथ
जोखिमको
अद्याव
सीमानाका
गृहले
उठ्ने
सफलताको
बहुदलीय
भक्तजनको
पत्रकारलाई
##वर्तमान
##टोमा
आदेशमा
##न्डै
न्यायपालिका
सिंहः
तोकिएका
भेग
युवक
फर्केर
कोषले
साँझसम्म
एसई
खेलमा
हत्याका
गतिविधिमा
राष्ट्रियसभाका
आँकलन
प्लेट
कालोसू
धुम्बार
तिनका
प्रदेशसभामा
विश्वविद्यालयका
प्रजातन्त्रको
इजलास
गणतन्त्रको
नरेश
साउनमा
##थोकी
तनहुँको
सूचक
कञ्चनपुरका
पदार्थको
भोकै
जनकपुरधाम
भगवान
हैसियत
रेग्मी
यसबारेमा
रिसोर्ट
दिलाउन
रानाले
परिचयपत्र
नपुगेको
बर्दिबास
लामिछानेले
बुढाथोकी
कोटेश्वर
उद्यमशील
उत्तरी
यिनै
अस्तित्व
धनगढीमा
युएई
विवादास्पद
##त्साहित
तुम्बाहाङ्
अभियन्ता
अन्याय
डेलिभ
तस्वीर
अद्यावधिक
अट
एन्ड
ऐनमा
चिन
झन्डै
तस्
दाग
बन्छ
ब्यू
भिर
##ुङ
##बन
##ेना
##पन्
##चक
प्रब
गराउनुपर्ने
कार्ग
##लाईन
##ागन
स्कु
##यामिक
मामा
मार्च
पुल्
सुग
बढाई
##नीका
सङ्ग्रह
आफैले
स्थलमा
बाख
प्रधानमन्त्रीसँग
जानकी
भएकाे
सिलि
राष्ट्रसङ्घ
वासु
मिलेको
मुस्ता
व्यवस्थामा
रहेकामा
स्वकीय
देखाउँदै
देख्दा
विकासलाई
मानिएको
बोक्ने
राष्ट्रियताको
##सिड
##सिरमा
##ङ्गी
मागेको
माग्न
किच
बसे
संक्रमितमध्ये
हिं
##श्चर्य
आफूखु
##ेमो
पक्षसँग
चिन्त
सामन्त
दाङको
खाएर
घटनाले
नाफा
दोल
उल्लेखित
लेख्दै
ठाउँठाउँमा
प्रतिशतभन्दा
सूचनाको
संघको
गोल
संस्थापक
सम्झना
राज्यलाई
पौडेलका
तिब्ब
बनाउनका
उपाहार
बुझेर
ट्रक
भद्र
दुर्भाग्य
अमेरिकाका
गरिसकिएको
वर्षासँगै
वातावरणमा
आफन्तबाट
##ेनन्
मनाङ
स्वाबको
नाकाबन्दी
आईतबार
वार्ताका
सर्वोच्चले
##ज्जा
प्रयोगशालाले
सुदूरपश्चिममा
मान्छेले
कुलमान
चुनौतीपूर्ण
खण्डन
हेरचाह
जनप्रतिनिधिले
सावधान
मार्गमा
नसके
बग्ने
सुदृढी
सङ्कटको
मनसाय
सारेको
पर्सामा
निकुञ्जको
जगमा
आआफ्ना
महासङ्घले
गन्तव्यमा
सेल्फ
रहनुहोला
अगुवाइ
रेलमार्गको
आइपुगेका
झोलु
पाउँदैन
गजुर
गजेन्द्र
सार्वभौमसत्ता
फराकिला
साविकको
कल्याणकारी
ऋषि
ज्योतिष
अपाङ्गता
अंग्र
बोलपत्र
सिस्टम
##ठेरो
सोलेमानी
जनजाति
नोकरिमा
चिडियाखाना
अक्सिजन
भेदभाव
पोल्टोमा
डेडिकेट
मध्यपुरथिमि
धुम्बाराही
अपी
अन्व
अहो
आधु
आश्चर्य
उदेश्य
उचाई
खर्ब
गहन
गंगा
घोर
चाइ
झन
पं
पश्च
भर्न
मस्
मल्
लम्
शित
सन्त्र
सरि
सारा
सत्रु
हट्
हर्क
हतार
हटाएको
##िड
##ाधिकार
##मन्द
##हूँ
##उदै
##चेको
##ठीले
##फोट
##दथ्यो
##भीर
##शरण
##श्रो
##्यन
##्यमा
##स्टर
##लाका
##वाङ
##निवास
निरुप
निवेदनमा
निवर्तमान
संग्रह
संज्ञा
समसाम
माइन
##ष्टी
##ामध्ये
जनाभन्दा
##ारीको
##विचार
उपसमिति
एकएक
##ायन
##क्तालाई
##किएर
प्रधाना
जनधनको
जिन
सेनामा
सिलव
समयका
##ालीमा
दुईजना
##ासहित
##समै
आवद्ध
मनन
अर्कै
सयौं
छलफलको
माग्ने
अवश्य
लाखौँ
सचिवमा
आफूहरुलाई
चार्टर
##ञ्जित
खाँ
कसको
समाजलाई
जनताबाट
बेडको
विवादले
अपर
हेक्टर
कम्पनीमा
तपाईले
उपलब्धी
घटनाबारे
फिदिम
भोटो
##वासीले
आश्वस्त
राम्रोसँग
चाल्न
रिफर
घोषणापत्र
भ्रामक
क्वारेन्टाइनको
केसीका
क्रसर
अविलम्ब
##मोर्च
खानेकुरा
##बाहक
दिइरहेको
यादवको
कलेजले
औषधिको
सहाय
सुनिल
चर्चित
चुनावको
सजक
चालकलाई
हप्तामा
इन्चार्ज
अर्थतन्त्रको
झापाका
उत्तरदायी
प्राप्ति
बुझाई
बाढीको
डिजाइन
दैलेखका
पालिकामा
उठाएर
##चापीय
मारेको
षडयन्त्र
कर्पोरेसन
चेतना
तिहाई
फैलाउने
तोडफो
घोडा
##निकीकरण
ढुङ्गाना
एन्टिबडी
पश्चात
डब्लु
सुदुरपश्चिम
निषेधाज्ञाको
##महामन्त्री
भोग्नु
प्रकृया
बहुआयामिक
नाम्खा
कुटुम्ब
शहीद
गैरजिम्मेवार
बुटवलमा
गंभीर
अहोरात्र
अंश
इले
एच
कता
डाउन
तमा
तेज
थन्
दाउ
धो
धर्मा
नत्र
नन्द
न्यालय
पित
पञ्जा
फ्
बसी
बेस
मच्च
शृ
शङ्का
सरा
##मतमा
##वले
##तेर
##रलाई
##फर्म
##फेदी
##थु
##इसकेका
##स्मा
##नाक
नेवार
##याे
पाएर
##ामु
सम्वाद
सम्मि
गर्नेहरु
##लीले
उपनेता
बढाउनु
पार्किङ
##रणीय
बिन्दु
##ाउँन
गरिएपछि
स्वास्थ्यसम्बन्धी
सिक्
सिरिया
सिंच
स्थानको
दिएपनि
##हुन्न
मुग्लिन
महस
##पीडित
छैट
विषयहरु
ल्याइने
##लिएका
पोस्ट
कोभिडका
असुल
छलफलपछि
गर्नुभन्दा
गर्नुहोस्
तीनवटै
पक्षधर
सांसदहरुको
थापाका
कांग्रेसमा
महामारीलाई
भट्टको
रूपा
व्यवसायिक
पदमुक्त
पीपी
##सेनापति
तिर्ने
सुरुमा
सीमास्तम्भ
अध्ययनरत
त्रिप
चुहाव
दूरस
बुझ्दै
परेकाले
पूर्णता
पानीले
सम्मका
पुष्पलाल
प्रशासनलाई
गतिशील
निर्वाचनका
अनुसन्धानमा
विकले
टेवा
प्रतिनिधिसभाका
क्षमताका
आदेशको
##संगको
अभियानका
न्यायालय
साधनलाई
चिकित्सकले
मनाइने
भुष
अत्याधुनिक
कारबाहीको
न्यूनचापीय
क्याम
राजदूतावास
प्यासिफिक
एसइ
रमाइ
चैतदेखि
दुःखद्
चाहियो
थुनि
अख्तिय
गुमाउने
फार्म
चौधरीको
नभएसम्मका
तेह्र
काँग्रेसले
विजयी
अर्थतन्त्रलाई
उत्पादनको
सम्वन्धीत
तनहूँ
अन्तर्गतको
दृष्टिगत
साउद
शीर्षकमा
फागु
भूकम्पले
गुटबन्दी
एक्सन
नम्बरमा
बिग्रने
फूलपाती
कालीगण्डकी
घट्दै
इन्डो
अनुशास
सुरक्षाकर्मीको
कपिलवस्तुका
लमजु
ह्वात्तै
अशोक
बैतडीका
यसपालि
अनेरास्ववियूका
श्रीमान
##बिसे
ताप्लेजुङ
पुनरावलोकन
हाराहारीमा
अन्धकार
पद्मा
हङकङ
बराबर
एनआरएनए
व्यावहारिक
बाँडफाँड
ससाना
बोहराले
प्रदूषण
शारीरिक
यःमरी
साक्षात्कार
भरपर्दो
कालोसूचीमा
निरुपण
न्यालयबाट
आँच
ओसार
घृ
चल्ला
चर्क
चुरे
जायज
तवरले
धके
ध्रु
नसु
बरि
भिम
मठ
यौ
यज्ञ
वकि
सागर
##यमान
##लय
##लट
##ीन
##तारा
##बारीमा
##धक
##ंदैन
##दलमा
##एफ
##एसम्म
##्रस
##्रफ
##तिले
गराउँदा
विड
विकट
कान्ति
नित्य
##्याइ
दिदि
##न्दालाई
##राउने
##याधि
सुन्ने
##ाइभ
लागिपरेको
बढाउ
बढीको
बढोत्त
क्वाल
रहेकोमा
राजेश
बिवाद
प्रधानसेनापति
जिल्लास्थित
मिलि
मुसर
मात्रा
शुद्ध
देखिएन
भइसकेपछि
भूम
उत्खन
काठमाडौंका
##सिल
लाखभन्दा
श्रृ
रामप्रसाद
##होस
चिह्न
तहसम्म
घटनालाई
भेटि
दोश्रो
जनताप्रति
बेइ
लेख्ने
पत्रिका
अपरेट
सामान्यदेखि
##दायित्व
योजनाहरु
तान्ने
किनकि
किनकी
##र्जामन्त्री
पढ्ने
कृषिमा
लगायतले
रुपमै
लकडाउनलाई
परीक्षाका
कर्णालीका
मुद्द
प्रवेशमा
अपनाउने
अध्यापन
ट्रया
मुद्दाको
अभियानकर्मी
आफन्तको
आफन्तसँग
##गोठ
अन्त्यमा
संरक्षणका
##छाप
नक्शा
बचाउ
नोबेल
पार्टीभित्रका
लडेर
मजदु
संलग्नता
##अन्तर्गतका
हितका
दुःखद
विष्णुप्रसाद
खोपको
एकाएक
निगमका
आउँने
आउँदो
ब्राह
उपकरणको
उपयोगी
कारोवार
राजमार्गमा
पठाओ
तीव्रता
एक्लै
सापकोटाका
सङ्गठनले
##रहेकै
मानसिकता
रिजाल
नजिकैको
हैसियतमा
नैतिकता
पुनर्निर्माण
तिमी
समारोह
कुँवर
कुँवरले
बित्ने
मुलक
गिरिराजमणि
ताप्लेजु
कोराना
प्रोटोकल
जन्मिएका
ग्यारे
विद्रोह
बोलिको
आपूर्तिमा
महँगो
फाउण्ड
गोदावरी
प्रिन्टिङ
समकक्षी
धौलागिरि
अन्वेषण
सन्त्रास
समसामयिक
सिंचाइ
मुसर्रफ
अठ
आद
आवासीय
उक्
एक्का
टुट
थाइ
दरमा
नअ
प्य
बडी
मर
यम
रचना
वाग
हाइड
##मीको
##वस्थित
##लिका
##अन
##ुभाव
##सल
##सरो
##सेर
##हिक
##हेर
##खर्क
##ोब
##फेले
##गजा
##थिका
##थिति
##एँ
##लेले
##ारामा
##ालिटी
##लाउने
विस
विपद
##वापत
##निज
निश्
स्क्र
छन्त्य
पुर्ण
सुचना
उप्र
##्नै
प्रतिकार्य
बिज
बिमा
स्वाव
जनवादी
परिपत्र
प्रदेशले
अस्ट्र
स्वास्थ्यको
त्यसमध्ये
राष्ट्रलाई
वाद
बनाइने
##र्मी
प्रान्त
राखेपछि
सकियो
भारतसँगको
सक्नेछ
मृत्युदर
##कासहित
##लिने
नगरपालिकालाई
बसमा
आफूमाथि
##ब्सन
संसदले
##संँग
##अनुसारको
भनिने
यात्राका
##ड्डा
हेड
घण्ट
गाडीको
निकालेर
नीतिमा
उहाँहरुलाई
योजनाको
सीमावर्ती
महानुभाव
करोडको
सम्झौताको
पाइँदैन
##वलम्
नीतिको
निरं
लगायतको
बुधबारको
वितरणको
अनुसन्धानका
सेनापति
भित्रिएको
सच्याउन
चलायमान
अवधिको
गरिसकेपछि
आफन्तले
न्यायको
विस्तारको
मनाइ
टावर
जागर
अन्त्ये
संरक्षणमा
डेरा
अभावका
कमाण्डर
रोक्का
कानूनमन्त्री
क्याले
माथिबाट
##चीन
यतिखेर
चुनौति
##मालिका
अग्रज
समाचारमा
चुनौतीको
जमघट
अपराधी
कठोर
योगदानको
खण्डको
उमे
उमेश
नपरोस्
लोकतन्त्रमा
करेन्ट
भाडादर
जुटेको
महाधिवेशनबाट
कैलालीमा
गर्नुपर्दा
धर्मशास्त्र
ठाडो
धुलो
गतेसम्मका
एकैपटक
खानेपानीको
##पेली
उत्तरदायित्व
गराइने
सुरक्षाकर्मीलाई
पर्साको
सौहा
बिदाइ
बिद्यार्थी
युद्धमा
व्यापारीले
मोरङको
एकीकरणको
अप्रिय
इच्छाकामना
भगवती
अलग्ग
उद्यमी
निगरानीमा
झोला
खुवाउने
झरेको
चट्याङसहित
गिरिजा
क्वात्र
मंगलवार
खलङ्गा
बाँस्कोटाको
छात्रवृत्ति
तिमिल्सिनाले
सुपरिटेन्ड
पवित्र
जुलुस
हेलिकोप्टर
माटो
मेलमिलाप
माहोलमा
शशांक
कोपिलाहरु
निकालिएको
डल्फिन
अरेब
सुबिधा
##मानवीय
कार्गो
सुदृढीकरण
डेडिकेटेड
धुम्बाराहीमा
पितृ
ब्राह्मण
आख
आचार
आयल
ओझ
खस्दा
घडी
चट्ट
चपे
जम्म
जसो
झैं
डेमो
ढल
तान
धितो
नख
नउ
नपर्
नछो
प्यु
फार
बिका
बन्ध
बचा
बित्तिकै
मित
वाइ
हरिक
हमला
##मिन
##वतमा
##जीमा
##नाली
##रथ
##ह्य
##ोन्मुख
##प्न
##चोकमा
##णिक
##शीको
##्र्य
##ानमा
##स्सु
##नामि
विपी
##निको
नियाम
##नुसार
हुस्सु
संज
संभव
दिल
##ष्मा
##ष्कार
कोण
पुनको
##दैछ
सुगम
केरुङ
##ाइट
##विवाह
एकदम
कोरोनालाई
##रहेकी
##वस्थामा
##म्मत
अनुगमनमा
जनमान
##प्रेर
परिने
गतेका
रोड
##जाँच
लगाउनुपर्ने
दिनयता
सकिदैन
घरभित्र
अधिवेश
थपि
पहिल्या
पहिरामा
देख्
देखाउँछ
पछिको
अनुसारको
##मिता
खुल
किमा
किनेर
हिनामि
##दिष्ट
##ट्टि
##बाद
##बादी
हाते
बाँझो
##शीघ्र
##ञ्जेल
घट्न
समाजसेवी
महिलासहित
##ंकित
##वेदनको
खोजे
##जगढ
विदेशमन्त्री
भट्टलाई
##वीच
बाटा
व्यवसायलाई
पदमार्ग
विद्यालयलाई
कमिटीले
हुनुअघि
छाएको
छौँँ
उद्योगले
निरौला
भट्टराईलाई
निकायबाट
सुझावलाई
युवाहरुको
पत्रकारको
धनजनको
यात्रुले
लोभ
देउवालाई
विस्तारका
पर्यटकलाई
तपाईंहरुले
##बिरुद्ध
पूर्वाग्रह
कदमको
##खुट्ट
आमन्त्र
थाल्यो
प्याक
संरचनाको
अफिस
राईलाई
फुटको
जमघ
पहाड
परिषद्ले
##परिषद्
##चिन्त
भक्तपुरको
साथीहरुलाई
बोर्डका
मिटरको
औंल्या
कहिलेका
टेलिभि
बन्नेछ
सरोज
नसकेर
घिमिरेको
बताउं
गणेशप्रसाद
बलात्कारको
पछाडी
##ोत्सव
##फरक
झुण्ड
निराशा
बासिन्दालाई
चक्रपथ
महासंघले
रूपले
मुस्किल
आसपास
सुरुङमार्ग
नमान्ने
घटनास्थलमै
शासक
जङ्गल
एनसेलले
एशियाली
इटहरी
प्रसस्त
कविता
तटीय
ट्वीटरमार्फत
रायमाझी
नामावली
छोराछोरी
नजादा
लोडसे
भाईरस
उन्नत
जवाफदेही
स्वाभिमान
##लाग्दो
समर्पित
परिकल्पना
मनोरञ्जन
टेक्नो
शक्तिपीठमा
##ङ्क्तिमा
##अगाडि
सुनकोशी
बाबजुद
कनेक्टि
समयावधि
बडिमालिका
असुरक्षित
विजयादश
डोरमणि
शतप्रतिशत
डेलिभरी
वासुदेव
झोलुङ्गे
अपील
तोडफोड
इलेक्ट
महसुल
चुहावट
दूरसञ्चार
हाइड्रो
आत्मा
उभ
एप
एफ
एसिड
कसि
गिर
जेष्ठ
झुट
नजी
फाई
यशो
रंग
लड्
शैले
सदै
##ार्थ
##तानुसार
##जक
##जस्ती
##जमेन्ट
##बुल
##दरमा
##ूर
##शुल
##इस
##र्वाद
##र्खा
##न्टी
प्रिय
विक्र
विक्रम
निहित
##रुण
सार्न
साटो
##रायल
##रोगी
कोश
##यात्मक
मान्
##ङ्लो
##पार्
केस
त्यहि
एकेड
कोरोनाविरुद्ध
सङ्केत
पार्वत
यसबीचमा
प्रतिवादी
प्रतिदिन
प्रतिकिलो
बिद
जनसमुदाय
हाम्रै
कमि
ओलीविरुद्ध
सबैका
सबैसँग
##तीले
##तीकरण
बनाउँदा
महान्या
प्राध्यापक
लगन
##बन्धक
##हुने
नेकपाकै
सकिन
महोत्सव
नेताका
प्रमुखको
साथि
गाउँमै
सुरेश
##म्पन्न
दलमा
बसाइ
हिम्मत
कार्यक्रमअन्तर्गत
चालेको
घटाउन
दोहा
जनतासँग
##कर्मीको
हेरिएको
संघसंस्था
गोपनीय
उडानबाट
रोकेको
लोकमार्ग
छापा
चुप
उद्योगलाई
उठ्न
बैंकमा
##लकोट
स्थापनाको
विकको
विकल्पमा
उद्धृत
साँघु
सिंहको
जस्तोसुकै
राख्नुपर्छ
भ्रमणले
आत्मविश्वास
टाडि
##बिना
##बिजोर
##निर्देश
डेङ्ग
नक्स
धारण
आईसीयू
मनोविज्ञान
बच्ने
वार्ताको
##दिनँ
स्वतन्त्रताको
प्रमाणीकरण
##ज्ज
परिस्थितिलाई
कार्यकर्ताले
समर्थक
नपाएका
आँखामा
स्थानीयवासीलाई
जनप्रतिनिधिको
ग्राहकहरुलाई
नआउँदा
स्तरीय
ठाँ
धुने
स्ट्र
कटु
##लोकनका
वर्गीकरण
बालुवाटारको
आपत्
मित्रराष्ट्र
सिमित
विपद्को
बाबुको
यथाशीघ्र
खानाको
मृतकका
माल्दि
स्वास्थ्यकर्मीले
मिडियामा
गुटगत
सिमानामा
पठाएर
##फरे
जापानमा
कन्फरे
क्रियाकलापमा
आक्रामक
चट्याङ्ग
चल्छ
अप्ठ्यारोमा
घट्ना
ड्रागन
आइपुगेको
शंकास्पद
जोरबिजोर
विवेकशील
प्रतीक
मध्यान्ह
चाँही
तैपनि
पराजुलीले
काउन्सिल
बृहत्
सङ्गठनको
खोटाङ
##ुराँ
शताब्
चाहान्छु
अन्र्तगत
माइतीघर
रेडक्र
भिडभाड
ननिस्क
हनुमानढोका
पिपिई
एसोसिए
सेनिटाइजर
##मुलक
##हेलना
ब्रह्म
कम्प्युटर
भोटेकोशी
अलोकतान्त्रिक
काँधमा
पुनस्र्थापना
आधुनिकीकरण
शितल
प्रधानाध्यापक
सम्मिलित
बरिष्ठ
नियामक
जमघटमा
एकेडेम
अचान
असाधारण
अङ्ग्र
अमानवीय
इम
इन्ज
करण
खानी
खतर
गलकोट
चरा
जफ
झि
नर्सि
पन
भर्ने
मले
रेश
शरि
शङ्कर
सेत
##तली
##तारमा
##रक
##बिक
##हारा
##पेर
##उपर
##ँै
##ँको
##ूरी
##आएको
##्रिया
##र्कि
##न्ना
##्यौँ
##ारको
##स्को
##तापूर्ण
गरु
गराउँ
गरिन
कांगे
##वाका
##िकन
##िकै
साँच
##ल्दो
##त्सव
कोसिस
नेपालबीच
माक्स
पुलको
पाखा
सुन्दा
सरेको
गर्नमा
जनाविरुद्ध
##विको
##विवाद
उपज
उपकुल
##भाजन
##रहन्छ
सहकर्मी
सहचाल
राजपत्र
राजभण्ड
##िसी
भएकालाई
गरिएकाले
गरिरहँदा
जानकारीअनुसार
स्वास्थ्यका
कारखाना
क्षेत्रभित्र
देशै
मुकु
दिनलाई
व्यवस्थाका
निर्णयानुसार
पर्नु
अधिनायक
स्वभाव
स्वर्ग
स्थानीयको
ल्याउँदै
समितिबाट
अन्तत
अन्तक्र
सम्बन्धका
शिवि
शर्माको
गर्नुअघि
##धिकृत
##दिप
निर्देशकको
पुनरा
खातामा
भेटिएपछि
मुखमा
बेग्
कांग्रेसलाई
अपुग
##तमार्ग
##पुर्जा
बढ्दा
सर्वसम्म
दशगजा
दशरथ
लोकसेवा
अनलाईन
रेमि
पाइला
रोगका
बद्री
बदनाम
बुधबारदेखि
बिरामीले
भित्रै
बाटोबाट
अपनाइएको
बजेटले
उद्धारमा
पेशागत
भ्रष्टा
पशुपक्षी
युवतीको
जागिर
एयरले
आईसोले
स्थितिलाई
पहिलेदेखि
आवश्यकताअनुसार
यादवलाई
जन्मा
दूरीमा
दूरीका
##लागि
माओवादीका
##खोलामा
भएनन्
फरकफरक
ठेगाना
पाटो
मार्गदर्शन
भीमदत्त
विमानस्थलले
मितिमा
सक्दैनन्
सम्वन्धमा
जनशक्तिको
सिन्धुपाल्चोकमा
बारेको
जहाजले
आदिवासी
एजेन्डा
उपस्थितिमा
बढाएका
त्रिविले
अप्रिल
स्यानिटाइजरको
बसिरहेको
सेवाग्राहीको
महानगरले
वृद्धको
हरुले
मूल्यमान्य
उभिएर
प्रोत्साहित
नचाह
बाँच्न
युरोपेली
घुम्न
अशक्त
बुढाले
हिँड्
आत्मियता
रेष्टुरेन्ट
कुवेतबाट
ज्यालादारी
डिपो
सेनानी
आत्मसात्
फ्रान्स
##क्रान्ति
हदसम्म
मच्छिन्द्रनाथको
फौजदारी
द्रुत
##शासनको
एक÷एक
आश्रित
पेरिस
कार्यसम्पादन
सुगौली
दोलखा
धर्मावलम्
रूपान्तरण
फागुनमा
अस्ट्रेलिया
##ड्डाचौकी
निरंकुश
गिरिजाप्रसाद
सदैव
अँ
कृत
कस्ता
खाइ
गड्डाचौकी
घनि
जता
जहिले
नारी
नसो
नखो
पट
फुल
फाले
फ्रि
फोकल
बाला
बच्च
बानि
भास
मर्ने
मधे
वकिल
##वीर
##तना
##ननाथ
##कर्तालाई
##ँसी
##शय
##र्सन
प्राल
##लान्
##क्ला
विरूद्ध
विजेता
निन्द
##ल्टी
माता
सुकु
सुन्दरी
गर्नेबारे
##लीकरण
##विका
योसहित
सहन
सहरी
##ूर्त
##किँदा
बिति
जनसम्
बानेश्वर
जिप
##नुपर्दा
क्षमा
अध्ययनको
##प्ट
परिचित
गरिदिने
अस्व
त्यसबारे
रोका
##तीन
##वसहित
लगाउँदा
तीब्र
आजबाट
सकिए
##िवे
व्यासको
स्वस्थ्य
स्वराज
मृत्युपछि
सदस्यका
सदस्यहरुलाई
मन्त्रीहरु
भाइटीका
##यनगर
पोषण
पोर्चु
मागलाई
हाललाई
किन्ने
किशो
रामे
प्रभावकार
कसलाई
खोलाको
मोदीको
पोखरी
बेल्
जोखिमपूर्ण
##चाहिँ
ठाउँका
गावि
प्रतिशतसम्म
उपत्यकासहित
निकासा
##तर्फका
##दूत
सवारीमा
अर्थमा
गराएकी
छाती
सक्छौँ
छौंँ
अर्कोतर्फ
स्पष्टीकरण
##दर्शी
यातायातमा
##जिल्ला
मापदण्डअनुसार
रोकथाममा
भूमिकामा
अवधिभर
खेल्
खुलाउने
देवघाट
मनाउँदै
औषध
हटाइ
कदमलाई
ढकालको
सर्भे
सभ्यता
रोक्नका
बहाल
बचाउने
पूर्वाधारको
##ज्दा
माथिको
प्रतिष्ठानको
दिइसकेको
टुङ्ग
मान्छेको
देखिन्छन्
मन्दिरको
अफ्
पीडितको
एकान्त
बर्षको
नदीले
इतिहासको
नपाउँदा
श्रमिकलाई
शिक्षकको
लागेकाले
विमानस्थलबाट
अनुदानतर्फ
बेलायतको
जन्मदिन
बाँस्कोटालाई
युनियनको
शिवमाया
हराएको
व्यवहारिक
मिल्छ
समानताको
पुस्तकाल
##रहेछ
युनियनले
पारदर्श
अपांग
गिरीलाई
लागुऔषध
पुरिएर
चाहन्छौँ
बाँधेर
लोहनी
बरालले
बिषयमा
सघाउने
पाँचथर
तैनाथ
श्रीमान्
कुशल
सताउनेछ
डिशहोमको
रायमाझीले
हिन्दूराष्ट्र
ट्रम्पले
नेविसंघ
नुह
मानन्धरले
प्रत्याभूति
गच्छदार
अग्रपङ्क्तिमा
वेबसाइ
निरुत्साहित
म्यानेजमेन्ट
बडादशैँ
##पन्थी
बाख्रा
किचलो
चिन्तन
माइनस
डेमोक्र
प्युठान
फारम
डेङ्गु
माल्दिभ
शताब्दी
अचानक
उपकुलपति
अन्तक्र्रिया
बानियाँ
अङ्क
आउँछन्
आघात
उर्
एसिय
क्यु
खसे
गभ
गङ्गा
घराय
चन्दा
जमि
थाह
धरह
धक्का
ध्वस्त
नास
फेर
ब्रो
भ्रा
लक
शहि
हकको
##िक्षा
##ियाँ
##मध्य
##वरमा
##जका
##जेन
##सनको
##ब्या
##टेड
##डले
##झैं
##ेँ
##पहा
##पसार
##पञ्च
##पेन्द्र
##ण्य
##दाग
##भत्ता
##ईड
##माथी
प्रसिद्ध
##ानको
##लाएको
##क्सि
गर्थे
##ागाउँ
##क्ष्म
हुला
##रोप
कोटा
##हरुबीच
माई
##रियल
भनेकै
होस
सुन्न
जनामध्ये
कोरोनाविरुद्धको
##न्ते
##पर्क
कुरो
दुरीको
काठमाण्ड
यसर्थ
प्रतिलि
कामपाले
##ेलको
जिप्र
क्षय
##गाँ
सिध्या
स्थानका
##डाको
##ेटो
नेपालीहरुलाई
##वस्य
##हुनेछ
देशभरि
निर्णयका
बुहारी
नेताहरूलाई
##कुण्ड
देखिएमा
##मानसिंह
##त्यक्ष
##र्तामो
सदस्यहरू
ल्याएपछि
उत्ते
बोट
बोध
सेवाबाट
पोर्ट
पोशा
असमान
संक्रमितहरु
##र्चस्व
##ब्बर
संसदलाई
उल्का
अबस्था
पछिल्लोपटक
निर्वाध
दिनेहरुले
पूजारा
युगमा
##िटि
मौज्दा
बन्दोब
विवादबारे
लाने
लाभा
गार्ड
छोरीको
अन्तरक्रिया
राष्ट्रपतिलाई
चाहेका
लगानीकर्ता
अरुकै
अवसरको
ग्राम
महिनाअघि
तिहारमा
जुट्
मानिसहरुको
समाधानमा
निरन्त
अधिकारका
प्रक्रियाबाट
सुझाब
आइतबारदेखि
बीपी
बिहीबारदेखि
समन्वयात्मक
कानूनको
आउट
भागब
##च्छेद
शवको
पर्यटनमन्त्री
हस्ताक्ष
प्रस्तुति
फोहोर
सोच्न
सर्भि
##शाही
मिलाएको
कमाउने
राजदूतमा
सर्वोच्चमा
लाग्दै
बिक्र
पश्चिममा
शुभचिन्त
झाँक्र
राईको
कलेजको
फुट्ने
हत्याको
##िणी
जोगाउने
आएमा
##न्जेल
लक्ष्यका
घुमा
साथीहरु
नभएमा
काँग्रेसको
स्टेट
पाटी
वर्गको
ब्रिट
फुर्
फुट्
पदाधिकारीको
फैलिरहेको
चाडबा
##द्र्धन
क्रान्तिको
हराउन
मालिक
भिडियोमा
खड्काको
बिग्रन
वीरगञ्जमा
ढङ्गबाट
काटेर
बैतडीमा
उड्डयनमन्त्री
चन्दननाथ
##फ्तार
सञ्चारमाध्यममा
म्याग्दीको
वास्तविकता
दर्जनौँ
अनेरास्ववियु
सहिष्णु
पुग्नेछ
##सामान्य
पुर्पक्षका
लडाइँमा
ठेकेदारले
इटाली
टेकेर
शुरुआती
सडकखण्डमा
डब्ल
मैदानमा
सक्नुहुन्छ
श्रद्धाञ्जलि
त्रिपाठी
त्रिपाठीले
शताब्द
नेविसङ्घ
असाध्य
अखण्डता
तिलकराम
विरामी
क्षेत्रफलमा
निश्चय
प्रतिष्पर्धा
जिज्ञासा
महाप्रबन्धक
##रसिंह
पश्चिमा
उत्खनन
नअपना
अन्त्येष्टि
क्वात्राले
लोडसेडिङ
भ्रष्टाचारी
मधेसी
पूजाराधना
आडमा
ओहोर
खत्री
छरि
झै
ढाल्ने
थप्
ध्व
पसिना
ब्यु
बबई
भरिएको
मर्
मालिका
शार
शाल
##िप्त
##यरको
##जिल
##नाल
##रगा
##्दैन
##डेको
##डिएको
##हस
##हना
##हतियार
##खिक
##चल
##गत्तै
##शिक
##छौँ
##नेश
##नेपछि
##ालम्
##वाको
##म्न
निशुल्क
हुनुपर्दछ
संस्कृत
##हरुप्रति
रहर
##हाले
##ङ्कुश
सुझ
##धिका
सङ्कल्प
##रह्यो
सहारा
बिगो
##ौंदेखि
रुम
रुची
सेमे
बताएपछि
##सां
ओलीमाथि
राष्ट्रसंघ
सोल
नेपालीका
जोगा
प्राडा
मुगु
महशुल
सदगुरु
निर्माणलाई
##सकिएको
स्वे
गुजारा
सक्दछ
हुनका
मनमोहन
##्राज्य
अन्तरस
बजारी
भाइरसविरुद्ध
व्यक्तिहरुलाई
##न्वित
बाँस
उल्टै
जीत
डिलर
महिलाहरु
नेतृत्वदायी
तत्पर
चारवटा
परिवारजन
घण्टाको
फैस
सम्भाव्यता
विभागीय
##दछु
बजेबाट
##व्यवसाय
तापनि
यहाँबाट
कृषी
त्रिवे
##बुटी
स्रोतका
##खाले
सम्झौताका
पाइएमा
विद्यार्थीका
टोलीको
टोलीलाई
आरोपित
महत्वको
##तिरबाट
सम्झौताअनुसार
रिमालले
अपनाएको
टेष्ट
रोकथामको
गर्दछौँ
वातावरणीय
आन्दोलनले
खुलाउन
सञ्चारगृह
##ल्यान्ड
चिकित्सकलाई
नतिजाको
हातहतियार
भेगमा
##बिच
घाइतेको
होटलको
ढुंग
सापटी
पदावधि
राजनीतिको
प्रकाशमान
मतदाता
सर्वोच्चको
दिइसकेका
शुभारम्भ
संरचनामा
अफवाह
रमाउँन
फुटबल
उपभोक्तालाई
त्रिश
आँट
ट्राभल
छोराको
सत्यता
मान्छेहरु
सातादेखि
उद्देश्यका
भविश्य
सफलतापूर्वक
हिजोको
प्रदेशसभाको
साइकल
छाड्ने
यथावत
खाद्यवस्तु
इरानमा
बाढीमा
अप्ठेरो
प्लाष्टिक
सर्वसाधारणलाई
चापागाई
##चौर
बलात्कारपछि
स्वास्थ्यकर्मीमा
छोड्न
विचलित
कानुनको
आवतजावतमा
हिंसाका
रुपाकोट
मोटरसाइकलमा
##श्मा
रगतको
संगठनात्मक
घातक
अग्लो
इनरुवा
सेन्टरको
धरानस्थित
सकेर
कार्यकक्षमा
बाग्लु
कार्यसमितिको
मर्यादित
नराख्ने
दुबईबाट
मोडालिटी
भ्याक्स
तुरुन्तै
तस्करी
बस्तीका
अनेरास्ववियूले
हुनुहुन्थ्यो
कुर्सी
बाह्रबिसे
औँल्याए
धरौटीमा
उजूरी
सनातन
आत्मसात
अनसनरत
सुवर्ण
अचम्म
काफ्लेले
कुखुरा
##निरपेक्ष
दुईतिहाइ
सार्वभौमिकता
रमाइलो
ओसारपसार
चर्किएको
मठमन्द
क्वालालम्
आचारसं
चपेटामा
चट्याङ्गसहित
जफत
कांगे्रस
पुनरावेदन
पारदर्शिता
फुर्सद
अस्त
आब
आया
आपत
इच्छुक
उम्
उस्तै
कन
खेद
छपाइ
झे
ताला
फाट
फायर
बडो
भन
भाल
रै
रवि
रित्
रिभ
वर्
वेद
वर्ण
सञ्जी
हदै
हवाइ
हँु
##वेले
##लिस
##तत्व
##जंग
##नले
##नसकेको
##कवि
##बाल
##बिर
##्नुभयो
##टिभ
##ेक्षित
##ेक्ट
##पोषण
##धो
##उन्मुख
##ंै
##ँमा
##दह
##दमी
##भटे
##र्को
##ारहित
प्रिम
प्रसु
प्रालि
##क्सको
##वामा
##म्व
##ागा
##क्षिप्त
हुदै
सास
साकार
सान्दर्भिक
दिव
दिपक
##न्दर्य
##राही
##ल्झ
##याको
##यात्र
माध्या
##ङ्कमा
##द्दा
सुलभ
निर्भर
निर्यातमा
सरस्व
सम्पुर्ण
कार्यवि
##विपरित
उपमन्त्री
उपसचिव
बढ्यो
यसबीच
##क्ती
स्वास
स्वाधिन
जनै
बाबा
##ियालाई
हुनेहरुको
##ानीमा
##डाका
रोहानी
अस्पतालमै
वासि
अध्यक्षबाट
##जाले
हजारसम्म
बनाउँछ
##हुन्थ्यो
पुगिसकेको
लिएपछि
आजका
महराको
भारतबीच
परदेश
केन्द्रलाई
प्रशङ
प्रशङमा
केहीबेर
##पुरबाट
स्वयम
सक्दा
##पूर्वी
सञ्चालकले
पहिल्यै
विषयगत
सुरज
ल्याए
संक्रमणलाई
भूत
उनीहरुका
##जिकल
सूत्र
अवगत
विश्वलाई
हिल्
कार्यक्रमले
साम्राज्य
तहसँग
##ञ्जु
खाए
प्रभावशाली
बेलाबेला
वैवाह
बेरोजग
मौखिक
अधिकारीका
##ड्को
अगाडिको
उदार
सूचनाका
अन्तरगत
संघारमा
श्रेष्ठका
योजनाका
अरुले
व्यावसायी
##सेपाटी
दुवैको
आगजनी
हुनुभन्दा
रेस्ट
स्रोतकाअनुसार
##खाने
नीतिलाई
शुक्रराज
उठाउँदै
रुपियाँ
अनुसन्धानबाट
##योजनमा
युवाहरुले
भित्र्याउने
पत्रकारले
रिमाल
क्षतिग्रस्त
दुर्लभ
प्रयासलाई
##गोपाल
तोकिए
विद्युतको
पु¥याएर
खटि
सर्वस
अतिक्रमित
कमाण्ड
बहसमा
असारमा
तुल्याउन
पुर्याएर
प्राथमिकताका
एसएस
फुट्न
सूर्यग्रहण
पुरस्कृत
वस्तुहरुको
आएपनि
सभामुखले
लाइभ
लाइनमा
दक्षिणकाली
नेताहरुसँग
जनप्रतिनिधिलाई
टिच
##देउ
धर्मनिरपेक्ष
आउँनेछ
मैनाली
आलोचनात्मक
झापामा
जन्मकै
हलिया
फैलिएपछि
हरिप्रसाद
राजावादी
म्यान्
##स्तरका
सप्तरीमा
खासमा
किसिमले
स्वयम्
सारेका
हराइरहेका
##िमिटर
खसेर
नून
प्रवाहमा
पञ्चायत
प्रकृतिका
पाकिस्तानको
राजधानीका
अप्रत्यक्ष
कालीमा
डोटीका
किटानी
##आइजी
निस्कने
##बोध
##ढुंगा
कडाइका
बाग्लुङ
बर्दघाट
नवीकरणीय
निषेधको
झरना
मिलियन
अल्पमत
##सामु
##वितरण
जनमतको
यसपाली
नगराउन
आत्मियताको
बेहोस
छेउ
इमान्दार
निम्त्याउने
रत्ननगर
श्रद्धाञ्जली
पाठकले
स्टार्ट
बल्खु
ब्यबस्था
महर्जनले
पशुपन्छी
कालिकोट
गहुँको
मोर्चा
##ठ्ठा
धनकुटा
शुभेच्छुक
इन्जिनियरिङ
बूढीगण्डकी
ल्हो
गाँउपालिका
##प्टरमार्फत
छुवाछु
भाटभटे
चाइना
पीपीई
सौहार्द
अलग्गै
सुपरिटेन्डेन्ट
आपत्कालीन
नर्सिङ
साँच्च
मुकुन्द
निन्दनीय
असाध्यै
त्रिशू
भालुवा
अभ
आयातमा
इपिड
उब्
कनका
जाल
दमा
दमन
नलग
फड्को
बृ
भव्य
मनि
मेश
मसँग
मलको
रञ्जित
लेखि
लखन
वस्ने
सन्ध
सच्च
##िरी
##यौ
##जङ्ग
##नान
##सत्र
##सम्भ
##टेक
##हाली
##ोन्न
##पले
##प्च
##ंमा
##ंसो
##भामुख
##ईन्
##शम्शेर
##इसकेको
##कार्न
##न्जी
##न्यात
##नेपा
प्रभा
##ानका
##नाई
निधि
##क्षे
##्याई
हुम
हुंदै
हुंदा
##िकृत
संभावना
सानेपा
दिक्त
##त्तीको
नेपालसहित
नेपालस्थित
पुष्टी
पुतली
सुक्
सुनेको
##स्तरिय
थिइन
सरह
गर्नेमा
##छिपी
त्यत्तिकै
बताउनु
कोरोनासँग
कुरु
सङ्खुवासभा
यसवर्ष
सहमहामन्त्री
##किम
वर्षाले
बिचौ
##टाएका
##ियर
हुनेहरुमा
##ाउँछन्
रुद्र
परिभाष
गरिरहनु
रोशन
क्षेत्री
जिल्लास्तरीय
जोहो
महाभारत
समान्य
समापन
##ेसि
##ेसंगै
मिथ
मिटिङ
मुछ
लिला
लिन्छ
दुईतर्फी
##ासमेत
महाल
महरालाई
नेताहरूको
नियत
घरबाहिर
यातना
प्रमुखले
गुठ
देखिनु
##भागमा
विषयक
देखाउ
देखाइ
##लिट
मानबहादुर
बोका
बोलेको
बोक्न
मेमो
मागेका
अवकाश
विश्वमै
निर्देशकमा
बस्न्यात
सडकका
साम्य
बाँकेको
##संर
बालकृष्ण
सांसदहरुलाई
खाएको
##कमध्ये
डिएसपी
नाप
जोखिमबाट
##ड्नेछ
कर्ममा
उद्यान
कम्प्याक्ट
प्रतिशतमा
##गमनको
सम्भावनालाई
पौष
पौड
पर्यटनको
##र्टमेन्ट
बढ्नुपर्छ
सर्वसम्मत
लगाएपछि
योजनाबद्ध
##्छु
गराएपछि
पुरुषलाई
##र्जस्ती
शिक्षाका
चौरस
नीतिले
टोलीमा
##िङमा
मौसममा
रोगले
बिरामीमा
कैला
निकायसँग
भित्री
दीपा
कार्यक्रममार्फत
भागेको
अभियानको
गरिसक्
प्रविधिबाट
वातावरणमन्त्री
जनसंख्याको
प्राधिकरणलाई
देवकोटा
तोक्ने
खरिदका
तपाईंहरुलाई
##मलाल
भूमिगत
लाग्नुपर्ने
बेलैमा
तोकेर
दिइयो
टुक्र
रमाउने
हत्यामा
संलग्नलाई
कसैसँग
शाखाले
सङ्घीयता
चाहिएको
आएसँगै
ढाक
खनालको
संस्कृतिको
गर्नुपर्ला
बलराम
सफाई
अभिव्यक्तिले
विश्वविद्यालयमा
##श्वरमा
क्वारेन्टिनको
आरम्भ
जनस्वास्थ्यका
सिन्धुपाल्चोकका
फाइजर
विधानको
बताउछन्
निकुञ्जका
बोकेका
हिमताल
कूटनीति
तथ्याङ्कअनुसार
तिवारी
बैतडीको
संयन्त्रको
अस्थिरताको
सञ्चारमाध्यमले
युनियनका
बालिकाको
चढेर
दोहोर्या
साहित्यकार
महासंघका
पठाइने
ट्रेसिङमा
पूर्वसभामुख
शेर्पाले
मध्याह्न
दृष्टिकोणले
सर्वाधिक
फेसबुकमार्फत
जंगबहादुर
राउतले
साबुनपानी
ट्रान्सफर
जर्मनी
वीरेन्द्रनगर
ब्ल
ट्विटरमा
हिरासतमा
गाउँग
मृग
रघुगङ्गा
लैजानुपर्ने
वरपर
गोष्ठी
बित्तिय
इमिरेट्स
मिनाहा
पचास
निर्माता
एसईई
सङ्ग्रहालय
सरिता
छैटौँ
एक्कासी
जनमानसमा
हिनामिना
बाटाहरु
उभिएको
राजपत्रा
तिलकरामः
ओहोरदो
त्रिवेणी
सञ्जीव
सरस्वती
वैवाहिक
इपिडिमि
अक्स
अयोग्य
आट
आशी
इमान
उभ्या
एड
कर्मा
कम्ब
गुर
झार
तलमा
थर
धर्ना
नर्
नजर
पिक
पण्ड
प्यान
पम्प
पिलर
मता
मरा
मिसन
रन
लौ
शङ्ख
सको
साग
हस्प
हम्मे
##मर्श
##मण्डल
##लस
##लम्
##सरह
##सञ्च
##डौँ
##पिकल
##पत्नी
##चीको
##ठित
##फी
##गर्न
##ंव
##दोष
##थली
##थ्र्य
##ूस्
##शनको
##ृष्ण
##ओवादी
##्र्या
##र्था
##र्पण
##मासिक
##कार्ड
##्याग
##ालाल
प्र्र
##लाउ
##नाउ
विमल
काँ
काेरा
##वाज
##निन
##्यान्ट
हुवा
##पालो
दिउ
##राधिक
##रोह
कोत
##ण्टा
##ण्टर
##हरुसंग
माने
मान्दै
मार्न
पुरू
##हिल
पाथी
पाएनन्
सुन्
सुम्प
थियाे
केके
केयर
##ाइज
##लीप
कार्यका
##ायी
##भाडा
दुष्
यसैले
##ँगा
कामहरू
##किय
राजकीय
बिरा
जनस्तरमा
जनवरी
जननिर्वाचित
बैक
अध्याग
##प्रश
सेमिन
गरीब
गरिँदैछ
स्वास्थ्यचौकी
सिद्धि
सिनियर
सिर्जित
जाहेर
समयपछि
देशभक्त
##धारमा
पुगेकी
मुछि
##जनाको
व्यवस्थाप
लिग
लिनुपर्छ
महत
महेश्वर
सामाग्र
परेमा
मन्त्रालयसँग
आइसीयू
केहीलाई
हुनसक्
##निकरण
थपिँदै
स्थानीयलाई
गरेरै
विषयले
देख्ने
देखेपछि
##लिप
##लिखित
बोली
बोलेका
मेह
अवस्थ
##थिको
राम्ररी
##ब्लिक
नागरिकमा
नागरिकताको
##उँने
चार्ज
चालेका
सामथ्र्य
##ग्ध
दायाँ
दाङका
##शीला
घट्ने
##र्ते
खोलेर
नाच
मुलुकहरु
दोब्बर
गौतमबुद्ध
खोजीका
हेक्का
क्वारे
आयोजनाबाट
गार्
गोयल
उहाँहरू
संस्थाबाट
##सनल
दाहाललाई
तात्
ग्रह
संरक्षक
तपाईहरुको
पहिरोबाट
त्रसित
रेल्
फिल्
पाइएकाले
बुझेका
निरङ्कुश
मौसमी
कृषिको
पटकको
अर्कोतिर
शुक्रबारसम्म
प्रयाश
भित्रिएका
ट्रमा
क्षतिको
अभियानले
धावनमा
आफन्तजन
संरक्षणको
फोर्स
सर्कि
अवसरहरु
आईसिय
सापेक्ष
गिराव
ज्ञवालीलाई
पोखराका
रक्षाको
छुटेको
देउवाको
काठमाडौँको
सत्यको
बर्षीय
घुम
इजरायल
##पाटीमा
साथीसँग
महाधिवेशनसम्म
जित्ने
शैक्षिकसत्र
स्टोर
एमालेको
कानुनले
पहुँचमा
भैसकेको
डीएसपी
नसकि
जबर्जस्ती
विश्वविद्यालयको
बेलायती
सत्तापक्ष
भावनात्मक
नायव
राप्रपाका
राप्रपाले
बन्नेछन्
आपराधिक
हिँडेको
सिमेन्ट
साइट
संघर्षमा
साझपख
##पथ्र्यो
वैशाखमा
स्वार्थका
सौन्दर्य
उपभोक्ताले
जटिलता
भइरहेकाले
कलङ्की
बनाइएका
सुनसरीको
मेसु
विजयकुमार
पाकिस्तानका
चलिरहेका
काट्न
ग्यासको
हुम्लाका
बैंकिङ
महेन्द्रबहादुर
बाराका
हरुलाई
प्रशिक्षक
लडाईमा
सहिद
पुग्दैन
बासिन्दाले
अल्पमतमा
व्यहोर्नु
जङ्गलमा
फौजी
शिक्षालाई
टुंगोमा
नदेखिएका
धरापमा
घिसिङको
गगनकुमार
नामाकरण
इन्टरनेशनल
मैत्रीपूर्ण
अनुशन्धानको
प्रदर्शनी
स्वाधीनता
##ञ्छित
घरधुरी
##लकण्ठ
ढाँचा
सुधार्न
लम्सालले
अफ्रिका
ओखलढुङ्गा
डब्लुएचओ
शङ्कास्पद
एसइई
अठोट
रचनात्मक
ननिस्कन
अङ्ग्रेजी
पनौती
प्रालिले
जनसम्पर्क
एसियाली
भ्रातृ
निरन्तरको
शारदा
शालिक
प्रशङगमा
मेमोरियल
कैलाश
ढाकछो
इपिडिमियो
हस्पिटल
पुरूष
गिरावट
अन्दा
असम
आयाम
आवस्य
इन्स
ओग
कं
करा
कल्
कदा
कही
खेम
खारे
जयनगर
ड्यु
डरले
तले
धित
धाम
पृत
पल्ट
फाल
फक्र
फेल
बाइ
बर्ग
भाउ
भजनी
मारि
यन्त्र
लज्जा
हब
हलमा
##िताको
##याली
##ाएर
##मस
##मणी
##वश
##लालले
##सुर
##बोट
##हेको
##खाल
##ोध
##ेडि
##धारी
##धेरै
##ठनिक
##गर्दा
##ंस
##ँले
##द्री
##ढि
##मास
##न्सा
##नेक
प्रालिका
प्रगाड
प्रताप
प्रदिप
##स्कृति
##त्रीको
विर
विलम्ब
विमला
निमा
निष्ठ
सादा
दिलीप
समिक्षा
##त्थान
##कारखाना
माहा
पुर्च
##ष्टर
##पावर
सुशासनको
सुल्झ
केरा
बताउने
कार्यदलमा
##विकास
लागिरहेका
सङ्कल
यसअघ
प्रतिपदा
कामले
##कियो
##्युसन
##द्धय
##ाउँदो
प्रदेशलाई
सिटी
सिटमा
काठमाण्डुले
राष्ट्रले
राष्ट्रघाती
जिल्लाभर
भएदेखि
हजारका
##र्मिला
मिल्न
##हुँदैन
गरेअनुसार
पुग्नु
सकिएन
महरले
परेन
सक्नुपर्छ
##ौँदेखि
छैनन
मनकामना
विषयका
देखी
ल्याउ
ल्याउँदा
संक्रमणमुक्त
उनीहरूलाई
बोहो
सेवाहरु
बज्र
##म्बरमा
##मिल
शिक्षामन्त्री
व्यक्तिसँग
आवश्यकताका
क्रमिक
दाङमा
भाँच
खाडी
खोल्
खोमे
##सभामा
जीर्ण
जीवित
दोभ
##ंकन
अघिदेखि
जोखिमयुक्त
लेखन
विवादलाई
हेर्नु
हेर्दै
रूख
अन्तरदेशीय
प्रतिनिधिले
आउनेलाई
##नुभएन
अर्थपूर्ण
सुरुङमा
व्यापारबाट
छाता
##बन्दीमा
##र्जे
विद्युतीकरण
चौतारा
चौमासिक
खर्चको
उद्योगको
पढेर
पुष्पा
##वासीको
##वासीका
शुक्रबारदेखि
सक्रियतामा
अर्कातिर
आउनुपर्ने
बाटोको
मापदण्डमा
चाल्ने
चालकको
ट्रपिकल
टेप
आउनसक्ने
पालन
प्रविधिमा
खेमा
खरिपाटी
हरित
नजिकका
नजिकबाट
मध्यपहा
हटेको
पु¥याइएको
तपाईंहरु
खटाइएको
टोलमा
हुँदैनन्
ढकाललाई
सोच्ने
चैत्र
कार्वाही
कानूनबमोजिम
विचाराधीन
सम्मानजनक
स्वदेशमा
आमाले
तुलना
तुल्याउने
प्यालेस
प्याब्सन
प्रमाणका
एमसीसीबारे
ईश्व
क्षमताभन्दा
##एमएस
ग्राहकको
काठमाडौँका
पूजाआ
लाभग्राही
बोल्दा
तामाकोशी
खड्ग
एयरलाइन्सका
तुले
सातासम्म
सुख्
पसलहरु
##क्यौता
नभएपनि
बोर्डर
स्टाट
बिक्रीवितरण
हप्ताको
सुर्खेतको
भीमप्रसाद
साहस
जतिसुकै
मित्रता
ज्वेल
इरानले
निकुञ्जले
बन्दाबन्दीमा
चलान
तनहुँमा
महासङ्घको
कन्ट्र
गोरखापत्र
दैलेखमा
जुम्लाका
हुँदो
कामकाज
सम्पादक
##चुली
दमक
ठोक्
भगिनी
झन्झ
पात्रो
विनाश
दिलाए
उपलव्ध
आतङ्क
##सामाजिक
घोराही
बढाइने
प्रयत्नले
उदयपुर
लोकप्रियता
विश्वकर्माले
ह्याण्ड
रेष्टुराँ
उत्साहजनक
दर्शक
महशुष
कोहलपुरमा
सुनारले
छेउमा
शय्याको
ठाउमा
अहम
धनुषाको
सत्याग्रह
मेचीनगर
उजागर
ट्विट
सोचेजस्तो
इञ्जिनीयर
डिल्लीबजार
नजिर
गुज्रि
आशिष
घन्टामा
यौन
कान्तिपुर
बेइजिङ
वादविवाद
क्यालेन्डर
आखिर
नछोड्ने
कहिलेकाहीँ
बताउंछन्
गिरफ्तार
मध्यान्हबाट
खतरनाक
रेमिट्या
रामेछाप
पुस्तकालय
जमिनमा
शहिद
मौज्दात
काेराेना
रेल्वे
धावनमार्ग
आर्य
उही
उतार
उतै
उर्जामन्त्री
कश
कर्फ
कच्चा
खिम
गण्ड
चतु
छिर
जव
डिन
तप
थो
नला
नया
नरह
नलिन
बर्त
बबर
बञ्चित
भन्य
भक्ति
भन्छु
रिया
रक्सी
लख
लहान
शर
सर्ट
सानु
हानी
हत्य
हानि
##मेट
##जेल
##जाग्र
##अर
##सय
##कपुर
##बस
##बाली
##षित
##हजार
##खाको
##झैँ
##ेसी
##पारि
##पक्व
##चन्द
##गंगा
##ँटा
##दोज
##ईले
##एछ
##एपनि
##ूत
##ूनी
##शित
##घण्टा
##ौरी
##इट
##र्गा
##कानु
##ाललाई
प्रत
##लास
##तिलाई
गराउनुपर्छ
##वाड
##वान्
##म्बन्ध
##म्बन्धी
हुु
रातको
संभाव
सातामा
साक्षर
दिर्घ
समित
##क्रो
##त्स
कोरि
कोजाग्र
नेपालगन्ज
सुस्त
सुडान
सुजु
निर्मल
केबल
गर्नेको
बताइन
सरकारकै
सरकारद्वारा
##विना
उपनि
पार्क
प्रतिवेदनको
कामबाहेक
राजि
राजव
राजनि
बिग
बिचार
बिघा
बिहानी
बैङ्क
##टास
##टापु
##िसहित
##ियु
##िनल
##िनै
##िनले
परिमाण
सिपा
##ानीको
रोकिने
वापत
जान्छु
बनायो
जोस
महासमिति
मिनी
##हुन
देशबासी
दिनमै
दिनहरुमा
दुईपटक
महतले
परित
तरल
कार्यालयमार्फत
केहीदिन
##त्विक
गुला
विषेश
आवश्य
मानसरो
उनीसँग
परीक्षणलाई
भन्दैमा
मेहन
दलसम्बन्धी
व्यक्तिबाट
अवज्ञा
आवश्यकतानुसार
हाल्ने
##ञ्जीवी
सचिवको
अन्यौल
पूर्वअध्यक्ष
आयोजनालाई
हालेर
हानेको
संविधानलाई
सङ्क्रमितमा
सङ्क्रमितका
भाज
भेटका
नाफ
नाता
पाँचौँ
बिहानदेखि
प्रेमबहादुर
खोजि
लेख्न
गोर्खा
नीजि
प्रतिनिधिको
पदम
पदका
पदपूर्ति
पदोन्न
समूहबाट
##व्यस्त
तान्न
अर्थशास्त्र
न्यायो
बाहिरिएको
स्रोतसा
चीनसँगको
पाइयो
पाइलट
उद्योगका
पढाइमा
उठाइ
आरोपपत्र
यसअघिको
महत्वलाई
प्रणालीका
अदालतलाई
उपलब्धता
अनुसन्धानको
सातौँ
सालदेखि
रिफ
गम्भीरतापूर्वक
मुद्दाका
यातायातको
गण्डकीमा
भर्दै
उनकाअनुसार
फर्किएर
गणना
चलाएर
गुरुङको
भागेका
क्षमतामा
साधनका
क्राइ
संशोधनका
श्रीराम
हटाइएको
टाँ
सञ्जय
फोक्
कोषबाट
सर्वोत्
प्रतिवेदनले
एयरपोर्ट
आईजीपी
कानूनअनुसार
अधिकृतको
दृष्ट
राजनीतिलाई
स्वदेशमै
जसबाट
पश्चिमको
तोकेका
नौलो
पुर्याउनु
नवौँ
अफर
दुःखी
पीडितका
अपरान्ह
थुनु
नबो
उनीहरुबीच
नआएपछि
विद्युत्को
सुखद
गर्नुपर्यो
ऊर्जाको
शिक्षकलाई
भीमफेदी
देखाएका
आपूर्तिमन्त्री
संगठनका
##प्पणी
तालमेल
जाँचका
##राखेका
युनिभ
सिमकार्ड
साइबर
समग्रमा
##स्तरबाट
परियोजनाको
सौर्य
समुद्री
##शिलो
छिटोभन्दा
चल्यो
आशावादी
सजायको
पुनःनिर्माणको
कलकारखाना
##शोध
प्रवृत्तिले
सुनसान
स्वयंले
पाउनुपर्छ
फूलको
जेलमा
पीडामा
सोधेको
निस्किएका
##पाटीसँग
सिंहदरबारस्थित
बाहिरिएका
पुनर्स्थापना
तिम्रो
श्रावण
मर्मतसम्भ
छिन्टापु
पुरिँदा
धरानमा
मगरले
##गाउँका
उनिहरुले
पठाइएका
लगातारको
ठुला
कर्जाको
गोकुलप्रसाद
ह्वावे
सहुलियतपूर्ण
##ङ्ग्रा
नफै
##सभालाई
पाँचथरको
वैद्यखाना
हिन्दुत्व
एन्टिजेन
सजगता
पश्चात्
चेकजाँच
इन्जिनियर
ज्यापू
बहिस्कार
बिस्तारै
मिचेर
श्रेण
स्टाफ
कैदीबन्दीलाई
गुर्जोको
सनाखत
अनुशन्धानमा
बासस्थान
बागलुङको
विस्फो
वुहान
सुरक्षालाई
कथित
रङ्गशाला
सम्हालेका
पूर्णिमाका
सरसफाईमा
प्रणय
इराक
अर्घाखाँची
रजिष्ट्र
बोगटी
अब्बल
टिभी
एन्फा
##र्पोट
सूचकांक
घाँटी
ऐक्यबद्ध
पंक्ति
घृणा
धितोपत्र
बिकास
फाईदा
कोशिस
रेडक्रस
सेतो
##गाँठ
बन्दोबस्त
शुभचिन्तक
##रगाह
स्टार्टअप
कनकाई
दिक्तेल
परिभाषित
ओहोरदोहोर
कोजाग्रत
सुजुकी
अला
आएन
ईतिहा
एलि
एजेन्ट
ओझा
चढा
जित्
जलेश्वर
झैँ
टर्म
ठोक
डङ्गो
तप्
दह
द्र
दम्भ
दर्ज
धामी
नछा
नपरेको
नपुग्
नकार्न
पत्
पत्या
पिङ
पक्की
फण्ड
भन्द
भङ्ग
भैं
भवानी
मग
रञ्जन
लह
वना
वाट
वचन
हमालले
##यत
##म्र
##मगर
##वर्ग
##जहाज
##जियम
##अलग
##राली
##्ड
##ोस
##गर्ने
##ैना
##कारो
##काठमा
प्रगा
प्रदु
विमति
वितर
##म्पमा
निभ
निसी
निजगढ
##्यास
##्याट
##्याइएको
संखुवासभा
साख
##राबाट
##त्से
उनै
रहनुपर्ने
माय
पुसमा
##पात्र
##पाँच
होइन्
तथापि
##दाताको
कार्यले
##भिल
बढाउनुपर्छ
कुहिरो
कुरै
##लोचन
दुव
दुस्
##वस्थापन
प्रतिको
प्रतिभा
प्रतिकुल
प्रतिशोध
वर्षयता
बिजोर
जनवाद
##ेलगत्तै
##ियल
##प्रचार
रुस
गरीने
सिक्ने
##ेटमा
अध्यक्षद्धय
महालेख
प्राण
##ेसु
मिथि
तीज
##ालीस
पर्दै
बुढीगण्डकी
घरधनी
अवस्थाबाट
स्ववि
गुप्ता
##कुटी
##बीको
##बीका
आवधिक
थपिने
भइसक्यो
मनजाने
देखेका
प्रचण्डसहितका
मन्त्रीहरुले
मन्त्रीहरुलाई
उत्सव
उत्प्रेर
भाइरल
भाइरसलाई
##मिङ
दलहरुले
असम्भव
अवहेलना
प्रयोगात्मक
##दिन्छ
अन्यको
##उँछु
##डीका
गौशाला
डिल
महिलामाथि
मोडमा
अगावै
वैध
खोजीमा
लेखी
विद्यासुन्दर
लाज
घण्टासम्म
घण्टाभित्र
##पुरी
कर्मचारीहरुको
सर्वपक्षीय
संस्थाहरु
लगानीका
ग्रसित
यहाँसम्म
तपाईहरुले
गृहमा
गृहसचिव
छाङ
##बन्दीको
चौपा
बजारका
चीनबीच
जुग
पढाई
सोमबारको
आशय
अनुसू
बैंकबाट
न्यूयोर्क
प्रयासले
घोषित
सहजता
सहजरुपमा
युवाहरुलाई
भित्रिन
सातवटै
रिर्पोट
विस्तारमा
फर्किए
उद्घोष
प्रयासबाट
गर्छौ
##च्छे
खेलेका
चेपा
लोगो
ल्याउनका
लुगा
जागीर
नदिनु
##हरे
##तिवेला
विचारहरु
पहिलेको
सल्लाहमा
संकटका
त्यसैको
मतभेद
आठौँ
तुलनात्मक
एमसीसीलाई
अग्रणी
विधेयकमा
त्रिलोचन
समर्थनमा
चुनौतीलाई
सङ्घीयताको
##लाइट
नबस्ने
प्ले
पेन्सन
वामपन्थी
परिषद्मा
बर्षका
गुमाएर
इतिहासले
नपाउँदै
नआउ
जितेका
सुखि
आउँन
विमानस्थलका
साहको
तथ्यलाई
मर्मतका
##फोर्ड
दशैँमा
आपसमा
बगेर
बगाउँदा
छाडेको
जनसङ्ख्यामन्त्री
खतराको
आफैंमा
अभ्यासमा
शिवराज
निकुञ्जमा
अभिभावकको
अभिभावकले
भेन्टिलेटरस
नियुक्तिका
समुचित
लामाको
हप्तादेखि
कतैबाट
पर्वतको
शाक्यलाई
तनहुँका
जोडिने
कन्टेन
कानुनमा
##साथै
प्रवृत्तिलाई
सुनसरीका
बागलुङका
प्रवद्र्धनमा
सङ्गठनका
भोकमरी
हिमालको
बगाएर
आधिकारिकता
काउण्टर
कारोबारबाट
खेतमा
भइसकेकाले
उत्रिएको
##रात्रि
अलगअलग
सेवाग्राहीले
दोहोरि
मकवानपुरको
मकवानपुरका
महोत्तरीको
रौतहटमा
गौतमकाअनुसार
साझेदारीमा
दृढता
दृढताका
स्याङ्जामा
सकभर
खुवाउन
मिलिमिटर
रथयात्रा
ह्वावेले
सिरहाको
तस्कर
योगेशकुमार
अनौठो
प्रसङ्ग
अलैँचीको
हिन्दुराष्ट्र
अष्ट्रेल
कोरोनाभाइरसको
लुटिन
टाउकोमा
डिपिआर
इमान्दारि
सोसाइटी
मधेशी
आयुर्वेदिक
सङक्रमित
माझी
बिदेशी
सामुहिक
बल्झ
दीपेन्द्र
कालोपत्रे
प्रतिरोधात्मक
सिटौलाले
बागलुङमा
विस्फोट
पूर्वमाओवादी
एप्स
पथमा
एकअर्कालाई
चाहेजस्तो
तदारु
हेमराज
कामकारवाही
हिमपातको
कार्यक्षेत्रमा
तानाशाही
स्नातक
भूउपयोग
तुम्बाहाङ्फेले
तस्बिर
ब्यूरो
अंग्रेजी
तेह्रथु
साक्षात्कारमा
मुद्दालाई
ग्यारेन्टी
वागमती
उमेद्वार
धर्मशास्त्रविद्
हरिकृष्ण
दिलबहादुर
कनेक्टिभि
बारेकोट
घरायसी
धरहरा
क्षयरोग
प्रसुती
बेलाबेलामा
साँच्चै
महालक्ष्मी
आशीर्वाद
पण्डित
##लम्वन
ढाकछोप
पूजाआजा
सुख्खा
बबरम
शरद
प्रगाढ
आकार
आँग
आलु
उहां
एग्र
खल्
घटाएर
चोकमा
छँदै
जघ
जडि
झल्
झ्याल
डल
ताम
दाख
दाना
धौ
न्यान
नहोला
पनी
पवन
पकाउने
फिन
बेर
बड्नेछ
बक्यौता
भेष
भड्
रान
लान
वकाल
श्व
सर्न
सच्चा
सफ्ट
हस्
##मबाट
##वर्
##लनमा
##ीप
##तल
##तेल
##जिर
##ुल्दो
##बरण
##बगर
##टप
##झु
##ेय
##पुल
##परीक्षण
##धुर
##चमा
##गर्भ
##दण्ड
##भै
##एकै
##ूमा
##ून्
##ूले
##शमशेर
##÷न
##र्छ
##र्जी
##र्पु
##मार्फत्
##न्सले
##्यारो
##्यवस्थित
##ारेक
##ानले
##स्फ
##स्तिका
##नाब
काज
निस
##नुको
हुनुभएको
राहु
संक्रामक
सांग
साताका
साक्षी
दिन्छन्
##न्दी
##राउन
##ल्के
रहस्य
##बाटो
##दास
निर्दोष
जनाउ
जनावर
कार्यहरु
कार्यपत्र
##न्तकृत
##ायल
पार्नुपर्ने
प्रतिगमन
कामबाट
वर्षहरुमा
बिड
बिश्व
जिवन
जिल्ल
##िसे
##न्नँ
##प्रो
नैन
प्रदेशहरुमा
अस्प
सिं
सिग्
सिधा
राष्ट्रवाद
क्षेत्रहरुमा
जिल्लाभित्र
##तीका
##जाको
##वसमेत
लगत
गरेनन्
दिनदिन
लियो
लिइने
लिइरहेको
अधिराज्य
गुम्ने
देखिँदा
थप्न
##जीलाई
सदस्यसचिव
गाउँले
भूपरि
उत्थान
##ुवाको
##ुवागढी
सम्बन्धीत
बज्रा
सयपत्र
##सिटी
शिल
हुनेछैन
##कालका
शर्माका
अव्यवस्थित
आवश्यकतालाई
प्रयोगश
प्रयोगका
##ुनारायण
विश्वभरि
विश्वभरी
हिड्
पक्षबीच
चिज
अभिभ
बालविवाह
##कृतिमा
##ुटको
प्रभावको
डिपा
भेट्ने
मोति
मोलेर
कृति
धेरैलाई
आएकालाई
तपाइँ
दोगडा
हुँदैछन्
प्रस्तावमाथि
पोख्र
अघिल्ला
नहुँदै
लेखेर
महामारीसँग
अमृत
बन्देज
परिवारजनमा
मुख्यगरी
नामबाट
पठाउँदा
##आरआई
निकाल्दै
गोठमा
गोर्ख
##ेरिया
##पुछ
कर्मचारीहरु
सर्वत्र
सर्वेन्द्र
लगाएकी
##्छौं
दाहालको
##दैनन्
दुवैलाई
नंको
छापमा
दूरीको
करोडौं
देहाय
बुझ्नु
उठेर
पानीमा
न्यूनिकरण
##मुग्लिन
घोषण
स्थापनाका
आउनेछन्
जिम्मेवारीबाट
अपनाउँदै
मन्त्रिपरिषद्बाट
चिनिने
प्राधिकरणमा
आम्दानीको
लोभ्या
देउडा
विस्तारित
हातपात
राजीव
जागरण
कालखण्ड
अभावले
##्र्ड
कारबाहीका
##शान्ति
साउनको
भ्रष्टाचारमा
राजनीतिज्ञ
रहेपनि
प्याजको
उपाध्यक्षमा
विवरणमा
छुटको
शाखारहित
हितको
अर्बको
पैसाको
पहलक
अोलीको
कार्कीको
भेलाले
भवनलाई
वर्षाकोसम्
उनीहरुमध्ये
लोकतन्त्रका
##सरकार
स्तन
सुनाएका
अनलाइनबाट
कालोटी
अख्तियारको
ठान्द
स्टेशन
हिसावले
शेरधन
एकैदिन
ब्रेक
फुयाँ
मार्गको
शाहशिलो
फेर्ने
विश्वविद्यालयले
साहसिक
दिनुपर्नेमा
##श्वरी
गर्नेछौं
विपद्का
एमालेले
सङ्कटमा
नरैना
कमरेडहरु
बाढीका
##खेलमा
नेपालगञ्जको
स्वार्थको
दायित्वबाट
मिल्दोज
गन्तब्य
सौभाग्य
समुहमा
मन्त्रिपरिषदमा
कारागारका
मिडियाले
##ज्यूले
पुनःनिर्माणका
आफैँमा
##टिएम
सिकाइको
सिकाइलाई
व्यापारीलाई
मङ्सिरमा
मोरङमा
एकीकरणका
पर्खनु
जापानको
अरबमा
कन्स्ट्र
लगाइने
डिसहो
##िकोत्सव
निराधार
माघमा
इच्छाशक्ति
जनकपुरबाट
कालीकोट
सर्लाहीका
संगठित
बाराको
संविधानसभाको
रेखदेख
रुपन्देहीको
निस्कन
न्युयोर्क
नलाग्न
तुलसीपुर
लडाकु
बेच्ने
सिसी
नराख्न
सघाउ
व्यहोरा
खुलेसँगै
प्रतीक्षा
राजतन्त्रको
अभिलेखीकरण
नफुट
ठक्करबाट
गोरखामा
गर्नुहुनेछ
धनुषामा
सङ्गठित
सत्याग्रही
हाराहारी
रसुवागढी
काभ्रेपलाञ्चोकको
आक्रोशित
फ्रेम
ग्यारेज
चिरञ्जीवी
सुपरिटेण्ड
निर्मम
वाइडबडी
गुमेको
अन्तर्वार्तामा
केटाके
जीवन्त
अनलाइनमार्फत
खत्रीले
कामकारबाही
रावतले
वैरागी
अगुवाइमा
तेजबहादुर
सिरियामा
अख्तियारमा
जम्मू
नपर्न
यशोदा
##पार्टी
महान्यायाधि
साथिभाई
एसोसिएसन
पेरिसडाँडामा
धर्मावलम्बीले
बितिसक्दा
फेरब
लाभान्वित
सर्भिस
मठमन्दिर
आयातित
रिभोल
हदैसम्मको
कालीमाटी
छुवाछुत
उब्ज
सकोस्
पाथीभरा
खोजीकार्य
इपिडिमियोलोजी
अन्दाजी
रेमिट्यान्स
उपनिवेश
मानसरोवर
अलावा
प्रदुषण
दुवैले
जघन्य
सिग्द
दिनदिनै
सयपत्री
मिल्दोजुल्दो
अघ
अढ
अतः
अक्षर
अभूत
असामान्य
आङ
आङ्
इरानी
ओर
खस्क
गफ
गइरहेका
चना
चस्मा
छोर
टोक
ठूल
ठमेल
दर्जा
नजान
नरहने
पल्
पिता
बद्
बलमा
बलको
बूढ
बर्चस्व
भजन
भुट
मत्
मर्मा
मर्का
यदी
यथो
रङ
वल
वार
वृह
वंश
वेड
शस
सेल
##िस्त
##ितामा
##मलाई
##वको
##वला
##वहन
##लक्ष्मी
##तम्
##ततै
##जति
##ज्व
##केदार
##बढी
##्हान
##टेको
##ट्ने
##डु
##हलमा
##ेबल
##पारी
##पिन
##ठनको
##ंशी
##ँदो
##थर
##थित
##ईओ
##आरको
##घो
##इए
##्रास
##र्ल
##काय
प्रोज
##नान्तर
##तास
कान्छ
##रीक
निलम्बन
##ागो
##रुमा
##नुका
##्याउँदै
##पाली
राधिका
स्त्री
दिदा
##ष्णा
समीर
मास
माथी
मान्नु
पुरिएको
##ष्टको
##र्युक्त
##पाई
होउ
सुु
सुर्य
सुन्नु
##स्तीमा
सरक
जनासम्म
जनाएकी
सम्पत
कार्यहरू
लागिसमेत
उपर्युक्त
##्नी
क्लिन
##लोजि
दुर
यससम्बन्धी
यसकारण
##रहन
प्रतिगामी
अनुभु
राजपत्रमा
वर्षलाई
बिगा
प्रधानले
जनमोर्च
प्रधानमन्त्रीबाट
सेरो
गरीरहेको
अस्त्र
सिभिल
रोशी
वाक
अध्यक्षका
सोती
सोझै
जातको
समयअघि
नेपालीहरू
जोसुकै
##र्मित
समाजिक
##ेसो
भन्नाले
देशवासीका
गरें
पुगी
मुलु
दिनहुँ
प्रहरीमाथि
लिफ्ट
अहिलेलाई
अहिलेकै
भारतलगायत
परमा
नेताकार्य
नगरका
नगरेका
गतेभित्र
साथबाट
गुओ
##निकट
##कुरी
प्रवन्ध
आवको
आव्हान
थपिए
काठमाडौ
मनपरी
देखाउनु
ल्याउँछ
संक्रमणले
समितिमार्फत
परीक्षणबाट
बोहरा
सयभन्दा
शिर
दलहरु
हाल्न
किनेको
लाखमा
लाखका
नागढुङ्गा
##दिल्ली
आफूमा
गाउँपालिकालाई
##वैज्ञानिक
पुनलाई
नागरिकहरुको
बस्नुपर्छ
##समेतको
चिठ्ठा
##त्ते
बालकको
बालकलाई
अबि
अबु
अबका
घटाउने
खोल
विज्ञको
धेरैको
पोखे
ध्यानआ
बेरु
भनिरहेका
नहुदा
अधिकारीहरुले
अपेक्षित
नामले
##स्टिक
##स्ट्री
##जुक
##पुरा
विशेषाधिकार
चाहन्छन्
कर्मचारीका
व्यवसायको
दशकमा
जोडदार
मूलतः
तिला
सीमाना
कृषकलाई
तपाईलाई
बस्नेतको
अनधिकृत
छाक
रेणु
भीषण
जुत्ता
यहीँ
सोमबारदेखि
विश्वासमा
##सम्बन्ध
पूर्णचन्द्र
भट्टराईका
अधिकारलाई
अधिकारकर्मी
जीवनया
जीवनरक्षा
स्पष्टिकरण
परीक्षाफल
बिहीवार
कैयौं
##मुनि
उत्पादनका
मापदण्डलाई
समुदायबाट
दैनिकमा
गम्भीरता
भर्ती
टेबुल
शक्तिले
सच्याउने
चलाइएको
##जोरी
भूमिकाको
धातु
वर्षापछि
खेप्
आफन्तका
शवलाई
दोस्रोपटक
अलम
नदिए
सर्जिकल
ढुंगा
मनोहरा
माधवप्रसाद
विचारलाई
दक्षता
पश्चिमका
प्रजातिका
बहुमतले
रक्षाबन्ध
छुटेका
सूर्यलाई
सूर्यबहादुर
##गेसम्म
छानो
चिन्तामा
पाण्डेको
बोल्नु
प्रशासनमा
व्यवसायीहरुले
एकातर्फ
बर्षमा
गुमाएको
इतिहासका
कार्यदलका
बमोजिमको
जुटाउने
साताअघि
सुनाएको
पिडा
शिक्षकले
तेजा
बलम्बु
मीना
भैरव
इन्स्ट
वर्गलाई
##दृश्य
शाहीविरुद्ध
जबसम्म
अनुदानमा
भावनाको
अध्यक्षद्वयबीच
##लबजार
हरिश
प्राप्तिका
तराईमा
छाडिएको
हिमालयन
यथास्थितिमा
अन्तर्गतका
गीता
सप्तरीको
सप्तरीका
मामिलामन्त्री
उमेरका
कारोना
हराउँदै
आक्रमणमा
मनमुटाब
स्वार्थमा
सम्पत्तिको
अडानमा
वैठकले
बलात्कारका
##वेष्ट
एजेण्ड
युद्धको
##द्रिक
वार्षिकोत्सव
एक्ला
हिंसात्मक
सापकोटाको
भरपुर
भन्नुहुन्छ
पुस्तकमा
कन्फ
भोकम
पद्धतिको
रौन
ढुवानीका
क्याम्पसमा
प्रतिस्पर्धीहरुलाई
संसारका
दुख्ने
अनेकौं
स्यानिटाइज
रमण
सर्लाहीमा
डोटीको
सामग्रीमा
अवैत
स्याङ्जाको
इलामका
आसपासमा
वृक्ष
फैलाउन
मिलेमत
सदनबाट
तिहारको
##गृहमा
पुर्वा
संचालक
दार्चुलाको
मूर्त
तपाईँको
गर्दैछौं
##चोटी
हिँडि
हुनुहुँदैन
संगै
दर्शना
च्यालेञ्ज
नगर्नुहोला
रानीपोख
मोटरसाई
काउन्सिलको
बढ्नुको
सम्हाल्ने
गर्नुहुने
निम्त्याएको
ज्यादै
खैरह
विनय
##लियाले
सभ्यताको
युरोपियन
सौराहाका
खुलेरै
इण्डो
नारायणगढमुग्लिन
निर्मलीकरण
बिचमा
कथन
माओवादीले
नोक्सान
नोक्सानी
उत्पादकत्व
नाटक
कीर्तिपुर
लडिरहेको
नचाहादै
नचाहादा
स्कुटर
आफूखुशी
गजुरेल
पद्माकुमारी
थाइल्याण्ड
प्यारा
अरेबिया
चट्टान
बन्धक
पाखापानी
##विकोपा
शिविर
बेग्लै
दशरथचन्द
जताततै
गभर्न
##र्तामोड
पश्चिमाञ्चल
भ्याक्सिन
आचारसंहिता
अस्तव्यस्त
कार्यविभाजन
जन्मकैदको
म्यान्मा
त्रिशूली
##संरचना
गाउँगाउँमा
तलमाथि
अध्यागमन
मध्यपहाडी
परित्याग
आवश्यक्ता
फोक्सो
न्यानो
हस्पिट
बज्राचार्य
अभिभारा
दोगडाकेदार
फेरबदल
अभूतपूर्व
यथोचित
अहि
उमा
उधार
कस्
क्यार
खर
गढ
गदै
घाउ
जबर
जगे
डाइ
तर्स
तनाब
दाइ
द्वी
धुन
नार
नरमा
नुन
पन्ध
फस्ट
बदल
बारीमा
भित्
यिनी
र्या
लास
श्या
शोषण
सड्
##यताको
##यत्त
##वोधन
##तवार
##जालाई
##नयाँ
##नगरपालिका
##स्यु
##सञ्चार
##रित
##कलित
##बलि
##ब्रु
##खोर
##ेकै
##ेक्स
##पसमा
##पत्ताको
##पट्टि
##फले
##गं
##ंक्षी
##ँका
##दले
##दाम
##दशी
##भन
##थेरापी
##ईन
##ैयाँ
##इको
##र्द्ध
##मालो
##न्च
##नेश्वरमा
प्रथा
प्रवास
प्रक्षे
##स्पति
##नागर
##क्वा
##क्सा
##तान्त
विष्
गर्ला
नेशनल
स्का
स्नान
संयोजन
साधान
##रातमा
##ल्कुल
कोहि
##ाउनको
##हरुमध्ये
##हरुसँगको
उनीमाथि
रहित
रहनुभएको
पुण्य
पायो
पाहु
पाएन
##द्घ
सुह
सुपथ
गर्नेले
गर्नेछु
##ध्यारो
##छिन
कार्यन्व
##विकार
##भियत
एकमु
क्ल
क्वी
कुहि
कुर्नु
##लोचना
सङ्क्रम
दुरूप
पार्नु
योजनालाई
आफनो
##किशोर
अनुभ
अनुकुल
वर्षकी
स्वादिष्ट
स्वायत्त
जनसेवा
बापत
जिवित
##ुखु
##न्द्रा
भएकाको
सेय
प्रदेशस्तरीय
जानकारीमा
अस्विकार
त्यसयता
ओलीबीच
राष्ट्रसेवक
वाध्य
वाचा
वाचन
गर्दैछन्
महास
समानान्तर
लिइरहेका
लिइन्छ
आजभो
दुई÷
विदुर
रहेकाको
बुढी
भारततर्फ
पूर्ति
नेताबाट
नगरको
घरबास
घरभाडा
##रसम्भव
##ंगु
व्यावस्थापन
मृत्युको
सदस्यबाट
भूगो
बोहर
नगरपालिकास्थित
नभेट
काठमाडौंबाट
भाइरससँग
##मिटरमा
शिर्ष
असङ्ग
मागे
मागेपछि
आवश्यकताको
##वनालाई
बसेकी
विश्वयुद्ध
##च्ची
हिस्ट्री
तीनजना
##र्गल
##र्गे
निर्देशित
##ब्ध
##होरो
##बाई
चिना
##ञ्ज्याङ
भावनालाई
सांसदहरूले
प्रभावमा
खोलिएको
##लगायतलाई
आएकामा
थापाथली
त्योभन्दा
##कर्मीले
बेगम
भनियो
व्यवस्थापनसम्बन्धी
गान्ध
##स्टेशन
##पत्रिका
##गमस्थल
चाहेमा
पदक
सम्झनामा
कार्यादेश
##त्तिको
तिब्र
पुरुषोत्
##सुरी
बस्नेको
हुनुपरेको
अनर्गल
छांग
पाइए
मानिसहरू
मानिसहरुलाई
उठान
उठाउनु
निरपेक्ष
कृषियोग्य
रोगसँग
प्रणालीले
जीवनका
परीक्षार्थ
शुक्रबारको
सम्बो
प्रयासको
कानूनमा
भित्र्याउन
साल्ट
शनिबारदेखि
##टमार्फत
जग्गाधनी
शक्तिबहादुर
अमेरिकालाई
साँस्कृतिक
##कर्ताको
वर्षायाम
लक्ष्म
सभापतिको
क्रि
रिपोर्टर्स
मन्दी
शैल
आत्मबल
##घाटमा
टाँस
दरखास्त
लुकी
लुकाएर
पर्यटकका
##बिन्दु
सोच्नु
कानूनले
मनोवैज्ञानिक
कारवाहीमा
कारवाहीका
बहराइ
##सकेकाले
लाग्नेछन्
गैह्र
एमसीसीमा
वीरबहादुर
अग्रजको
फुटेको
विधेयकको
मान्यतालाई
त्रिपाल
भरतराज
कृष्णगोपाल
वेपत्ता
पुरै
निधनप्रति
हितलाई
ट्रान्
लाइनको
कक्षाको
सुविधाको
##चिलो
गुणराज
महानगरपालिकाको
लोकतन्त्रलाई
तुला
नआए
गैरकान
छिमेकीको
कानुनमन्त्री
स्याट
वर्गका
अगस्ट
अग्नी
तिनले
भुक्तान
अरनिको
परम्परालाई
सामानहरु
प्रगतिशील
##चनले
युनिट
इजलाश
सम्भवतः
जनशक्तिलाई
तराईमध
जहाँसम्म
बर्से
परियोजनामा
कमरेडहरूलाई
सम्पर्कविहीन
शिवालय
ऋणको
भोजपुर
भोजराज
नेपालगञ्जबाट
जगाउने
टीकाराम
दीर्घरोगी
परिणाममुखी
श्रीमतीको
छोड्ने
गुटको
विनियोजित
पन्तको
टिकटक
ट्यापिङ
प्रतिक्रियावादी
लगाइएका
नाराबाजी
बिग्रिएको
उपमहानगरपालिकाका
कास्कीमा
सोधपुछ
खिच
डोटीमा
चाडपर्वको
आयआ
घट्दो
मारिएका
ल्याबमा
साबित
अथक
पृथ्व
दृढतापूर्वक
सुत्केरीको
अंगीकृत
कर्पोरेट
महासंघको
अल्छी
इलाममा
डरलाग्दो
इन्द्रबहादुर
वर्षेनी
मोडल
बराल
बढाइरहेको
सन्तुष्ट
एम्बुले
##कुशल
खुलेपछि
आउँदैन
मध्यावधि
घेरामा
परिषदको
रोल्पाको
टेकुमा
कित्ता
टेलिकमले
हिउँदे
वन्यजन्तुको
धराश
राहतमा
भारतिय
अहं
सिकिस्त
बहाना
पुँजीवादी
डिशहोमले
टुंगिएको
##केन्द्रित
महतोले
नखुलेको
जवाफदेहिता
वसन्तकुमार
प्रतियोगिता
नवरात्रको
बस्तुहरुको
समर्पण
##गणना
द्ध
बास्कोटा
बास्कोटाले
एशोसिएसन
सफारी
न्युनतम
श्रीलंका
भेगका
पुल्चोक
पुल्चोकमा
सिलिण्डर
भुषालले
भूमिस
निश्कर्ष
अधिवेशनमा
हातेमालो
आमन्त्रित
झुटो
विक्री
गोपनीयताको
##निर्देशक
करणी
मलेश
सर्वसम्मतिले
अँध्यारो
प्रभावकारिता
अफ्ठ्यारो
ब्रिटिस
##नाल्ड
सेमेष्टर
फैसलामा
बेरोजगारी
सुक्खा
अक्सफोर्ड
सेमिनार
ग्रहयोग
सर्किट
##ेडिट
प्रगाडता
सिपाही
न्यायोचित
दृष्टान्त
पत्नि
निसीखोला
मायालु
भेन्टिलेटरसहितको
दाखिला
वकालत
श्वेत
डिपार्टमेन्ट
चनाखो
ध्यानआकर्षण
प्रक्षेपण
##नागरिक
दुरूपयोग
आजभोलि
पुरुषोत्तम
गैरकानूनी
अक
अञ्चल
आण
आप्र
इश
इकाई
उचा
ऐश्व
औल्या
करको
खरा
खाट
गाय
घटाएको
चिसा
छ्या
ज्यू
जलेर
ठहरि
तम्
तवर
नाइ
नहर
न्यारो
पानि
फ्या
बखत
भृ
भत्र
भ्यान
भैँ
भयौं
मानी
यास
युट
रच
वनमा
शशी
सल्ट
सँध
##िब
##वेज
##तेदार
##जङ्
##अलि
##ुले
##ुराम
##सँ
##सेको
##सम्पन्न
##कप
##क्यो
##बको
##बाख
##हक
##हरको
##खेरि
##पै
##पेको
##पहि
##पर्य
##ध्
##फि
##फिया
##गानि
##ँजा
##दभ
##श्रा
##श्री
##आवश्यक
##घार
##छर
##ौज
##मान्य
##मानको
##माध्यम
##ारू
प्रलो
प्रवासी
प्रफु
##ानिलक
##स्वी
##स्पे
##लाउन
##तिना
विग्रह
वित्ति
##वाडी
##निष्ठ
निन्दा
##नुहोला
##क्षालाई
हुनुभएका
राकेश
संक्षिप्त
साधना
साँचो
साईड
दिन्छु
दिंदै
##न्दमा
##ल्ले
नेपालभित्र
नेपालभर
पुरो
होमि
सुगर
सुदर्शन
सुशीला
##दाताले
गर्नू
सम्प्र
गरेकोे
##लीन
##लीका
सरकारबीच
##भिट्टा
##्चित
एकले
एकमात्र
बढे
बढाउँछ
##बाराही
##नीत
कुण्ठ
दुरा
दुर्व
यसतर्फ
##ँगुनारायण
प्रतिब
##म्मर
##ेतीले
पार्टीकै
स्थलको
बायो
##प्रच
##प्ति
भएकाहरुको
भएकामध्ये
परिपक्व
गरिनुपर्छ
कमसेक
स्थानहरूमा
रोमा
क्षेत्रीले
वाह्य
भएता
भएसम्म
भएअनुसार
अध्यक्षता
सोल्टी
जातका
##हरूमध्ये
हजारमा
समातेर
मिजार
##हुरी
मुकेश
दिनै
निर्णयसमेत
लिँदा
लिदी
लिपि
लिखत
बुक
बुर्ति
नगरेर
घरलाई
याे
यान्छ
अवस्थाले
प्रमुखसँग
आइलाग
##कुवा
भइहाल
भइसक्दा
भइरहँदा
स्थानीयस्तरमा
विषयहरुको
गाउँको
ल्यायो
##लियो
##लिटर
मानशिक
##लुन
##कालदेखि
मेरी
मेजर
दलहरू
शर्मालाई
बसेपछि
प्रयोगबाट
##तमै
नयाँदिल्ली
अन्यलाई
रामशरण
पुनर्क
नागरिकहरु
चाँगुनारायण
आग्रहमा
उल्लिखित
बालगो
खाले
खार्पु
कसर
कसूर
मोही
नगएको
विज्ञहरुले
युनाइ
नियन्त्रक
नेतृत्वका
हुँदैन्
प्रस्तावबारे
पोखेका
मुख्यालय
बेपत्ताको
खोजेर
खोजियो
लेखक
##रतर्फ
नामको
नामकरण
भिडिओ
पर्यट
उपत्यकाभित्र
विभागलाई
आरोपी
रोकेर
##मिकल
तिक्त
संरक्षित
##सुम
लामखुट्ट
घटनाबाट
वटासम्म
कतिले
बजारबाट
चुलि
चुक्ता
स्पेन
सक्छु
सम्झौतालाई
उपाधि
विद्यार्थीमा
मानिसका
आन्दोलित
विश्वासपात्र
सीट
##सम्मान
प्रक्रियाको
जीवनलाई
लकडाउनपछि
पुष्पराज
पोखरेलका
बीबी
सन्दीप
एकतावद्ध
निर्वाचनबाट
बहुल
बहुपक्षीय
##योजनको
भित्रि
भित्रका
मापदण्डविपरीत
शनिबारसम्म
मुद्दाहरु
यातायातले
गण्डकीका
विधिसम्मत
राहतका
स्वीस
सच्याएर
##टोलमा
मुख्यमन्त्रीको
आफन्तहरु
चेली
ऐनले
देवता
देवीलाई
चिकित्सकहरुले
तथ्या
पु¥याइ
लुकेको
कतिपयको
अत्याचार
अत्याधिक
नदिदा
सोचमा
आमनागरिक
प्रतिवेदनलाई
प्रतिवेदनबारे
सभालाई
##्र्दभ
कमाएको
विचारधार
बचत
अध्यादेशको
लाग्नुपर्छ
तुलबहादुर
तुल्याएको
फैलने
सुदूरपश्चिमको
पुर्याइएको
एमसीसीका
सतहमा
अफगानि
लडेको
लडेका
मजदू
विधेयकका
मान्यजन
उपभोक्ताको
राससलाई
प्रगतिकै
वेवास्ता
वस्तुगत
ढाड
खण्डीकरण
प्रकारले
दक्षिणी
अन्तिममा
ब्यारेक
निकटका
गुमाउनु
बलिदानी
क्रियाशिल
गैरकानु
चालकले
ठेगान
एकैसाथ
इलामको
पहुँचको
सुर्खेतबाट
शाहीको
नरहेकोले
फेब्रु
कहिलेसम्म
##चनालाई
समेट्ने
प्रबन्धक
हरियो
दशैँघर
नसकेमा
चाहनेहरुले
भविष्यको
नदिनका
ब्यापक
विपद्मा
बगान
बारामा
सारेर
स्थिती
खसेका
प्रकरणको
थानकोट
दबाव
##शिश
##शिला
##वेयर
स्वास्थ्यकर्मीमाथि
शाक्यको
भत्काउने
पुनःनिर्माणमा
ट्याक्टर
प्रत्यारोपणका
##मूलन
नवलपुर
संवादको
असफलता
स्वयंसेवक
खड्कालाई
कन्चन
उन्मूलन
पद्धतिमा
काउन्टर
कास्कीका
पुर्नगठ
##चुङ
संसारको
अलिअलि
चौधरीलाई
सर्लाहीको
लिमिटेडको
पाएँ
इन्टरनेटको
संविधानसभाबाट
बङ्गलादेशका
जाजरकोटको
नैतिकताको
जनयुद्धको
पोष्टका
सुरक्षाकर्मीमा
उभिन
आइपुग्ने
शंकाको
लक्ष्मीपूजा
गौरवका
उनिहरु
धानको
बिजुलीको
कोरियामा
नराखी
शासनको
केशर
पुस्ताका
पुस्ताले
घुम्ती
द्विविधा
##फिङको
पद्धतिबाट
विश्वकर्माको
ह्यान्ड
ह्याम्स
भक्तजनले
भक्तजनलाई
जंगलमा
वक्तव्यमा
छाउगोठ
वैद्यले
ग¥यौं
सुवासचन्द्र
बन्दीपुर
हेलिकप्टरबाट
दौरान
जनादेशमा
बृहत
रत्नपार्क
हाँसिल
नसकेकाले
##ोप्या
दिशातर्फ
ठाकुरले
##ख्यक
##ख्यालाई
नगरिने
पैदलया
तिमिल्सिना
सौराहामा
फाउन्ड
सहभागितामा
शक्तिपीठ
सानै
देशभक्ति
दवाव
व्यवस्थापकीय
सरसफाई
अराजक
रहेनछ
खाल्डो
प्लेटफर्म
मुस्ताङ
आफूखुसी
सहायतामा
मजदुरी
आदरणीय
ओझेलमा
मितव्य
टेलिभिजनको
स्ट्राट
रेशम
मूल्यमान्यता
नसोचेको
बालाजु
थाहै
झाँक्रीले
सहिष्णुता
डब्लू
##सांसद
अन्तरसम्बन्ध
बजारीकरण
माध्यामिक
रेस्टुरेन्ट
भालुवाङ
हुमकला
सानेपामा
गुरागाई
मताधिकार
##सञ्चाल
व्यवस्थापिका
माहामारी
यसअघिका
##्युसनरी
खरिपाटीस्थित
गण्डक
भन्यौं
मर्मतसम्भार
टर्मिनल
नपुग्दै
पहलकदमी
कन्स्ट्रक्सन
रिभोल्युसनरी
अबिश्वास
##वेष्टित
मोटरसाईकल
पन्ध्र
बोहरालाई
लुकीछिपी
ऐश्वर्य
सँधै
कमसेकम
बालगोपाले
अफगानिस्तान
गैरकानुनी
फेब्रुअ
अड
अत्त
अल्ट
आले
आवि
आयर
आकलन
इमेल
ईलाका
उग्र
कयौं
कमानसिंह
खटाएको
खहरे
गड
गहि
गैं
गस्ती
चम्
चालीस
छेड
छिनो
जरू
ठगु
थेग
दम्
धि
धव
धनमा
नत
नाला
बले
बहा
बेख
भीमा
भिसा
भालु
माउ
मन्त
मिसा
यथे
यत्रो
यतिवेला
रद्ध
लत्ता
वस्ती
सकुशल
हल्
हलु
हरसम्भव
##याल
##लबाट
##नजिक
##ुद्ध
##ब्रे
##डेट
##हल्का
##ेघ
##उला
##ँद
##ँडि
##दारमा
##भारी
##भोक
##भरको
##इयोस्
##्रमा
##र्दी
##कामा
##न्नाथ
##लेमा
##लेसी
प्रमो
##लाएर
##तिरको
विद्
विभू
गर्नाका
गर्दाग
##म्सले
निलम्ब
##्यामा
##्याइने
##पालना
स्टे
साध
साउने
साइन्
सास्ती
साटास
दिनेछन्
दिलिप
##रोपण
नेपालतर्फ
##ण्टी
माम
मार्क
लागेन
पुजारी
##ष्टा
भनेँ
सुपर
सम्झा
सरकारप्रति
कोरोनाकै
##भाषा
दुग्ध
यसपछि
सहर
प्रतिरक्षा
अनुरूप
राजालाई
वर्षिय
वर्षकै
बिघ
बिगत
बिर्सि
पार्टीहरु
बाव
बांकी
बानेश्वरमा
जिम
##टाचार
हामि
हुनेयोग
##प्रस
सेव
सेवास
गरीबी
कमै
सिरि
सिजन
सिलग
##ानीलकण्ठ
त्यसमाथि
सबैजना
सबैतिर
सोधे
जान्न
जावला
समयसीमा
बनाउँ
बनाउँन
जोन
लगाउनुपर्छ
मिठा
मुसल
राखौं
दिनानु
निर्णयविरुद्ध
लिजमा
पर्दथ्यो
##समय
परेकी
तरंग
नगरमा
नगरेपछि
सदनको
घरबार
गतेपछि
निर्माणस्थल
##सकै
व्याज
व्यासी
हुन्थे
स्वरूप
गुरा
गुम्बा
##कुन
##कासि
##हितका
आवेग
पहिराको
विषयहरुमा
ल्याउँन
विकासले
भूगर्भ
प्रचण्डबीचको
##ुवामा
समस्याबारे
##म्बना
नगरपालिकाभित्र
##ेकको
खुम्
छलफललाई
मागदा
मागअनुसार
अवलोकनका
बसाइँ
गर्नुु
##दियो
##दिएका
नयाँनयाँ
रामको
रामनारायण
सांसद्
पारिएका
पारवहन
बस्नेछ
बस्छन्
आयोजक
हावी
हाजिर
अभिव्य
उल्ट्या
भाँडा
पून
डिभाइ
डिफे
नाबाल
युगा
युरिया
दोधारा
बेसार
बेल्ट
मौद्रिक
कांग्रेसभित्र
##ुलभ
बन्दरगाह
विदेशका
##म्भु
आयोजनाहरु
योगेन्द्र
##स्टे
पठाउनुपर्ने
उडानमार्फत
व्यवसायीका
शान्ता
संस्थापन
सवारीको
पदभार
पीडक
योजनाले
लोकदर्शन
जोडिन
महिनाका
सुरुवा
सीमानामा
गृहजिल्ला
सक्नेगरी
घटनाहरु
किनबे
बाहिरको
महानव
छाङ्ग
छात्रा
##र्जनको
सहमतिअनुसार
रेफर
बजारसम्म
चुचु
पाइएपछि
भोको
उद्योगमन्त्री
जेभी
टोलीका
आरोपहरु
लगायतलाई
बदल्न
बिरामीका
कैयौँ
##चालित
##रुपले
भित्रने
पत्रकारका
प्रवेशा
चाल्नुपर्ने
फर्किएपछि
गणतान्त्रिक
चलाएका
वाताबरण
भूमिकालाई
##संगत
अवधिभित्र
डोनाल्ड
आफन्तलाई
चेम्बर
देउराली
##ल्याङ
साधनले
चिकित्सकसहित
मनाङमा
भुवन
भुइँ
अहिलेसम्मको
मूल्यवृद्धि
लुकुण्ड
पर्यटकहरु
सोचेका
आमजन
विद्यार्थीहरुको
थाल्नु
साउनदेखि
##सियन
सुनौ
मनोनीत
विचारमा
त्यसैमा
आमासँग
माध्यममा
दिइनेछ
नवजात
नोटमा
प्रजातिको
बहुमतका
झाः
विधेयकले
मान्यतामा
##ेजमा
##द्वारी
समाचारप्रति
चितवनले
प्रगतिको
शाखाको
पुरेको
नपाए
नपाएपछि
जोगाउनु
##क्टरमा
सभामुखको
जनप्रतिनि
प्लान
बालबालिकाका
सुविधाका
ग्राहकहरुले
##तकोत्तर
इतिहासमै
तुइन
स्तरको
बोर्डमा
##खोलाको
ऊर्जामा
स्टार
हप्ताका
औँसी
##ानोल
एमालेका
इन्डिया
न्यायाधीशले
विराट
ठूलाठूला
नसर्ने
शाहलाई
अनुदानको
जतिसक्
समेटेको
राप्रपाको
हरिबहादुर
म्यासे
हिँडेका
गराइन्
गराइनेछ
विराटनगरस्थित
परामर्शमा
चन्द्रमा
कार्यकालको
डिजेल
कम्प्र
व्यवहारले
मालवस्तु
जगन्नाथ
##्मीर
सकेनौं
भूकम्पको
भूकम्पपछि
मंसिरमा
##भरिका
चर्कि
छोरीलाई
बीमाको
भत्किएको
च्याङ्ग्रा
आआफ्नै
तनहुँले
कन्ट्रोल
भीडभाडमा
प्रवृत्तिको
फलस्वरुप
तथ्याङ्कले
लगाइन्छ
पुराता
कामदारको
##वद्धता
दिनभित्रै
पाकिस्तानमा
जमिनको
दुखेसो
अप्रत्या
त्रासका
पाण्डेलाई
चाडपर्वका
विश्लेष
नियमानुसार
म्याग्दीमा
मारिएको
वृद्धाको
##वर्षे
महोत्तरीमा
रुपन्देहीमा
प्रतिपक्षको
उदाहरणीय
बेचेर
##्सना
हेलिकप्टरमार्फत
उम्मेदवारी
आतुर
फोरजी
सिरहामा
संचालित
बितरण
बुढानिलक
क्यान्सरका
जाजरकोटका
रोल्पाका
परिसरका
बनाउनुपर्नेमा
आइसियुमा
प्रसन्न
राउण्ड
रेष्टुरे
रहिरहने
घिसिङलाई
दौडमा
रानीपोखरी
गरिदिनु
भत्काएर
ठाउबाट
तटबन्ध
आकांक्षी
इमान्दारी
खलंगा
लिइसकेको
पन्छाएर
मिचिएको
ढिलासु
बिदेशमा
ब्यक्तिगत
कैदीबन्दीको
टाइम
इन्टरनेसनल
##ोपचार
भन्नेबारेमा
भाग्यले
भाग्यशाली
फ्रुटको
ब्राण्ड
ब्रान्ड
लापरबाही
नवनिर्मित
म्याग्दीका
फसेको
आतंकित
शिशुको
भेडाबाख
मृता
धैर्यता
फिटको
कन्सल्ट
कन्सट्र
एशियाका
ट्रेडिङ
गइसकेको
फूटको
राजसंस्थाको
धनकुटामा
हर्षित
कसुरमा
खाल्डा
विषादी
मझौला
स्नातकोत्तर
मातृका
भूउपग्रह
बुढाथोकीले
उद्यमशीलता
गजेन्द्रनारायण
##ामध्येकी
सिलवाल
घोडाघो
ढुङ्गानाले
तमाम
क्यामेरा
ध्रुव
श्रृंग
अपरेटर
ताप्लेजुङको
फाउण्डेशन
स्क्रब
नख्
नउठ
किमार्थ
विजयादशमी
कमिशन
टाडिएर
कन्फरेन्स
राजभण्डारीले
कृतज्ञ
बेल्जियम
अपांगता
कोटाबाट
जिप्रका
पोशाक
शताब्दीमा
छरिएर
क्वालालम्पुर
आपतकालीन
टिचिङ
मेशिन
साबुनपानीले
राजपत्रांकित
कर्माचार्य
##सुरक्षा
कश्मीर
कर्फ्यु
नलागेसम्म
मेहनत
छाङ्रु
जुगलले
अनुसूची
##स्फूर्त
भूपरिवेष्टित
सम्पतीको
गभर्नर
उधारो
स्याटेला
चिसापानी
भत्र्सना
वित्तिय
पुरोहित
पुनर्कर्जा
युनाइटेड
छिनोफ
जरूरी
यथेष्ट
गर्दागर्दै
साटासाट
दिनानुदिन
घोडाघोडी
अमि
अब्द
अनैतिक
अजय
आषा
इकाइ
उडा
उसै
एडि
एघार
ओर्
ओलि
कपुर
खरो
खन्ने
खगोल
घले
घेरि
छाला
छर्ने
छटप
जडी
जर्ब
टर
ठह
ठान
डट
डडेल
ढाल्न
तरुण
दय
दस्त
दस्ता
दत्त
धन्दा
नपु
नमो
पड्
परोप
बजा
बाइड
भिस
रज
रेव
लत्या
वक्ता
वर्क
शेष
शर्मिला
सप्
सकु
स्रे
हलो
हमाल
##यरमा
##मण
##वालले
##ीर्य
##जै
##नौ
##नबाट
##ुत
##सरी
##सिन
##सडक
##रवी
##बर्ष
##बरमा
##्वाई
##्नुभएको
##टका
##डै
##ोदर
##झौता
##ेण्ट
##पडी
##पत्ती
##पट्टी
##ध्व
##च्यु
##चलन
##चोट
##चढा
##ठौ
##णले
##फ्र
##ग्य
##गतिमा
##भेटर
##आम
##ौडी
प्रअ
प्रज्व
##ताएको
##ताबाट
##ताउने
##तिष्
गराउँछ
विस्वास
गर्भ
गर्मी
कात्या
##वाणिज्य
निमन्त्र
नितान्त
नेम्बा
##क्षीय
स्टक
संका
संकु
संबि
##ेशनको
साच्च
##ल्छ
##ल्लु
##ल्कमा
##ल्दार
कोशिश
नेपालचीन
##कारले
##हरुमाथि
माथिका
पुडा
पांच
##ङ्दी
##द्देश्य
सुने
सुकै
सुमि
सुस्वास्थ्य
केक
सम्भार
गर्नेहरुलाई
##ाइको
##विच
##हीत
##मन्त्रीसमेत
व्यंग
बढाउँन
##नीतिमा
कुरुवा
कुष्मा
दुलालले
दुल्लु
पार्छ
पार्कि
यसप्र
यसबाहेक
योद्धा
राजदु
वर्षौंदेखि
बिज्ञान
जनप्र
बार्गे
जिति
##टाणु
क्षण
##्वल
##प्राय
##प्राइज
परिब
परिपाटी
##गाले
गरिन्थ्यो
जानकारीका
अस्वा
##साध
##साएको
##्रोन
सिङ
सिन्
##डाले
रोह
जिल्लाकै
मन्त्रि
सोभियत
जान्ने
##हरूबीच
प्राणी
लगेका
मिठो
देशहरुले
##जनाथ
##वादका
निर्णयपछि
सकिरहेका
महार
बुलेट
भारतबीचको
##पीको
##डिल
शुन्य
कार्यालयहरुमा
व्याप्त
##त्वको
स्वर
स्वचालित
देखिएर
देखिन्थ्यो
##पूर्वा
आवत
थपेको
##ियामा
गाउँबाट
गाउँघरमा
देखाई
विकासोन्मुख
##लिज
##लिएर
मन्त्रीपरिषद्
सङ्क्रमणकालीन
समस्याबाट
सेवाप्र
भाइरसविरुद्धको
व्यक्तिहरू
छलफलले
छलफलबाट
अवमूल
अवलम्वन
संक्रमितहरुको
##पनालाई
##ञ्जना
सचिवले
##थिल
नागरिकहरुलाई
सडकलाई
गर्दासमेत
पूर्वअ
पूर्ववत्
##त्तमा
हालेको
अभिमत
आग्रहसमेत
उल्टो
##राजनीतिक
बढीलाई
प्रभावलाई
##र्तन
खोलेको
जीविकोपा
प्रवक्तासमेत
महिलाहरुको
नाक
नाति
नाताले
विज्ञहरुको
##बारेमा
थापामगर
पाँचखाल
वडाको
##केता
##केजी
पत्रको
पत्रपत्रिका
अपार
शुरुका
लाञ्छ
ठाउँलाई
पठाई
पठाउनु
छोरो
छोपेर
सम्भाव्य
गोरु
##पुस्त
उहाँकै
संस्थाहरू
पदीय
योजनासहित
आइसोलेसनको
दाहालनेपाल
बजेसम्मका
ताकेता
व्यावसायलाई
ग्रेड
मूलभूत
तिलि
सीमाक्षेत्र
##सुब्बा
किनमेल
छायाँ
छाड्
चौला
करोडभन्दा
जुम
सीआई
बदला
बदलि
प्रक्रियाका
वितरणका
सन्दकपुर
बोलाउनुपर्ने
कर्णालीको
युवाहरू
पत्रकारहरुसँग
लिनका
बाटोमै
प्रवेशद्वार
रिडिङ
अपनाई
अपनाइ
##ौलाले
बजेटबाट
आन्तरिकतर्फ
सचि
यात्रुबाहक
गुरुयोजना
गुरुङका
न्यायका
प्रेसर
देउखु
सभापतिमा
नजिकिने
रिपोर्टिङ
तोक्
मनाइन्छ
पशुबलि
शैय्या
टार्न
##ज्ञात
पर्यटकले
तपाईंकै
अन्त्यको
कालरात्रि
कदमले
नदिएपछि
सोचले
मेडिस
डेंगु
सर्ब
आमनिर्वा
अतिआवश्यक
किसानका
भ्रष्टाचारका
##स्वरूप
घाइतेलाई
गिरीको
वार्ताबाट
अनुगमनलाई
स्वतन्त्रताका
प्याले
अमेरिकन
तोके
माध्यमले
नवदु
खेलवाड
निम्तो
परिस्थितिले
विपत्
निष्काशन
अग्रमोर्च
अग्रभागमा
मजभुत
मान्यताको
संलग्नतामा
किलोमिटरमा
भावुक
सुनिन्छ
त्यसपछिको
चिन्ताको
कामहरुबाट
##टेन्सन
कठीन
ढाँट
##छुतो
अोलीलाई
ब्याग
##एसए
##एसओ
हेरको
मान्छेसँग
एयरलाइन्सलाई
फाँ
रुपैयाँको
आलोपालो
पिल्ल
जानुभ
जानुपर्
सहकार्यको
अख्तियारका
शिक्षकमा
बलत्कार
साझाले
वर्गले
शाहको
भीमबहादुर
देखापरेको
रोजगारिका
जबकि
सिन्धुली
मितिले
साह्रै
##पोल
पदाधिकारीलाई
सक्दैनौं
फैलिएका
उत्तरपश्चिम
आरती
आरडी
गर्नेछौँ
कहाँबाट
बगेको
जनकपुरमा
ढंगबाट
गठनको
जनसङ्ख्याको
कार्यकालका
इरानका
राणाको
बन्दाबन्दीले
चासोका
सम्पत्तिमा
मिल्नेछ
समुद्र
##्वाइस
चर्का
गाँठो
माइक्रो
सिद्धान्तका
पञ्चमी
कलैया
गन्तव्यको
एक्कासि
व्यापारीहरुले
गोरखाका
प्रतिनिधी
खुसीले
भोकले
बढावा
दर्शनका
कमीकम
स्वागतयोग्य
संसारमा
चन्दले
पालिकाले
अनेकौँ
चल्दै
निस्कि
त्रासले
##पदार्थ
लालपुर्जा
सेवाग्राहीलाई
खोलाले
महानगरका
बङ्गलादेशबाट
आधाभन्दा
शब्दको
##शैनी
घाँस
ड्राइ
रक्तदान
दैनि
दिलाउने
स्याङ्जाका
नवलपरासीका
रूपैयाँ
यद्यपी
पाउँछन्
बुद्धले
बेलायतबाट
हिमालयले
होईन्
नमानेको
अल्पकालीन
फोरमले
भोलीको
##सीयु
स्थानान्तरणको
##बजारमा
दार्चुलामा
होल्ड
नपुग्ने
##प्राध्यापक
माफिया
कपडाको
शर्तमा
सवारि
सम्पतिको
कठिनाई
स्थायित्वको
निवारणमन्त्री
सडकखण्डको
नाघ्नेछ
मण्डलले
चौकीमा
नराम्ररी
मञ्चमा
मञ्चका
रौतहटका
हेर्नुपर्छ
ढुङ्गे
गोरखाको
मेलम्चीको
क्वात्रा
कुर्था
अनशनरत
सम्हाल्दै
राजविराजस्थित
चोलेन्द्रशम्शेर
धनुषाका
काङ्ग्रेसका
बहिष्कार
सोसाइटीले
पृथ्वीनारायण
एसियामा
##फुट्ट
नबुझेको
झडपमा
सङक्रमण
##ङ्खला
विनोदविन्दु
ब्यबस्थापन
ब्राजिल
सेनः
सीसीएमसीले
विद्रोही
##्टफुट्ट
प्रतिरोधी
##काउन्ट
नवरात्रका
पवित्रा
देशभरको
डम्बरबहादुर
विन्दुमा
सुविधास
##खेरी
अनन्तले
लैजाँदै
अराजकता
नलगाई
लेनदेन
इमिरेट्
अमरबहादुर
स्कन्दमा
उत्तराधिकारी
मानिन्छन्
मझुवागढी
तिब्बत
तिब्बतको
अंग्रेज
लम्की
सिलवालले
अपरेसन
एचआइ
##ामुढा
वकिलको
बढोत्तरी
ट्रयाक
सिंचाइमन्त्री
विसर्जन
छन्त्याल
संजाल
निरौलाले
औंल्याए
साँघुरो
ब्रह्मचार
इन्जिनीयर
अस्वस्थ
स्वराजको
पोर्चुग
किशोरी
खसेपछि
प्रतिलिपि
सुझबुझ
बाग्लुङमा
फाट्टफुट्ट
हिल्सा
कुरुम्वा
बिचौलिया
इमानदार
दायाँबा
ईश्वरी
तपस्या
सर्वोत्कृष्ट
थुनुवा
रजिष्ट्रार
ऐक्यबद्धता
ठोकुवा
महालेखा
मिथिला
स्ववियु
कन्टेनर
कनेक्टिभिटी
सांगठनिक
बिडारीले
वर्षाकोसम्भावना
फुयाँलले
केटाकेटी
प्रोजेक्ट
सरकराले
अबुधा
बेरुजु
जीवनयापन
तेजाब
अवैतनिक
वृक्षरोपण
आवश्यक्ताहरु
हस्पिटलमा
असङ्गठित
बर्सेनि
आणविक
सल्टाउन
##जङ्घा
##प्रचण्ड
##ोप्यासिफिक
डब्लूएचओ
मन्तव्य
जतिसक्दो
पुरातात्विक
मृतावस्थामा
स्याटेलाइट
छिनोफानो
आषाढ
डडेलधुरा
संबिधान
पुडासै
अकर्म
अश्र
अतु
अज्ञात
आड
आसन
आधिकारी
इनि
उल
उछि
उड्ने
एभर
एटिएम
ओमान
ओहो
किम
कप्र
कन्या
खानु
चले
चलेका
छेक
जाइ
डाइभ
तुवा
तित्त
धक
ध्य
नबि
पक
पती
पिर
प्यू
बसा
बेद
बृद्ध
बटु
बगरमा
मर्न
मलमा
यत्ति
लानु
वन्धन
शम्शेर
सँ
सक्त
हव
हच
हटा
हटाई
ह्रास
##िताका
##मू
##वर्क
##वतीको
##वर्ति
##वन्दी
##लानाथ
##तेका
##जले
##नार
##सस
##सरा
##साय
##सेस
##सानो
##कतै
##बृद्धि
##बक्स
##षमा
##षेक
##्नेछन्
##टरी
##डन
##डिन
##डक्ट
##ख्
##ें
##ेता
##ेरी
##ेली
##पका
##प्या
##पोज
##उद्देश्य
##चित्त
##ग्न
##ंको
##भेट
##ूरो
##शङ्कर
##ैला
##घगर्जन
##ौडा
##ौलीमा
##्राम
##र्डि
##र्नुपर्छ
##माइ
प्रिप
##स्म
##स्का
##स्टाचार
##लाउँदै
गरौ
विन्द
विजोर
विस्थापन
विमर्श
नेदर
##रुस्त
##नुहुन्छ
##क्षय
##क्ष्यमा
हुनुभयो
हुनाका
हुनुपर्नेछ
##पालक
रात्र
स्ने
##ेशनका
साइन
साउँ
साँगा
##ष्भित्र
##राणिक
समिट
कोसे
##यास
##याक
रहनुपर्छ
मास्
माक्र
मार्फ
लागेमा
##ष्टता
##रिस
##ण्डो
होड
सुप
सुध
सुनेर
##स्तानी
##दाह
##ेखोला
सरिक
जनाका
##ाइनमा
बताउँ
सरकारमाथि
##र्षिक
एकपछि
##न्तीका
##ायती
बढौं
कुसुम
##लोत्तमा
पार्ट
प्रतिकेजी
##न्छौं
अनुु
बिन
बिस्
बिज्ञ
जनही
बैधानिक
बैज्ञानिक
##ग्रा
बाथ
बार्
बाधक
##नमार्क
जिटु
##नुपर्दैन
प्रधानमन्त्रीविरुद्ध
क्षमत
##िमेट
##प्रभाव
##प्ला
##िनँ
परिस्थित
##न्धरा
गरिहाल
अस्मिता
##सामान
सिङ्गा
त्यसभन्दा
ओलीसंग
रोप्ने
जिल्लाभरि
सबैजसो
भएँ
जावत
##जामा
##जात्रा
हामीहरु
महासभा
महाव्या
समात्
##ेसनमा
##ेसनको
भन्छिन्
लगिने
देशहरुमा
तीस
तीर्था
पुगेन
पुगिसकेका
मुद्ध
मुनिका
##वादले
##वादीको
व्यवस्थाअनुसार
पर्छन्
सकिएर
महर
महाग
महङ्गो
नेतामा
तरङ्ग
घरहरु
घरदै
डाँग
शुल्कमा
गतेसम्मको
##ख्यात
आइएको
आइतवार
केहीले
साथसाथै
स्वरमा
स्वर्ण
गुटमा
सक्ला
हुनसकेको
प्रवक्ताको
थपलियाले
भइरहे
भइसके
पहिराका
प्रचलनमा
ल्याण्ड
संक्रमणकालीन
भूमी
उनीहरुमा
##मिनी
शिवस
##ङ्गको
मेरु
व्यक्तिहरूको
अवध
अवधारण
लाखसम्म
प्रयोगले
विश्वराज
हिरो
रामकुमारी
आफूविरुद्ध
गाउँपालिकास्थित
##पूर्णिमा
संसदका
##बाङ
##मैला
हात्तीको
दाहिने
अभिमुख
संविधानबमोजिम
भान्छ
खाँदा
##र्के
खोई
खोलिएका
जीन
जीउ
महिलाका
महिलाहरुले
महिलाहरुलाई
मोट
तपार्
पाँचदेखि
प्रस्तावका
बेथिति
भनिसकेको
नहुञ्जेल
मौवा
लेखनाथ
अधिकारीहरुको
अमृ
व्यवस्थापनले
अपलोड
अपडेट
##म्भर
##म्भीर्य
विद्यामा
लावती
गाम्भीर्य
उच्चपद
राष्ट्रपतिसमक्ष
निकाल्
निकालेका
पौवा
पौराणिक
##ध्यात्मक
बढ्नाले
उहाँहरूको
व्यवसायका
सर्वहारा
सवारीलाई
उपलक्ष्यमा
##शुराम
ग्री
##दैनौं
महिनावारी
तिंकर
तिलोत्तमा
बनाउनको
सीमाको
सीमान्तकृत
##क्षकको
घटनाप्रति
छाया
चुल्
चुलो
खर्चिलो
स्पे
सक्छौ
बुझि
बुझाइएको
बुझ्दा
नहुनेमा
आरोपको
विघट
प्रणालीमार्फत
जीवनशैली
आइतबारको
रकमबाट
एकतापछि
सुझावका
युवाहरूको
आउज
सम्झौतापत्रमा
रिक्सा
समन्वयको
समुदायस्तर
भण्डारीसँग
विज्ञप्ती
शक्तिहरु
फर्किसकेको
फर्किनेको
रातिको
गणमा
गणित
विगतदेखि
मुख्यमन्त्रीले
भागेर
भाग्न
भाग्ने
धावा
गर्छा
प्रविधिमैत्री
आन्दोलनरत
आफन्तसँगको
भूभागहरुमा
ऐनअनुसार
क्रेडिट
भ्रमणलाई
भुमि
शैया
मूल्यको
उद्धारको
सम्बोधनका
नम्बरका
##ारोहण
फर्केपछि
अलमल
कदमका
फोर्
सोचका
डेनमार्क
अभावको
राजीनामाको
भूमिको
कमाई
थालियो
डुड
दिँदैन
मनोवल
स्थितिको
विचारले
संकटबाट
संकटकाल
गिरोह
सम्मानका
रहेकै
##ज्जित
प्रयोगशालाको
संसद्का
एसएमएस
पसेको
कार्यकर्ताहरु
किलोमा
प्रगतिमा
राजदूतले
राजदूतलाई
पाण्डव
प्लस
पेस्तो
छिन्न
निषेधाज्ञाका
ब्यवसाय
जस्ताको
एकाध
नदीजन्य
खनालका
इजराय
भन्नका
अनिवार्यरुपमा
अनिवार्यरूपमा
श्रमिकले
श्रमिकहरुको
पिताको
हैरान
सहकार्यका
ठानेको
बलबहादुर
ढिलाई
ढिक्का
नेकपाभित्रै
फुटाएर
सँगको
शाहीलाई
नसकी
नसकिए
आपूर्तिको
प्रदेशसभाका
##फोन
यूए
नमूनाको
समेट्न
फैलिँदै
दशैँका
युनिसे
वडाध्यक्षको
भविष्यका
बगैँच
छाड्न
शेर्मा
##स्थानहरुमा
बुझाएर
संघर्षको
परियोजनाका
दुर्घटनाका
विराटनगरको
नरम
कमरेडहरुलाई
##मेघगर्जन
विधानअनुसार
आक्रमणबाट
दोषीमाथि
मृतकलाई
सानाठूला
सिद्धार्थ
भूकम्पबाट
येचौ
आदिमा
बिदामा
कारागारको
छोडेको
मिडियाको
पर्वतका
सुनुवार
पठाए
ट्यांकी
मोबाइलमा
सदरमुकाममा
पाकिस्तानी
सुनसरीमा
सुशासनका
अरबको
कन्काई
पद्धतिका
पुरातत्व
कामदारलाई
काउन्ट
विष्टको
अनियमितताको
सम्पादित
दुखी
सोधेका
सोधिएको
विप्लवले
ताराख
निर्देशिकामा
चल्नेछ
मजदुरको
उत्रिन
चियाको
द्वन्द्वको
चढ्ने
चढाउने
एकजनाको
महानगरको
वृद्धवृ
दोहो¥या
इन्डक्सन
रौतहटको
साहित्यको
दर्जनौं
रिसर्च
गठबन्धनको
तुलसीपुरमा
कपिलवस्तुको
पाउँन
प्रतिपक्षले
रोकिए
रोकिएर
बेच्न
आशंकामा
दुर्गामध्येकी
रानाको
सिँचाइमन्त्री
शहरबाट
सदनलाई
सन्तानको
लमही
सुस्तामा
बिषेश
सन्धिखर्क
व्यहोर्ने
दशैंँ
सिरहाका
भोगेको
खुलेआम
घिमिरेलाई
नुवाकोटमा
लेखापरीक्षण
यसपटकको
##त्तरदायी
मोहना
घेराबन्दी
सस्तोमा
रोल्पामा
उखुको
सम्पदाको
जंगल
निरीक्षणका
छाउनी
छाउपडी
कुवेतमा
रहिआएको
घिसिङले
##सन्तप्त
सोसाइटीका
जर्मन
घटनाक्रमले
अन्योलमा
डोल्पामा
दासले
विनम्र
भाग्यमानी
सीसीएमसीको
असुविधा
शोकसन्तप्त
म्यानमार
म्यानपावर
प्रतियोगी
दूरगामी
ग्राण्डी
सन्र्दभ
टिपर
बस्यालले
भैरहवामा
पशुपंक्षी
द्रुतमार्ग
##अगावै
समुहले
##बापतको
काट्नेहरु
हिमपातका
डाँडामा
उत्तराखण्ड
हाउस
अफ्रिकी
ऐक्यवद्धता
दुर्भाग्यपूर्ण
मल्लको
हर्कत
अनुशासनको
यज्ञराज
मरेको
बिजनेस
कोणबाट
पहिल्याउन
शैलेन्द्र
लगनखेल
चुपचाप
नक्साल
ठाँउमा
##बिक्री
आईसोलेसन
सुन्दरीजल
बहालवाला
माल्दिभ्
माल्दिभ्स
##ब्यापी
उत्तेजना
असमानता
चाडबाड
ढुंगाना
भविश्यमा
आबश्यक
तालाबन्दी
सर्वसुलभ
बताउनुहुन्छ
पौड्याल
कूटनीतिज्ञ
कम्बो
आइसीयूमा
शालिकराम
पृतनापति
##नेकपा
दोभान
स्टाटस
रिफिलर
चौपाया
डलरको
नैनराम
नफुट्ने
आङ्बो
ठूलै
थपिएसँगै
रक्षाबन्धन
भोकमरीको
स्यानिटाइजरमा
मिलेमतोमा
खैरहनी
इण्डोनेश
सड्क
##र्द्धन
अनुभवी
छांगरु
आयआर्जन
अकल्
दुर्व्यवहार
बालगोपालेश्वर
लत्ताकप
जावलाखेल
अभिव्यक्त
किनबेच
ढिलासुस्ती
नख्खु
बाइडेन
सुमित्रा
व्यंग्य
अस्वाभाविक
अवमूल्यन
लाञ्छना
अग्रमोर्चामा
आरडीटी
ड्राइभर
दैनिकि
ब्रह्मचारिणी
आधिकारीक
तित्तता
##वर्तित
प्रिपेड
उच्चपदस्थ
वृद्धवृद्धा
अडि
अलीको
अडिओ
इको
इच्छ
ईच्छा
उहा
ऋतु
एको
एपी
एयरको
एंव
केर
खनिज
गेल
गाउन
गल्याङ
घुल
चण्ड
छुन
छँदैछ
छर्ल
जौ
झम
झू
झर्ने
टङ्क
ट्याङ्क
टर्की
ढाका
ढल्के
तेश
तास
तलामा
थ्री
नड
नलिएको
पल
पहरी
प्यार
पङ्क्ति
फहि
फेम
फत्ते
बेत
बहिर
भरी
भनौं
भिटि
मनु
मेरै
मतियार
लिक
लहर
लायक
वनका
शम्भु
सका
सला
सति
सित
सस्था
सल्ला
हड
हर्
हिस
हतो
हलेसी
##िनेछ
##यक्ति
##ावती
##मर
##वरत
##वक्ताको
##लनको
##जिव
##अो
##अस्
##ुविधा
##सिएको
##सर्ग
##सवाल
##रन
##राल
##बढ
##बोका
##बखत
##टले
##डाउन
##डब्
##खानी
##ोहन
##ेष्ट
##पुट
##चाउने
##णको
##फस
##ग्ने
##ंक्ति
##ँती
##ँडी
##दली
##भिक
##थोक
##ूचना
##शमा
##शाह
##छे
##छेक
##ऊन्
##कोमा
##कारा
##न्टा
##न्जर
##न्चु
##नेल
प्रदाय
प्रज्ञा
##स्टी
##लासिस
विरु
विमुख
विधा
विहीन
विल्कुल
काटि
##म्वर
##निएको
##निएका
##निहित
निति
निवेद
निक्कै
##रुक
##्याण्ड
##पालगायत
रातमा
राठौ
संयम
संकल
साहु
दिप
दिइन
समता
समिर
सम्र्
नेपालसँगको
##कारक
रहको
माथ
मानेको
मादक
पुलमा
पुच्छ
पुस्तिका
##हिष्णु
पाएकी
##पाथ
सुन्ध
सुदीप
जनासहित
जनाएपछि
जनासम्मको
गर्नेसम्बन्धी
##छिम
सरकारसरकार
##भियान
उपेक्षा
एकरुप
एकपक्षीय
##नीतिको
क्लो
क्लव
कुश्मा
दुखा
दुस्सा
##रहनेछ
प्रतिबि
प्रतिवन्ध
कामी
अनुपा
बिष्ट
बिथो
बिजेता
##्युब
जनस्तरको
जननेता
पार्टीसँग
पार्टीबीच
जानका
##प्रस्वास
सेन्चु
परिवर्तित
प्रदेशहरूमा
##सीए
गरिरहे
अस्प्त
कारक
बैठकअघि
कमर्स
सिक्न
##बैधानिक
राष्ट्राध्यक्ष
राष्ट्रकवि
क्षेत्रिय
क्षेत्राधिकार
जिल्लाले
जिल्लाहरुमा
सबैखाले
वाच
भएयता
भएलगत्तै
भएसंगै
अध्यक्षबीचको
सोहि
##वारि
जापानी
जातिको
जाओस्
##हरूप्रति
गर्दैनन्
हामीकहाँ
बनाएपछि
बनाऔं
जोशीको
महाश
महासे
महाभियोग
महावाणिज्य
समानीकरण
प्राचीन
मिलो
देशसँग
देशभरी
गरेजस्तो
मुम्ब
मुहार
दिनले
##वादलाई
व्यवस्थासमेत
लिप
लिम्ब
आजसम्मको
दुईदेखि
दुईदुई
सकियोस्
महल
रहेकाे
रहेकाहरुको
नियमको
गतेलाई
##रसहितको
केन्द्रविन्दु
प्रशं
प्रश्वास
आइडिया
केहीको
केहीमा
##पुरेश्वर
##ंगल
##ंगत
स्वत
हुनबाट
##कुना
देखिँदै
भइहाल्छ
स्थानीयबासी
मनलाई
सदस्यहरुसँग
आफ्नी
अर्डर
विकासनिर्माण
भूक्षय
##सोम
मन्त्रीज्यू
##ेदारी
सङ्क्रमणलाई
मानिएका
मानार्थ
पोलि
पोल्ट
##ेकमा
हुनेछौं
मेरिय
दलभित्र
असन्त
व्यक्तिहरुले
व्यक्तिहरूलाई
मागको
मागेर
मागहरू
बसु
विश्वम्भर
हुन्छु
रामकुमार
##लनीय
चाव
चाहीँ
चिढ
सामी
सामन्ती
बाँधि
बाँदर
संविधानका
बालकोट
भात
अबदेखि
घटेर
डिपी
डिलिट
भेटिए
मोसाद
कृपा
##लगायतमा
पाँचौ
खोज्नुपर्ने
खोजमुलक
यात्री
मौलाएको
चारकिलो
विदेशस्थित
सवस्ट
हेरी
भएपछिको
आयोजनाअन्तर्गत
दिएकाले
ठाउँसम्म
मुख्यतः
योगी
कम्पनि
उच्चतम
राष्ट्रपतिका
घण्टापछि
गोही
गोपी
उपत्यकालगायत
##पुगे
विशेषतः
कम्पनीसँगको
अनियन्त्र
विद्यालयहरु
अदुवा
आउनेको
ग्रे
ग्रन्थ
आयोगबाट
##सुधार
अनवरत
छाडा
छापि
रेजा
दूत
बुझाउनुपर्ने
नीतिका
जेठमा
परेकालाई
सोमबारसम्म
कृषिजन्य
##समार्फत
रकमले
श्रमको
बोलाउनु
बहुमुखी
वरिपरी
आउनुभएको
मापदण्डका
प्रवेशको
ट्रायल
यातायातमन्त्री
गण्डकीप्रदेश
भर्खर
भ्रस्टाचार
सुधारमा
अझैसम्म
गणपति
चलाइ
चलाउनु
अमेरिकाबाट
अमेरिकासँग
भागको
##जोमा
दिनुस्
अभियानअन्तर्गत
अवधिका
वातावरणको
थालेकाले
##विद्या
भूभागबाट
क्रस
मध्यपूर्व
मध्यरात
पर्यटनका
विस्तारलाई
रिपोर्टमा
तोकि
तोक्न
हटाउनुपर्ने
पु¥याएका
##कार्यकारी
##बिधि
##बिखन
चितुवा
खटाइ
खट्ने
खटाउने
फर्केको
फर्कनेको
फोनमा
कोषलाई
चरणका
नदिँदा
डेस्क
चैन
संयुक्तरुपमा
भूमिबाट
क्यान्स
क्याम्पमा
विचारको
विचारका
बहन
##नेटाइ
राजनीतिका
अध्यादेशले
मतलब
गराउनका
बिक्रि
प्रयोगशालाबाट
सुदूरपश्चिमका
दिइन्छ
नवनिर्वाचित
प्रजाति
पार्टीभित्रै
बाढीबाट
बहुमतप्राप्त
अग्रगामी
सकेमा
सूर्यको
सूर्यप्रसाद
कार्यकर्ताहरुलाई
गतिविधिको
गतिविधिहरु
पूजाको
योगदानमा
तामाङको
पेसा
वृद्धिदर
छिर्न
दक्षिणमा
दक्षिणतर्फ
ब्यवहार
परिषद्सम्बन्धी
कार्कीलाई
हेरौं
गुनासा
बर्षिय
बर्षदेखि
घुन्सा
##ठ्यारा
##लागण्डकी
आवातजा
आवागमनमा
साथीहरूलाई
साथीभाइ
वनस्पति
कात्तिकमा
स्तब्ध
वाग्ले
सुनाउँछन्
आफुहरु
गएमा
ठान्ने
मार्गचित्र
जबराले
मलजल
साहलाई
संगठनलाई
जन्मिएको
जाँचको
##राख्न
बन्नुपर्ने
उत्तरपूर्वी
मित्रहरु
##्यौली
तारिखमा
खबरले
छाडेपछि
इरानलाई
खतरामा
##मेयर
फाइवर
पेट्रो
साउदको
शीर्षक
राजमार्गअन्तर्गत
कागेश्वरी
समुहका
किलोमिटरको
खेतीयोग्य
##चौरमा
ज्ञानको
बुटवलको
श्रीमतीलाई
चर्काे
युद्धस्तरमा
माइक
च्याउ
खाद्यान्नको
सेन्टरबाट
न्यौपानेलाई
द्वित
पराजय
कञ्चनपुरले
प्रत्यारोपणको
##टिप्पणी
मेलौली
सिकाइमा
आवाजलाई
भन्नुहुन्थ्यो
पुस्तालाई
पर्खाइमा
दैलेखको
प्रतिबन्धित
भोकभोक
उपलब्धिलाई
वीरगञ्जको
उपमहानगरपालिकाले
##्रिज
निराकरण
कार्यविधिमा
नमिलेको
बैंकि
भेटघाटमा
इलाकामा
तारेख
महेन्द्रनगर
निस्केको
दशकौं
दशकदेखि
भगवान्
प्लाज्माथेरापी
त्याग्न
चढेको
मारेर
बाहिरिएपछि
सम्मेलनमार्फत
जाजरकोटमा
मातहतको
रुकुमपश्चिम
ठिकै
##ाग्रस्त
नलिई
##बोल
चेतनाको
बझाङको
बझाङमा
तिहाईको
रोकिएपछि
ज्ञापनपत्रमा
उदाहरणका
मोटरसाइकललाई
बेचबिखन
शुक्ला
शुक्लागण्डकी
तोडेर
फोरमका
सघाउन
बाँच्ने
बाँडेको
डिलाशैनी
अछाममा
टोलटोलमा
घुम्ने
कतारको
अनुपम
बाजुराको
औषधीजन्य
पृष्ठको
धम्क
हिउँदमा
मुटुको
नगराउने
उताबाट
मनसुनको
बनिरहेको
बनिसकेको
कुर्सीमा
##्र्तगत
बाढीपहिरोका
दिन्छौं
गरिदिए
ऋषिङ
ठाउं
शहरको
हजरत
##अपेक्षा
त्यहीँबाट
डिशहोम
पृथ्वीसुब्बा
पन्छाउने
निषेधाज्ञालाई
मधुमेहका
स्विकार
सङ्घसंस्थाले
राखिनेछ
कैदीबन्दीमा
बर्दियाका
माइतीघरमा
गैँडाको
गैँडाकोट
सत्रमा
माविको
##िनीयरिङ
सचेतनामूलक
बडेर
रोजेको
अखण्डताको
गरिरहनुभएको
सुवालले
भनिएपनि
परिक्रमा
देशभरमा
गुणात्मक
सिफारिशमा
सुविधामा
जमात
मीनबहादुर
फूट
राइड
परिवेशमा
नलगा
##भराउ
विधायन
पृष्ठभूमिमा
नल्याउने
विषाक्त
लीलाधर
उकास्न
खगराज
खगेन्द्र
दुनियाँमा
छोड्नुपर्ने
खरेलले
हत्याकाण्ड
तुम्बाहाङ्फे
उपसमितिले
त्रिपुरा
त्रिपक्षीय
अख्तियारी
गुमाउनेको
साउदले
लमजुङको
धकेल्ने
बिवादित
पत्रिकाले
उप्रेती
आमन्त्रण
टेलिभिजनमा
भाईरसको
टेक्नोलोजी
बिद्रो
ठाँउ
कन्फरेन्समा
शरिरमा
सुकुम्बा
पोर्चुगल
##मध्येका
हुलाक
काठमाण्डौ
अबस्थामा
भागबन्डा
स्वेच्छ
वर्णन
स्वाधिनता
परदेशको
दीपावली
गार्ड्स
फिल्डमा
आईसियू
उतारचढा
लखेट
स्रोतसाधन
क्राइसिस
युनिभर्सि
चढाएर
भैंसेपाटी
##काठमाडौँ
प्रसङ्गमा
सिंचाई
कालखण्डमा
अढाई
मुलुकी
रौनक
नरमाईलो
बदलिएको
सुहाउँदो
शैलपु
बहराइनमा
एम्बुलेन्समा
धराशायी
तवरबाट
भृकुटी
मान्यजनबाट
हलुका
प्रमोद
विद्धान
मामलामा
सेवासुविधा
भेडाबाख्रा
कन्सट्रक्सन
कपुरकोट
जर्बजस्ती
##चोटि
कात्याय
नवदुर्गा
दायाँबायाँ
अतुलनीय
तीर्थाटन
आउजाउ
सन्र्दभमा
लत्ताकपडा
घुलमिल
भिटिएम
##यक्तिक
मोसादेघ
अनियन्त्रित
अपर्
अर्व
अपन
अन्स
आति
आहार
आनाका
उसका
उखान
एआईजी
ओभर
कङ्
कट्ट
कलाको
कतारमा
खाग
खोक
गन्ध
गंग
गेम
गाइड
गहना
चोर
चुल
छल्न
जाम
जगा
जम्बु
टप
टहरा
ठी
डबल
तलाको
तौल
थला
थर्म
नजो
नारि
नतो
पाला
पिट
पक्का
फक्रिय
फाल्ने
बेक
भट
मल्ट
मञ्जु
रित
रसाइ
लाह
वहाँ
सजा
सखा
सिनो
हत
##िबद्ध
##यलको
##ाडा
##महि
##मीमा
##वद्र्धन
##ीकार
##जाम
##अन्तर
##साल
##सतह
##कस
##कक्ष
##कट्ट
##्मा
##डेर
##ोले
##ोटमा
##पछी
##धन्दा
##ठगाँठ
##ंघ
##ंवैधानिक
##दत
##भित
##श्याव
##ैपर्ने
##छन
##छ्यो
##ौसम
##ौलमा
##ओको
##्रेड
##र्कोट
##न्टाई
##्याली
##नेस्को
प्रजन
प्रबुद्ध
प्रनाउ
##ानिक
##लाङ
##क्नु
##क्दै
विवि
##वाहित
##निचर
निवा
##ितै
##ागु
##नुपरेको
हुनुपर्यो
संयोग
संचित
संहिता
साताको
सांगी
##ल्ठूला
##रोटी
कोर्स
कोभ्या
##ाउस
##ाउण्ड
##ाउदा
##ाउनेछ
पुरी
पुसको
पुरीले
##हास
पाच
पासा
पायक
भनें
होओस्
सुति
सुन्द
सुप्र
##स्तेदार
थिच
निर्दिष्ट
केटी
##धिराज
सम्पत्ती
गर्नेहरुका
त्यतिमा
बतायो
लागिपरेका
उपदेश
उपहास
बढेमा
क्लाउ
कुम
कुमा
कुबेर
सङ्कलित
दुु
दुग
यससँग
यसमध्ये
##रहनुभएको
सह्य
सहयो
सहेर
प्रतिक्षा
कामप्रति
##रणको
##किएपछि
वर्षभित्रै
बिस
बिध
स्वाद
##ष्ट्राचार
जनजी
जनगणना
जनअपेक्षा
पार्टी्
##ग्रही
बाझ
बाच
बाहु
बाजि
बाणिज्य
बार्षिक
##टाए
प्रधानमन्त्रीमा
प्रधानमन्त्रीसमेत
##िसि
क्षणिक
##प्रणाली
रुग्
##प्स
सेक्र
सेके
परिप्र
परिपूर्ति
परिच्छेद
परिदृश्य
परिपालना
परिभाषा
##साँ
##साएर
कमिट
सिराहा
त्यसकै
त्यसबाहेक
त्यसलगत्तै
काठमाण्डुपाटीसँग
रोटी
जिल्लामै
##ेटको
##ेटिक
##तीत
वाह
अध्यक्षसहित
सोमध्ये
##वारे
##वारिसे
जातजा
जाँदैछ
नेपालीहरुले
नेपालीमध्ये
हामीमाथि
मिली
मिर्च
मिलले
पुगिस
पुग्नुपर्ने
मुना
राख्छ
राखियो
दिनभन्दा
दिनसक्ने
आजभन्दा
पर्चा
पर्दछन्
दुईमध्ये
दुईपक्षीय
सकिरहेको
सकिँदैछ
##ाउनका
मन्त्रालयद्वारा
##डिए
##डिएका
नगरौँ
घरबाटै
भन्नेतर्फ
याक
केन्द्रबीच
प्रमुखमा
आइपुगे
##ंगले
##ंगिक
महिनौं
स्वं
सक्नुपर्ने
##कुण्ठ
देखिदैन
थपेर
भइरहन्छ
पहिरा
पहिलाको
मनस्थिति
मनस्थितिमा
##ट्स
##ट्प
देखे
ल्याव
ल्याउनुपर्छ
अर्ध
##रमार्क
अन्तमा
मन्त्रीका
पछिल्ले
उनीलाई
उनीसँगै
बोले
बोकी
##म्पो
आएकोमा
नभनी
असुली
खुद
खुसीय
माग्दै
श्रद्ध
गर्नुप¥यो
##ूल्य
सचिवलाई
हुन्छन
रामकृष्ण
सुरक्षाभत्ता
चाब
गर्दाको
##बाड
पूर्वको
पूर्वनिर्
पूर्वसांसद
हाड
हाई
दाँ
दाता
गौर
बालमैत्री
भान्जी
सांसदहरूलाई
निर्वा्चित
##टरको
घटेका
आधारभुत
डिआइजी
भेटेको
नाङ्लो
नातेदार
मोती
मोडेल
अगाड
विज्ञले
बेलाको
नियन्त्रित
आएकाको
हुँदैमा
वैयक्तिक
पाँचवटा
प्रेमराज
तयारीको
बेग
वडाले
महामारीपछि
महामारीविरुद्ध
पत्रका
अमूल्य
देखिएकोमा
व्यवस्थापनलाई
शुरुदेखि
##ड्कारो
##ारात
अन्तरपार्टी
संघिय
##पुर्व
चाहेर
जानेको
उहाँमा
उहाँहरूले
संस्थाहरुको
प्रतिनिधिमण्डल
##कडभिट्टा
कम्पनीबाट
##माथिबाट
कमिटीलाई
राज्यव्यवस्था
पौडेलमाथि
ग्रेट
##फाँटा
अर्थमन्त्रालय
तत्काललाई
सुरुआ
अदालती
सीमाका
नंं
अध्ययनबाट
बस्नेगरी
हुनुमा
हुनुले
छाैं
फर्निचर
रेनु
बजारलाई
फिल्ड
जुधि
हालसम्मको
##परक
##परेमा
रोजगारमा
भोलिका
बुझाउनु
बुझिन्छ
बुझ्नुपर्छ
लेनिन
सीपी
सीताको
पूर्णतः
प्रश्नले
पोखरेलसँग
निकायहरु
निकायहरुले
बहुउद्देश्य
विरोधका
उत्पादनलाई
शनिबारको
मानवता
अपनाएका
यसैमा
##ङ्कन
भण्डारीसमक्ष
महाशाखामा
विज्ञप्तीमा
पुगेकाले
##मीसम्म
जलसतह
अन्तर्राष्ट्रियस्तरको
पेशामा
गुरुको
क्वारेन्टाइनका
विघटनसम्बन्धी
सामग्रीहरु
प्रयासहरु
धापा
आफन्तहरुको
रिपब्लिक
खुलाएको
खुलाइएको
भदौमा
राख्छन्
राख्दछ
##ल्याउने
दर्ताका
साधनहरु
चिकित्सकहरु
मध्यरातमा
##ँडो
मंगलबारको
आत्मघाती
हटेर
हट्ने
हातले
लुकाउने
सञ्जालले
खरिदको
तपाईंहरुको
सशर्त
अन्त्यका
सिफारिसका
घाइत
होटेल
चरणबद्ध
विद्यार्थीहरुले
अवसरका
मिलापत्र
एयरवेज
##याधीवक्ता
थालिने
##पिच्छे
कानूनलाई
##ीकरणको
दृश्याव
घाइतेहरुको
त्यसैलाई
पूर्वाधारमा
कीरा
लाग्दो
लाग्थ्यो
आमासरह
तुल्या
बिकल्प
बिक्रे
प्याडिल
नौवटा
माध्यमको
दिइएका
पुर्याएका
स्वास्थ्यकर्मीहरुको
खेलिने
खेलबाड
संरचनाहरु
संरचनागत
अग्रवाल
विधेयकमाथि
त्रिदेशीय
त्रिपुरेश्वर
##ेजस्तै
समाचारले
सुनिता
कुलप्रसाद
त्यसपछिका
बढाउनका
शाखामा
राजदूतको
चुनौतीका
निधनपछि
महासचिवले
दुःखको
पीडितले
ट्रान्ज
छोराले
थुना
पुलिस
कक्षामा
व्यवसायीसँग
एकापसमा
गुणस्तरको
गुमाए
उमेद
नपठ
##ँदैनन्
रुपैयाँमा
खानले
भक्तपुरकी
साथीहरू
नआओस्
सतर्कताका
भरतपुरका
पिउने
अनलाइनबाटै
##स्वार्थ
कुनकुन
गर्नुपर्दैन
धर्मको
ठानेर
पर्वमा
कटिबद्ध
कानुनबमोजिम
स्याहार
ब्रम्
सिकाएको
बेलायतका
अर्थमन्त्रीले
तापक्रममा
जन्मजय
झलक
जाँचपास
##राख्ने
फैलिरहेकाले
चिन्ताले
आरक्ष
आपू
चाहनेलाई
हिँडेर
रिटमाथि
गणतन्त्रमा
बग्न
विश्वव्यापीरुपमा
साइकलमा
गराइरहेको
सुरक्षाकर्मीहरु
एमालेबाट
भुक्तानीका
दुर्घटनाबाट
कञ्चनपुरमा
परामर्शदाता
मिर्गौलाको
चन्द्रघण्टा
टिप्पणीले
आफैंलाई
बताउदै
साउथ
सानातिना
समुन्द्र
दीर्घायु
##ालगायतको
##च्छाचारी
आदिको
बिदाई
बुटवलका
स्वास्थ्यकर्मीका
डुबेको
उपमहानगर
कलश
सेन्टरले
जोडिएर
लिम्पियाधुर
आजैका
संवादमा
गुरुङलाई
दबाबमा
मोरङका
पाउनेछ
जोगाउनका
कुराकानीमा
नाराका
अस्वीकृत
तिवारीका
कास्कीको
मोदीलाई
जरिवानाको
अवाञ्छित
अरूलाई
संसारकै
##घरका
##उँछौं
खानपानको
दुर्गाप्रसाद
रगतदान
खेतीमा
खेतबारीमा
##गीन
मजदुरलाई
किटान
पारदर्शि
बच्नका
प्रवद्र्धनका
सहसचिवको
मिश्रित
चढ्न
म्याग्दे
बङ्गलादेशको
अनुमतिपत्रका
##होरेको
पुनर्विचार
अवैधानिक
जयबहादुर
पूर्वप्रधानमन्त्रीसमेत
चक्रबहादुर
रुपन्देहीका
मौसमविद्को
नवलपरासीको
प्रतिवेदनमाथि
रूपमै
लक्ष्मीनारायण
हतियारको
गरिबीको
ट्रेसिङको
नचलाउने
वृद्धा
तोडेका
सरोकारवालासँग
भेन्टिलेटरको
महाराष्ट्र
महाराजा
सन्तानबाट
फोरम
व्यहोर्नुपर्ने
दरबारको
शासकीय
गुणस्तरहीन
भ्याट
भोगेका
धादिङका
अछामका
कुकुरको
पारिश्रमिकमा
यथार्थलाई
कतारबाट
##ेश्वरमा
प्रशिक्षणमा
उडेको
शर्तसहित
##ङ्ग्रे
##रियाली
भक्तजनका
टेकुस्थित
गम्भिरता
मण्डलको
हुनुहुनेछ
नराम्रा
बाघको
बाघले
स्वीकार्न
हावाको
संशोधनमा
कटानको
एलपी
जलाशय
उत्तरमा
गैरसंवैधानिक
जनादेशका
भत्काएको
अड्किएको
यिनको
पाठशाला
बंगलादेशमा
नुवाकोटको
रातारात
##िसकेकाले
भरिभराउ
प्रर्दशनमा
गौरीगञ्ज
स्वामित्वमा
डोल्पाको
पद्म
संचारमाध्यम
वरिपरिका
इस्लाम
कौश
शेर्पाको
ब्ल्या
गरिमामय
युगको
आश्रममा
जनचेतनामूलक
डराउने
तिनीहरु
प्रदर्शनको
सदाका
इञ्जि
मानन्धर
बराह
ब्यवस्थापन
सिसिएमसीको
एक्सरे
एक्सटेन्सन
बस्यो
सार्कीको
बिरोधी
कर्णले
बिर्सेर
मनोजकुमार
जुवाडे
जुध्नका
नजरमा
ओमप्रकाश
डायलासिस
वरदान
द्धि
अनलाइनमा
माओवादीको
घर्तीले
एक÷दुई
शुभेच्छा
अक्षु
बूढी
बुँदामा
एशोसिएशन
बोलेरै
ओखलढुंगा
मार्क्स
उद्यमशीलताको
ऋषिराम
मस्जि
मस्तिष्
तमासा
नन्दबहादुर
बिन्दुमा
क्यामरा
राजदूतावासले
अनुशासित
वकिलले
##अन्र्तगत
घण्टामै
अपराधीलाई
बिद्यार्थीहरुले
इलेक्ट्रो
नजीकै
शितलनिवास
सहचालक
सुकुम्
गाविस
वेबसाइट
नेविसङ्घका
##वाकोटीले
सोलुखु
वासिन्दा
एसएसबीले
चौरसियाको
प्यानल
दिउंसो
कोतडाँडा
बिराटनगर
पुरूषको
आवस्यक
खारेजीको
धामीले
मारिए
पुर्चौडी
बज्रबाराही
चौमासिकमा
हरितालिका
ज्वेलर्स
संभावित
कोरियन
राजिन्द्र
राजवंशी
भाजपा
एन्फाले
तप्का
आँगन
जडिबुटी
जिल्लालाई
प्रयोगशालालाई
नरैनापुर
महान्यायाधिवक्ता
ओरालो
छोरालाई
मर्माहत
मर्कामा
समीरकुमार
पुर्वाधार
कार्यन्वयन
##बाईल
लक्ष्मीको
ट्रान्सम
इजलाशले
तराईमधेश
मिजारले
यान्छीले
आविष्कार
दम्पती
मागदाबी
युगान्त
रेष्टुरेण्ट
कृतज्ञता
जडीबुटी
दयाराम
दत्तचित्त
नमोबुद्ध
##साधरण
पिल्लर
सुविधासम्पन्न
अश्रुग
एभरेष्ट
ओहोदा
डाइभर्सन
प्यूठान
हवल्दार
##नारहेको
माक्र्स
मार्फन
सुपरमार्क
बताउँछिन्
मुद्धामा
चुल्हो
पेस्तोल
अकल्पनीय
तेश्रो
बहिरङ्ग
##डब्लु
एकरुपता
महासेठ
मेरियट
क्यान्सरको
भोकभोकै
सुकुम्बासी
आनाकानी
फक्रियर
सखाप
सांगीतिक
मिर्चैया
बहुउद्देश्यीय
सोलुखुम्बु
¥या
अभिन्न
अुन
अछुतो
आक
ईः
ईमा
एड्
एमिक
एअर
ओढ
कव
कर्क
खनेर
खम्बा
गथ
ग्वा
चण्डी
छता
जली
जलमा
जडित
जेसु
टड्कारो
ढलान
तम
तँ
तित
तलव
तागत
दया
धप
धर्
धागो
नानी
नविन
नर्भिक
पद्द
पतन
पब्लिक
ब्यान
बक्स
भीर
मिन
रेट
रिति
लब
लण्ड
लचिलो
वनको
वहन
वहाव
सट
सग
स्य
सल्
सवि
स्रो
सपनालाई
हाट
हतारमा
##िन्
##िदै
##मञ्च
##वहादुर
##वृद्ध
##लैले
##ीण
##जला
##जनिक
##जुल
##जेसन
##नता
##नरसिंह
##सह
##सङ्ग
##सहन
##सागर
##रङ्गी
##बामा
##बलमा
##षि
##डम
##डाम
##खी
##ख्र
##पढ
##पनी
##पुन
##ठनमा
##फुट
##फाइमा
##गि
##ंकाले
##दरको
##दथे
##दन्ती
##दण्डको
##एजेन्ट
##शीमा
##शिर
##आज
##ैपर्छ
##ौना
##ृतिमा
##ओले
##र्नी
##मात
##मामा
##काको
##ारले
प्रारु
##स्लु
##लाबाट
##ताउन
##तिबाट
##तिहार
गर्र
गरेलगत्तै
##त्रको
विल
वितृ
विद्व
विखण्ड
विभूति
##वार्ड
##म्क
निहीत
नेत्री
##ितर्फ
##नुहोस्
राष्ट
स्पा
स्प्र
संक्रम
संवेदन
संवाहक
संयोजनमा
साङ्
साङ्लो
दिमा
दिनुपर्नेछ
##न्दि
समस्त
##ाटीका
##याउने
##याक्ट
नेपालसंग
##कारका
##कारिणी
भएकोे
रहँदैन
मान्द
मातह
पुष
##रिने
पाक
##दैन्
भनेजस्तै
##ङ्गत
सुजन
सुसं
सुटिङ
सुष्मा
तथाक
गर्नलाई
गरेकोले
बताइसकेका
कार्यलय
सरकारसंग
व्यथा
व्यूरो
उपनिर्वा
उपकार्यकारी
उपमेयर
एकमा
एकमत
एकसाथ
एकिकृत
क्लिक
कुल्
सङ्ग
दुलाल
यसभन्दा
यससंगै
##रहाउस
प्रतिमा
कामहरुमा
अनुया
अनुबन्ध
अनुगमनको
वर्षमै
वर्षसम्मका
बिरु
बिष्णु
बिहे
पार्टीबीचको
बाचा
बालेर
जिउ
जिन्दा
जिवनको
जिसीले
##िसकिएको
##्वार
##ाउँने
##प्रत्य
रुट
रुष्ट
##न्ध्यामा
गरिरहने
##साता
स्वास्थ्यलाई
कमिस
सिइ
सिंगा
गतवर्ष
स्थानलाई
जिल्लागत
##तीर्ण
वास्तु
भएछ
जान्छन्
जाऔं
गर्दैछु
##भावनारहेको
बनाइरहेको
जोड्
##ेसनका
लगे
लग्यो
मिड
##हुदा
मुल्या
दिनरात
##वादमा
निर्णयहरू
निर्णयबारे
प्रहरीसहित
##मुख्य
पर्सी
सञ्चय
दुईवटै
महो
महंगो
सामानमा
अहिलेपनि
बुंदा
नगरले
घरभित्रै
डाक्ने
##ष्ठि
केन्द्रहरु
प्रशान्त
आइसकेका
आइसकेपछि
निर्माणकार्य
निर्माणस्थलमा
सक्थ्यो
##कुने
##ौँको
##पूर्जा
उपचारत
थपेका
##जीत
##जीसँग
मनले
##स्तोलाले
समेतको
##्राजे
समस्याहरुको
##ेवल
बोरा
##म्बित
पोसा
##सिङ
##ङ्गै
दलीय
असिम
असजिलो
असहिष्णु
खुद्रा
मागहरु
मागप्रति
किल्ला
किर्ते
विश्वले
हिट
##तमध्ये
##ेमध्ये
##ेमौसम
सांझ
गर्दापनि
##मैदान
चिर्न
चिलिम
सामू
सामरिक
##डीले
##त्तो
दार्श
दादाग
अभिने
संविधानमाथि
##कृय
भातृ
अबरुद्ध
अबलम्बन
खाएका
घटाइएको
प्रभावबाट
दिनेहरु
कसू
##दीश
प्रवक्ताले
नाजुक
मोबाईल
नगराई
मुलुकसँग
युनेस्को
दोहन
पाँचजना
प्रेमले
पोखरीमा
मुखरित
अघिको
वडाअध्यक्ष
राजनीतिकरण
लेखेकी
लेखकले
अधिकारीहरु
##ित्दै
बन्दुक
विदेशीको
##यमोहन
शुरुवात
परिवारबाट
##जुरा
छोड्नु
भिज
गोलबजार
गोदाम
##वीकरण
##पुर्ति
चाहन्नँ
बढ्नुपर्नेमा
उहाँसँग
संस्थाहरुले
अनिश्च
अरुका
अरुतिर
##नुभएछ
ताकि
तानेर
रोकेका
अर्थव्यवस्था
दुवैतर्फ
निर्देशनअनुसार
सीमाबाट
नभएकोले
न्यायाधि
घटनापछि
##कर्मीलाई
वटामा
##बुबा
##बुझा
हुनुहोस्
सहमतिलाई
चौडा
चौबिस
सहभागीले
फिज
फिनि
फिलि
बुझ्
पढे
मानिसहरुले
उठाइएको
समाधानबारे
सफलताका
भन्दाबढी
यीमध्ये
मौसमका
बदल्ने
पूर्णपा
##ानुकूल
बनाउनेतर्फ
पिसि
जीवनस्तर
आशामा
स्पष्टता
बीस
बैंकलाई
निकायहरू
रकममा
न्यूज
बिहीबारको
##मुनिका
सेनाबाट
सुझावहरु
सुझावअनुसार
अर्कातर्फ
युवायु
##न्तरित
विकलाई
सम्झौताले
रिएजेन्ट
मानवजा
अपनाउँदा
मन्त्रिपरिषद्का
दीगो
एमए
एमसीए
अध्यात्म
धनबहादुर
टेबल
शक्तिका
शक्तिलाई
##टोल
चलाउँदा
चलाइरहेका
पाल्ने
साँवा
साँठगाँठ
सिफ्
आदेशअनुसार
विघटनलाई
नियमितरुपमा
प्रतिष्ठित
धार्चु
गरिसक्ने
खेति
चेन
भदौको
भूभागलाई
केसीसँग
चिकित्सकमा
क्रिट
मध्येको
मध्यपश्चिम
नतिजाका
तोड्दै
मनाउनु
मनाउँछन्
मनास्लु
भुकम्प
भुजेल
शैलीको
आत्मीय
हटाउनु
अहिलेसम्मकै
दरवन्दी
हातबाट
पु¥याउनु
लुकेर
तपाईंका
युवकमा
##बिजन
निवासको
जागृत
सिफारिसअनुसार
खटिनु
कदममा
कदमविरुद्ध
राख्नका
सोचेर
आमूल
आमसञ्चार
विद्यार्थीहरु
प्रतिवेदनका
भूमिहीन
कारबाहीमा
अवसरलाई
मिलाइने
मिलाउनुपर्ने
साँझपख
कमाण्डमा
##पियो
सापकोटालाई
सचेतता
##ामुखी
अध्यादेशमा
पूर्वाधारका
प्रकाशनमा
कीट
कीर्ते
लाग्दछ
प्रमाणसहित
प्राथमिकताको
असोजमा
होमस्टे
तपार्ईँदेखि
एमसीसीले
पोखराको
पोखराले
लागूऔषध
बाध्यताले
रक्षामा
कलेजलाई
फुटपाथ
छुट्याएर
विधेयकलाई
मान्यताका
पुग्नेगरी
समृद्धिमा
किलोलिटर
सुनियोजित
गतिविधिलाई
कृष्णकुमार
वेवस
काठमाडौँबाट
नपाई
गृहमन्त्रीको
गृहमन्त्रीले
कठघ
लक्ष्यमा
जेठा
नबोला
##छुल्ल
खड्गाले
लाइफ
##परिषद
हेरेको
##लागिरि
साथीहरुको
नआउँदै
भाडादरमा
संस्कृतिका
##क्यौं
पिरो
गएँ
सल्लाहकारको
##खोरी
उद्देश्यसहित
बलका
पर्वतमा
स्टेसन
कटाउन
धार्मिकस्थल
एनपी
भैरहेका
##मनत्री
प्रदर्शनका
अगी
लाईन
##पेच
डीन
भीमसेन
देखापरेका
बालुवाटारमै
तथ्यहीन
अर्थमन्त्रीको
जतिबेला
तारिफ
नहुँदासम्म
अपेक्षाकृत
तालमा
पत्नीबीच
##राख्नु
हरिबोल
चिन्ताजनक
आरटी
##पुगेको
ब्यालेन्स
बादललाई
प्राप्ता
तारिखका
छाडेका
वीपी
बन्दाबन्दीपछि
प्रचारमा
सङ्कटका
दुर्घटनाको
विराटनगरबाट
कमरेडहरू
उपायहरु
क्रान्तिका
सुनिश्चितताका
हराउदै
भोलिको
आचार्यलाई
जोशीपुर
अप्ठ्यारा
वाणिज्यदूत
जगदीश
प्लान्ट
अभिभावकलाई
पुग्नका
जहाजमा
कागजमा
भूकम्पका
फर्काइ
ईश्वरप्रसाद
अपराधमा
अपराधका
खेतीपाती
##शिष्ट
आफैलाई
बृद्धिदर
चिसोपन
विचको
विचलन
##बमोजिमको
मिनेन्द्र
माइत
माइति
सिद्धान्तको
सिद्धान्तलाई
डुबेर
हकका
सञ्चालकलाई
एक्लैले
ट्याङ्की
भुसालको
कर्तब्य
स्वीकृतिका
हिंसाको
भरेको
लगाइन्
जुम्लाबाट
बढाए
लिम्पियाधुरासहितको
सरसफाइमा
बिग्रेको
##ानिर्देश
विविधताले
वीरगञ्जका
वीरगञ्जस्थित
शून्यमा
नमिल्दा
अरूको
संयन्त्रले
डाक्टरको
##श्थिति
सोध्न
सोध्ने
दिईएको
खेतबारी
शरीरको
निस्किन
इतिहासलाई
तामाङलाई
झन्डा
लालबाबु
डुबानको
प्याकेजको
हरुको
हरुका
संविधानसभामा
संविधानसभाका
बाहिरिन
साबिक
घात
##वर्षा
ल्याइपु
इन्डियन
इन्डोप्यासिफिक
साहित्यिक
उभिने
रेलमार्गमा
मौसमविद्का
गठबन्धनका
न्युज
मुस्कान
सकरात्मक
बुद्धको
##न्सिङ
कार्यसमितिले
##जातीय
रसायन
प्रकोपका
मन्त्रिमण्ड
अंकित
धानख
कोरियाको
मिल्यो
टेलिफोनमा
दुबईमा
##शास्त्री
जोरपाटी
स्थायि
उपाध्यायको
सन्तुष्टि
दशैंको
दशैंमा
भोग्न
धादिङको
अछामको
नर्सरी
कुकुरलाई
विश्वभरका
मसान्तसम्ममा
##रेनी
ठेकेदारलाई
आवासको
चाँद
##हुँदैन्
एमसिसि
दाजुभाईको
क्लबका
हुनुहुन्न
मनोबलका
क्रान्तिकारीका
रेग्मीलाई
मञ्चले
गर्नैपर्छ
जुध्ने
नदेखिएपछि
महाअभियान
गोरखनाथ
धरातल
काभ्रेपलाञ्चोकमा
दौड
बाढीपहिरोमा
##चेस्टर
मोटरेबल
तटस्थ
सताउन
दिशानिर्देश
बृहत्तर
रातभर
संस्थानले
कडाईका
काङ्ग्रेसको
गौरीफ
पाल्पामा
पाईने
आत्मनिर्भरता
श्रेणी
सञ्चारकर्मीलाई
वढोत्त
महाराजगन्ज
विनयमोहन
कौवा
डडेल्धुरामा
बिहिवार
आनन्दमोहन
तबसम्म
माविका
गरिमालाई
पुनःस्थापनाका
रेडपा
असान्दर्भिक
प्रतियोगितामा
हुनैपर्छ
दामोदर
वालुवा
वालिङ
खसीबोका
फर्ममा
जातिले
टिपेर
एकाइका
सर्तकता
सोह्रश्रा
घरधुरीलाई
विषयवस्तुको
युवतीलाई
आलम
बसपार्कमा
ढाँचामा
महाराजगञ्जमा
महाराजगञ्जस्थित
भयभित
गोष्ठीमा
मणिपाल
गौरादह
चारैतिर
खत्रीको
शोभा
सपथग्रहण
राइडर
अभियुक्तलाई
तिव्रता
कहरका
छरछिम
फलाम
कोषाध्यक्षमा
पन्छि
##खानामा
दुईतिहाई
##परेन्सी
विपत्तिमा
क्लिनिकल
घन्टा
छुवाछ
##वृत्त
मार्सी
भिरेन
सावधानीका
मनसायले
उदेश्यले
सहायताको
भोग्नुपरेको
भुषाल
विडम्बना
मिलिनियम
##वापतको
स्क्रिन
उप्रेतीले
मनाइँदै
उमेद्वारी
उमेशकुमार
छात्रवृत्तिमा
हेलिकोप्टरबाट
अरेबियाको
बचाऊ
अधिवेशनको
थपिनेछ
किमाथा
कसिने
सकिनँ
साँघुरा
एकेडेमी
गरुन्
अधिनायकवादी
नखोल्ने
फालेर
सहनशील
औषधीय
कुशलतापूर्वक
जिप्रकाले
सिध्याउने
घुमाउ
अनेरास्ववियुका
भ्रष्टाचारीलाई
स्वेच्छाचारी
हँुदै
दिवंगत
स्वासप्रस्वास
ल्होत्से
भाटभटेनी
अभद्र
दमाम
वस्नेत
गरिसक्नुपर्ने
मृगौला
मुछिएका
सामाग्रीको
घुमफ
नसकिएकाले
निमार्ण
सङ्कलनमा
सङ्कलनको
बोहोराले
बिहानीपख
परिमाणमा
नफैलि
ओझाले
नछाड्ने
उत्प्रेरित
चेपाङ
अष्ट्रेलियाको
तेह्रथुम
बबरमहल
पोख्रेलले
लोभ्याउन
सुपरिटेण्डेण्ट
अघिसम्म
खस्केर
बद्नाम
बूढानीलकण्ठ
अनुभुति
परमादेश
अहिंसा
सेयरिङ
दुई÷दुई
द्धन्द
##छरितो
पुर्नगठनको
फेब्रुअरी
अल्टिमेट
आयरल्याण्ड
ठगुन्ना
थेग्न
धवलागिरि
निलम्बनमा
घरबारविहीन
खुम्च
महानवमीका
छाङ्गरु
प्रवेशाज्ञा
सुनौलो
कन्सल्ट्यान्ट
अब्दुल
##ध्वज
संकास्पद
साच्चिकै
कुष्माण्डा
बार्गेनिङ
पूर्वअर्थ
जीविकोपार्जन
चौलागाई
मेडिसिटी
कमीकमजोरी
अबुधाबी
तुवाचुङ
होडबाजी
बार्सिलो
मेरुदण्ड
तपार्इँ
डुडुवा
इजरायलको
कम्बोडिया
एकोहोरो
गेलालले
महाशिव
पोल्ट्री
विश्वम्भरप्रसाद
सामीप्यता
उतारचढाव
अपनत्व
चुलिएको
ठीकै
बाजिनेछ
रुग्ण
खुसीयाली
पूर्वनिर्धारित
आमासरहका
ट्रान्जिट
युगान्तकारी
अश्रुग्यास
एमिकस
छताछुल्ल
जेसुकै
रितिरि
सोह्रश्राद्ध
अत
अन्
अथा
अदान
अकस्
अशान्ति
आसे
आक्षेप
इन्ध
इजी
इनो
उति
उल्ला
एपमा
ओछ
कक
कप्त
क्यू
कचन
कहिँ
कत्तिको
कपोल
खवर
गाउने
गुरू
घना
घोट
चाउ
छोक
छँदा
छर्क
छाना
छलेर
जाउँ
जेन्ट
जर्ज
जजि
झाको
टक
टौ
टायर
डढ
तृत
तमु
थुन
दरि
दधि
देला
दहाल
नरहेका
नजानु
नहोस
नवाज
न्वार
पस्
पकड
पल्ल
फड
बीर
बमले
बसाई
मख
मजा
मरे
मट्टी
लज
लन्ड
लज्जित
वन्द
वारे
वढी
वलीले
शारि
शोका
सर्ज
स्याल
हन
हठ
हकि
ह्यु
हप्त
##िग
##यण
##यलाई
##मता
##मद्
##वित्त
##वदेन
##वरहाउस
##लने
##ीवन
##जस
##जिन
##अर्
##नपर्ने
##ुरी
##साग
##सराइ
##कत
##करी
##कित
##कताका
##बालाई
##्ला
##्तिर
##ट्न
##टेल
##डौं
##डेन
##हरमा
##हारीमा
##हप्ता
##खमा
##झेल
##ेकि
##पल
##चनमा
##च्यू
##चलित
##फिट
##ग्नो
##द्रो
##दालाई
##भेल
##भंग
##भन्दै
##ूको
##शक
##शः
##शंकर
##इकन
##ओएस
##र्वा
##र्किङ
##कायम
##नेकाले
##ारेको
प्रबल
प्रमिला
प्राइभ
प्रख्यात
##स्पो
##नान्स
##क्पा
##तिएका
विहि
विकि
विसंग
विधामा
विमले
काशी
काबु
##वाजी
##म्ड
##म्ति
##निष्ट
##नियु
##निजगढ
##रीह
निस्त
निहुँ
निक्षेप
निवृत्ति
निरोगी
##्याउ
##्याए
##्यावस्था
हुल
##पालीका
राया
राशि
संगत
संयोज
सावि
दिवा
दिन्न
##ष्म
##ष्प
##ष्ठमा
सम्र
##ल्नेछ
##ल्लित
##ल्टे
##रोमा
##ण्ठा
रहा
रहोस्
माछ
मानेका
##हात
##हाङ
पावरहाउस
भनेपनि
सुसू
सुत्न
थिमि
गर्नबाट
केमिकल
जनाकारी
सम्वोधन
गर्नेहरुको
##लीलाई
त्यहा
कार्यदि
कार्यनीति
कार्यस्थलमा
कार्यकारिणी
##विशेष
##विहिन
##विच्छेद
##कारीले
##हीले
उपनिर्देशक
एकको
##न्तरमा
##ायौं
##ायौँ
##भास
बढिनै
कुप
कुरि
कुण्ड
कुञ्चा
कुण्डमा
सङ्ग्र
सङ्क्रान्ति
सङ्काय
दुह
दुवा
काठमाडा
योभन्दा
रहेकोे
प्रतिसेक
प्रतिक्रान्ति
कामु
कामदेखि
कामीको
कामसमेत
कामगरी
कामगर्दा
##किलले
वर्षौ
वर्षभरि
बिभाग
बिहार
बिर्सन
जनस्तरबाट
पार्टीनेकपा
बाई
बाध्यात्मक
जिसस
जाना
##ियत
हुनेलाई
हुनेवाला
##िमेन्ट
##प्रताप
रुसले
रुसमा
##रूपण
सेफ
परिकार
##सीलाई
##न्धा
गरिराखेका
सिन्द
सिगा
सिगाना
थिएन्
रोजी
रोज्
रोचक
राष्ट्रि
राष्ट्रप्रमुख
जिल्लामध्ये
विश्राम
अस्पतालसम्म
##ेटार
वास
वाङ
वाधा
समयलाई
समयसम
समयभित्र
हामीमा
दिएसँगै
प्रार्थ
प्राज्ञ
भन्थे
लगाउँछ
मिठ
मियाँ
मिटरमा
देशहरु
देशहरू
तीजको
मुग्
मुर्दा
दिनप्रति
व्यवस्थासहित
निर्णयसँगै
लिदीमा
आजीवन
सकिएका
##समेट
परीक्षालाई
रहेकालाई
रहेकाहरुलाई
भारतसंग
परशुराम
##पीएस
##डिरहेको
मृतकमध्ये
घरकै
घरघर
घरबे
डाकिएको
##वासको
थाति
थापालगायत
याेसँगै
केन्द्रदेखि
प्रमुखसहित
आइसीयु
##स्यो
##स्यता
महिनालाई
गुल
सक्कल
सक्दछन्
##कुमको
##हितमा
उपचारार्थ
प्रवर्द्धन
भइरह
भइरहने
भइनसकेको
##ियाका
कुराहरुमा
सदस्यहरुमा
समेतलाई
अर्चना
विकासशील
##लिनु
##लिरहेको
मन्त्रीहरू
मन्त्रीहरुको
उत्पीडित
बोक्सी
सेवाहरू
सेवासमेत
सेवाबाहेक
नगरपालिकाभित्रका
##सिप
शिशिर
##कालको
##ीकोट
दलसँग
दलकी
असली
खुबै
नेपालमाथि
अवकास
किंव
बसन्त
विश्वब्यापी
हिड
तीन÷
##दिन्छु
रामनगर
आफूहरूले
निर्देशनको
नागरिकहरू
##समेतका
##समेतलाई
चांसो
चिफ
आयोज
बाँसुरी
अभिप्राय
अभिषेक
संविधानमै
संविधानअनुसार
सङ्क्रमितहरु
##राजमणी
तहहरुले
तहमार्फत
##संस्कृति
बढीभन्दा
सांसदका
अबेर
खातिर
खाडीको
##ुटवल
भएरै
##लेखानी
खोल्नु
डिप्
भेटिने
नाङ्गो
चीज
आएकाहरुलाई
तपाइ
पाँचौं
प्रेमप्रस
पोखरीको
जनतासमक्ष
हाम्रोमा
मुखबाट
तयारीबारे
बेवारिसे
वडास्तरमा
खोजेपछि
खोजिरहेका
मौजु
##केतिक
संख्याका
##ुलित
##चाएको
अपु
विद्यावारि
लाबु
आयोजनाहरुको
सामान्यता
गाईको
प्रतिशतका
ठूल्ठूला
पठाउ
छोड्दै
##डेलले
निकाली
गोपनि
##वीन
बाटामा
विभागसँग
चाहनालाई
कर्मचारीहरुलाई
##दछौं
सर्वसाधरण
संस्थाहरूको
प्रतिनिधिसँग
प्रतिनिधिमण्ड
लगानीकर्तालाई
पदयात्रा
सम्झि
कम्पनीमार्फत
राज्यमा
##शुली
ताँजा
सभाले
ग्रस्त
ग्रिन
ग्रहमा
दशौँ
अर्थपुर्ण
##सेमा
तिर्नु
##मध्येबाट
व्यापारको
व्यापारव्यवसाय
सीमापार
हुनुलाई
छाति
छातीमा
##बन्दीका
छुने
##र्जुवा
सहमतिमै
चुहि
फिड
हालसम्मकै
देऊ
देहरा
बुझाउँदै
पढाउन
जेभ
उठाउ
सीईओ
##िङको
आरोपप्रत्य
भन्दापनि
कृषिलाई
लगायतमा
पानीजहाज
बुधबारसम्म
अर्कोलाई
भईसकेको
बीआरआई
एकताबाट
श्रममन्त्री
बोलाए
बहुदल
बहुमूल
सेनाध्यक्ष
भ्रमपूर्ण
विरोधा
अर्काका
आउनुभएका
घोषणाको
समन्वयकारी
##ङ्कित
भण्डारीका
चिकित्स
गम्भीरताका
एमबी
ट्रिप
रातिबाट
चलाउ
चलाउँदै
गुरुजन
मुख्यमन्त्रीका
भागि
##कर्ताले
सिफारी
##जोग
विघटनपछि
अभियानकै
परिवर्तनमा
नियमितरूपमा
पैरवी
खेलेर
खेल्नु
प्राधिकरणबाट
रोजगारीबाट
आम्दानीमा
न्यायपरिषद्
लोप
शवदाह
प्रेसको
सिंहलाई
देउसी
##सङ्ख्यक
राख्दैन
राख्नुभयो
देवले
क्रिकेट
नजिकिँदै
श्रीमति
श्रीमद्
नतिजामा
अविचलित
मन्दि
औषत
हट्न
मूल्यभन्दा
तपाईंहरू
युवकले
##बिहीन
पूर्वाग्रही
सिफारिसको
सिफारिसलाई
कालमा
कालिमा
लैंगिक
खटिरहेका
कदमबाट
ढकालका
नदिएर
सोचाइ
सर्प
धारामा
धारिलो
मिलाउनु
थाल्न
डुङ्गा
दिनमान
भ्रष्टाचारलाई
##ीकरणका
मनोकामना
संघीयताको
संघीयताका
क्यासानो
##नेटरी
प्रकाशनको
मतको
जसपाले
संसद्ले
संसद्बाट
##ारियो
##पर्नेमा
पुर्याउँदै
स्वास्थ्यकर्मीहरु
खेलको
खेलिरहेको
खेलमैदान
ज्ञवालीसँग
मन्दिरका
बाढीपहि
निष्कास
निष्क्रिय
बाध्यताको
अत्यावश्यकबाहेकका
देउवासँग
समाचारको
समृद्धिलाई
किलोवाट
भावनामा
बसेकालाई
कृष्णनगर
चुनावपछि
आँक
आँसु
आँखाको
जमेको
निधनले
गर्नुभएका
गर्नुभएन
पहाडमा
आहाल
ट्राभ
जोगिने
अपराधिक
लक्ष्यसहित
##लाइसिस
प्रशासक
थुनेर
नबसी
नबित्दै
अधिकांशले
तामाको
पुलबाट
खड्क
ब्यहो
कार्कीका
बालबालिकाले
नेताहरुसंग
बर्षा
खनाललाई
नपरी
फास्ट
फालेको
लोकतन्त्रमाथि
माओवादीसँग
##पाटा
करारमा
नआत्ति
जुट्ने
##कल्पित
सुनाइन्
जितेन्द्र
कोहीलाई
पूर्वानुमानमा
पिछ
गएकी
ठान्नु
कक्षको
छिमेकीसँग
शेरपु
गाडीले
खालि
अनुभवहरू
पहुँचका
स्यानेटाइ
इन्स्पे
गोरेटो
न्यायाधीशलाई
न्यायाधीशद्वय
##ेराले
मार्गप्रश
डीआईजी
विमानस्थललाई
आलोचनाको
हिजोका
फेङ्
##हाल्यो
बालुवाटारस्थित
मर्मतको
त्यतिखेर
तालको
अध्यक्षद्वयको
नायक
फैलिए
बन्नुपर्छ
हरियाली
क्वारेन्टिनबाट
पर्यावरण
ब्याक्ट
रिटको
जनस्वास्थ्यको
बादलको
विपद्जन्य
गरौंला
तराईको
साइड
साइप्र
अर्यालको
##स्थानमा
##स्तरसम्म
औपचारिकता
संघर्षका
संघर्षबाट
बन्दाबन्दीकै
गीतमा
ज्वार
##ट्याङ
##राबरको
छिटपुट
सप्तकोशी
अभ्यासको
भोलिदेखि
आक्रमणको
बताउंदै
मूख्य
नेपालगञ्जका
वैशाखदेखि
मालसामान
प्लास्टिक
##आईसी
##ल्लीमा
जहाजको
जहाजमार्फत
समुन्न
अवरोधको
फर्काइएको
समयदेखिको
अपराधको
लामासहित
##शिक्षा
आफैमा
बृद्धिको
मन्त्रिपरिषदबाट
कारागारभित्र
छिटोछरितो
सैलुन
धाराको
चासोको
मङ्गलबारदेखि
पञ्चायती
निजको
प्रत्यारोपणपछि
सहजीकरणको
सहजीकरणका
सिकाइका
संवादका
स्वयंसेवी
मेसेज
पुस्तकको
खड्काका
##कुमारीको
कुराकानीको
बगाएपछि
कामदारले
जेलबाट
जडानको
काटेको
परम्पराअनुसार
दुबैको
सवारीसाधनमा
सिंहदरवार
पालिकाका
दुर्गाका
रगतले
मूल्याङ्कनका
महेन्द्रप्रसाद
चल्दैन
निस्किने
पाठ्यपुस्त
मजदुरले
किटले
पाएलगत्तै
संवेदनशीलतालाई
##आइसोले
बालिकालाई
दूतावासका
आयस्रोत
कमजोरीका
अभिभावकत्व
ल्याबले
अगुवाहरुले
इन्डेक्स
रोपिएको
महोत्तरीका
पृथक
तिमीले
तिमल्सि
क्रियाकलापले
आत्महत्याको
सहायताले
उभिएका
दैवी
निस्किएको
सम्मेलनले
दीपककुमार
मगरलाई
चेतन
##यकोष
अल्फा
पाउँने
दाजुभाइले
दाजुभाइहरु
बाँध्ने
खरीदको
नचल्ने
परिक्षणको
फैलाएको
होईनेछ
पूर्वसन्ध्यामा
दुबईको
मोडलमा
बाँडेर
##रमण
उदयपुरमा
बितेको
यथार्थमा
प्रतीकका
पुस्ताको
गर्भवतीको
परिषदसम्बन्धी
चिकित्साशास्त्र
कित्तामा
टेकबहादुर
अन्यत्रै
निशाना
हिँड्नु
नगराएको
##दर्शक
मानवअधिकारको
रहँदासम्म
महत्वाका
रेग्मीको
राउत
नदेखिने
ढुङ्गामुढा
श्वासप्रश्वासको
सुनारको
टिकाटिप्पणी
पुनर्गठनको
एलसी
##रहरूलाई
प्रधानमन्त्रीज्यूको
प्रधानमन्त्रीज्यूले
बाढीपहिरोले
दिन्छौँ
गठबन्धनले
गठबन्धनलाई
भत्काउन
अड्किएका
संस्थानका
राजविराजमा
अस्थिरतातर्फ
बीउबिजन
कहीँकतै
दण्डित
बहिनीसँग
खोटाङका
एसियाका
ट्रान्सपरेन्सी
प्रोटोक
गालीगल
थेरापीबाट
धनगढीको
नेम्वाङलाई
अन्र्तवार्ता
सल्यानका
यतीले
भाषणमा
आश्रमले
फ्रान्समा
जलश्रोतको
नबनाउन
##लाग्दा
प्रदर्शनीमा
आपूर्तिक
बस्तुहरु
घाटमा
गरिरहेकी
पोलिसी
आरोहणका
किनारको
किनारका
क्यानडा
नरोकिने
रअका
सट्टाको
सोह्रखुट्ट
मौनता
तुम्बाहाम्
सुमधुरता
जुवातास
हेरिरहेको
छुट्टिनु
बाँडफाँट
ब्रिफिङमा
याममा
कार्यपालिकाको
मोर्चामा
अनिश्चितकालका
##ठ्ठी
माहोल
अनलाइनको
लडाईंमा
अनामन
सुब्बाले
अल्झिएर
नबढ्ने
छरितो
ल्हा
बोगटीले
बडादशैं
##ंखला
पाइपलाइन
वैरागीले
श्रीलङ्का
सूचकाङ्क
##घोषित
बर्दिबासमा
हट्नु
सराहना
फार्ममा
लमजुङमा
घृण
मजदुरीका
समारोहलाई
ग्यारेण्टी
यमपञ्च
छन्त्यालको
प्रान्तीय
मितेरी
##वीचको
प्याकेट
कनेक्टिवि
देशैभर
स्वर्गीय
बेग्ला
नचाहने
पटक्कै
भासिएको
सुन्दरीज
पोषणयुक्त
जन्मदिनको
वेबसाइटमा
उर्दी
खसेसँगै
हुलाकी
ध्वजा
राष्ट्रसंघीय
स्वासप्रश्वास
जनैपूर्णिमा
भूतपूर्व
धर्मनिरपेक्षता
सौहार्दपूर्ण
सौहार्दपुर्ण
जालझेल
नलगाउने
पुतलीसडक
मरासि
दिउसो
सिद्धिदा
अफ्रिकाका
ओगटेको
कदापी
कदापि
फक्रिएर
निष्ठाका
सुल्झाउन
प्रतिपदादेखि
बोहोरा
खोल्नुपर्ने
##र्जेन्सी
झन्झट
सर्टि
डङ्गोलले
वितरक
तदारुकता
##भैलो
राहुल
ठान्दछु
मत्स्य
शसस्त्र
स्त्रीरोग
अलमलमा
रानीपोखरीको
जबरजस्ती
श्यामलाल
##गंज
पाहुना
सम्बोधनमा
पृथ्वीको
मायालुलाई
श्वेतपत्र
न्यारोबडी
यासोक
युट्युब
##सँंग
प्रलोभ
प्रफुल्लित
बुर्तिवाङ
खार्पुनाथ
मजदूरको
फाउन्डेसन
गैंडा
बेखबर
सेवक
सिलगढी
मुसलमान
भूगर्भविद्
डिफेन्स
चुचुरामा
बुढानिलकण्ठ
प्रज्वलन
संकुचन
बुलेटिन
जानुभयो
एचआइभी
पोर्चुगलमा
पुडासैनी
कप्र्स
ध्येय
साइनो
महागौरी
तरङ्गित
अमृता
विघटित
यूएई
झमेला
राठौरले
समतामूलक
सम्र्पक
सेन्चुरी
लिपपोत
प्रशंसनीय
आवातजावत
तारेखमा
शुक्लाफाँटा
कात्यायनी
पासाङ
क्लाउड
सेक्रेट
स्वंय
चाबहिल
##पुर्वक
पारदर्शितामा
जुवाडेलाई
बूढीगङ्गा
ईमान्द
जलमार्ग
तमोर
मातहतमा
सुसंस्कृत
तथाकथित
महोदय
सिफ्टमा
क्रिटिकल
कठघरामा
घुमाउरो
अल्टिमेटम
कचनक
कपोलकल्पित
जेन्ट्रेड
जजिरा
थुनछेक
प्राइभेट
विहिवार
##नियुक्ति
निस्तेज
निवृत्तिभ
प्रतिसेके
समयसमयमा
किंवदन्ती
मौजुदा
लाबुअन
आरोपप्रत्यारो
बहुमूल्य
क्यासानोभ
इन्स्पेक्टर
मार्गप्रशस्त
¥याली
अमा
अरि
अकु
अतिर
अहिल्यै
अल्म
आकास
आखा
आभारी
इम्
इत्या
इपि
इश्वर
इँटा
उज्ज
एट
एपे
ओटा
ओसा
कर्ता
करमा
कलि
ख्या
खवास
खनेको
खस्न
खटाएका
गद्
ग्याल
गयौँ
घट्ट
घाई
चम
चक्ला
चश्मा
छत्र
छट्प
जमान
जलाइ
जेसि
झिका
झल्क
झपट
टह
ठ्या
ड्रा
डढे
ड्रोन
तिल
तारे
थे
थोक
दब
धनको
नाउ
नहो
नतिर
नछु
नचि
नरहे
नटु
नपरेका
नखे
नरहेकाले
नसमेट
पख
पच्ची
फित
फगत
फँड
फ्लो
बट
बर्ख
बनौं
भञ्ज्याङ
म्
मला
म्यु
याल
रक
र्
रक्षक
लप्
वाला
वसु
वरुण
शं
सिन
सीको
सस्कार
सपिङ
हान
हेत
हठा
##िनुपर्ने
##यलमा
##यालले
##म्य
##मली
##मन्ते
##वधानी
##वरीमा
##तुर
##तुन
##जकुमार
##जग्गा
##नारी
##ुटी
##ुधार
##ुमार
##सग
##ससँग
##सम्ब
##केला
##कत्ता
##कलको
##कल्याण
##बड
##बमा
##बीमा
##बस्तु
##बत्ती
##बौद्ध
##बहाली
##बदली
##बराबरको
##टिक
##ट्री
##हदा
##हल्ला
##खोज
##खतमा
##खानीमा
##ेक्
##ेलाई
##ेपनि
##पबाट
##पट्ट
##पश्च
##पट्टा
##पमेन्ट
##पलिका
##धेश
##धक्क
##चक्र
##चर्च
##फोर
##फेन्ट
##गति
##ंकार
##ंक्षा
##ंडा
##ँकी
##भाट
##भरमा
##भर्ट
##भेड
##थौ
##ून
##ूक
##ूतमार्ग
##शती
##आलोचना
##घास
##ृढ
##इमा
##इरो
##÷पाँच
##्रय
##र्डिङ
##मानित
##न्सामा
##ारालाई
##ालाइ
प्रवि
प्रमको
प्रयोजनको
##लाख
##नाग
##क्दा
##क्मत
##क्टो
विपत
विराज
विमती
विवे
विर्तामोड
गर्जन
गर्दिन
काफल
काट्
##वाखोला
##निस
##निने
निल
निती
निजि
निरीह
नेप्
##ितालाई
##रुत्थान
हुनासाथ
हुंदैन
राँ
राँग
स्के
स्मार
साेम
साप्ता
दियौं
##रापुर
समू
समृ
समिकरण
##क्रिम
##याप्त
नेपालतिर
नेपालजस्तो
##ाउमा
##ण्ण
##ण्ठमा
रहेपछि
पुर्जा
##हिया
##हिटी
##रिक्षक
##हाक
पाइन्
##पाहा
##पासे
होे
होलान
सुजा
सुर्न
सुनेका
निर्धक्क
गर्नसक्छ
जनाउनु
जनावरको
##ाइरहेको
त्यत्रो
बताईन्
कार्यप्र
कार्यसमेत
कार्यव्यवस्था
सरकारहरु
सरकारसमक्ष
##विपक्ष
##विमर्श
व्यब
व्यतित
उपप्राध्यापक
एकिन
एकढि
एकचोटी
##नेछौं
##ायद
कुने
कुद्
कुनामा
कुम्मा
कुण्ठा
दुब
दुतावास
##रहरै
सहानु
सहअस्
कामै
##किएकाले
##न्छौँ
अनुहारमा
अनुमानित
वर्षौं
वर्षमुनिका
बिभाजन
बिर्तामोड
##्युत
जनभावना
जनचाह
पार्टीभन्दा
बात
बाताब
जिबन
##नुपर्ला
थियोे
प्रधानमन्त्रीजी
प्रधानमन्त्रीमाथि
प्रधानमन्त्रीसंग
##िसियन
क्षत
हुनेले
##ाउँछु
##प्रती
रुसी
##प्पर
भएकाहरु
परिधि
परिश्रम
गरिएन
गरिएकी
गरिराखेको
##सात
##सापेक्ष
बैठकहरु
बैठकमै
सिने
सिडि
सिटि
सिड्न
त्यससँगै
ओलीकै
ओलीसँगको
ओलीप्रचण्ड
रोबोट
राष्ट्रघात
अस्पतालहरुलाई
सबैप्रति
##तीर्थ
भए÷न
सोलु
जाँ
समयबाट
समयभन्दा
##जात्र
नेपालीसहित
हजारदेखि
गर्दैै
##क्तिकरण
हामीबाट
जोको
दिएकै
दिएनन्
महाकवि
महाबौद्ध
प्राङ्ग
##ेसहित
भन्नुपर्छ
देशहरूमा
देशभित्रै
गरेनौं
पुगिन्छ
मुश्
राख्यो
दिनबाट
##वादन
व्यवस्थाले
निर्णयप्रति
निर्णयअनुरुप
लिखु
आजित
आजकै
सञ्चित
##सदस्य
दुईको
सकिन्थ्यो
महन्थ
बुदे
परम
नेताद्वय
मन्त्रालयअन्तर्गत
मन्त्रालयअन्तर्गतका
##डिरहेका
छैठ
##न्टल
##िवारी
घरआ
घरैमा
##वासाय
थाप्न
थाँती
केन्द्रबिन्दु
प्रमुखका
आइसो
##स्योर
व्यायाम
महिने
स्वकिय
गुजार
गुप्
गुह्य
गुम्न
सक्न
##कुट
देखिनै
मृत्युदण्डको
प्रवीण
##ँचा
मनम
देखाइएको
देखाउनुपर्छ
समेतका
विकाससँगै
संक्रमणमा
भूल
भूजी
भूपेन्द्र
##लिटी
समितिसँग
मन्त्रीपुन
मन्त्रीपरिषद
उत्पी
उत्तीर्ण
सङ्क्रमणले
सङ्क्रमणपछि
##ुवाका
##ुवाहक
समस्याहरू
परीक्षणपछि
बोलाई
##म्पिङ
नगरपालिकाबाट
##जनशील
भन्दैछन्
सहयोगलाई
सहयोगबाट
शिक्षित
शिथिल
##ेकका
कोभिडले
सूक्ष्म
##कालमै
असई
मागसहित
माग्नुपर्ने
आवश्यकत्ता
किस्ट
किरिया
किराले
किड्न
बसको
बसले
गर्नुप
गर्नुपूर्व
संक्रमितले
प्रयोगको
हिउ
हिक्मत
सचिवस्तरीय
##थियो
नयाँबा
हुन्छौं
पक्षहरु
पक्षविपक्ष
सुरक्षार्थ
##र्गन
पुनका
पुनसँग
पुनरुत्थान
##बीचका
##बार्य
पूर्वगृह
चिम्
चिन्न
##ग्लै
आयोजन
हानेर
कम्युटर
तहसन
बाल्न
अबिल
खानेछ
खासा
घटाइ
आधारहरू
आधारहीन
खोलि
खोसि
खोल्दै
खोल्दा
पूरान
पूरक
डिए
भेटलाई
नासा
नास्ता
मोक्त
मोहित
बेलासम्म
युएसए
नेतृत्वसँग
प्रेमप्रसाद
पोखरे
जनताहरु
गौतमसँग
बेटी
बेँसी
भनिरहेको
भनिरहनु
खोज्छ
खोजबिन
यात्रुवाहक
अमूर्त
##रतालाई
शुरुवा
##ड्के
हेल्प
घण्टी
लाठी
लाप्च
उदाउँदो
गाभ
गाडिएको
प्रतिशतलाई
##ाराले
नामै
##जुरी
पठाउँदै
भनाभन
भिजि
##पत्रकार
श्रेष्ठता
राष्ट्रपतिविरुद्ध
गोवा
गोयलको
उपत्यकाबाहिर
विभागबाट
कर्मचारीहरुले
सर्वस्
सवारीका
प्रतिनिधिहरुले
लगायो
पदस्थापन
सम्झेर
समूहसँग
समूहगत
समूहबीच
अनिबार्य
विद्यालयहरुले
योजनाअन्तर्गत
योजनावद्ध
अदृ
जानेछैन
ताजै
सभाबाट
सभाहलमा
ग्रिड
दशकको
महिनाभन्दा
महिनामै
तत्कालको
तिङ्क
तिङ्कर
तिनाउ
सुरुदेखि
तपाईहरुलाई
गरायो
पुरुषले
अध्ययनपछि
न्याछ्यो
पुनःसंरचना
बाहिनी
##बुद
अनू
छुई
छुट्
##तिमानी
चौरा
खर्चिने
सोमवार
करोडौँ
जुझ
पाइदैन
भोटर
भोल्ट
लेनमा
उद्योगधन्दा
पढा
पढेको
नीतिअनुसार
परेकामा
उठ्छ
विश्वासिलो
सीटमा
आरोपबारे
रुपैं
बदनिय
भनेकाले
लकडाउनबारे
आइतबारबाट
आइतबारसम्म
बीओपी
बैंकसँग
कायममु
रकमसहित
न्यूरो
निर्वाचनलाई
शुक्रबारबाट
भण्डार
##मुले
सुझावमा
विरोधको
युवामा
वरिय
आउला
आउनुपर्छ
विकृत
विकराल
सातौं
सातवटा
जिम्मेवारीको
चालिएका
यसैलाई
बजेटका
दीक्षित
एमआर
ट्र्या
ट्रष्ट
ट्रस्ट
विधिमा
स्वीकृतिमा
भदौँ
सुधारोन्मुख
सहभागीता
निरन्तरताका
यात्रुमा
यात्रुका
पाल्न
साँध
भागवत
सामग्रीसहित
व्यवस्थ
प्रयासका
प्रयासहरू
##च्छित
प्रविधिका
वर्षात्
जनसंख्यामन्त्री
पाउनेमा
न्यायपूर्ण
लोका
ललितानि
भ्रष्टचार
सञ्चारका
भूभागहरूमा
सभापतिले
सभापतिज्यू
दर्ताको
चिकित्सकीय
मध्यस्थ
तोकी
तोड्ने
मनाङको
पशुपाल
मंगलबारदेखि
भुम
भुज
टाँग
हातमुख
भेडी
गठनका
लुका
युवकलाई
दोस्रोमा
जागरुक
##कोटगढी
टोलका
##मार्गी
होटेलमा
फोनिज
##छाड
नदिइने
सोच्
सोचेको
मेडिक
धारको
विद्यार्थीहरुलाई
##एनटेक
प्रभावितलाई
##पूर्वको
अतिथि
नाकाबन्दीको
थाल्छ
किसानहरु
कार्बाही
क्याप
बहसको
बचन
अध्यादेशलाई
अध्यादेशमार्फत
त्यसैका
बाह्रै
प्रकाशशरण
दिउँसोको
मतले
आठौं
ज्यानको
असारदेखि
लाग्नुभएको
बेलौरी
बेलकोटगढी
विज्ञानको
बिकले
संस्कृतिमा
प्रमाणहरु
अमेरिक
फैलिसकेको
पुर्याउ
टुँडि
यतिका
नियुक्तीका
सशस्त्रको
माओबादी
शान्तिसुरक्षा
बिरामीहरु
निम्ती
##जरल्याण्ड
परिस्थितिका
चोरीका
अग्रिम
छुट्याएको
सकेन्
त्रिशुली
समाचारदाता
कार्यकर्ताका
कार्यकर्ताहरू
कार्यकर्ताहरुले
कसैमा
कसैबाट
कृष्णराज
छानवि
आँधी
हितकर
स्थानीयवासीमा
जोगाउनुपर्ने
चाहिं
लाभका
यात्रासँग
सत्यनारायण
खोपका
लाइट
दक्षिणपूर्वी
ब्यारेज
ब्यवस्थित
निकटस्थ
व्यवसायीहरु
बर्षीया
गुमाइसकेका
महानगरपालिकामा
ग्राहकहरु
ग्राहकहरुको
नदीन
छिमेकि
माओवादीबाट
प्राविधिकको
आइसोलेसनबाट
करबृद्धि
साथीभाई
नआएकाले
सुनाउने
विकल्पका
कोहीले
पिच
पिण्ड
जानुको
कुनमिङ
##ल्लभ
आफुहरुले
हैरानी
समावेशिता
गएरा
फस्ने
धुर्कोट
बलिसहित
कडाभन्दा
पर्वका
काँग्रेसलाई
स्टाल
स्टिङ
##लोकनको
छिमेकीलाई
एनप्या
मीठो
खानेपानीमन्त्री
इन्भे
इन्काउ
इन्स्योर
पाटा
पाटनमा
वर्गमा
वर्गीय
न्यायाधीशको
देखाए
रोजगारको
रोजगारका
आपूर्तिका
##हाल्ने
अभिव्यक्तिको
अभिव्यक्तिलाई
##सितको
भावनाअनुसार
परम्पराको
अध्यक्षद्वयले
अध्यक्षद्वयलाई
सक्दैनौ
फैलियो
फैलिएर
पासवान
दशैँघरमा
आप्नो
म्याण्ड
घिमिरेका
ब्याड
ब्यापार
जनस्वास्थ्यमा
सिमरा
सिम्रिक
गणतन्त्रात्मक
बगाउने
बाबुआमा
गराइन्छ
जहाँबाट
यथास्थिति
प्रचारबाजी
विराटनगरका
नरबहादुर
नरवण
फैसलाको
##हीनता
स्मरणीय
कमरेडहरुको
उपायका
बलात्
स्वयम्भ
डिजिट
इन्टरप्राइज
फाइल
फाइनान्स
मङ्गला
विधानमा
ऋणी
आक्रमणका
बताउनुभएको
आचार्यको
जोशीलाई
नेपालगञ्जस्थित
सर्वसाधारणका
##्लेषण
नियुक्तिको
कागजी
समुहको
अवरोधका
चापागाउँ
फर्काएर
रहनसहन
दायरालाई
प्रावधानहरु
बिदाको
बुटवलबाट
चून
चिसोले
##विद्युत्
हप्ताअघि
रायले
गुटका
माइकिङ
सिद्धान्तले
च्याम्प
पाउनका
हकसम्बन्धी
हकअधिकार
कलम
पठाएपछि
गन्तव्यतर्फ
एक्लो
झुका
झुठो
आजैदेखि
नवलपुरको
बनाइयो
सुनसरीले
अभ्यासलाई
एकीकरणपछि
सम्मानको
जापानबाट
खुसीको
उन्मा
उपलब्धिको
प्रकृतिले
बगाएका
पुराणमा
निर्देशनालयको
त्रिविका
##रूपले
उदासिन
ग्यासमा
कार्यविधिअनुसार
आँखाले
बराबरी
ढुवानीको
अस्थीर
पुर्नस्थापना
संसारभरि
चन्दको
दमकल
दमौलीमा
दिईयको
बन्दैछ
खिला
खिचा
खेतीलाई
तारानाथ
तिरेको
प्रहारबाट
संगठनमा
त्रासको
त्रासमा
पछाडिको
चामलको
पाण्डेयले
मकवानपुरमा
स्थिरताको
##प्रेमी
लालबहादुर
संवेदनशीलता
उठाए
मदनसुन्दर
##पूर
राप्तीसो
बसोवास
घां
जनयुद्धका
रुकुममा
मकवानपुरले
पोष्टले
चक्रवा
नलिए
हारेको
मगरको
##गाउँमा
##गाउँपालिका
उपलव्धि
कपिलवस्तुमा
तसर्थः
गीतको
टिमुर
कैदीको
सक्यो
शास्त्रमा
बर्दियाको
दाजुभाइलाई
कार्यसमितिका
पठाइसकेको
नवीकरणका
पुग्छन्
बसोबासको
सरोकारवालाले
देखिएपनि
झरेका
नमाने
मिलान
पूर्वसूचना
नराखेको
तिहारजस्ता
शेर्पालाई
बरफ
##बेग्लै
दिदीबहिनीले
फोरमको
दरबारमा
शासित
कमजोरीलाई
जैमिनी
संचालनको
भोगिरहेका
मूर्ख
मेट्रो
तस्करीको
विभेदको
जङ्गली
##माझी
थियौंँ
मुलतः
रुपान्तरणका
दानव
उडड
हिन्दी
चाँहि
साझेदारीको
घेराबार
बैतडीले
ब्याजदर
ब्याजदरमा
डिसेम्बरमा
षड्यन्त्रको
टेलिकमका
सङ्घर्षमा
मण्डन
मण्डले
निशर्त
बुढाक्षेत्र
जंगली
डोजरको
चौकीका
लम्बाइ
लम्बाई
प्रिन्टर
पाँचथरमा
पाँचथरका
कब्जामा
संगीत
गर्नैपर्ने
गाँजाको
जान्छौं
महाअष्ट
बेहोर्नु
हावाहुरी
जलाएको
जलाउने
शीतलनिवास
##चेक्र
दिनेशकुमार
अग्रसरता
काउन्सिलका
ठाउंमा
औँल्याएको
नुवाकोटका
दिल्लीबाट
सन्तुलनमा
स्मार्टफोन
खुट्टामा
निम्त्याउन
बहिनीको
अङ्गीकार
तर्पण
प्रोटेक्ट
काण्डमा
बिताएका
ट्रम्पको
टुङ्गोमा
नजाँदा
मिचेको
पुनरावलोकनका
योग्यताको
डोल्पाका
आगलागीबाट
मिसनमा
नेटवर्किङ
दिपायलमा
चाहाने
अर्याललाई
लीलानाथ
गुल्मीमा
गुल्मीका
निमोनियाको
फ्रन्ट
नगरेसम्म
नियमनकारी
दिशाबाट
बैशाखमा
बाजुराका
असुल्ने
हिरासत
बुबाको
बुबाआमा
चिरन
पूँजीगत
फसाउन
मच्छिन्द्रनाथलाई
महँगी
एप्स्
अनिलकुमार
मधेसवादी
प्रत्याभूत
बुझाइसकेको
ननिस्
सोलेमा
ग्रुपका
हेलिकोप्टरमार्फत
क्यानाडा
युवतीले
विदाई
कालिज
नहकुल
अग्रपंक्ति
सम्हाले
बोहराको
पिपिइ
बिरुद्धको
ट्रेकिङ
हेमन्त
सुधार्ने
राजपाका
सतहदेखि
जनआन्दोलनका
शोध
##राज्यमन्त्री
आश्रय
अटोमो
पलायन
प्रसाईलाई
कुखुराको
मुद्राको
विश्वसनीयता
टिभीमा
मस्र्या
जिज्ञासामा
उकास्ने
प्रसंगमा
तीर्थराज
बलिदानको
मरिच
##लायन्स
परियारले
हत्याकाण्डमा
अटेर
चिनजान
चिनफिङको
प्रबद्र्धन
स्थलमार्ग
राष्ट्रसङ्घको
राष्ट्रसङ्घीय
सामन्तकुमार
भद्रपुर
पाउँदैनन्
सोलेमानीको
जिनपिङ
चार्टर्र्ड
कुटुम्बबाट
दाउन्ने
फ्लाइट
शृङ्खला
बाँडफाँडमा
चट्याङसहितहल्का
तानिएको
तानसेन
संजालमा
टेक्नोलोजि
रंगशाला
टाडिनु
नक्सालाई
इमरान
खानीखोला
गराउँछु
अधिनायकवाद
भीमदत्तनगरपालिका
मातातीर्थ
अस्वभाविक
अफ्ठेरो
प्युठानका
नासो
ब्रोड
प्रतिलिटर
हस्ताक्षरसहित
बिक्रीमा
थप्दै
ब्युरो
प्लाष्टिकको
खेदजनक
झेल्दै
हँुदा
प्रिमियर
दिवङ्गत
##यात्रामा
हिल्सामा
निधिले
मिथानोल
चौरसिया
ट्रान्सफरबाट
ब्लड
काँकडभिट्टा
हुवाव
हुवावे
दुष्प्रचार
सामाग्रीमा
क्वारेन्टाई
डब्लुएचओले
खारेजी
ड्युटी
ड्युटीमा
तलेजु
लज्जास्पद
खोमेनीले
ठोक्किँदा
विनाशकारी
रियाद
प्रतष्ठि
साक्षरता
केबलकार
राजनितिक
वापतको
गुलाव
विस्फोटक
द्रूतमार्ग
भवानीको
वाटर
बल्झन
एग्रिमेन्ट
फिनसेन
सफ्टवेयर
अस्पष्ट
हिड्नेछन्
गन्तब्यमा
न्युयोर्कमा
सिग्देल
सिग्देलले
नेताकार्यकर्ता
बलम्बुस्थित
हरिशचन्द्र
कन्फ्रे
स्काभेटर
एकमुष्ट
क्वीड्स
बुढीगंगा
भूगोलको
वर्षायाममा
##पैठ
कुण्ठित
आइलागेको
तिक्तता
पैदलयात्री
मितव्यय
गुरागाईंले
चम्पा
मिसाएर
##दारमाथि
बिघटन
बावजुद
गुराँस
डिभाइस
भुइँमा
लुकुण्डोल
अप्रत्यासित
विश्लेषक
उडाएको
ठानिएको
दस्तुर
सकुन्
राजदुत
सिन्हा
मन्त्रीपरिषद्को
तिलिजाले
प्यालेसमा
ढुङ्गेधारा
मलमास
सक्तैन
नेदरल्याण्ड
स्नेह
जिटुजी
क्षमतालाई
अभिमुखीकरण
##अोवादी
विल्कुलै
सुन्धारा
क्लोज
चावहिल
ग्रन्थमा
हतारो
##अन्तरगत
सहयोद्धा
परिप्रेक्ष
घाइतेमध्ये
दृश्यावलोकन
थुनामुक्त
गथ्र्यो
प्रारुप
साङ्लोले
##न्दिरा
अनुयायी
दादागिरी
युवायुवती
वेवसाइट
प्राप्ताङ्क
नफैलियोस्
अदानचुली
आसेपासे
फडेराले
मट्टीतेल
हकिन्ज
सुसूचित
प्रार्थना
प्राज्ञिक
गुलरिया
गोपनियताको
ताँजाकोट
चिकित्सालय
भागिदार
श्रीमद्देवी
घृणित
बेग्लाबेग्लै
प्रलोभनमा
सेक्रेटरी
उज्ज्वल
डढेलो
पच्चीस
फितलो
फँडानी
स्केच
स्मारक
साेमबार
साप्ताहिक
सुर्नया
एकढिक्का
कुम्मायक
सहअस्ति
बाताबरण
भए÷नभएको
तहसनहस
कायममुकायम
एनप्याब्सन
इन्काउन्टर
इन्स्योरे
अगर
अञ्ज
अज्ञान
अण्डा
अघ्र
अक्षम
अकालमा
अण्डर
आर्ट
इञ्जी
ईसेवा
ईच्छित
उस
उजा
उखे
एने
एष्ट्र
एडी
ओज
ओहदा
कले
कवाडी
खल्लो
खन्या
गन
ग्
गायक
गछौं
गज्ज
चमेल
छाउने
जड
जले
जाउ
जजी
जर्न
जम्न
झरी
झर्न
झेलि
ठम
ठिमी
ठकुरी
ठाटीका
डग
डकुम
ढो
ढलेको
ताइ
तमान
तम्बा
तलै
तराइ
तर्सि
थाम
थानी
धुर
नृ
नलेख
नबुझा
परो
पर्म
पञ्
पीर
पेड
पतिको
पन्थ
पत्तो
फइ
फले
बौ
बरू
बबि
बथान
बेमौसम
भ्वाइस
मका
मन्
मक्
मरण
यि
यताका
यतै
यहां
रेस
रसि
रथी
रतन
रेसु
लच
लाय
लेटर
वज
वड
वता
वृत्ति
वौद्ध
वर्चस्व
वहस
शोकमा
शालि
शायद
सर्के
हर्न
##िन्त
##िहरुको
##िङ्ग
##िंह
##मसेर
##वेल
##वधिक
##वधी
##वहाक
##तान
##तला
##तथा
##तर्क
##तालगायत
##जेको
##अन्दा
##ुमा
##स्र
##सेका
##सारी
##सुन
##सन्धान
##राना
##कने
##कबाट
##कडी
##बहाल
##्टा
##्थ्यो
##्ठा
##टाल
##डबाट
##डाइ
##हॉ
##हवा
##हेका
##हटमा
##ोड
##ेस्ट
##पछ
##पसे
##परामर्श
##पचु
##धित
##धर्म
##धनीले
##च्या
##चीका
##च्याउने
##ठामा
##फाको
##गेट
##गर्भिक
##ंँ
##ंग्र
##ँझ
##दहमा
##भद्र
##भञ्ज्याङ
##ईका
##ूस
##शाल
##शामा
##शहर
##घरको
##घनका
##इका
##इदि
##इँचो
##Œव
##कोटक
##र्यो
##र्धन
##माई
##मासी
##मादी
##काट
##न्नमा
##न्छिन्
##्यस्त
##्ययन
प्रद
प्रस्ता
प्राली
प्रविध
प्रयोजनमा
##स्स
##स्कोप
##लार्य
##क्लि
##क्चर
##ताभित्र
विहार
विचित्र
विप्रेषण
विमानमा
काजी
काव्य
##निम
##निटी
##निम्ति
निग
निक्र
निदान
निबासी
नियोजित
निवेदनको
निरूपण
नेम
नेत
##ितको
##क्षत
##क्षु
##्याउँदा
हुमा
राम्
संसो
संयमित
संप्रेषण
##ेशी
सास्ता
सार्नु
दिलेन्द्र
##राङ
##रोना
कोअ
कोरा
कोसी
कोमल
##यामा
##याले
##हरुकै
रहन्छन्
माध
मात्ति
पुकार
##ष्टिय
##रिज
पाइन
पायौं
##ण्डाको
##पातीको
##पाइँ
##पादक
होऔं
होहल्ला
##ामोल
सुब
सुन्दै
सुके
सुव्यवस्था
सुक्ष्म
##स्ते
थिई
निर्मूल
जनाउन
जनाकाे
गर्नेः
गर्नेहरू
गर्नेमाथि
गर्नेलगायतका
##ध्ययन
##ाइरहेका
बताई
कार्यक्र
कार्यवहाक
लागिपर्ने
##कारीलाई
उपश्थिति
एकथ
एकबद्ध
##भाब
बढने
##नील
क्वि
दुनै
दुरीमा
दुरीका
दुनिय
पार्नका
यसप्रति
यसबेला
सहरमा
प्रतिवि
प्रतिवर्ष
प्रतिस्थापन
##ूर्ण
##ूर्ति
कामच
कामबारे
आफनै
##योगी
अनुकरण
अनुपात
राजकु
राजाका
राजपथ
वर्षबाट
वर्षहरूमा
बिनि
बिधि
बिधेयक
जनउ
जनमुखी
जनमैत्री
जनविश्वास
बैजनाथ
बां
##टाङ
##टाक्ष
##िसकेपछि
क्षत्र
##ौंला
अध्यारो
##प्रयास
रुसको
रुलिङ
##प्सा
##प्तिको
##सम्मत्
##गरेका
##गरक्षक
परिर्व
परिसकेको
परिघट
परिसङ्घ
##सीन
##गाडा
##र्थ्य
बताएपनि
##साहटमा
कारा
बैठकबारे
सिम्
सिल्
सिआई
सिआइ
##ानीलाई
त्यसप्रति
ओलीसहित
रोय
रोल
रोके
रोटरी
राष्ट्रमा
राष्ट्रवादको
क्षेत्रसम्म
जिल्लावासीलाई
##ँदैन्
विश्वा
अस्पतालसँग
सोतीमा
जात्र
जासु
समयदेखी
समयसापेक्ष
##जाएर
गर्दैनौं
गर्दैगर्दा
जोडी
जोड्नु
महासं
समाहित
समात्न
##न्दामा
भन्नुपर्ने
भन्नुपर्दा
लग्
लगाउँन
मिनि
मिर्गा
देशबाहिर
देशभित्रका
गरेबापत
मुहारमा
राखिसकेको
##वादीले
लिनेछ
लिङ्ग
लिएकाले
लिम्बु
नेकपाकी
पर्ला
दुईतीन
##ासु
##ासहितको
परीक्षकको
बुल
बुथ
बुबालाई
परको
परनिर्भर
पूर्णा
मन्त्रालयमार्फत
##डिङको
नगरक्षेत्र
नियति
सदिय
कारणबाट
यान्छी
कार्यालयसँग
##रसं
##रसिप
आइपर्ने
अधिब
निर्माणले
निर्माणलगायत
गुग
गु्र
गुहार
गुन्जी
गुयाल
गुपचु
##कैया
सक्दिनँ
##कुलर
##कुहिरो
##ौँला
देखिन्थे
##मानन्द
छैनौ
आवरण
आवेद
थपिन
थपिएपछि
भइहाले
मनपर्ने
विषयहरुलाई
प्रचुर
सदस्यहरूले
गाउँदै
गाउँलेले
देख्नु
अर्ग
##रमार्फत
प्रचण्डमाथि
प्रचण्डसंग
##पतिले
सङ्क्रमणदर
मानपद
बोझ
सम्बन्धविच्छेद
सेवाबाहेकका
सयको
##म्बर्ग
नगरपालिकाकी
काठमाडौंपाटीसँग
##लुङले
सहयोगिको
पोलिट
##मिन्ट
##सिला
##सिस्ट
शिकारी
शिघ्र
शिराबाट
शिवाकोटीले
सूचित
##कालिक
##कालिका
दलबीच
छलछाम
व्यक्तिवादी
अवशेष
आवश्यकतामा
हालसाल
किटको
लाखदेखि
##ूलक
##पनारायण
कार्यक्रमबाट
कार्यक्रमहरू
कार्यक्रमबारे
तीनदेखि
अन्यमा
रामहरि
पक्षपोषण
पारिसकेको
##र्ची
निर्देशनात्मक
##उँला
##उँदो
चाम्
क्रममै
पूर्वक
पूर्वडी
##त्तालाई
हार्ड
दातृ
बाँकि
अभिन
अभिष्ट
अभिवादन
आग्रहलाई
सङ्क्रमितले
##राजका
तहमध्ये
तहबाटै
##अनुकूल
##ञ्जर
बालसुधार
सांसदहरूको
सांसदद्वय
अबरोध
खाँड
खाडीमा
खातुन
दिनेगरी
खोली
खोलान
खोसेर
डिस्ट
भेटेपछि
नाज
मोडि
विज्ञहरु
विज्ञसँग
मुलुकहरू
मुलुकहरुको
मुलुकभित्र
मुलुकबीच
मुलुकहरुमा
युके
युएन
आएकाहरुको
दोह
आर्थिकसामाजिक
प्रेमकृष्ण
##सक्नुपर्ने
सार्वजानिक
##कर्मचारी
मौष
चारवटै
संख्याको
लेखे
महामारीसँगै
अधिकारीसँग
अमुक
अपहेल
##यमिक
##ड्कन
हेपाहा
परिवारसहित
परिवारजनको
लाक्पा
सचिवालयबाट
##लमानको
योगलाई
गाडि
प्रतिशतमात्र
##स्ट्राजे
सूचनामार्फत
अन्तरालमा
राष्ट्रपतिमा
हुँदाको
हुँदासम्म
गोला
गोता
बाटैमा
##पुटी
चाहँदैन
उडानहरु
उडानतर्फ
कर्मचारीबाट
सर्वमान्य
संस्थासँग
सम्झाइ
अनिता
योजनाकार
योजनामन्त्री
आरोग्य
कर्कोटक
बजेपछि
जनामात्र
##फाई
##फादार
सङ्घमा
##सेपछि
लोकता
दुवैतर्फबाट
मूलधार
तिनि
सुरुङको
संरचनालाई
सीमाभित्र
आगन्तु
कृषकले
तपाईकै
पुरुषसहित
घटनास्थलको
त्रियु
सम्भावनाको
सम्भावनाका
बनेकी
हुनुपूर्व
अनपे
अनशनमा
छाडि
छाप्ने
##र्जनमा
शिक्षासँग
रेक्टर
चौथा
चुहा
स्पेस
जुम्
जुद्ध
पाइन्न
पाइएन
भोका
लेनको
लेबन
पढ्दा
जेनेर
उठी
उठ्नु
उठिरहेका
उठिरहेको
निरज
##िएकाले
सीतार
सीआइ
सङ्ख्याका
भौगर्भिक
अधिकारमा
अधिकारसम्बन्धी
पिसा
प्रक्रियामार्फत
सुझाएको
लकडाउनसँगै
कैयन
एकताले
निर्वाचनले
बिहीबारबाट
अनुसन्धानले
सहजरूपमा
सक्रियताका
भित्र्याएर
पत्रकारिताको
प्रवेशका
चालिस
एमएस
संशय
यातायातलाई
विधिहरु
विधिअनुसार
धनरा
भ्रष्ट्राचार
क्षतिप्रति
प्रतिनिधिसभाबाट
सहभागीहरुले
चलाउनुपर्ने
चलाइरहेको
पेशी
बागमति
पालुङ
उद्गम
उद्गमस्थल
दिनुप¥यो
दिनुहुन्न
विघटनविरूद्ध
अवधिमै
खेल्दै
##न्डु
हरेका
न्यायलय
प्रेसले
देउवास
गरिरहेकाले
बीचमै
साधनस्रोत
चिकित्सकका
क्रिस
नजिकिएको
स्थगित्
रिपोर्टका
नतिजाले
मनाइएको
मनाउँदा
बदलीको
भुलेर
शैलि
शैलुङ
आत्मसम
##मोचन
टाई
टार्ने
हातखु
पु¥यायो
लुकि
लुहार
लुइँ
तपाईंहरूको
कतिपयलाई
कालदेखि
लैन
##निर्ण
टोखामा
नदिइएको
सोचको
सोचौं
सोचेजस्तै
डेपुटी
##एनए
नाकाहरु
##पिंग
डुवान
आईटी
किसानसँग
किसानहरुलाई
सञ्जालका
सुनौली
मनोहर
मनोसामाजिक
मनोपरामर्श
अधिकृतहरुको
##युग
संकटलाई
अध्यादेशबारे
घाइतेहरूको
मतदाताको
आठवटा
ज्यानै
लाग्ला
बेलबारी
बेलिब
रहेनेछ
रहेसम्म
स्वतन्त्रतालाई
संस्करण
प्याड
प्याकुर
प्रमाणिकरण
प्रमाणपुर्जा
##र्दशी
प्रयोगशालाका
प्रतिष्ठानलाई
दिइएन
पुर्याउँछ
असोजको
होमिएको
होमआइसोले
पसेर
पसलको
माओले
शान्तिका
ज्ञवालीको
संरचनाले
बहुमतबाट
लडाइ
लाग्नेहरुले
झाडा
झार्ने
बाध्यकारी
निकैनै
राईविरुद्ध
फुट्यो
छुट्याउन
छुट्याइएको
विधेयकहरु
##द्वन्द
भावनाले
सुनियो
##व्यापार
गरिएकामध्ये
वस्तुहरु
वस्तुस्थिति
वस्तुतः
डिस्पोज
आँशु
##जेन्सी
जमेर
महासचिवको
दुःखका
पूजाअर्
गृहमन्त्रीका
चाहिँदैन
होटलले
होटललाई
होटलबाट
आएकै
भीडले
##न्जली
योगदानका
जेठारा
पैसाले
नबन्दा
नबनेको
नबसेको
वृद्धिमा
अोलीसँग
छनोटमा
नगर्नेलाई
ब्यक्त
बालबालिकामा
बालबालिकाहरु
वर्षाकोसमेत
एकाउ
एकात्मक
एकाधिकार
बर्षे
गुणस्तरमा
गुणस्तरिय
असरलाई
घुइँचो
महानगरपालिकालाई
नदीहरुमा
##्नुहोला
भन्नै
खानपिन
प्राविधिकले
श्रमिकहरु
श्रमिकहरू
करे
साथीहरूले
नआउन
साताबाट
सातापछि
संस्कृतिलाई
विकल्पको
सुखद्
पसलबाट
पिङ्की
पारिस्थिति
कैलालीले
कुनमि
##ल्लै
आफुहरुलाई
रहीधेरै
सहकार्यलाई
दिवसमा
रेलवे
बोर्डलाई
अख्तियारलाई
##रियाले
शिक्षकहरु
रणनीतिको
धुला
बलिया
बलमि
पर्वले
कटेज
आउँछु
हिसाव
##दुल्ला
एकैचोटि
नगर्नू
विभाजनमा
गाडीलाई
गाडीहरु
अनुभवका
अनुभवले
अनुभवबाट
खानेपानीका
इन्कार
पाटे
पाटनका
##दृष्टि
कुटाइ
कुटनैतिक
फुकाउन
फुकुवा
##वन्धक
सम्मेलनको
नसता
हिजोआज
अभिव्यक्तिप्रति
मिनेटको
विश्वविद्यालयबाट
अर्थतन्त्रका
साहसी
भावनाका
प्रगतिका
पत्नीको
जन्मस्थल
समेटिएका
पदाधिकारीले
क्वारेन्टिनमै
आरक्षण
चाहनेले
वडाध्यक्षलाई
निम्तिएको
गेह
गेटा
गणतन्त्रलाई
विपद्बाट
धन्यवादको
तराईबाट
लुम्बिनीमा
सैनिकको
गराइसकेको
वीचमा
संघर्षरत
सङ्कटबाट
परियोजनाले
आयातको
मिर्गौलाले
प्रत्यक्षदर्शी
वामदेवलाई
चन्द्रमणि
ज्वाला
छिटै
सप्तशती
कमरेडको
टीम
टीप्पणी
उपायको
उपायहरू
उपस्थिती
ठेक्काको
हराएका
मालवाहक
जगाउनेछ
टीकाको
स्वार्थी
रीता
नियुक्तिमा
प्रकरणबारे
फर्काएको
नेगीले
##डोल
उपमहा
लामालाई
प्रावधानमा
ज्ञानबहादुर
हप्तापछि
हप्ताभित्र
कारागारबाट
उपभोक्ताबाट
छोडेका
न्यौपानेको
##ंगामा
भत्कि
उजुरीको
कलकत्ता
कन्ट्याक
ट्वीटर
ट्वीटमा
ट्वीटमार्फत
लिपुले
क्वारेन्टाइनलाई
झुला
झुक्
झुठा
##टिन्
रणनीतिका
व्यापारीको
पदार्थसँग
समाजवादका
समाजवादउन्मुख
फलदायी
ज्वरोका
स्वयंसे
स्वयंसेव
भरेर
जरिवान
गल्फ
गल्छी
##रहें
जापानका
न्यूनीकरणमा
पाउदा
सुवेदीको
लगाइदिने
हेर्नका
बिग्रनेछ
प्रधानन्यायाधीशले
फागुनदेखि
कामनाहरु
विष्टलाई
जडानका
मोदीबीच
ग्याँस
म्याग
क्याम्पसको
प्रतिस्पर्धीहरुले
संसारभर
सुत्ने
##श्मिक
अनेकन
कारोबारको
बन्दैन
भेटघाटका
खेतको
मूल्याङ्कनको
महेन्द्रले
लिमिटेडका
चाडपर्वमा
चाडपर्वलाई
सञ्चारमाध्यमबाट
आउनुअघि
आयुक्तको
कडायत
त्यागको
त्यागेर
डुबानसमेत
दूतावासको
द्वन्द्वमा
घट्छ
लैजानका
शब्दमा
##शैलीमा
सामग्रीले
गिरीराजमणी
रहनुका
पात्रको
अगुवाईमा
माध्ययम
सवारीसाधनलाई
अनुशार
तिम्रा
तिमीलाई
नदेख्ने
नदेखाएको
क्रियाकलापलाई
करीव
जयते
सबस्टेशन
##पोखरीमा
निस्कँदा
हारिने
दिलाएका
गठबन्धनमा
नवलपरासीमा
अंगहरु
झोल
झोलामा
##ालुले
चेतवानी
नलागी
नलागेको
विवश
लक्ष्मीप्रसाद
टिमका
कार्ययोजनामा
कार्ययोजनाले
गौरवपूर्ण
सकस
कार्यसमितिमा
##्याकेट
इन्द्रावती
नचलेको
अंकमा
अन्नबाली
रानाभाट
नमानेपछि
पाठ्यक्रममा
साधारणसभा
आइसियूमा
सीपको
##बेँसी
राजेन्द्रप्रसाद
नेताहरूसँग
दिदीबहिनीलाई
बढाइनेछ
भर्चुअलरुपमा
गरिबक्स
दरबारमार्ग
##टाइनमा
पुर्ब
पुर्खा
##बासीलाई
भ्याएसम्म
पूर्वमन्त्रीसमेत
उदयपुरको
टेलिभिजनलाई
तनावग्रस्त
नपुगेका
मसान्तभित्र
आउँदैछन्
बस्तीलाई
गर्दैछौँ
सूचीबाट
परिमार्जनसहित
कार्यसूचीमा
उड्न
उड्ययन
नेत्रप्रसाद
चाँदी
सुनुवाइका
घेराबन्दीमा
बाजुरामा
दाङलाई
टेकप्रसाद
औचित्यका
टेलिकमको
एमसिसीका
मण्डलामा
संस्कारमा
डोजरले
समायोजनका
लड्नका
कुटपिटबाट
पुर्नगठनका
प्रतिस्पर्धात्मक
पिपल्ला
बेहोर्ने
गोरखाली
गरौँला
घुसपैठ
स्वास्थ्यावस्था
एलर्जी
उत्तरतर्फ
शीतलहर
भारतीले
##दित्य
नोकरीमा
कुशे
गरिदियो
यिनले
##न्थली
माछापु
औँल्याउँदै
दिल्लीमा
गर्नुहुँदैन
बौद्धिकताको
स्मार्टडो
उपराष्ट्रपतिले
सेटअप
लिइसकेका
तारादेवी
भरिपूर्ण
नियोगका
पाल्पाको
पाईन्छ
पाईलामा
अस्तित्वमा
सत्याग्रहमा
बालीको
कार्यशैलीप्रति
बिताउने
हाँसो
छोराछोरीले
नबुझाउने
काठेखोला
श्रेष्ठमा
घटनाक्रमलाई
अन्धविश्वास
बानीको
वढि
हनुमन्ते
टुंग्याउने
टाइम्सले
अर्यालका
केशवकुमार
केशवप्रसाद
ल्याईएको
ब्लक
##तापट्टि
सशक्तीकरण
आश्रमका
गाउं
च्यानलमा
घरपरिवारमा
घरपरिवारका
वैधानिकता
तिनीहरुको
तिनीहरुलाई
सिटौलाको
केदारस्यु
बागलुङले
खेलाडीलाई
ग्राण्ड
मलेसियाको
प्रोडक्ट
जुलुश
तिहाइको
चन्द्रागिरिमा
इञ्जिनीयरिङ
जमीनमा
बढाउनुपर्नेमा
डिल्लीराज
टोखाले
इण्डिया
पथ्र्यो
दुइटा
सिसिएमसीले
एक्सचे
बस्याल
बस्यौं
पोलहरु
किनारामा
उद्योगीबाट
वीरगन्जमा
प्रेरणाको
मस्यौदामा
सानिमा
मासुजन्य
बिर्सनु
विषयवस्तुमा
लाइसेन्सको
आलमले
आलटाल
प्रयोगकर्ताहरुले
हेरिरहेका
गच्छदारमाथि
नहरमा
श्रोतका
श्रोतले
डायलाइसिस
बहुआयमिक
एशियामा
तदनु
दिदैं
माओवादीमा
म्यानेजर
लडाईं
आकर्षणको
शशाङ्क
जसपाका
लम्साल
निश्चिन्त
आशिर्वाद
फोहरमैला
पलाएको
बहराइनका
सफारीका
महाप्रवन्धक
सार्वभौमिकताको
लीलामणि
उकालो
खगेश्वर
सधैभरि
हेलम्बुमा
अष्टलक्ष्मी
सिद्धबा
सीमानाकामा
इजलासबाट
अटल
सिलिचो
मुस्ताङमा
सयौंको
खाँद
अपरेशन
दाउरा
शृङ्ग
छैटौं
न्यायालयले
थुनिएको
अन्धकारमा
दिदिबहिनी
तान्नेहरु
मुद्दति
ट्रयाक्टर
ताप्लेजुङमा
आदिका
उक्साहटमा
प्रान्तको
मनाइँदैछ
चुनौतिपूर्ण
जम्मकट्ट
समाजसेवीहरुले
बताउंछ
झुण्डिएर
चक्रपथको
विजयादशमीको
इलेक्ट्रिक
कसिएर
शैलेश
मान्नुपर्ने
मान्नुपर्छ
कटुञ्ज
अन्र्तगतको
गराउँदछु
राजभण्डारी
स्वभावका
जन्माएको
फ्रान्सको
घनिष्ठ
नसोच
नुहाउन
गच्छदारलाई
बाख्रापालन
##मध्येको
माईती
पोशाकमा
उल्कावर्षा
झाँक्री
घुमाउने
डब्ल्यू
शताब्दीको
नअपनाउने
छरिएका
सदगुरुले
उम्किन
झेल्नु
रित्तै
वेदुराम
##धोग
सर्वसत्ता
ल्होसार
अभ्यस्त
मनिष
लेखिएका
सन्धी
मुछिएको
वरपरका
नर्सको
अवस्थमा
तात्कालिन
तात्कालिक
अठोटका
शारदाप्रसाद
असमर्थ
पृतना
खोमेनी
ज्वेलरी
झन्झटि
गुज्रिरहेको
आर्यघाटमा
खिमलाल
दिर्घकालिन
##त्सना
नाफामा
नबोल्ने
श्रेणीका
एलिजा
तदारुकताका
पण्डितले
जनाउनुभएको
शिलशि
ग्यारेजमा
सुपरिटेण्डेन्ट
मत्थर
वल्र्ड
बिगार्न
इन्स्ट्यान्ट
हिँडिरहेका
प्यारापिट
फोक्सोमा
कस्ले
गढवा
जगेर्ना
प्रवासमा
विष्फोट
जिवितै
महासन्धि
थापाथलीस्थित
तिब्रता
तुलाधर
पुल्चोकस्थित
भूमिसुधार
इशारामा
उचाईमा
गायिका
तम्घास
##ध्द
##स्वीकृति
होमिएका
सम्प्रभु
पर्यटनमा
लामखुट्टेको
केशरजंग
##सञ्चालन
धनमाल
##नजिकै
विभूषित
साइन्स
नाबालक
सुरुवाती
स्क्रबटाइ
विजयादशमीदेखि
घेरिएको
सप्लाय
परिबर्तन
सेवाप्रवाह
नातिनी
ढाँटेर
पकेट
लानुपर्ने
मास्के
##प्लान्ट
युनिसेफ
ताराखोला
छाउनीस्थित
चण्डेश्वरी
छर्लङ्ग
ढल्केबर
नडराउने
हतोत्साहित
संकलनको
दुस्साहस
अस्प्ताल
मुम्बई
लिम्बू
प्रश्वासमा
बैंकिंग
बिद्रोही
युनिभर्सिटी
अपर्याप्त
गंगालाल
प्रजनन
निवासमै
कोभ्याक्स
सुन्दरहरै
त्यतिमात्र
दुुई
दुगडले
पार्टी्भित्र
सेकेन्ड
मिलीमिटर
मुनाफा
बिक्रेता
प्याडिलक्स
उमेदवार
जलाशययुक्त
अक्षुण्ण
सुपरमार्केट
आकश्मिक
कवच
ग्वार्को
ब्यानर
लबिङ
सङ्गीत
जिन्दावाद
सिइओ
दार्शनिक
फिजिसियन
फिलिपि
पूर्णपाठमा
धार्चुला
मन्त्रिमण्डलमा
गौरीफन्टा
पूर्वअर्थमन्त्री
रितिरिवा
अकस्मात
इनोभ
कप्तान
छोकडा
दधिराम
मजाक
विमलेन्द्र
काबुमा
रायामाझी
सम्राट
सिन्दूर
दिनप्रतिदिन
प्रेमप्रसङमा
ट्राभल्स
ब्याक्टेरिया
आपूर्तिकर्ता
अनामनगर
सुन्दरीजलमा
सर्टिफिक
कचनकवल
निवृत्तिभरण
आरोपप्रत्यारोप
अतिरञ्जित
इत्यादि
घाईते
नतिरेको
नछुने
विवेचना
जनचाहना
जोकोही
छैठौं
घरआँग
मन्त्रीपुनले
नयाँबानेश्वर
अबिलम्ब
सर्वस्वसहित
एमआरपी
लोकार्पण
ब्याडमिन्ट
खिलाफ
खिचात
अग्रपंक्तिमा
चमेलिया
ठाटीकाँध
डकुमेन्ट
तम्बाकु
फइदा
रेसुङ्गा
लचकता
लायन्स
वौद्धिक
शालिग्राम
संसोधन
अनुकरणीय
महासंकट
मानपदवी
हालसालै
अनपेक्षित
सीताराम
पूजाअर्चना
श्रेष्ठमाथि
केदारस्युँ
अँग
अर्म
असद
अण्डको
अकाउन्ट
अघोषित
आली
आंक
आकृति
आधामा
आभाष
इंग
इसिम
ईपास
उब्जा
उर्मिला
ऊर्जामन्त्री
एपि
एक्ट
एरिया
एपको
एआइजी
औजार
कण
कसम
कट्
कभर
कल्या
कयौँ
कम्मर
कटाक्ष
खप्
खच्च
खिल
खराव
खजुरा
गाग
गङ्ग
गेड
घडि
घन्ट
घच्
चकले
चयनको
च्यार
छक्क
जाला
जेट
जती
जमल
जहिल्यै
जमुना
झस्
टङ्ग
टर्कि
टनेल
ठेस
ठेला
ठकु
ठालु
ड्रम
ड्री
ड्याम
तानि
तुरू
थ्रेस
थारू
दबाइ
दम्पत
धुवा
धमि
धिर
धज्
धमला
नक
न्
नना
नाख
नविक
न्याल
नाउँमा
नाइट
पञ्ज
पस्क
प¥या
पहे
पस्दा
फछ
फटा
फेदी
फाल्न
फजुल
बान
बेका
बगर
बर्दा
बञ्जी
भला
भति
भेरि
भयान
भट्टा
भद्दा
मरु
मबाट
मस्त
मनै
मदर
रम्
रिय
रेम
रवै
रविन
र्याली
लय
लेद
लब्
लड्नु
लड्दै
वद
वेल
शंख
षष्ठ
सई
सत्
सेर
सित्
सराव
सकाउन
हम
हङ्ग
हारे
हङ्क
ह्वी
हनन्
हतास
##िँदा
##िर्देश
##यरहरू
##ाधिन
##मेव
##मबहादुर
##मर्का
##मग्न
##मसोम
##वंश
##वक्तालाई
##लानी
##लयमा
##लज्ज
##तलमा
##ज्यु
##जाली
##ज्यान
##ज्योति
##अभि
##अवस्था
##नँ
##नरी
##ुड
##ुफा
##सना
##सालाई
##सत्ताको
##राला
##क्या
##कहरु
##क्याउने
##बले
##बुख
##बिने
##बस्ती
##बस्तीमा
##बुटवल
##टलाई
##डारी
##हम
##हं
##हिकल
##खास
##ोपण
##ोनो
##झौ
##झण्डी
##ेउ
##ेलीमा
##पस
##पल्
##धमा
##धामन्त्री
##उदार
##चरी
##ठु
##ठाउँ
##फ्रि
##गाम
##गराउन
##ँया
##ँधे
##दनमा
##दनको
##भीमा
##ङग
##थल
##थीको
##ूरणीय
##शर्त
##शक्ती
##आउने
##आदि
##आर्थिक
##ैयात
##घारी
##ौर
##ौटे
##इरहने
##ओस
##ओएम
##्रल
##्रेत
##्र्याङ
##र्छन्
##र्सको
##र्निङ
##मारको
##काष्ठा
##न्नुपर्ने
##न्से
##नेत
##ारिक
प्रस्तो
प्रसं
प्रधामन्त्री
##ानलाई
##नामले
##क्छ
##तापनि
##तातो
गरेसंगै
विमा
विही
विफल
विजे
गर्यौँ
गर्दिनँ
कामा
काने
कार्ट
कान्छी
##वास्त
##वाङमा
##वाङका
##वाणी
##म्का
##म्ले
##म्भाव
##म्लु
##नियन
##निक्स
##रीतको
निक
निण
निदेश
निभा
निकि
निशा
निधो
निवृत्त
##रुम
##नुस्
##्याएका
##्याङमा
हुम्
##िकमा
राधा
स्टो
स्किम
संब
संवोधन
##ेशमा
साक्ष
सार्थ
सार्नुपर्ने
सार्ब
दिव्या
##न्दन
समर
##त्ने
##ाउदै
##हरुहरुको
रहु
मासि
मादी
माक्सको
पुु
पुन्
पुत्र
पुलि
पुर्ख
##हिणी
##हाकिम
पात
पालेर
पालेका
पाक्ने
पाङ्ग्रे
##दैछन्
##ण्डामा
##ङ्मा
##ङ्मती
##पादन
##पात्रो
##धानमन्त्री
होली
होसिय
##द्ब
सुई
सुरा
सुनेपछि
##दाँ
##दाताका
निर्लज्ज
##ेखो
केएमसी
##धिहरु
जनाई
जनामाथि
गर्नेसमेत
गर्नेहरुमा
गर्नेजस्ता
त्यहां
बताउँछ
सरकारसँगको
##विर
##विदेश
##विसे
व्यङ्ग
उपग
एकद्वार
एकदिन
एकदलीय
एकहजार
##ायुक्त
##भामा
बढिसकेको
बढ्यौं
बढैयात
##नीक
क्लास
कुम्
दुविधा
पार्किङ्ग
पार्लिया
योगा
सहलग
प्रतिकार
प्रतिद्वन्द
##योगमा
##किरिया
##किशो
अनुभूत
राजबहादुर
वर्षै
वर्षालाई
वर्षिया
वर्षसम्मको
वर्षगाँठ
बिस्थापित
प्रधानमनत्री
स्वाथ्य
##ष्ट्रि
जनस
##ेलगायत
बैङ्कमा
##ग्रास
जिन्द
प्रधानमन्त्रीकै
क्षत्री
हुनेहरु
हुनेमध्ये
##्वाल
##प्रि
##प्रथा
##प्रथम
##जारोपण
रुच
रुटमा
रुसका
रुद्रा
रुकुमको
गरिएकोे
##पतीय
सेवान
सेनेटरी
##सील
##सीमित
गरिँदा
गरिनुपर्नेमा
स्वास्थ्योपचार
कारमा
सिन्ध
सिरान
सिजनको
सिएमसी
सिगान
सिंगै
सिरियाली
##न्यू
त्यससम्बन्धी
##डाँडी
ओलीमा
ओलीतिर
काठमाण्डुपाटी
रोल्
रोकी
रोपाइँ
राष्ट्रसेव
राष्ट्रपतीय
क्षेत्रहरु
जिल्लावासी
अस्पतालहरु
##ेटिङ
वाहि
वास्ता
वातार
वाक्क
भएजस्तो
अध्यक्षमाथि
सोंच
जातिय
जाँदैन
जातिका
जांदा
जाऊँ
समयानुकूल
##हरूमाथि
नेपालीहरूको
हामीहरुले
बनावट
##र्मि
दिएँ
दिएमा
प्राबि
भन्ठा
लगि
मिक्ला
##बन्धु
देशी
##धारे
तीतो
पुग्दै
पुगोस्
मुह
मुनि
राखेकी
राखेप
प्रहरीबाट
लिड
लिष्ट
लिदै
लिप्त
लिन्छु
नेकपाबाट
सञ्चिति
दुईवर्ष
सकिएसँगै
##ासि
महलको
महरलाई
महŒव
बुङ्मती
भारतमै
भारतनेपाल
##पीले
मन्त्रालयगत
तरेर
##डिङ्ग
नगरवासीलाई
नगरिकन
सदनका
घरजग्गा
##वासन
##वासिनी
भन्नेले
याेसंगै
कार्यालयहरु
अवस्थासम्म
आइका
साथले
महिमा
स्वरोजग
गुड
गुर्
##निकल
विषालु
##कुलेखानी
##बीसे
देखिन्न
देखिरहेको
मृत्युवरण
प्रवुद्ध
##भागृह
आवे
आवका
भइन्
भइराखेको
भइरहेकै
कुरासँग
कुराहरुलाई
मनका
मनकुमारी
##ट्दा
विषयहरू
सदस्यहरूको
सुरक्षामन्त्री
देख्छु
संक्रमणकाल
समितिकी
अन्तशुल्क
मन्त्रीमण्डल
उत्ति
उनीप्रति
बोहोर
सेवाले
बजाउन
##म्बे
आएकोले
काठमाडौंले
सहयोगप्रति
सहयोगीका
पोर्न
पोल्याण्ड
##मित्र
शिरो
मेन
मेथ
दलबहादुर
दलहरूले
दलदलमा
दलहरुबीच
खुम्बु
खुशीको
व्यक्तिहरुमा
छलफलकै
मागका
मागसमेत
माग्नु
किराको
किटाणु
किराना
बसौं
गर्नुलाई
संक्रमितमा
संक्रमितका
प्रयोगलाई
विश्वस
नागले
नागिनी
##थिन्
कार्यक्रमबीच
##दिनमा
अन्यौलमा
रामवीर
आफूहरू
आफूसँगै
##ेमै
##ेमेन्ट
सुरक्षासम्बन्धी
पारिवारी
##र्चश्व
##ब्स
##ब्जी
नागरिकमन्त्री
सडकले
##उँनेछ
##उँथे
##होरी
##बाघ
##बायो
पूर्वएमा
पूर्वआईजी
पूर्वमहामन्त्री
चिन्ने
चिठी
चिताएको
सामर्थ्य
##ग्ग
हाबी
हार्ने
हाँस
हासील
दावा
दाईको
बाँस्तोलाले
सञ्चालनसम्बन्धी
गौण
सङ्क्रमितसँग
##संस्थालाई
बाल्य
बालगृह
सांसदहरू
खाई
खाएपछि
खातु
कसरि
खोसिएको
##सभाको
जीनको
जीपी
भेटे
भेटपछि
भेट्दा
मोक्ष
नगेन्द्र
मुलुककै
युआ
आएकाहरु
नेतृत्वबाट
दोर्दी
थापासहित
बैठकमार्फत
बिहानबाट
बिहानसम्म
##सक्नुभएको
##कर्मीमा
बेरीले
बेचन
बेथान
भनिरहँदा
खोजिरहेको
यात्रालाई
नहुनाले
##केरुङ
##ुलमा
अमन
अमूक
##चाँ
विदेशीका
अपश
अपहेलना
अपूरणीय
शुरुको
हेलो
हेक्टरमा
कर्मचार्य
लाङ
लापर्
कानमा
उदृत
पठाउँछ
उच्चस्तरको
उच्चस्तरिय
भिजन
श्रेष्ठबीच
फैलाइ
निकाले
निकाला
निकाल्नु
निकालिने
गोल्
##वीत
##्यूटर
बाटै
उपत्यकालाई
##पुरुष
विशेषत
विशेषको
जानेहरु
कर्मचारीहरू
कर्मचारीहरूलाई
परेकोमा
उहाँहरूलाई
सर्वप्रथम
प्रतिनिधिका
प्रतिनिधिलाई
प्रतिनिधिमूलक
लगानीलाई
लगाएकाले
सम्झिनु
कम्पनीहरूको
अनिय
विद्यालयबाट
योजनाअनुसार
कमिटीहरु
पहिलोपल्ट
आइसोलेशनको
राज्यसत्ता
पौडेलविरुद्ध
दशै
लोकबहादुर
दुवैमा
निर्देशनसमेत
तिरुवा
तिलाग
तिर्नुपर्छ
सक्नेतर्फ
एउटामा
##सुन्दरी
बस्नेतका
##कर्मीहरु
कतिसम्म
कतिबेला
##बुँदे
##हरुमार्फत
छाप्
छान्ने
छाँट
भनाइलाई
##र्जुन
सहमतिपछि
सहमतिपत्रमा
फर्जी
फर्पिङ
रेम्ड
स्रोतबाट
चुकेको
चीनबीचको
##विरुद्धमा
जुटाएर
पाइरहेका
पाइन्छन्
भोटे
उद्योगपति
उद्योगीले
पढाउने
जेन
##ायणी
सन्चालन
टोलीबाट
उठे
उठ्यो
उठेपछि
सोमबारबाट
निरञ्जन
विश्वासका
विश्वासलाई
सीजी
सीडी
भन्दाभन्दै
रोगलाई
भारतीयले
नदो
सङ्ख्याको
प्रश्नहरु
अधिकारहरु
विघा
प्रक्रियाले
जीवनसँग
लकडाउनकै
स्पष्टसँग
परीक्षाबारे
आइतबारका
अधिकमास
##मुली
बहुभाष
##चालक
अनुसन्धानलाई
सहजताका
आउनुभयो
विकसहित
##जिता
बाटोका
बाटोलाई
सालझण्डी
मानवको
अपनाउँ
##धुरो
दैनिकजसो
अध्यावधिक
ट्रकमा
ट्रष्टको
विधिका
विधिवत्
भर्त्सना
टेम्पो
शक्तिपि
जलजला
अझैपनि
आउनै
गणका
क्षतिलाई
अन्तर्राष्ट्रियस्तरमा
चलाए
यात्रुहरुलाई
पालो
पालै
भागका
उद्वार
##जोखा
व्यवधान
धान्ने
धाँध
गर्छन
अवधिसम्म
प्रविधिलाई
वातावरणलाई
आन्दोलनकारी
सिर्जनशील
चेन्ज
चेपे
थालेसँगै
खुलामञ्च
न्यायसहितको
लोपो
लोचन
शवस्टेशन
प्रेसका
कोइला
सञ्चारको
सञ्चारकर्मीको
सिर्जनात्मक
राख्नुभएको
सभापतिका
ऐनलाई
देवप्रसाद
साधनबाहेक
क्रमा
श्रीधर
श्रीवास्त
भ्रमणबारे
मनाएका
भुभाग
भुम्लु
आत्मआलोचना
हटस्प
अहिलेसम्ममा
टावरमा
टाडिन
दररेट
भेटी
भेहिकल
खरिदबिक्री
तपाईंहरूले
कतिपयमा
सशक्तिकरण
संयोजकसमेत
##बिहान
##बिरुवा
##उनुहोस्
जाग्नेछ
##कोटको
##कोटका
##ारोपण
खटपट
फर्कनु
टोकाइ
प्रस्तुती
कदमबारे
हुँदैनथ्यो
सोच्नुपर्ने
सोच्नुपर्छ
विद्यार्थीबाट
भूमिस्थ
भूमिमाथि
कोइरालाका
##शाहा
मिलाइ
मिलाइयोस्
साँझदेखि
कमाइ
थाल्यौं
थाल्नुभयो
डुम
आईपुगेको
किसानहरुले
भ्रष्टाचारविरुद्ध
भ्रष्टाचारसम्बन्धी
सापटीमा
मनोगत
विचारधारा
गिराउने
गिराउन
आठवटै
असारको
गराउनसमेत
बेलौ
स्वतन्त्रतामा
बिकलाई
##ज्जन
तर्फको
आवश्यकताले
संसद्लाई
संसद्समक्ष
विवरणको
प्राथमिकीकरण
स्वास्थ्यकर्मीहरूको
नवउदार
एसएल
शुभसाइ
खेल्यो
खेलिरहेका
चुनौ
##र्सानी
सशस्त्रमा
पसेका
शान्तिको
बिरामीसँग
बिरामीमध्ये
परिस्थितिबाट
पोखराबाट
निष्क
लडाइमा
अत्यावश्यकबाहेक
बढिरहे
सकेपछि
सूर्यराज
रासससँग
भावपूर्ण
गतिविधिले
वेइ
##तोला
चुनावअघि
वस्तुमा
राजदूतका
छानवीन
नपाइएको
नपाओस्
आँबुख
##जेक्सन
##जेम्बर्ग
सङ्घीयतामा
स्थानीयवासीका
फेरिएको
जरुरि
##क्टेड
प्रतिबद्धताको
प्रतिबद्धताका
विष्णुमती
जेठी
जेठो
थुपार
नबस्न
पेलेर
वृद्धिको
वृद्धिले
##लाइन्सले
खण्डग्रास
छिर्ने
छिरिङ
खोपलाई
लाइनका
ब्यस्त
##्रेसन
परिषद्बाट
सुविधाजनक
जस्तापा
व्यवसायीहरुको
जनप्रतिनिधिहरु
जनप्रतिनिधिहरुले
नक्साको
गुमाउ
गुमाउन
असरबारे
ग्राहकका
ग्राहकबाट
##तैमा
मान्छेहरुले
##देब
##देवा
स्मृतिमा
इतिहासकै
फाँट
रुपैयाँसम्म
माओवादीभित्र
##सरकारी
##पाटीलाई
भक्तपुरले
करन
तुक
पहिचानका
पहिचानलाई
नआएसम्म
भाडाको
##कलङ्की
साताभित्र
सुनाईन्
जितेको
पसललाई
जानुअघि
पारियो
वायुयान
वायुमण्ड
रेलको
धर्मभक्त
धर्मपत्नी
शिक्षकहरुलाई
ठाने
ठान्छु
ठानेका
तेरो
रणबहादुर
स्टेसनमा
भएनभएको
समाजवादीका
पहाडीले
अनुभवलाई
भैलो
स्याङ
##मनस्यता
इन्फ
वर्गसम्म
फुड
फुङ
फुत्
विरासत
लाईट
सुर्खेतले
महामारीकाबीच
सम्मेलनका
देखापर्
##हाल्नु
अभिव्यक्तिबारे
मलङ्ग
मितिबाट
मितिदेखि
सिकाउन
प्रदेशसभाले
बालुवाटारबाट
प्रजातन्त्रलाई
झापाले
अनुदानका
बेलायतले
तथ्यमा
मर्ममा
सत्ताका
राप्रपालाई
मिटरभन्दा
##गठित
उपयोगमा
जन्मभूमि
बहसका
पदाधिकारीमा
बन्नाले
##मुक्ती
##विधामा
राजासँग
आरटि
चाहनेहरुलाई
भविष्यप्रति
ब्याक
सिमीकोट
असहमत
पशुपतिनगर
साइतमा
बाबुले
बाबुलाई
लुम्बिनीको
सैनिकले
सैनिकलाई
गराइयो
कालान्तरमा
सङ्कटलाई
कञ्चनजङ्घा
मिर्गौलाका
मुक्तक
वामदेवको
दृष्टिमा
खासखास
बारको
कमरेडले
कमरेडहरुले
कमरेडहरूले
शाखाबाट
उमेरले
शिवप्रसाद
शिवलाल
शिवपुरी
मङ्गल
सारंगी
हरायो
हराएर
हराउँन
पेटमा
व्यवहारबाट
मध्येबाट
##नोस्
सहकारीको
सहकारीले
सहकारीमन्त्री
सकेनौँ
संग्रौलाको
समृद्धितर्फ
तरकारीको
अभिभावकीय
पराएको
परासी
कागती
भूकम्पपछिको
अवरोधहरुको
अडानका
##ालगायतले
प्रत्यारोप
आदिलाई
प्रावधानको
प्रावधानलाई
पठाइएकोमा
ज्ञानप्रसाद
बुटवललाई
चिसोमा
हप्ताबाट
पर्वतारोहण
गुटबन्दीको
कालापानीमा
माइला
भत्ताको
भत्किएर
सिमानाका
कलह
कलंक
खाद्यान्नसँग
##रलै
सेन्टरका
जोडिएकाले
स्थानहरुमामेघगर्जन
न्यौपानेका
ट्यांकर
मोबाइलको
राज्यकोष
सदरमुकामबाट
क्वारेन्टाइनबाट
झुटा
सपनामा
उद्घाटनका
आवाजले
ज्वरोको
##साइड
लगाइयो
लगाइदि
विजयको
बङ्गालको
उपलब्धिका
सहभागिताले
प्रकृतिअनुसार
विविधताको
विविधतामा
दिनभित्रमा
काभ्रेको
जेलमुक्त
चलिरहेकै
उदाएका
हल्लाको
बाँकेले
मोटरसाइकलको
काटिएको
पर्नसक्ने
अतिक्रमणको
उत्साहका
रक्षामन्त्रीको
##चुक
संयन्त्रबाट
चट्याङ्
पालिकाको
##ंदैछ
दुर्गाको
तिरको
निर्देशिकाअनुसार
चल्नु
चल्दा
दशकौँदेखि
डोटीले
सञ्चारमाध्यमको
सञ्चारमाध्यमलाई
सञ्चारमाध्यमहरुले
रिजर्भ
स्थिरताका
आउनुहोस्
लालबन्दी
पाएसँगै
अधिवक्ताहरु
डुबानका
मिश्रका
दूतावासमा
पर्यटकीयस्थल
प्याकेजमा
द्वन्द्वका
द्वन्द्वपीडित
असंवेदनशील
##पूरक
सेवाग्राहीसँग
पुरस्कारको
ल्याबबाट
बाहिरिए
##खोलाका
सामग्रीका
अनुमतिपत्रको
भन्सारमा
ड्राइभ
अन्तरिक्ष
रेखामु
##नियामा
##क्षमता
रोपेको
दर्जनभन्दा
गल्तीलाई
चक्रपा
सेन्ट्रल
उम्मे
निस्केका
बझाङका
रूपन्देही
निजामति
अल्छि
गीतबाट
सिँचाई
मुस्किलले
उनिहरुलाई
तालिकाअनुसार
बुद्धका
मेसिनको
रोकिएन
खुवाउँदै
आसपासको
ट्रेसिङका
समझदारीमा
अनियमितताबारे
बाँध्न
रसिया
प्रकोपको
परिक्षणमा
फैलावट
तोड्न
पठनपाठनको
देखिएसँगै
शहरका
पूर्वसचिव
पूर्वसञ्चार
गृहमन्त्रालयमा
घटनास्थलबाट
सीपयुक्त
भोलीका
बढाइरहेका
अभियोगपत्र
बस्नेतलाई
सक्षमता
##िकरणको
साविकका
तनावमा
##अनुरुपको
इस्वी
गरिएपनि
मसान्तमा
बस्तीको
##बारीबाट
प्रतीत
लेखापाल
लेखाजोखा
ठेकेदारको
ढुक्कले
उडाउने
अर्जुनधारा
अर्जुननरसिंह
मोहनबहादुर
साझेदारीका
खपतको
परिषदमा
चित्रण
टेकुले
अर्काेतिर
ब्याजमा
तालीममा
स्थायित्वका
##मधाम
यसपालिको
हिउँले
लामिछानेलाई
नेपालभारतबीच
##दर्शिता
श्राद्धमा
भाषिक
भाषाको
पुर्नगठनबारे
प्रतिस्पर्धाबाट
स्तरोन्नतिका
संगित
आगलागीको
छाप्न
जुध्नु
हेटौँडाकाठमाडौँ
शंकरदास
हेर्नाले
समस्याग्रस्त
बाघलाई
श्रीमानको
रहिरह
कटानका
त्यतिबेलाको
जलाउन
बनिसकेका
पश्चाताप
नोकर
##विरूद्धको
अड्कल
अड्डाका
कविन्द्र
यिनलाई
बंगलादेशका
बढ्नुहोला
सिकेको
सम्हालिरहेका
गर्नुहुन्न
खलल
खप्तडमा
गर्दैनौँ
परिचालकले
खोटाङले
अङ्गीकृत
पन्छाउन
कमलादी
ट्रान्सप्लान्ट
सत्याग्रहको
मधेशवादी
आकाशे
आकाशमा
खैरो
##फुर्त
बिताएको
जर्मनीमा
जवानको
थेरापीका
नजाओस्
हाइकिङ
काठका
राखिन्
श्रेय
पुनरावलोकनको
धुलिखेलमा
रसुवाको
रामारोशनको
बानीले
वढेर
सामुन्ने
टुंग्या
बर्दियामा
अपमानजनक
टाइम्स
विनोदकुमार
कौटिन्
##ोपवीत
##पखाला
गुल्मीको
केशवराज
उन्नति
अन्र्तक्रिया
उल्लङ्घनका
नखुल्दा
लिटरको
लिटरसम्म
विज्ञापनरहित
नभइकन
असुलेको
किशोरकिशो
पुनःस्थापनाको
चौरजहारीमा
गाउपालिका
##जलविद्युत्
स्तरका
स्वाभिमानमा
स्वाभिमानको
शौचालयको
जनआन्दोलनको
फसेका
फसाउने
वसन्तपुर
नवरात्रमा
मजदूरलाई
ग्राफ
नुहा
प्रमेश
युएईमा
पञ्चाङ्गकार
चन्द्रागिरिले
घाटामा
प्रक्रियागत
विवाहित
स्वाधीनताका
जगतको
जगतबहादुर
दुइटै
जनजीवनलाई
दृश्यले
एकअर्काको
मुक्तिका
मुक्तिनाथ
मनोरम
आरोहणमा
कर्णबहादुर
हृदयेश
हृदयघात
अचल
अचेल
फिटनेस
बिर्सिएको
घरधुरीमा
सुरक्षीत
गोठको
लोकेन्द्रबहादुर
गुमेपछि
प्रयोगकर्ताले
लैजानुपर्छ
रामारोशनका
विरामीको
विरामीलाई
निष्ठावान
पशुपतिनाथको
यामलाल
अनिश्चितता
तिथिमा
कामपाका
वेबसाई
अराजनीतिक
ठगीको
भिन्नता
सर्वाेच्चको
मलेसियाबाट
अनाधिकृत
इराकको
खत्रीलाई
##दिनुस्
बिषयहरु
औसतभन्दा
पार्वतीले
सच्याउँदै
दिपायलका
अक्षयकोष
कहरले
थलोका
मालाको
रजिस्ट
प्रतिष्पर्धामा
असुरक्षा
एशोसिएट
इजाजतपत्र
नल्याएको
पन्जा
मसिनो
लडिरहेका
टाढै
टाढाको
लापरवाहीका
एन्टी
पछौटे
शरणा
##अघिसम्म
रिचार्जमा
लघुवित्त
लघुजलविद्युत्
सीमानाकाबाट
न्यायपालिकाको
एसईईको
रिसोर्टमा
परिचयपत्रका
ब्यूटी
##चकित
राष्ट्रसङ्घका
हिंड्
हिंड्ने
गोलभे
ज्योतिषी
आश्चर्यचकित
खर्बको
हतारहत
##्यनमन्त्री
उपसमितिको
जिनफिङ
जिनफिङको
खाँणले
डाउनलोड
थन्किएको
फ्लाई
मच्चाउने
सरासर
अनुशासनमा
लमजुङका
बराबरका
ध्रुवीकरण
यज्ञोपवीत
विडम्व
विकटता
शुद्धीकरण
सन्त्रासका
एक्काइस
टुटेको
प्यारो
मरेका
हेडबक्स
घण्टौं
घण्टौँ
खलङ्गामा
ओझेल
चट्टानी
वाइबा
हुस्सुकुहिरो
##प्रेरित
देख्नुभएको
खुलस्त
सुरुङमार्गको
आत्मालोचना
लड्छ
लड्नुपर्ने
लगनशील
दोहाबाट
इमर्जेन्सी
चराउन
दशगजामा
रेष्टुरेन्टमा
ज्यालादारीमा
डिपोबाट
धर्मावलम्बी
फालेका
फ्रिज
##प्टेन
सर्भेयरहरू
टुङ्ग्याउने
एकान्तकुना
हिन्दूराष्ट्रको
नुहाउने
म्यानेजमेन्टले
डेमोक्र्
डेमोक्रेटिक
बानियाँले
क्युरी
क्युसेक
देशभरिका
पोर्टल
हस्ताक्षरको
बिक्रीका
ब्युटी
सोलार
सदगुरुको
बाग्लुङको
भ्याक्सिनको
क्वालालम्पुरबाट
भनजस्तो
रविन्द्र
रित्ति
रित्तो
वर्ष्भित्र
प्रिमन
प्रिमियम
##ागाड
स्वाधिनताको
व्यावसायीहरुले
रेस्टुराँ
तोकिएकै
एसएसबी
छेउछ
थिइनँ
लिलाधर
नापजाँच
ब्लकमा
नजरअन्दा
पिकअप
रनवे
शङ्खरापुर
सागरमा
##प्रश्न
स्वास्थ्यचौकीमा
मेहताले
अवस्थीले
चार्जिङ
नाचगान
कल्भर्ट
खेमराज
धिताल
##ोधित
पुर्चौं
खेमामा
लाभग्राहीबाट
कन्ट्र्याक्ट
रामेछापका
चतुर्दशी
बर्तौलाले
हत्यारा
हत्यारालाई
हानिकारक
##मेट्रिक
प्रत्यु
राजिनामा
राजवंश
भाजपाले
युनिभर्स
शुभचिन्तकहरु
सुजुकीका
ईतिहास
डङ्गोल
वनाउन
उत्प्रेरणा
इमान्दारिताका
एग्रो
तामेलीमा
काजकिरिया
पोख्रेल
देहायबमोजिम
स्तनपान
डिसहोम
सत्याग्रहीको
उब्जिएको
अक्षरशः
पल्टन
वारपार
कान्छा
कान्छो
जोसुकैलाई
एजेण्डामा
रमणीय
बज्राचार्यले
उमाकान्त
भित्ते
कुहिएर
वाध्यता
सम्बोधनको
गैह्रजिम्म
शिवालयमा
बास्कोटाको
मलेशिया
मायालुसँग
नाइके
दुराशय
भएतापनि
लिपिबद्ध
तथ्याङ्कमा
ढाडस
कन्चनपुरमा
पैदलयात्रु
मितव्ययी
स्ट्राटेजी
छेडागाड
बलेवा
बहाब
बनाउँदछ
बसाइँसराइ
उल्ट्याउन
कम्प्रमाइ
इमान्दारीपूर्वक
कश्मीरको
टरेको
परोपकार
भिसाको
निमन्त्रणा
देउखुरी
शैय्याको
लेनदेनका
स्कन्दमाताको
साउँदले
सुध्र
##प्रभावित
परिस्थिती
सिङ्गापुर
घरदैलोमा
जीउधनको
समुदायस्तरमै
छिन्नभिन्न
बगैँचा
काउन्टरमा
अडिग
फेमे
विधाका
निवेदक
पुच्छ्रेत
क्लवले
अनुपातमा
बिजेताहरुलाई
असन्तुलित
स्वेच्छाले
शैलपुत्रीको
आतिथ्य
लेनिनवादी
धापासी
ब्रम्ह
इञ्जिनियर
मस्जिद
सुकुम्वासी
स्यानी
हाटबजार
##ख्र्यौली
विद्वान
संवेदनशिल
मुल्यांकन
चिलिमे
एमएलको
चाँदनी
वालुवाटार
छुवाछूत
घुमफिर
अथाह
घोटाला
पल्लबी
मखमली
लन्डन
##ग्नोष्टिक
सङ्कायका
मुर्दावाद
घरबेटीले
विद्यावारिधि
जेभीले
सिफारीस
निष्कासन
समुन्नत
पाठ्यपुस्तक
ग्याल्
चमत्कार
चक्लाबन्दी
जमानत
ठ्याक्कै
नचिन्ने
म्ह
याल्वा
वसुन्धरा
हेतुले
##पश्चिमा
सुजाता
सहानुभूति
क्षतवि
प्राङ्गणमा
गुह्येश्वरी
डिएपी
तिङ्करमा
चौरासी
बदनियत
ललितानिवास
भेडीगोठ
स्वयम्भू
इन्टरप्राइजेज
च्याम्पियन
झुकाव
मण्डनदेउ
मस्र्याङ्दी
मितव्ययिता
परिप्रेक्ष्यमा
अघ्र्य
उखेलेर
एष्ट्रोनो
जजीरा
ताइवान
बेमौसमी
मकालु
रसिद
सर्केगाड
नेमकि
हुमागाई
क्विन्टल
जनउत्तरदायी
परिर्वतन
रोयल्टी
लग्जेम्बर्ग
मिर्गाैला
बुलन्द
अर्गनाइ
पूर्वडीआईजी
मौषमको
गोताखोर
त्रियुगा
न्यायलयबाट
हातखुट्टा
लुकिछिपी
झाडापखाला
स्वयंसेविका
गाउंपालिका
शिलशिलामा
आंकलन
घच्घ
च्यारिटी
तुरून्त
ननाघ
नविकरण
बर्दाघाट
भयानक
लब्धा
सित्तैमा
सार्थकता
पार्लियामेन्ट
प्रतिद्वन्द्वी
प्राबिधिक
मिक्लाजुङ
पारिवारीक
तिलागुफा
लोपोन्मुख
टोकाइबाट
आँबुखै
आरटिडी
कौटिन्हो
नजरअन्दाज
अा
अध
अग्रह
अधुरा
अशो
अधुर
अञ्जना
अधुरो
अचुक
आना
आधि
आर्क
आकारको
आलेले
आदित्य
इथ
इष्ट
इस्ट
इशा
इयु
इबो
इस्यु
इन्दिरा
ईन्टर
ईयू
उहिले
उचाल
उषा
ऊर्ज
एसी
एआइ
एप्रो
ऐस
ऐना
ओभ
औल
औला
औसतमा
कब
कछ
करु
कम्म
कंग
कट्टा
किमि
कनिका
कच्ची
खप
खिया
खर्क
खस्ने
ख्वाई
गाइ
गास
गसिलो
गस्तीमा
घार
घेर
घ्यू
घटीमा
चुर
चिम
चाख
चिनो
च्वाइस
छाल
छ्न
छिन
छेव
छक्का
छड्के
जरा
जन्य
जाली
ज्यो
जवर
जालो
झम्
झट्ट
झिल
टाउ
टिव
ठानि
डगम
डाउनको
तौ
तल्ला
तस्तै
तवरमा
दज
दंग
दर्द
धने
धरो
धारमा
धीर
नघ
नछ
नाल
नम्
नरु
नक्ष
नबा
नशी
नखा
नठा
नपरे
पसले
पालले
पल्क
पेन
पाउँदै
फर्मा
फक्ता
फिर
फ्री
बक
बंै
बक्सको
बँद
बफादार
भकारी
भरस
भ्यू
भारु
भ्याल
मति
मेका
मनी
मेक
मणी
मयू
मज्जा
युक्त
रत
रन्
रिम
रक्स
लभ
लवि
लुवा
लद्दा
वच
वली
वाय
शान
शब्
शताव
शमसेर
सवा
सीले
सघा
सकाउने
सकृय
सभागृह
हँ
ह्वि
हटाएका
्र
##िनुपर्छ
##िशन
##िच्यु
##यला
##मट
##मह
##मेर
##मनको
##मेन
##मर्दन
##वटी
##वमै
##वेसन
##लफल
##लियाको
##तथ
##तलाई
##तराई
##तारि
##जेका
##जस्त
##जानी
##ुस
##ुन्दरी
##सुख
##रग
##कहिले
##कर्जा
##बध
##बृ
##बहु
##बगरमा
##्दी
##टेर
##टहु
##टोली
##टेलले
##डेपछि
##डेमा
##हने
##हेट
##हँु
##खरमा
##ेटी
##ेसम्म
##पिएको
##पिस
##पम्प
##पिल
##पकको
##पछा
##पक्क
##उत्थान
##चिकित्
##ठिक
##णाम
##णगङ्गा
##फार
##फाल
##गै
##गर्दै
##ँटी
##ँलो
##ँक्षा
##ँढी
##ँैं
##ँटमा
##दस्य
##भले
##भाउ
##भोज
##भरीका
##ङलाई
##थले
##थलीमा
##एले
##एला
##एक्
##शृ
##शक्य
##ैचा
##ौलालाई
##ढीमा
##ढंगले
##ओसी
##र्सा
##र्णाली
##र्तिमानी
##न्नि
##न्डी
##न्ताका
##लेभ
##लेन्ट
##नेताको
प्रथ
प्रपञ्च
##स्ड
##स्द
##नाशक
##क्च
##तातर्फ
##तिनो
##त्रय
विभ
विन्दा
विधी
विकाश
विकेन्द्र
वित्तिकै
विरलै
गर्यौ
गर्दथे
काे
कांक
काँड
काफ्
काँक्र
कान्द्रा
##वाय
##निश
##निमा
##निर्या
निद
निचो
निधारमा
निवदेन
नेवारी
##थामा
##ागर्दी
##्याक्
##्यार्पण
हुं
हुनुपर्
हुर्का
हुटहु
##िकम
##पालथान
रासन
रास्ट्र
स्कार
स्क्वा
संवेदना
संजय
साँग
साजन
साठी
साकेला
दिव्य
दिलाइ
दिपेन्द्र
##ष्करण
##न्दार
समकालीन
समीकरण
##ल्डी
##ल्से
##एकामा
##क्रिट
##रोत्तर
##त्वा
##त्पादक
कोड
कोे
कोर्ट
कोलम्ब
##यार्थ
##ाउन्ड
रहला
रहनका
माले
मापनमा
मापसे
लागौं
लागेसँगै
पुजा
पुर्दा
पुख्र्यौली
##हिं
##रिङ्ग
##हाकार
##हायको
पाप
##दैं
##ण्डोल
##पाका
सुभ
सुटक
सुपु
सुसन
सुन्छु
सुपरी
सुनील
निर्भिक
##ेखा
सरेर
सरदर
सरहको
केएन
केबुल
जनाउने
जनाइरहेका
गर्नेभन्दा
गर्नेलगायत
गर्नेसम्मको
##छिन्न
##ाइएका
त्याग्
त्यतिकै
त्यतापट्टि
बताइरहेका
कार्यढा
सरकारसँगै
##विस
##विराम
##र्षण
एकर
एकरूप
एकसाता
कोरोनामा
##ायका
##ायिका
बढाउँदा
कुटी
कुकर्म
कुर्न
कुम्भ
कुरुप
दुखित
दुवाडी
दुरुस्त
पार्नेछ
पार्टन
पार्लर
पार्वतीको
योङ
योजन
##रहदा
सहर्ष
सहकर्मीको
प्रतिज्ञा
प्रतिपरिवार
##किङको
##न्छन
अनुत्तर
राजपुर
राजनाथ
बिर
बिउ
बिश
बिमान
बिच्
प्रधानन्त्री
प्रधानाङ्ग
जनसँग
जनघन
जनमुक्ति
पार्टीकी
बैदेशिक
बैकुण्ठ
##ग्रेड
बाजी
जिया
जिम्ब
##कीको
##कीकरण
##कीर्ण
प्रधानमन्त्रीजीले
##िसके
जानै
जानकरी
क्षती
क्षमाया
क्षणमा
हुनेबित्तिकै
##िमु
गरेकालाई
##ाउँनेछ
##प्रेस
##प्रेज
रुघा
##िनलाई
##सम्मलाई
सेन्सर
नैसर्ग
परिष्
परिक्षा
परिरहेका
परिपूर्ण
परिस्कृत
परिरहेकाले
प्रदेशभर
प्रदेशअन्तर्गत
##गाएर
गरिरहेकै
गरिखाने
जानकारीको
अस्ता
अस्तिको
स्वास्थ्यसँग
स्वास्थ्यअवस्था
कमिकम
सिटको
सिनाम
सिजनमा
सिईओ
##ृती
त्यसक्रममा
काठमाण्डुस्थित
काठमाण्डुमै
राष्ट्रहरुले
क्षेत्रीको
क्षेत्रसमेत
जिल्लाभित्रका
अस्पतालाई
अस्पतालहरुमा
मन्त्रलाय
सबैथोक
वाई
वाक्य
भएन्
सोन
सोफ
सोधि
##वारा
समयअनुसार
समयतालिका
##जाहेर
##भावक
##भावको
##भावका
हामीबीच
जोख
जोड्दै
प्रादेश
##ेसलाई
भन्नुपर्यो
लगाउँ
लगतै
लगाउँछन्
मिलाई
##बन्धमा
##हुँदा
देशमै
देशहरूले
देशद्रो
तीनको
गरेदेखि
गरेवापत
पुगि
मुस
मुढा
राखिए
दिनभरी
##वादबाट
प्रहरीसँग
प्रहरीबीच
प्रहरीचौकी
लिज
लिब
लिट
लिची
लिन्छन्
लिनुभएको
लिएकी
नेकपासँग
पर्वाह
दुईचार
सकिँदै
##समूह
बुल्
बुन्न
भारतप्रति
नेतासँग
नेताहरुका
मात्रको
मात्रमा
##डिज
##डिआईजी
##न्टे
सदस्
कारणहरू
घरसम्म
थाङ
याएको
कार्यालयहरुको
कार्यालयमै
कार्यालयद्वारा
##ष्ठान
केन्द्रसम्म
प्रश्रय
आइटी
आइपरेको
अधिग्रहण
अधिवक्तालाई
##सकेकी
##ेलाबाट
##ंगबु
व्यावासाय
स्वेत
स्वरुपमा
गुण्ड
गुटर
गुगल
सक्दिन
सक्कली
##बीन
##बीर
मृत्युु
मृत्युदण्ड
##कासुन्दरी
उपचारबाट
भइन्छ
स्थानीयका
स्थानीयतह
कुराहरूलाई
##ज्ञानी
मनहरी
विषयबारे
सदस्यमध्ये
गाउँलाई
गाउँपाल
गाउँघर
सुरक्षण
देख्दै
समेतले
अर्मादी
विकासक्रम
भूतले
##लिङ्ग
##लिङले
प्रचण्डसँगको
प्रचण्डजीले
मन्त्रीमा
उत्पति
उत्पत्ति
सङ्क्रमणमा
मानक
मानचित्र
मानुङ
मानससँग
उनीहरूका
##यनारायण
बोरिङ
बोदेब
सेवाअन्तर्गत
सयुक्त
नगरपालिकाअन्तर्गत
नभन्नु
नभ्याइने
काठमाडौंलाई
काठमाडौंपाटी
राष्ट्रियताका
सहयोगीको
सहयोगिहरुको
पोष
पोर्त
पोथी
##सिं
कोभिडबाट
कोभिडविरुद्धको
सूचारु
##ङ्गमा
##ङ्गति
मेरि
मेघा
मेन्सन
दलबाट
दलाली
दलकै
खुफिया
मागमा
मागपत्र
अवस्थिति
अवतार
हालत
लाखसम्मको
श्रव्य
बसभित्र
गर्नुछ
गर्नुपरेमा
विश्वनाथ
विश्वस्तरीय
हिलो
हिज्
हिड्न
सचिवलाय
##थिलो
तीनपटक
तीनतीन
तीनकुने
##हाना
##दिमा
##दिँदा
राम्र
रामले
आफूसहित
पक्षध
पक्षिय
पक्षहरू
पक्षपात
सुरक्षात्मक
गाउँपालिकाबाट
पारा
पारस
पारेपछि
पारिसकेका
##र्चुल
पुनह
पुनस्थापना
नागरिकहरुले
नागरिकहरूको
नागरिकहरूलाई
बस्दैन
बस्छु
चां
चाङ
चान्स
गर्दाका
##बाँधे
पूर्वप्र
पूर्वसा
पूर्वप्रमुख
पूर्वउप
पूर्वमहा
पूर्वडिआईजी
चिता
चिरा
चित्रा
##ग्लो
हान्न
हान्ने
हाकिम
हाताभित्र
दाई
बाँड्ने
अभिप्रेरित
संविधानसँग
संविधानप्रति
##राजमार्ग
तहबीच
तहहरुमा
##अनुमति
##संभावना
बालिएको
##णात्मक
भाया
भाँड
बढीले
##कमणि
##कमर्स
##र्तडी
आधारका
आधारहरु
खोइ
खोलिने
पूजन
पूजारी
##झाव
सामाजिकआर्थिक
डिफ
डिम्ब
भेट्
भेटेका
भेट्नु
##धार्मिक
नाङ्गै
मोनि
मोडे
अगाध
अगाढि
विज्ञहरूले
विज्ञसहितको
##लगायतसँग
नेतृत्वकै
नेतृत्वकर्ता
##ानाको
##ंकमा
पाँचख
पाँचको
पाँचपोखरी
प्रस्तावनामा
जनताकै
जनतामाथि
##ेषित
##कर्मीका
मुखैमा
तयारीलाई
तयारीसमेत
बेठी
बेठिक
राजनीतिकर्मी
खोज्यो
खोज्नेछन्
जोखिमले
चारजना
चारदेखि
चारपाँच
कांग्रेससँग
लेख्नु
##ुलक
##ुल्य
अधिकारीसहित
##चाँदे
विदेशीले
विदेशीलाई
विदेशिने
भट्टराइ
अगाडिबाट
कम्युनिष्टहरु
परिवारसँग
परिवारकै
लाँ
लाश
लान्छ
आयोजनासँग
मुख्यमुख्य
कम्प्यूटर
गाएर
प्रतिशतबाट
छोएको
छोपी
छोरिको
सूचनाले
सूचनाहरू
सूचनाअनुसार
उच्चारण
भिक्षा
संघमा
श्रेष्ठसँग
घण्टाका
निकासी
पौने
गोबर
गोगन
गोल्ड
गोंगबु
विशेषले
चाहन्न
कर्मचारीसहित
कर्मचारीतन्त्र
कर्मचारीमाथि
कर्मचारीहरूको
व्यवसायीमा
व्यवसायीकरण
सर्वदल
##पक्षको
##पक्षमा
##पक्षिय
सवारीले
प्रतिनिधिहरु
प्रतिनिधिहरू
लगाडी
सम्झिने
सम्झिएर
अनिष्ट
विद्यालयमै
मायामा
आरोही
राज्यसँग
दाहालबीच
##व्यव
ताका
ताहा
तानेको
पौडेलसहित
सङ्घअन्तर्गतको
अर्थसचिव
अर्थहीन
यहाँहरू
##सेप्ट
लोकनाथ
लोकन्थली
##ेन्द्रदेव
जोडेको
महिनायता
महिनाभित्रै
निर्देशनलाई
तिनमा
तिर्थ
सीमानाको
कृषकको
गृहको
पुरुषसँग
त्रयो
त्रुटी
बस्नेलाई
महानग
##बुल्लाह
हुनुप¥यो
अनलोड
अनगि
छाड्नु
छाँै
सहमतिबाट
रेस्क
रेनुका
रेक्टो
चौरी
चौपट
बजारमै
चुइ
चुका
खर्चिनु
चीनतर्फ
फिचर
स्पस्ट
स्पोर्ट
सक्छन
सोमप्रसाद
##विरुद्धका
जुस
उपाए
बुझाउँछ
विद्यार्थीमाथि
पढेका
नीतिबाट
परेकाहरुलाई
परेकामध्ये
निरर्थक
##स्कर
##स्कूल
##सम्मानमा
##सम्भावनारहेको
आरोपलाई
पटकमा
पुष्कर
रुपेश
बदमासी
बनाउनेबारे
पानीका
बुधबारबाट
प्रश्नहरुको
प्रश्नसमेत
आशाको
परीक्षार्थी
पुष्पलालले
अनुसरण
बैंकमार्फत
निकायहरुलाई
निकायसंग
निकायसँगको
रकमलाई
एकताप्रति
निर्वाचनपछि
निर्वाचनअघि
##मुनी
बोलाइ
बहुविवाह
बहुसां
बहुजातीय
बहुचर्च
##तिरका
##न्सको
कार्यान्वयनबाट
सुझावको
बालुवामा
##रुपमै
भित्रमा
भित्रभित्रै
भित्र्याइएको
उत्पादनले
उत्पादनसँग
उत्पादनशील
विकशित
पत्रकारमा
पत्रकारमाथि
सातजना
लिनसक्ने
##जिङ्
मापदण्डहरु
रहनेहरुहरुको
अपनाउनुपर्छ
##धुप
यसैबाट
संशा
अध्याय
ट्रकको
मुद्दाले
विधिलाई
राहतस्वरुप
धनपालथान
फर्किनु
फर्किँदै
फिर्ताका
##दोरहेछ
##दोबाटो
प्रतिनिधिसभाले
अन्तर्राष्ट्रियतर्फ
दुर्यो
उद्धव
यात्रुहरु
बागेश्वरी
गुरुले
गुरुलाई
पालनामा
भागी
उद्दत
सिफ्ट
दिनुहोस्
गर्दछौ
आदेशलाई
प्रयासपछि
##च्छु
चिनिएका
चिनिन्छ
प्रविधियुक्त
खेले
खेपि
प्राधिकरणमार्फत
खुलापन
##गोठमा
सिंहका
जवाफी
देवान
देवराज
चिकित्सकहरुलाई
क्रुर
मध्यकालीन
मध्यराति
विमानबाट
श्रीनगर
तोरी
भ्रमणबाट
भ्रमणपछि
मनाएको
मनाउनुपर्ने
मंगलबारका
शैयाको
शैलुन
हटेपछि
##घाटन
##घाटबाट
##मोत्सव
दरार
दरवार
##स्थलबाट
##स्थलसम्म
पु¥याउनुपर्ने
परिवर्तनलाई
तपाईंहरूलाई
##बिरोध
##बिलिटी
पूर्वाञ्चल
अन्त्यपछि
खट्न
टोपी
टोकियो
##मलिएको
गराउनेलाई
कदमहरू
कदमप्रति
फोहोरी
##खुल्डी
नदिइ
नदिमा
नदिएका
डेटा
सर्बो
आममा
आमरण
विद्यार्थीहरू
अखबार
अवसरवादी
##शान्त
प्रभावकारीरुपमा
अतिवि
साँझको
नाकाको
नाकाबन्दीका
कमाएका
थाल्ने
थालिसकेको
थालिसकेका
डुङ
##सियटिभ
आईएमएस
ढुकुटी
सञ्जालको
सञ्जालबाट
अधिकृतका
अधिकृतले
##युगमा
दिउँसै
स्थितिबाट
क्याबिने
क्याप्टेन
बचेर
बचाइ
##नेटले
यादवसहित
पहिलेका
राजनीतिबाट
त्यसैबेला
बाहन
फरवार्ड
लिनेहरुले
सर्वोच्चका
लाग्नुपर्नेमा
##भोग
बिकेश
फैलँदै
##ज्दै
##र्दशन
पश्चिमतर्फ
नौट
नौवटै
माध्यमका
##वरलाई
##दरबार
पुर्यायो
टुक्रा
नवप्र
नवजीवन
नवमीसम्म
नवगठित
एसियाको
एसओएस
नोभा
यतिले
होमनारायण
शुभकालिका
नियुक्तीको
ज्ञवालीका
बिरामीहरुको
चोटी
संरचनाका
मन्दिरबाट
विपिन
बाढीग्रस्त
निष्प्र
प्रतिस्पर्धिहरु
औषधिजन्य
गलिसकेको
छुटकारा
##एमई
भरतपुरमा
कुलपति
कुलबहादुर
चितवनबाट
चर्चाको
गरिएकाे
कसैका
गतिविधिका
कृष्णपुर
वेभ
चुनावका
चुनावलाई
नपाइ
नपार्ने
आँफ
सन्तप्त
निधनबाट
जन्मोत्सव
पहाडि
हितेन्द्रदेव
महासचिवका
अर्बौ
बढ्दैछ
##टेन्ड
होटलहरु
आएदेखि
भीडमा
छोरासहित
पाण्डेका
ढाकेको
ढाक्ने
प्रशासनि
नबस
अधिकांशलाई
पेसी
पेम्बा
पेचिलो
खण्डित
लाइक
आह्वानमा
ललितपुरले
ललितपुरस्थित
भवनका
##एसएस
##चिमा
हेरविचार
टिक्ने
असरका
घुँडा
सहितका
मान्छेहरूले
नपाउनु
नपाउदा
उनीहरुसँग
उनीहरुसंग
फाप्ने
छिमेक
##लागी
##लाग्ने
आलोच
खानको
श्रमिकका
तुम्वा
जम्माखोरी
वनमन्त्री
संस्कृतिले
महाधिवेशनका
भरतपुरको
##क्यौँ
पिपी
नभएकै
पारिनेछ
पारिरहेको
आफुमाथि
आफुसंग
नमस्कार
राजधानीबारे
गैरेले
रेलसेवा
लक्षणसहितका
धर्मका
धर्मराज
ठाडै
तेह
तेमाल
रणनैतिक
रणनीतिमा
चालकहरुले
धुनु
स्ट्याण्ड
कटारी
नगरीकन
अनेम
एनएम
शेरचन
शेरचनले
अनुभवमा
भैराखेको
भैसेपाटी
इन्च
गोरे
न्यायाधीशमाथि
कुटनीति
मार्गबाट
मार्गनिर्देश
देखाएपछि
जबकी
जबराको
सिकाई
सिकाउने
सिकाउँछ
##बिनै
मर्मअनुसार
सत्ताधारी
रावलसहित
संगठनहरुले
सामानहरुको
प्रगतिबारे
पत्नीलाई
जन्मेका
कहिलेकहिले
##श्वारा
बहसलाई
झलारी
##चनलाई
जाँचपछि
पदाधिकारीसँग
प्रबन्धका
फैलिदै
उत्तरपूर्व
हरिभक्त
हस्तान्तरणको
आरएनए
म्याट
म्यान्ड
पुससम्म
पुसदेखि
हिँडेरै
निष्कर्षसहित
ब्याट्री
जनस्वास्थ्यविद्
सिमरामा
सिमकोटमा
पशुपतिमा
बगेका
जनसङ्ख्यालाई
ग्रहणका
छाडे
शेय
यथावत्
बुझाए
बुझाएपछि
बर्खा
बर्ष्भित्र
##स्तरमै
औपचारिकरूपमा
सिन्धुपाल्चोकले
प्रचारका
छिटफुट
सप्तमीका
सप्तरङ्गी
बारका
##हीनताको
##द्र्धक
शाखाप्रमुख
अभ्यासका
चिसोका
शिवजीको
फाइबर
छानबिनको
छानबिनका
ऋणमा
भोलिबाट
भोलिपल्
भोजनका
निकुञ्जभित्र
आचार्यका
नभएकालाई
व्यवहारका
अप्ठ
सानोतिनो
##नोमि
मालि
माल्यार्पण
जगद
जगत्
जगजाहेर
बन्दाबन्दीलाई
स्वार्थलाई
वोर्ड
सर्वसाधारणमा
परापूर्व
मिल्दा
पटकपटकको
शीर्षकको
शासनका
कागजको
दीर्घरोग
दीर्घकालिन
फोनबाट
बुटवलस्थित
परिणामको
परिणाममा
परिणामले
##वेक्षण
हप्तासम्म
नियमलाई
गाँजालाई
पर्वतले
संवत्को
माइक्र
चासोलाई
सिद्धान्तमा
भत्किँदा
विनिमय
मङ्गलबारसम्म
उजुरीका
उपमहानिर्देश
हकहित
हकहितका
##ज्यूको
हेर्दाहे
हिमशृ
वास्तवमै
कन्टयाक्ट
स्थानहरुमाभारी
गन्तव्यका
एक्ज
द्वार
द्वारा
मनसुनजन्य
नवलपुरका
बनाइसकेको
बनाइदिएको
पदार्थमा
मोरङले
प्रष्टीकरण
लाग्नसक्छ
असन्तुष्टिका
गल्ति
प्रसादका
निवेदनका
##ाटाढा
बङ्गाल
कुराकानीका
प्रकृतिलाई
फूलमा
##डेरी
बिनाको
कैदीलाई
प्रधानन्यायाधीशको
हेटौडा
काभ्रेका
काभ्रेमा
पाकिस्तानले
रुपाख
हल्लाका
परराष्ट्रमन्त्रीले
काटिने
हटाउनका
निराहार
आँखाबाट
म्यारा
पीडाको
पीडादायी
##चुहा
सवारीसाधनको
##श्पर्
बैंक्व
दमकमा
दमदार
विप्लवका
रगतमा
खिम्
आवतजावतलाई
खेतीका
सर्लाहीले
तारपिन
अनुमोदनका
शरीरका
निस्सा
निस्किए
पाठ्यवस्तु
नागरिकतासम्बन्धी
दशकपछि
अस्थिरताका
ठोरी
गरिसकेकाले
सुन्दरता
मौलिकता
लालपूर्जा
सिटामोल
हस्तक्षेपकारी
आयको
चढ्नु
मदनकुमार
एकजनामा
कमजोरि
कमजोरीको
वार्डको
वृद्धवृद्ध
हरुसँग
अपार्टमेन्ट
ल्याबको
पुनर्संरचना
अगुवाले
ड्रिल
जनयुद्धमा
जनयुद्धलाई
सवारीसाधनले
अनुशरण
रोप्न
महोत्तरीले
विपरीतका
क्रियाकलापका
जयन्ती
दर्जनौ
सबस्ट
पोष्टमा
आत्महत्याका
इनर्जी
चक्रवात
रुपन्देहीले
##पोखर
##पोखरा
प्रयण
प्रयत्
रेलमार्गका
नलिइ
आइपुग्न
अंगभंग
धरानको
##गाउँको
तालीमको
न्युरोड
न्युजिल
टिमले
सामाग्रीहरु
सुरेन्द्रबहादुर
कार्यकक्ष
प्रतिपक्षीको
रोकिन
रोकिँदा
खुवाएर
राखेकै
मोटरसाइकलले
कोठामै
पुर्वमन्त्री
हिमालयलाई
हेलिकप्टरमा
प्रकोपले
निषेधित
बंगालको
सिसुवा
सरोकारवालाको
पठनपाठनमा
सिँचाइको
पूर्वसम्भाव
सदनले
आइसियू
गृहमन्त्रालयको
घटनास्थलतर्फ
बासिन्दाको
अल्पसङ्ख्यक
##्रेस्ट
सुस्तापूर्व
सुस्तावासीले
वर्षअघिको
वर्षअघिदेखि
परिमार्जित
सन्धिको
सघर्ष
बाँच्नु
आवागमनलाई
सेल्सियसमा
##सामू
पुर्खाले
##बासीले
जैसवाल
भोगचलन
धादिङमा
अछामबाट
उर्जाको
कुँवरको
उदयपुरका
तपाईँलाई
कुकुरले
इस्मा
तलबाट
तस्करीमा
नपुगेपछि
विपन्नलाई
बस्नुहोला
लामिछानेको
पुस्तामा
अशुल
कतारका
दृष्टिकोणबाट
उचाइको
खरीदबिक्री
##ेश्वरको
विशेषज्ञको
अनुपयुक्त
जाजरकोटबाट
साझेदारीलाई
धराली
चित्रबहादुर
टेकुको
इटालीमा
पहलको
बेरोजगारलाई
पृष्ठभू
नफर्क
निवारणका
यसपालीको
अन्यत्रबाट
अनेरास्ववियूको
##मार्टम
मुटुमा
हिँड्ड
संस्कारका
दाजुभाईबाट
तेलको
##प्पल
भाषाका
मानवअधिकारका
मानवअधिकारकर्मी
क्रान्तिकारीले
लम्बिन
एकपटकमा
सलहले
स्तरोन्नती
स्तरोन्नतिको
राउटे
छापिएको
बेलुकाको
भुसाललाई
हेटौँडाले
जान्छौँ
बेहोरा
हावामा
हावाहु
अलैँचीलाई
बुवाआमा
हेलिकप्टरले
ढोकामा
ढोकाबाट
बनिरहेका
##रहरूमा
##रहरूले
उत्तरोत्तर
नगर्नुस्
नगर्नुहोस्
बाढीपहिरोबाट
##नन्दन
मोटरबाटो
नगदसहित
बाह्रविसे
कुशवा
तथ्यांकमा
तथ्यांकअनुसार
एम्बुलेन्सको
लुट्ने
लुटपाट
सताउने
पाठसमेत
औँल्याएका
डिपि
गोपालप्रसाद
सिकेका
सिकेर
रातदिन
सम्हाल्न
सन्तुलनको
सुनुवाईका
काङ्ग्रेसले
पुँजीको
सङ्गठनमा
खुट्टाको
ज्ञानेन्द्रको
ज्ञानेन्द्रबहादुर
दण्डनीय
बहिष्करण
भरिएका
भरिएर
नियोगको
अनुकूलता
परिचालनको
सोसाइटीको
सक्नुहुनेछ
हात्तीलाई
जाँदैछन्
निषेधाज्ञामा
ट्रान्सफर्म
मधेशका
मधुमेहको
बडाहाकिम
बालीमा
विपक्षीलाई
काण्डको
स्विस
स्विकार्य
स्विमिङ
वर्षभित्रमा
सङ्घसंस्थाको
महत्त्वको
हाइस्कूल
##शिलता
काठमण
प्रतिकूलता
प्रतिकूलताका
स्वामित्वको
स्वतःस्फूर्त
लोडअन
सञ्चारकर्मीसँग
रक्तचापको
मर्यादाको
मर्यादामा
सङगठन
धनगढीका
आईसीआई
टुंग्याउन
पद्मस
सनात
##प्रदेशमा
इन्टरनेसन
काभ्रेपलाञ्चोकका
अंगरक्षक
डडेल्धुराका
कोठाबाट
चाँडोभन्दा
निमोनियाबाट
हेलचेक्र
करिडोरको
फुटाउनका
नखुलेका
##एलए
देशबीचका
सल्यानको
सल्यानबाट
घटस्थापनादेखि
परम्परानुसार
बडले
सवैभन्दा
स्तरबाट
स्वाभिमानी
आइएमएस
चिरेर
सिलसिला
दैनिकीमा
पुनर्गठनका
केदारनाथ
नियुक्तीबारे
आपूर्ती
ओम्नीले
श्यामकुमार
सदाचार
हङकङको
प्रमखु
प्रोफ
प्रोसेस
पूर्वमाअोवादी
स्वाधीनताको
सिस्टममा
शिशुमा
शिशुलाई
खेलकुदमन्त्री
मधेसको
माडीका
##ञ्छनीय
पूर्वतयारीमा
भनिएता
सहभागिताको
सिसिएमसीमा
बिरोधमा
बेनीजो
ग्रुपले
बनेपाका
नरोकिएको
नरोक्ने
माटोमा
रघुजी
मासुको
लोकेन्द्रसिंह
नेटवर्कमा
बनार
बिचको
किस्ताको
छुट्टया
छुट्टिएका
शपथग्रहण
ससुर
प्रकृतिमा
पूर्णिमाको
मेलमिलापको
गराउनुभएको
कामपाको
विद्येयकमा
सेनिटाइज
सेनिटाइजरको
आस्थाको
तदर्थ
गुजरात
चारैतिरबाट
वृत्तका
आत्तिएको
बिश्वासको
##दिनुहोला
कुटुम्व
नवीनतम
नलगाड
नबढेको
ब्रह्मा
शिक्षालयको
शिक्षालयमा
अर्घाखाँचीको
अर्घाखाँचीका
इन्ट्रेस्ट
छरप
फलामको
फलामे
बडिगाड
विधायिका
समकक्ष
हिँडडुलमा
तरिकाबाट
पन्थी
पन्छिन
महादेवको
कम्प्युटरमा
टाढाटाढा
डल्फिनको
अलोकप्रिय
हाउसमा
विपत्तिको
उपरथी
आशङ्कामा
घाँटीमा
उपाध्यायका
हेलम्बुलाई
च्यानलहरु
अष्टे
अष्टमी
तानाशाह
मरिन
सिद्धराज
जनकपुरधाममा
परिचयपत्रको
चिनफिङ
भिरालो
प्रबेश
भद्रगोल
नसकेपनि
गजेन्द्रबहादुर
ऋषिलाई
आश्चर्यको
घोरेटो
##िडेन्ट
कुटुम्बहरुको
थन्किएका
दाउपेच
फ्लाइ
सिक्नुपर्ने
असुलउपर
गतिशीलता
थुनिएर
थुनिएपछि
फार्मेसी
इन्डोनेस
नसुनेको
सागरराज
विडारीले
बढोत्तरिको
बेइमानी
मुसर्रफलाई
विसङ्गति
निश्कर्षमा
प्रतिकार्यमा
डेरावाल
तानिएका
वाइसिए
खुलिसकेको
मनोरञ्जनका
हाइड्रोपावर
एफएम
नजीकको
लड्दा
विक्रेता
##पार्लर
बिद्यालय
महान्यायाधीवक्ता
महोत्सवको
लोकमार्गको
आईसीयूमा
पुनस्र्थापनाको
खतरालाई
चराचु
सहचालकको
देशैभरि
आईसोलेसनमा
भीमदत्तनगर
मूल्यमान्यतामा
नचाहेर
हिँड्दा
घनिष्ट
घनिष्टता
बच्चालाई
विरूद्धमा
बानेश्वरस्थित
क्षमापूजा
त्यसबारेमा
खेल्नेछ
औषधोपचार
नेविसंघका
नेविसंघले
बडादशैँको
बडादशैँका
डेमोक्रेसी
अन्तक्र्रियामा
उर्ला
घरायसि
##ागाउँका
काठमाण्डौं
उत्तेजित
उत्तेजक
सुझाबलाई
बिक्रीको
फुट्दैन
चाडबाडमा
प्रतिष्पर्धाबाट
नअपनाउँदा
सोलारको
जोगाएको
बाँसबारी
फैसलालाई
सञ्चारगृहका
चापागाईंले
चापागाईँले
मोडालिटीबारे
अचम्मित
मठमन्दिरमा
आपतकालिन
कनकासुन्दरी
कनकमणि
सान्दर्भिकता
कार्यविभा
तोकिएभन्दा
जन्मकैद
राजावादीहरु
अप्रत्यक्षरुपमा
गाँउपालिकाका
भालुवाङमा
लखनउ
प्रभाकर
पुतलीबजार
कुरुम्बा
सङ्खुवासभाका
मिथुन
ट्विटरमार्फत
राजपत्राङ्कित
उभ्याउन
पम्पिङ
प्र्रति
हुनसक्छन्
[...]
